<unk>	0
<pad>	0
<s>	0
</s>	0
▁t	-0
he	-1
▁a	-2
ou	-3
▁s	-4
in	-5
▁m	-6
▁w	-7
re	-8
ha	-9
nd	-10
▁the	-11
▁b	-12
is	-13
▁I	-14
▁y	-15
or	-16
on	-17
ve	-18
ll	-19
▁you	-20
▁f	-21
▁d	-22
it	-23
▁c	-24
▁l	-25
▁to	-26
er	-27
es	-28
ing	-29
▁o	-30
hat	-31
▁n	-32
▁h	-33
en	-34
▁and	-35
▁he	-36
▁p	-37
ea	-38
▁th	-39
▁g	-40
om	-41
an	-42
ow	-43
ed	-44
▁of	-45
st	-46
▁T	-47
ot	-48
▁be	-49
▁ha	-50
▁my	-51
se	-52
▁in	-53
ar	-54
▁A	-55
at	-56
et	-57
▁W	-58
ay	-59
▁that	-60
ld	-61
▁me	-62
im	-63
le	-64
ut	-65
ce	-66
▁is	-67
ir	-68
ke	-69
gh	-70
▁for	-71
▁your	-72
ill	-73
oo	-74
▁it	-75
ith	-76
▁u	-77
ch	-78
▁e	-79
▁on	-80
▁not	-81
id	-82
▁with	-83
▁H	-84
▁we	-85
as	-86
▁k	-87
ome	-88
▁S	-89
▁li	-90
ly	-91
ri	-92
ght	-93
▁as	-94
ent	-95
ad	-96
▁st	-97
▁re	-98
▁have	-99
her	-100
ver	-101
▁this	-102
▁B	-103
▁him	-104
▁M	-105
ra	-106
▁do	-107
ould	-108
ear	-109
our	-110
▁And	-111
al	-112
▁his	-113
▁so	-114
▁wh	-115
ord	-116
▁O	-117
▁her	-118
▁The	-119
ur	-120
ore	-121
▁will	-122
ood	-123
if	-124
th	-125
ck	-126
▁an	-127
ro	-128
▁G	-129
▁Y	-130
am	-131
▁thou	-132
ess	-133
ell	-134
▁C	-135
ain	-136
▁lo	-137
ee	-138
ake	-139
▁are	-140
us	-141
out	-142
est	-143
▁L	-144
▁all	-145
il	-146
▁N	-147
ion	-148
and	-149
ru	-150
▁go	-151
▁su	-152
▁no	-153
ive	-154
rom	-155
▁sh	-156
ter	-157
one	-158
▁kn	-159
▁can	-160
▁[	-161
ct	-162
▁but	-163
ant	-164
han	-165
ge	-166
ust	-167
▁she	-168
▁ne	-169
▁F	-170
▁D	-171
ight	-172
▁what	-173
ven	-174
▁sp	-175
▁by	-176
ul	-177
▁P	-178
▁man	-179
end	-180
▁at	-181
▁What	-182
▁was	-183
sel	-184
all	-185
▁up	-186
ast	-187
▁from	-188
▁love	-189
▁j	-190
▁good	-191
ic	-192
▁He	-193
nt	-194
▁if	-195
▁would	-196
▁com	-197
▁whe	-198
ble	-199
ous	-200
▁like	-201
ry	-202
▁Wh	-203
▁pl	-204
ard	-205
▁But	-206
▁sha	-207
au	-208
▁now	-209
▁lord	-210
▁de	-211
▁You	-212
▁Th	-213
▁say	-214
res	-215
pp	-216
art	-217
ind	-218
▁v	-219
ong	-220
▁our	-221
qu	-222
▁here	-223
▁thy	-224
▁see	-225
▁know	-226
self	-227
▁who	-228
ie	-229
▁R	-230
▁am	-231
▁sir	-232
▁them	-233
▁fa	-234
ink	-235
▁they	-236
▁or	-237
row	-238
ine	-239
▁sw	-240
▁wor	-241
▁than	-242
▁more	-243
▁If	-244
io	-245
ook	-246
▁con	-247
▁let	-248
ep	-249
ers	-250
▁bl	-251
▁thee	-252
▁then	-253
em	-254
ich	-255
▁dea	-256
od	-257
ate	-258
▁pr	-259
▁My	-260
▁out	-261
are	-262
very	-263
▁there	-264
fe	-265
▁us	-266
▁ab	-267
▁come	-268
▁To	-269
▁one	-270
▁some	-271
▁That	-272
▁were	-273
ish	-274
▁their	-275
▁E	-276
▁sa	-277
▁br	-278
red	-279
ist	-280
▁ar	-281
ort	-282
ame	-283
ather	-284
op	-285
▁make	-286
▁un	-287
other	-288
▁al	-289
▁po	-290
▁any	-291
reat	-292
ak	-293
▁when	-294
▁too	-295
▁It	-296
▁give	-297
▁shall	-298
▁well	-299
▁ag	-300
un	-301
ound	-302
To	-303
▁king	-304
▁Oh	-305
▁did	-306
▁qu	-307
▁r	-308
ig	-309
▁ex	-310
eak	-311
▁should	-312
▁has	-313
ure	-314
▁how	-315
ide	-316
ack	-317
▁tell	-318
▁think	-319
▁mo	-320
▁mad	-321
ime	-322
oth	-323
el	-324
▁had	-325
ol	-326
pt	-327
▁en	-328
ough	-329
fore	-330
▁Whe	-331
▁hand	-332
ady	-333
▁look	-334
▁hat	-335
▁must	-336
ice	-337
ful	-338
▁pro	-339
▁about	-340
ag	-341
ince	-342
▁For	-343
▁fri	-344
ves	-345
▁again	-346
um	-347
ng	-348
ue	-349
▁tru	-350
▁may	-351
ther	-352
ity	-353
way	-354
hing	-355
ass	-356
▁'	-357
uch	-358
ose	-359
ies	-360
▁No	-361
▁which	-362
▁God	-363
▁Why	-364
ness	-365
old	-366
▁hon	-367
entle	-368
▁take	-369
▁father	-370
ings	-371
▁Ill	-372
▁just	-373
▁been	-374
▁lea	-375
▁time	-376
▁cl	-377
een	-378
hi	-379
▁friend	-380
wn	-381
▁heart	-382
▁men	-383
▁never	-384
▁such	-385
▁speak	-386
oy	-387
to	-388
own	-389
ause	-390
▁off	-391
▁much	-392
ence	-393
▁tw	-394
ise	-395
▁gentle	-396
▁ro	-397
▁ri	-398
▁How	-399
▁hea	-400
▁We	-401
urn	-402
▁af	-403
aught	-404
▁bet	-405
per	-406
ool	-407
▁these	-408
▁dis	-409
▁don	-410
▁mea	-411
ease	-412
▁ser	-413
▁gra	-414
▁mar	-415
▁fl	-416
▁ear	-417
orn	-418
▁even	-419
ick	-420
▁Come	-421
oul	-422
▁day	-423
ci	-424
▁get	-425
ation	-426
os	-427
▁bea	-428
▁son	-429
▁could	-430
itt	-431
▁death	-432
ond	-433
▁This	-434
age	-435
eet	-436
ave	-437
ef	-438
▁Sir	-439
▁As	-440
▁bec	-441
▁ey	-442
▁want	-443
▁So	-444
ving	-445
▁other	-446
▁where	-447
ree	-448
ress	-449
▁away	-450
ward	-451
▁life	-452
▁way	-453
▁hear	-454
▁every	-455
▁K	-456
ull	-457
▁ke	-458
ect	-459
▁She	-460
ment	-461
▁own	-462
▁Now	-463
▁des	-464
▁call	-465
▁upon	-466
▁word	-467
ile	-468
ran	-469
▁yet	-470
▁fool	-471
▁only	-472
man	-473
▁Here	-474
ts	-475
ife	-476
ire	-477
ears	-478
▁Well	-479
▁heaven	-480
aughter	-481
▁Is	-482
▁beg	-483
▁back	-484
▁happ	-485
hed	-486
▁true	-487
▁V	-488
▁wom	-489
▁dead	-490
▁Let	-491
▁hath	-492
lp	-493
▁cha	-494
▁down	-495
▁before	-496
able	-497
▁J	-498
▁ea	-499
ab	-500
▁great	-501
ign	-502
ount	-503
▁blood	-504
▁"	-505
▁done	-506
▁mine	-507
▁long	-508
li	-509
▁kill	-510
▁made	-511
pl	-512
▁wr	-513
▁Do	-514
▁ad	-515
▁ru	-516
▁most	-517
rown	-518
▁sc	-519
alk	-520
▁pre	-521
ved	-522
aster	-523
▁lady	-524
ian	-525
ite	-526
▁Go	-527
▁fo	-528
▁mean	-529
▁very	-530
▁im	-531
▁Be	-532
thing	-533
▁keep	-534
▁There	-535
▁daughter	-536
▁se	-537
▁Where	-538
rd	-539
orrow	-540
ber	-541
▁In	-542
ither	-543
▁sweet	-544
▁old	-545
▁night	-546
▁help	-547
▁noble	-548
▁world	-549
▁Your	-550
IO	-551
ty	-552
vil	-553
ally	-554
▁sea	-555
▁myself	-556
▁nothing	-557
▁comm	-558
▁might	-559
ger	-560
▁new	-561
▁soul	-562
ds	-563
▁ra	-564
▁does	-565
▁ever	-566
ower	-567
ouse	-568
▁won	-569
ss	-570
▁With	-571
nce	-572
ors	-573
▁wife	-574
▁tr	-575
▁Then	-576
▁name	-577
ap	-578
ms	-579
▁because	-580
iss	-581
cc	-582
igh	-583
ff	-584
▁right	-585
▁Who	-586
▁per	-587
eed	-588
▁into	-589
▁comes	-590
▁Good	-591
▁Rome	-592
▁sl	-593
▁better	-594
▁serv	-595
hes	-596
▁live	-597
▁part	-598
▁gu	-599
▁over	-600
ance	-601
▁war	-602
atter	-603
nder	-604
irst	-605
▁Yes	-606
▁Lord	-607
▁eyes	-608
▁sm	-609
omet	-610
▁brother	-611
men	-612
▁rep	-613
less	-614
akes	-615
▁unt	-616
▁ask	-617
▁hus	-618
ittle	-619
▁friends	-620
eel	-621
▁rem	-622
▁said	-623
▁el	-624
ces	-625
▁poor	-626
▁leave	-627
▁thought	-628
band	-629
▁chi	-630
▁still	-631
▁app	-632
▁sle	-633
▁two	-634
not	-635
the	-636
▁hop	-637
▁put	-638
▁head	-639
▁lie	-640
▁When	-641
▁being	-642
▁since	-643
▁find	-644
▁kind	-645
▁little	-646
ps	-647
▁em	-648
▁fair	-649
▁husband	-650
ace	-651
eal	-652
ost	-653
▁both	-654
▁die	-655
▁beaut	-656
by	-657
▁child	-658
▁stand	-659
uck	-660
ried	-661
▁bel	-662
▁young	-663
▁himself	-664
▁St	-665
oney	-666
▁Thou	-667
▁cont	-668
▁bring	-669
▁U	-670
▁Or	-671
▁art	-672
▁else	-673
▁cour	-674
▁house	-675
▁mother	-676
illain	-677
▁those	-678
▁thing	-679
eas	-680
ason	-681
▁need	-682
ens	-683
llow	-684
▁cannot	-685
▁cur	-686
assio	-687
▁pray	-688
▁show	-689
ew	-690
ud	-691
▁Cassio	-692
aw	-693
ied	-694
▁act	-695
▁They	-696
▁money	-697
ious	-698
▁swear	-699
ia	-700
les	-701
▁fear	-702
▁honest	-703
▁somet	-704
▁enough	-705
▁master	-706
ac	-707
▁best	-708
▁Of	-709
ins	-710
▁care	-711
▁first	-712
▁woman	-713
▁By	-714
▁Pl	-715
land	-716
▁res	-717
ks	-718
ath	-719
urd	-720
▁ch	-721
▁end	-722
ock	-723
atch	-724
come	-725
▁face	-726
▁please	-727
rew	-728
iet	-729
ting	-730
ions	-731
▁queen	-732
▁nor	-733
▁wit	-734
▁gr	-735
imon	-736
▁mist	-737
▁stay	-738
▁gri	-739
▁pres	-740
▁pe	-741
And	-742
▁sleep	-743
▁Mar	-744
▁dear	-745
▁villain	-746
get	-747
uke	-748
ison	-749
▁many	-750
▁yourself	-751
▁sad	-752
▁comp	-753
▁though	-754
▁ho	-755
▁hope	-756
▁talk	-757
ert	-758
▁bre	-759
▁Which	-760
fect	-761
▁going	-762
be	-763
▁Romeo	-764
▁under	-765
▁tra	-766
iness	-767
▁play	-768
ont	-769
ret	-770
▁after	-771
▁mon	-772
▁thr	-773
▁rest	-774
▁co	-775
▁gl	-776
▁bed	-777
▁bear	-778
▁sure	-779
une	-780
▁hast	-781
▁cons	-782
cl	-783
ip	-784
▁against	-785
▁reason	-786
ory	-787
imes	-788
▁boy	-789
▁gone	-790
▁while	-791
▁gentleman	-792
EN	-793
▁bad	-794
▁wish	-795
▁wrong	-796
▁Al	-797
▁turn	-798
▁earth	-799
▁che	-800
ought	-801
▁mind	-802
me	-803
▁place	-804
for	-805
▁hands	-806
▁heard	-807
bl	-808
yal	-809
sw	-810
▁peop	-811
▁told	-812
▁Timon	-813
▁things	-814
▁Ay	-815
eace	-816
ever	-817
▁devil	-818
▁something	-819
▁bra	-820
erc	-821
▁ca	-822
cent	-823
▁acc	-824
ark	-825
fort	-826
▁ent	-827
▁count	-828
▁words	-829
▁servant	-830
▁chan	-831
▁ma	-832
▁letter	-833
▁people	-834
icha	-835
▁tri	-836
ellow	-837
ieve	-838
▁His	-839
▁imp	-840
▁matter	-841
▁ban	-842
▁nat	-843
▁makes	-844
ren	-845
orse	-846
pect	-847
▁gods	-848
▁hour	-849
▁light	-850
▁without	-851
As	-852
med	-853
oud	-854
▁ind	-855
▁pur	-856
▁sword	-857
ove	-858
▁May	-859
▁Pr	-860
▁set	-861
▁vir	-862
▁fort	-863
▁att	-864
▁anything	-865
ne	-866
▁wa	-867
iful	-868
▁dre	-869
▁Will	-870
▁conf	-871
ten	-872
▁happy	-873
▁follow	-874
Tis	-875
▁fight	-876
▁prom	-877
▁Lu	-878
▁came	-879
its	-880
▁news	-881
ons	-882
▁Nor	-883
▁cry	-884
▁An	-885
▁pri	-886
▁feel	-887
▁gold	-888
▁pass	-889
▁sent	-890
iz	-891
ered	-892
▁power	-893
hip	-894
▁pa	-895
aint	-896
▁All	-897
ere	-898
▁last	-899
ichard	-900
▁Ty	-901
bt	-902
▁why	-903
▁Please	-904
ix	-905
▁jo	-906
▁inst	-907
▁work	-908
▁peace	-909
▁Are	-910
▁enem	-911
▁murd	-912
▁once	-913
▁Richard	-914
TIO	-915
eft	-916
ily	-917
▁Give	-918
▁fall	-919
▁Tell	-920
▁pers	-921
▁bless	-922
ead	-923
int	-924
▁ret	-925
▁thank	-926
▁prince	-927
ged	-928
irl	-929
▁hate	-930
▁tre	-931
▁doth	-932
▁kiss	-933
▁left	-934
AN	-935
ater	-936
sand	-937
▁mis	-938
▁honor	-939
ken	-940
oor	-941
▁bu	-942
▁until	-943
gs	-944
▁use	-945
▁full	-946
▁high	-947
▁tong	-948
▁grief	-949
▁har	-950
cious	-951
▁tears	-952
uth	-953
cept	-954
▁Not	-955
▁ins	-956
▁hell	-957
▁seen	-958
▁send	-959
▁worth	-960
▁op	-961
▁Des	-962
▁dru	-963
aking	-964
▁lords	-965
▁another	-966
▁thousand	-967
▁Did	-968
▁girl	-969
▁hold	-970
▁home	-971
▁same	-972
▁stran	-973
rink	-974
▁wel	-975
▁Look	-976
▁soon	-977
▁sorrow	-978
ati	-979
▁Im	-980
▁bus	-981
led	-982
▁dou	-983
▁hard	-984
▁land	-985
▁breat	-986
▁court	-987
▁cra	-988
▁hum	-989
▁unc	-990
ced	-991
ilt	-992
ceive	-993
▁quick	-994
ona	-995
▁arm	-996
▁dra	-997
att	-998
ning	-999
▁Her	-1000
▁its	-1001
▁sec	-1002
▁sun	-1003
ardon	-1004
▁thus	-1005
selves	-1006
▁madam	-1007
▁remem	-1008
▁ass	-1009
▁cou	-1010
▁lost	-1011
eep	-1012
ier	-1013
▁dream	-1014
▁mistress	-1015
The	-1016
ief	-1017
usic	-1018
▁Have	-1019
roke	-1020
▁joy	-1021
▁hang	-1022
▁wind	-1023
▁le	-1024
ster	-1025
isten	-1026
ousin	-1027
▁weep	-1028
▁whom	-1029
▁crown	-1030
bed	-1031
day	-1032
▁dan	-1033
▁believe	-1034
ON	-1035
▁spir	-1036
▁pleas	-1037
▁comfort	-1038
ener	-1039
▁sub	-1040
▁through	-1041
▁def	-1042
▁saw	-1043
▁tom	-1044
▁char	-1045
▁sing	-1046
▁fellow	-1047
▁adv	-1048
lf	-1049
▁str	-1050
▁stop	-1051
▁royal	-1052
▁indeed	-1053
▁killed	-1054
▁welcome	-1055
ary	-1056
ody	-1057
▁Ed	-1058
ates	-1059
ised	-1060
▁int	-1061
▁none	-1062
▁return	-1063
▁command	-1064
ER	-1065
ft	-1066
CEN	-1067
ned	-1068
ject	-1069
CENTIO	-1070
ertain	-1071
▁really	-1072
▁tongue	-1073
▁Sha	-1074
▁far	-1075
▁drink	-1076
▁three	-1077
▁beautiful	-1078
▁bo	-1079
ible	-1080
ides	-1081
▁grace	-1082
▁marry	-1083
ars	-1084
ute	-1085
well	-1086
ition	-1087
▁free	-1088
▁music	-1089
▁Edward	-1090
▁sk	-1091
swer	-1092
▁born	-1093
▁present	-1094
race	-1095
▁Mad	-1096
▁fal	-1097
▁looks	-1098
ury	-1099
ished	-1100
ail	-1101
alt	-1102
eech	-1103
▁hur	-1104
▁prove	-1105
▁shame	-1106
ets	-1107
▁eye	-1108
▁King	-1109
▁found	-1110
▁coming	-1111
▁car	-1112
ister	-1113
▁yours	-1114
eth	-1115
▁fea	-1116
▁Than	-1117
▁deed	-1118
▁virt	-1119
▁truth	-1120
ild	-1121
ring	-1122
▁gave	-1123
▁sound	-1124
vy	-1125
ach	-1126
dem	-1127
▁cr	-1128
oice	-1129
▁Don	-1130
ready	-1131
▁each	-1132
▁fore	-1133
▁whose	-1134
ns	-1135
▁gre	-1136
venge	-1137
▁pret	-1138
▁years	-1139
▁already	-1140
▁gentlemen	-1141
He	-1142
▁hu	-1143
vers	-1144
▁gener	-1145
▁loves	-1146
▁answer	-1147
▁business	-1148
any	-1149
gry	-1150
ult	-1151
▁aw	-1152
ches	-1153
▁Nay	-1154
▁meet	-1155
▁wear	-1156
gether	-1157
▁false	-1158
ched	-1159
raid	-1160
▁rec	-1161
▁forg	-1162
▁person	-1163
▁Desdem	-1164
▁rather	-1165
▁everything	-1166
▁bit	-1167
▁lies	-1168
▁pati	-1169
▁seem	-1170
▁faith	-1171
▁grave	-1172
▁cousin	-1173
▁nature	-1174
IN	-1175
xt	-1176
▁LU	-1177
▁bid	-1178
▁law	-1179
▁Duke	-1180
▁Kate	-1181
▁country	-1182
."	-1183
ined	-1184
▁Thy	-1185
▁sit	-1186
▁drun	-1187
▁read	-1188
▁supp	-1189
▁thoughts	-1190
bs	-1191
lt	-1192
ago	-1193
itor	-1194
▁pay	-1195
▁says	-1196
▁doing	-1197
ense	-1198
▁Tyb	-1199
▁dep	-1200
▁try	-1201
▁win	-1202
▁Take	-1203
▁Desdemona	-1204
up	-1205
air	-1206
rant	-1207
▁dam	-1208
▁foul	-1209
▁less	-1210
▁ship	-1211
onight	-1212
▁horse	-1213
▁afraid	-1214
▁fortune	-1215
▁bes	-1216
▁Even	-1217
▁Iago	-1218
▁fire	-1219
▁pain	-1220
▁uncle	-1221
▁strong	-1222
▁remember	-1223
▁Sh	-1224
▁ord	-1225
▁Madam	-1226
▁lives	-1227
▁trust	-1228
▁LUCENTIO	-1229
llo	-1230
ows	-1231
tis	-1232
▁wo	-1233
vere	-1234
▁thine	-1235
ying	-1236
▁Jul	-1237
▁sil	-1238
▁cause	-1239
▁doubt	-1240
LI	-1241
Wh	-1242
ner	-1243
ouch	-1244
outh	-1245
▁beh	-1246
▁dog	-1247
▁Moor	-1248
▁grow	-1249
▁mess	-1250
▁stri	-1251
▁break	-1252
▁beauty	-1253
▁pardon	-1254
ield	-1255
▁del	-1256
▁body	-1257
▁tonight	-1258
.[	-1259
no	-1260
so	-1261
wh	-1262
▁id	-1263
▁bir	-1264
▁got	-1265
▁days	-1266
▁dost	-1267
▁times	-1268
▁worse	-1269
▁honour	-1270
▁listen	-1271
iv	-1272
pon	-1273
▁ac	-1274
▁pra	-1275
▁sur	-1276
▁tis	-1277
ering	-1278
▁stor	-1279
▁together	-1280
rel	-1281
enty	-1282
▁fam	-1283
▁alone	-1284
▁.	-1285
ery	-1286
▁Cl	-1287
urse	-1288
▁Fare	-1289
▁morn	-1290
dd	-1291
▁Sp	-1292
▁Can	-1293
▁Yet	-1294
▁den	-1295
▁stra	-1296
centio	-1297
▁water	-1298
▁poison	-1299
▁strange	-1300
▁Therefore	-1301
most	-1302
▁Eng	-1303
▁bab	-1304
riage	-1305
▁Shall	-1306
▁means	-1307
▁youth	-1308
gu	-1309
ict	-1310
vol	-1311
ford	-1312
▁hes	-1313
▁Alas	-1314
▁pity	-1315
▁angry	-1316
▁happen	-1317
▁children	-1318
dom	-1319
▁Per	-1320
▁air	-1321
▁maid	-1322
▁open	-1323
▁ready	-1324
▁hither	-1325
▁someone	-1326
use	-1327
▁Ha	-1328
▁sin	-1329
▁stre	-1330
▁forth	-1331
▁spirit	-1332
ale	-1333
▁From	-1334
▁Some	-1335
▁dare	-1336
▁disc	-1337
▁sake	-1338
▁sick	-1339
▁sold	-1340
▁drown	-1341
▁within	-1342
uty	-1343
▁Un	-1344
ling	-1345
ully	-1346
press	-1347
▁wait	-1348
▁Would	-1349
pe	-1350
cess	-1351
ures	-1352
▁didn	-1353
▁poss	-1354
▁quiet	-1355
pr	-1356
ork	-1357
esty	-1358
ured	-1359
used	-1360
▁cut	-1361
▁dark	-1362
▁holy	-1363
▁till	-1364
▁women	-1365
▁around	-1366
▁married	-1367
ior	-1368
ents	-1369
broke	-1370
▁duke	-1371
▁walk	-1372
▁knows	-1373
▁breath	-1374
▁brought	-1375
▁Get	-1376
▁Pet	-1377
▁vis	-1378
▁dist	-1379
▁These	-1380
▁deser	-1381
▁doesn	-1382
▁danger	-1383
▁gracious	-1384
mp	-1385
ys	-1386
ial	-1387
ius	-1388
▁At	-1389
ross	-1390
▁betw	-1391
▁state	-1392
▁watch	-1393
▁called	-1394
▁knight	-1395
els	-1396
ray	-1397
That	-1398
▁opp	-1399
▁pun	-1400
▁cold	-1401
▁near	-1402
▁requ	-1403
▁suff	-1404
▁seems	-1405
▁Tybalt	-1406
▁banish	-1407
▁become	-1408
▁ground	-1409
▁promise	-1410
▁revenge	-1411
▁subject	-1412
▁Farewell	-1413
iece	-1414
▁One	-1415
▁spo	-1416
chief	-1417
▁coun	-1418
▁compl	-1419
▁morning	-1420
▁marriage	-1421
▁tomorrow	-1422
ash	-1423
ging	-1424
ways	-1425
▁Our	-1426
▁bri	-1427
▁rel	-1428
▁merc	-1429
▁wise	-1430
ift	-1431
ush	-1432
▁On	-1433
▁Bol	-1434
▁Cam	-1435
▁tem	-1436
▁half	-1437
▁late	-1438
▁rich	-1439
▁alive	-1440
▁given	-1441
▁mouth	-1442
▁bloody	-1443
▁quickly	-1444
▁therefore	-1445
ated	-1446
ianc	-1447
▁ter	-1448
▁woo	-1449
stand	-1450
▁clot	-1451
▁next	-1452
▁past	-1453
▁Boling	-1454
▁enemies	-1455
ague	-1456
▁inc	-1457
ments	-1458
▁unto	-1459
▁close	-1460
▁proud	-1461
▁monster	-1462
▁Bolingbroke	-1463
▁Ch	-1464
pped	-1465
▁lay	-1466
▁min	-1467
▁val	-1468
aside	-1469
rible	-1470
▁ears	-1471
▁wine	-1472
▁sight	-1473
▁everyone	-1474
hee	-1475
ker	-1476
ple	-1477
cked	-1478
▁Othe	-1479
▁beha	-1480
▁duty	-1481
▁prin	-1482
▁sail	-1483
▁loved	-1484
▁touch	-1485
▁toward	-1486
az	-1487
anc	-1488
ots	-1489
▁age	-1490
▁ill	-1491
▁tea	-1492
▁book	-1493
▁deep	-1494
▁Though	-1495
▁wouldn	-1496
▁service	-1497
alm	-1498
▁Gre	-1499
▁draw	-1500
▁trou	-1501
▁Bianc	-1502
▁twenty	-1503
▁confess	-1504
▁foolish	-1505
ses	-1506
▁Ah	-1507
ired	-1508
osed	-1509
▁cor	-1510
▁eat	-1511
▁run	-1512
fully	-1513
ealous	-1514
▁appro	-1515
▁curse	-1516
▁drunk	-1517
▁feast	-1518
▁almost	-1519
▁always	-1520
▁murder	-1521
▁clothes	-1522
▁traitor	-1523
vel	-1524
▁arms	-1525
▁dont	-1526
▁wond	-1527
▁Juliet	-1528
▁between	-1529
ham	-1530
kes	-1531
mio	-1532
ship	-1533
uous	-1534
ester	-1535
iving	-1536
▁lear	-1537
arence	-1538
▁heavy	-1539
▁story	-1540
▁voice	-1541
▁anyone	-1542
▁company	-1543
▁herself	-1544
Th	-1545
▁Ap	-1546
ives	-1547
▁sat	-1548
ction	-1549
▁cast	-1550
▁cond	-1551
▁knew	-1552
▁hearts	-1553
▁itself	-1554
▁jealous	-1555
▁See	-1556
▁fav	-1557
▁met	-1558
▁prof	-1559
▁hence	-1560
▁island	-1561
▁Clarence	-1562
▁servants	-1563
ib	-1564
ina	-1565
mon	-1566
here	-1567
illo	-1568
▁Say	-1569
cause	-1570
ithee	-1571
▁York	-1572
▁tend	-1573
▁Bianca	-1574
ott	-1575
aken	-1576
▁wea	-1577
attle	-1578
▁desp	-1579
▁exce	-1580
▁wall	-1581
▁saying	-1582
▁sister	-1583
kerchief	-1584
▁Othello	-1585
ues	-1586
ants	-1587
like	-1588
pose	-1589
rest	-1590
vent	-1591
▁Ant	-1592
▁dev	-1593
▁ran	-1594
▁reg	-1595
owers	-1596
▁luck	-1597
▁wast	-1598
▁enemy	-1599
▁throw	-1600
▁attend	-1601
▁having	-1602
ua	-1603
unt	-1604
▁lad	-1605
volio	-1606
▁bold	-1607
▁inno	-1608
▁storm	-1609
▁whole	-1610
▁course	-1611
▁Camillo	-1612
▁England	-1613
bye	-1614
ike	-1615
sed	-1616
via	-1617
ones	-1618
▁god	-1619
ealth	-1620
▁dest	-1621
▁evil	-1622
▁sign	-1623
▁black	-1624
▁start	-1625
▁handkerchief	-1626
zy	-1627
But	-1628
iol	-1629
orry	-1630
uten	-1631
▁Pro	-1632
▁lau	-1633
▁ref	-1634
▁heal	-1635
▁lips	-1636
▁prot	-1637
▁sons	-1638
▁respect	-1639
ec	-1640
isf	-1641
▁inf	-1642
▁wed	-1643
jesty	-1644
▁Hast	-1645
▁brave	-1646
▁hours	-1647
▁least	-1648
▁shalt	-1649
▁worst	-1650
utation	-1651
▁instru	-1652
LO	-1653
oof	-1654
ries	-1655
▁ere	-1656
▁plan	-1657
▁side	-1658
▁Grace	-1659
▁creat	-1660
ES	-1661
als	-1662
apt	-1663
oose	-1664
ounds	-1665
▁died	-1666
▁hide	-1667
▁loss	-1668
▁wilt	-1669
▁Every	-1670
utenant	-1671
▁change	-1672
▁prison	-1673
▁worthy	-1674
▁thyself	-1675
ase	-1676
▁Sw	-1677
▁ow	-1678
cius	-1679
head	-1680
▁bar	-1681
▁ext	-1682
▁jew	-1683
llent	-1684
ually	-1685
▁begg	-1686
▁goes	-1687
▁hurt	-1688
▁lose	-1689
▁mast	-1690
▁ring	-1691
▁save	-1692
ucking	-1693
▁sorry	-1694
▁wants	-1695
▁youre	-1696
▁Lucius	-1697
▁forget	-1698
▁pretty	-1699
▁straight	-1700
▁themselves	-1701
▁i	-1702
bey	-1703
pare	-1704
ities	-1705
▁also	-1706
▁fill	-1707
▁oath	-1708
▁weak	-1709
rewell	-1710
▁shore	-1711
▁farewell	-1712
gue	-1713
ump	-1714
ding	-1715
resh	-1716
▁exc	-1717
▁rid	-1718
▁sus	-1719
▁Make	-1720
▁Tran	-1721
▁Were	-1722
▁burn	-1723
▁disp	-1724
▁foot	-1725
▁form	-1726
▁glad	-1727
▁heir	-1728
▁move	-1729
▁wret	-1730
▁emper	-1731
▁often	-1732
▁short	-1733
▁battle	-1734
▁either	-1735
▁Bucking	-1736
▁general	-1737
vo	-1738
act	-1739
ize	-1740
joy	-1741
ked	-1742
rist	-1743
▁adm	-1744
oward	-1745
▁More	-1746
▁Toby	-1747
▁Upon	-1748
▁moon	-1749
elcome	-1750
though	-1751
▁along	-1752
▁birth	-1753
▁gover	-1754
▁kings	-1755
▁longer	-1756
▁perfor	-1757
▁satisf	-1758
▁certain	-1759
▁Lucentio	-1760
▁Buckingham	-1761
ade	-1762
cri	-1763
▁dec	-1764
▁dro	-1765
▁fit	-1766
▁Hath	-1767
▁song	-1768
▁crazy	-1769
▁gives	-1770
▁order	-1771
▁point	-1772
▁serve	-1773
▁whore	-1774
▁report	-1775
▁beseech	-1776
For	-1777
chio	-1778
ient	-1779
iffe	-1780
oder	-1781
rent	-1782
urch	-1783
▁jud	-1784
icles	-1785
▁Rich	-1786
▁food	-1787
▁four	-1788
▁took	-1789
▁used	-1790
ruchio	-1791
▁beast	-1792
▁offer	-1793
▁small	-1794
▁behind	-1795
▁sovere	-1796
▁perfect	-1797
▁talking	-1798
▁virtuous	-1799
de	-1800
aunt	-1801
▁Was	-1802
▁aff	-1803
▁lam	-1804
icked	-1805
▁Just	-1806
▁beat	-1807
▁real	-1808
▁safe	-1809
▁Since	-1810
▁health	-1811
▁living	-1812
▁tender	-1813
▁lieutenant	-1814
▁reputation	-1815
ls	-1816
ub	-1817
aim	-1818
ges	-1819
uff	-1820
ura	-1821
▁CA	-1822
▁Hes	-1823
▁emb	-1824
▁mer	-1825
▁woe	-1826
▁Mont	-1827
▁city	-1828
▁door	-1829
▁lead	-1830
▁viol	-1831
▁laugh	-1832
▁souls	-1833
▁today	-1834
alvolio	-1835
▁loving	-1836
▁wonder	-1837
▁Petruchio	-1838
AR	-1839
ats	-1840
cks	-1841
ided	-1842
▁Ven	-1843
▁fly	-1844
▁Most	-1845
▁forb	-1846
▁imag	-1847
▁room	-1848
▁suit	-1849
▁aside	-1850
▁known	-1851
▁common	-1852
▁making	-1853
▁offend	-1854
▁wealth	-1855
▁Welcome	-1856
▁emperor	-1857
▁understand	-1858
ape	-1859
bly	-1860
gin	-1861
ices	-1862
iers	-1863
ilty	-1864
unes	-1865
▁hor	-1866
▁low	-1867
itted	-1868
▁deli	-1869
▁lust	-1870
▁asked	-1871
▁clear	-1872
▁flatter	-1873
▁kingdom	-1874
▁receive	-1875
eat	-1876
erer	-1877
sper	-1878
▁big	-1879
▁bro	-1880
isper	-1881
rance	-1882
▁Athe	-1883
▁pale	-1884
▁heads	-1885
▁knock	-1886
▁slave	-1887
▁teach	-1888
▁Tranio	-1889
▁affect	-1890
▁defend	-1891
▁Because	-1892
▁Malvolio	-1893
▁pleasure	-1894
▁es	-1895
What	-1896
ires	-1897
king	-1898
ples	-1899
rous	-1900
▁eas	-1901
▁arri	-1902
▁fast	-1903
▁Speak	-1904
▁anger	-1905
▁fresh	-1906
▁mercy	-1907
▁coward	-1908
▁forgot	-1909
▁govern	-1910
▁others	-1911
▁thanks	-1912
▁flowers	-1913
▁patience	-1914
elf	-1915
idd	-1916
lly	-1917
▁sn	-1918
cher	-1919
▁cru	-1920
▁din	-1921
▁div	-1922
▁gro	-1923
▁und	-1924
▁bound	-1925
▁carry	-1926
▁visit	-1927
▁Christ	-1928
▁bitter	-1929
▁priest	-1930
▁forever	-1931
▁forgive	-1932
▁masters	-1933
▁patient	-1934
▁purpose	-1935
▁whatever	-1936
▁sovereign	-1937
sh	-1938
▁Ex	-1939
enes	-1940
llen	-1941
oura	-1942
▁isn	-1943
▁sum	-1944
▁tor	-1945
ortal	-1946
▁capt	-1947
cience	-1948
▁loyal	-1949
▁accept	-1950
▁crying	-1951
▁throne	-1952
▁heavens	-1953
▁majesty	-1954
▁Hastings	-1955
▁Hereford	-1956
aid	-1957
▁ty	-1958
ione	-1959
mond	-1960
pher	-1961
rate	-1962
read	-1963
▁Hon	-1964
▁mag	-1965
Aside	-1966
ience	-1967
umber	-1968
▁army	-1969
▁case	-1970
▁fish	-1971
▁legs	-1972
▁quar	-1973
▁Marry	-1974
▁enjoy	-1975
▁favor	-1976
▁thats	-1977
▁Should	-1978
▁church	-1979
▁punish	-1980
▁second	-1981
▁deliver	-1982
▁instead	-1983
▁passion	-1984
▁Richmond	-1985
esh	-1986
hal	-1987
▁du	-1988
▁ph	-1989
eath	-1990
▁Ind	-1991
▁fur	-1992
▁wis	-1993
mione	-1994
▁Bapt	-1995
▁grie	-1996
▁harm	-1997
▁Nurse	-1998
▁cheer	-1999
▁kneel	-2000
▁plain	-2001
▁sense	-2002
▁guilty	-2003
▁Baptist	-2004
▁looking	-2005
▁witness	-2006
▁Pericles	-2007
▁innocent	-2008
▁excellent	-2009
of	-2010
ans	-2011
ean	-2012
fol	-2013
ines	-2014
oved	-2015
over	-2016
owed	-2017
▁Its	-2018
▁bos	-2019
▁deny	-2020
▁fine	-2021
▁lack	-2022
▁obed	-2023
▁self	-2024
▁town	-2025
▁wont	-2026
ations	-2027
▁deeds	-2028
▁greet	-2029
▁quest	-2030
▁Prince	-2031
▁appear	-2032
▁charge	-2033
▁inside	-2034
▁content	-2035
▁warrant	-2036
▁dangerous	-2037
ET	-2038
ley	-2039
▁Fl	-2040
▁Gl	-2041
folk	-2042
ract	-2043
ately	-2044
▁Like	-2045
▁dish	-2046
▁hair	-2047
▁mark	-2048
▁obey	-2049
▁prop	-2050
oderig	-2051
ressed	-2052
▁begin	-2053
▁grand	-2054
▁liege	-2055
▁desire	-2056
▁except	-2057
▁import	-2058
▁mighty	-2059
▁Norfolk	-2060
▁Roderig	-2061
▁brothers	-2062
ERD	-2063
ips	-2064
lic	-2065
ouc	-2066
ains	-2067
aris	-2068
dden	-2069
ello	-2070
ners	-2071
that	-2072
▁ten	-2073
▁Sign	-2074
▁tale	-2075
ortens	-2076
▁secret	-2077
▁speech	-2078
▁strike	-2079
▁shepher	-2080
▁Hermione	-2081
You	-2082
ete	-2083
hem	-2084
▁Cy	-2085
▁ve	-2086
ceed	-2087
fter	-2088
gain	-2089
ider	-2090
idow	-2091
rust	-2092
▁det	-2093
▁ven	-2094
▁Call	-2095
▁Lady	-2096
▁fing	-2097
▁kept	-2098
▁wild	-2099
othing	-2100
▁haven	-2101
▁inter	-2102
▁spoke	-2103
▁steal	-2104
▁taken	-2105
▁reward	-2106
ortensio	-2107
▁request	-2108
▁Roderigo	-2109
▁banished	-2110
▁fortunes	-2111
▁conscience	-2112
IC	-2113
hen	-2114
▁pu	-2115
rows	-2116
▁Hey	-2117
▁col	-2118
▁equ	-2119
▁reb	-2120
which	-2121
▁damn	-2122
▁feed	-2123
▁priv	-2124
▁tast	-2125
▁Glouc	-2126
▁Paris	-2127
▁Whats	-2128
▁early	-2129
▁rough	-2130
▁family	-2131
▁looked	-2132
▁proper	-2133
▁sudden	-2134
▁virtue	-2135
▁empress	-2136
▁protect	-2137
▁Hortensio	-2138
ppy	-2139
aith	-2140
etch	-2141
▁Ive	-2142
▁buy	-2143
▁nam	-2144
▁chee	-2145
▁exec	-2146
▁Tower	-2147
▁fault	-2148
▁beggar	-2149
▁chance	-2150
▁entreat	-2151
▁justice	-2152
▁prepare	-2153
▁trouble	-2154
▁Baptista	-2155
▁kindness	-2156
,"	-2157
US	-2158
sue	-2159
ends	-2160
leep	-2161
reed	-2162
▁enc	-2163
▁fun	-2164
▁lab	-2165
▁Merc	-2166
▁fact	-2167
▁shad	-2168
astard	-2169
▁Whose	-2170
▁canst	-2171
▁catch	-2172
▁worry	-2173
▁Athens	-2174
▁virgin	-2175
▁shepherd	-2176
AND	-2177
ait	-2178
irm	-2179
rer	-2180
ron	-2181
▁Am	-2182
kind	-2183
olix	-2184
ored	-2185
▁bas	-2186
▁est	-2187
▁exp	-2188
▁unf	-2189
oment	-2190
▁deal	-2191
▁dire	-2192
▁empt	-2193
▁bride	-2194
▁dance	-2195
▁didst	-2196
▁magic	-2197
▁advice	-2198
▁speaks	-2199
▁wicked	-2200
olixenes	-2201
▁blessed	-2202
▁letters	-2203
▁neither	-2204
▁serious	-2205
▁entertain	-2206
sp	-2207
ze	-2208
gle	-2209
oly	-2210
oss	-2211
ote	-2212
▁Na	-2213
acle	-2214
cing	-2215
▁Sil	-2216
▁ben	-2217
▁cap	-2218
▁ign	-2219
▁red	-2220
▁sen	-2221
▁tit	-2222
otion	-2223
▁bott	-2224
▁loud	-2225
▁meat	-2226
▁cross	-2227
▁fools	-2228
▁miser	-2229
▁scorn	-2230
▁takes	-2231
▁dinner	-2232
▁moment	-2233
▁thinks	-2234
▁quarrel	-2235
▁wedding	-2236
▁horrible	-2237
▁possible	-2238
▁precious	-2239
▁soldiers	-2240
EL	-2241
tw	-2242
thy	-2243
▁Ar	-2244
empt	-2245
ifts	-2246
mber	-2247
oman	-2248
prus	-2249
rupt	-2250
▁abs	-2251
▁inv	-2252
▁med	-2253
▁par	-2254
▁disg	-2255
▁expl	-2256
▁gall	-2257
▁ones	-2258
▁sigh	-2259
▁went	-2260
itting	-2261
▁bosom	-2262
▁exper	-2263
▁grant	-2264
▁lying	-2265
▁shows	-2266
▁Cyprus	-2267
▁Indeed	-2268
▁broken	-2269
▁expect	-2270
▁praise	-2271
▁trying	-2272
▁Signior	-2273
▁bastard	-2274
▁presence	-2275
aul	-2276
omp	-2277
ual	-2278
▁Se	-2279
aked	-2280
arry	-2281
iled	-2282
iles	-2283
with	-2284
▁ble	-2285
▁fin	-2286
arent	-2287
eness	-2288
ility	-2289
▁Pray	-2290
▁blow	-2291
▁cant	-2292
▁gown	-2293
▁mock	-2294
▁seas	-2295
▁stab	-2296
▁tomb	-2297
ention	-2298
▁Saint	-2299
▁above	-2300
▁blind	-2301
▁empty	-2302
▁flesh	-2303
▁sworn	-2304
▁white	-2305
▁widow	-2306
▁Kather	-2307
▁contin	-2308
▁forbid	-2309
▁giving	-2310
▁hardly	-2311
▁messen	-2312
▁unless	-2313
▁fathers	-2314
▁further	-2315
▁prithee	-2316
▁happened	-2317
▁villains	-2318
▁Polixenes	-2319
▁Gloucester	-2320
!"	-2321
cul	-2322
law	-2323
▁ob	-2324
eous	-2325
inks	-2326
ural	-2327
wise	-2328
▁Com	-2329
▁add	-2330
▁esc	-2331
▁rob	-2332
▁sch	-2333
▁baby	-2334
▁miss	-2335
▁rage	-2336
▁thri	-2337
▁Thats	-2338
▁cruel	-2339
▁gifts	-2340
▁guard	-2341
▁keeps	-2342
▁Naples	-2343
▁stands	-2344
▁threat	-2345
▁counsel	-2346
▁deserve	-2347
▁complete	-2348
og	-2349
irc	-2350
ixt	-2351
▁ap	-2352
▁ye	-2353
ults	-2354
▁Bes	-2355
▁mir	-2356
▁pen	-2357
▁sim	-2358
heart	-2359
▁able	-2360
▁gift	-2361
▁ruin	-2362
▁shes	-2363
▁stud	-2364
▁Think	-2365
▁mount	-2366
▁niece	-2367
▁offic	-2368
▁piece	-2369
▁behalf	-2370
▁plague	-2371
▁streng	-2372
▁telling	-2373
▁speaking	-2374
▁banishment	-2375
ny	-2376
oh	-2377
ane	-2378
isa	-2379
raw	-2380
▁Kn	-2381
esar	-2382
ians	-2383
ises	-2384
▁Cap	-2385
▁ele	-2386
▁gar	-2387
▁hun	-2388
▁smo	-2389
▁Till	-2390
▁join	-2391
▁mour	-2392
▁warm	-2393
inging	-2394
▁Somet	-2395
▁bones	-2396
▁monst	-2397
▁paper	-2398
▁proof	-2399
▁speed	-2400
▁breast	-2401
▁fright	-2402
▁message	-2403
▁happiness	-2404
▁honorable	-2405
▁ourselves	-2406
My	-2407
Tw	-2408
av	-2409
ask	-2410
bit	-2411
eds	-2412
pic	-2413
ror	-2414
▁Bo	-2415
▁Le	-2416
▁ur	-2417
aced	-2418
ades	-2419
ilia	-2420
ouds	-2421
▁Mil	-2422
▁Oli	-2423
▁cit	-2424
▁hit	-2425
▁lan	-2426
▁occ	-2427
▁sky	-2428
▁yes	-2429
where	-2430
▁amaz	-2431
▁sens	-2432
▁stir	-2433
▁thir	-2434
▁Sweet	-2435
▁brief	-2436
▁guess	-2437
▁guest	-2438
▁jewel	-2439
▁needs	-2440
▁pluck	-2441
▁treat	-2442
▁trick	-2443
▁youll	-2444
▁Master	-2445
▁Venice	-2446
▁deadly	-2447
▁ladies	-2448
▁turned	-2449
▁winter	-2450
ispering	-2451
▁getting	-2452
▁sadness	-2453
▁weeping	-2454
▁powerful	-2455
▁question	-2456
lit	-2457
nto	-2458
oop	-2459
roy	-2460
▁Ne	-2461
▁Tr	-2462
ably	-2463
bled	-2464
enry	-2465
erve	-2466
more	-2467
oard	-2468
▁Fri	-2469
▁ago	-2470
▁mid	-2471
▁pit	-2472
antus	-2473
aring	-2474
bling	-2475
itors	-2476
ndred	-2477
rumio	-2478
under	-2479
▁Paul	-2480
▁base	-2481
▁note	-2482
▁stru	-2483
▁unha	-2484
gainst	-2485
▁Their	-2486
▁haste	-2487
▁noise	-2488
▁smile	-2489
▁spend	-2490
▁spent	-2491
▁truly	-2492
emantus	-2493
▁Gentle	-2494
▁asleep	-2495
▁behold	-2496
▁chamber	-2497
▁hundred	-2498
▁manners	-2499
▁princes	-2500
▁spirits	-2501
▁thinking	-2502
▁satisfied	-2503
but	-2504
cus	-2505
ees	-2506
mer	-2507
ared	-2508
ench	-2509
orge	-2510
▁Bel	-2511
▁Tru	-2512
▁bow	-2513
▁hot	-2514
▁inj	-2515
ating	-2516
ieves	-2517
▁Hold	-2518
▁calm	-2519
▁circ	-2520
▁five	-2521
▁hunt	-2522
▁scar	-2523
▁thro	-2524
atesby	-2525
▁Henry	-2526
▁Milan	-2527
▁among	-2528
▁blame	-2529
▁learn	-2530
ethinks	-2531
▁Gremio	-2532
▁Olivia	-2533
▁bright	-2534
▁clouds	-2535
▁hanged	-2536
▁suffer	-2537
▁Catesby	-2538
▁captain	-2539
▁Montague	-2540
▁princess	-2541
▁promised	-2542
iff	-2543
owb	-2544
umb	-2545
ume	-2546
urs	-2547
▁Re	-2548
oint	-2549
ught	-2550
▁Out	-2551
▁Ver	-2552
▁lar	-2553
▁mem	-2554
cient	-2555
▁ange	-2556
▁feet	-2557
▁lets	-2558
▁pure	-2559
▁rude	-2560
▁sort	-2561
▁Bring	-2562
▁First	-2563
▁chast	-2564
▁flatt	-2565
▁force	-2566
▁frown	-2567
▁merry	-2568
▁month	-2569
▁pract	-2570
▁purse	-2571
▁resol	-2572
▁skill	-2573
▁stone	-2574
▁trump	-2575
▁cursed	-2576
▁dishon	-2577
▁execut	-2578
▁intend	-2579
▁single	-2580
▁drowned	-2581
▁express	-2582
▁forward	-2583
▁actually	-2584
▁Apemantus	-2585
▁miserable	-2586
If	-2587
IAN	-2588
asc	-2589
▁Bl	-2590
▁Em	-2591
adua	-2592
ened	-2593
upid	-2594
▁Had	-2595
▁Has	-2596
▁Hea	-2597
▁Tur	-2598
▁deg	-2599
▁few	-2600
▁fra	-2601
▁sto	-2602
ccess	-2603
ourne	-2604
uring	-2605
▁Stay	-2606
▁Such	-2607
▁dies	-2608
▁idea	-2609
▁kins	-2610
▁nice	-2611
▁seek	-2612
▁slow	-2613
▁Padua	-2614
▁awake	-2615
▁diffe	-2616
▁field	-2617
▁green	-2618
▁stock	-2619
▁taste	-2620
▁Grumio	-2621
▁betray	-2622
▁devils	-2623
▁swords	-2624
▁challen	-2625
▁honesty	-2626
▁reasons	-2627
▁treason	-2628
▁consider	-2629
▁highness	-2630
AS	-2631
OL	-2632
MON	-2633
ern	-2634
▁Ad	-2635
aces	-2636
pons	-2637
▁Rem	-2638
▁dri	-2639
▁lot	-2640
▁obs	-2641
ained	-2642
ander	-2643
claim	-2644
ffect	-2645
gment	-2646
▁Away	-2647
▁Lets	-2648
▁Step	-2649
▁cred	-2650
▁soft	-2651
▁step	-2652
▁tear	-2653
antage	-2654
▁Youre	-2655
▁cover	-2656
▁cried	-2657
▁meant	-2658
▁smell	-2659
▁stuff	-2660
▁yield	-2661
▁couldn	-2662
▁flower	-2663
▁infect	-2664
▁mortal	-2665
▁parent	-2666
▁theres	-2667
▁Goodbye	-2668
▁subjects	-2669
▁terrible	-2670
▁wretched	-2671
▁committed	-2672
▁messenger	-2673
.'	-2674
IR	-2675
rp	-2676
gea	-2677
irt	-2678
ler	-2679
rah	-2680
▁Tw	-2681
▁ay	-2682
▁ta	-2683
erle	-2684
hile	-2685
hood	-2686
rage	-2687
utio	-2688
yond	-2689
▁Ari	-2690
▁Aum	-2691
▁Luc	-2692
▁Put	-2693
▁Val	-2694
night	-2695
ronic	-2696
▁Dont	-2697
▁Lanc	-2698
▁Mowb	-2699
▁Very	-2700
▁jest	-2701
▁trem	-2702
esario	-2703
perate	-2704
▁Those	-2705
▁bount	-2706
▁citiz	-2707
▁ignor	-2708
▁langu	-2709
▁parts	-2710
▁Heaven	-2711
▁Unless	-2712
▁buried	-2713
▁damned	-2714
▁likely	-2715
▁office	-2716
▁wisdom	-2717
▁withal	-2718
aughters	-2719
▁Aumerle	-2720
▁Mowbray	-2721
▁Nothing	-2722
▁ancient	-2723
▁goodbye	-2724
▁meaning	-2725
▁prayers	-2726
▁soldier	-2727
▁Mercutio	-2728
▁strength	-2729
?"	-2730
gg	-2731
cha	-2732
ety	-2733
pas	-2734
▁AN	-2735
▁Id	-2736
iant	-2737
ited	-2738
nown	-2739
side	-2740
▁dem	-2741
▁fru	-2742
▁ste	-2743
actly	-2744
ances	-2745
hemia	-2746
iling	-2747
ivers	-2748
ledge	-2749
▁Mant	-2750
▁cell	-2751
▁neck	-2752
▁star	-2753
▁tail	-2754
▁tort	-2755
▁year	-2756
▁Capul	-2757
▁Gaunt	-2758
▁Never	-2759
▁const	-2760
▁extre	-2761
▁ships	-2762
▁title	-2763
▁wound	-2764
▁depart	-2765
▁dreams	-2766
▁golden	-2767
▁misery	-2768
▁wanted	-2769
▁beloved	-2770
▁deceive	-2771
▁perform	-2772
▁success	-2773
▁wouldst	-2774
▁fighting	-2775
She	-2776
ang	-2777
ele	-2778
oun	-2779
rol	-2780
sem	-2781
set	-2782
ued	-2783
▁Ab	-2784
▁da	-2785
▁fr	-2786
▁oh	-2787
vior	-2788
▁CAM	-2789
▁lim	-2790
▁mod	-2791
▁pie	-2792
▁pos	-2793
▁sac	-2794
Which	-2795
anley	-2796
ember	-2797
ently	-2798
fered	-2799
iting	-2800
usion	-2801
▁Once	-2802
▁Poor	-2803
▁conc	-2804
▁drop	-2805
▁mood	-2806
▁nose	-2807
▁stat	-2808
▁wake	-2809
▁ways	-2810
▁Topas	-2811
▁allow	-2812
▁guilt	-2813
▁hopes	-2814
▁issue	-2815
▁match	-2816
▁neigh	-2817
▁persu	-2818
▁shrew	-2819
▁slain	-2820
▁Before	-2821
▁Mantua	-2822
▁Marcus	-2823
▁beyond	-2824
▁circum	-2825
▁journe	-2826
▁necess	-2827
▁spring	-2828
▁Bohemia	-2829
▁Cesario	-2830
▁actions	-2831
▁despair	-2832
▁feeling	-2833
▁possess	-2834
▁willing	-2835
▁citizens	-2836
▁creature	-2837
▁lordship	-2838
▁sleeping	-2839
▁Christian	-2840
▁Lancaster	-2841
▁monstrous	-2842
AB	-2843
LA	-2844
gl	-2845
der	-2846
ped	-2847
rim	-2848
val	-2849
zen	-2850
aves	-2851
eave	-2852
hant	-2853
iest	-2854
miss	-2855
oned	-2856
room	-2857
▁Ear	-2858
▁job	-2859
▁leg	-2860
▁nob	-2861
incul	-2862
▁Jove	-2863
▁laid	-2864
▁pick	-2865
▁rain	-2866
▁shut	-2867
▁sole	-2868
▁tree	-2869
▁tune	-2870
▁womb	-2871
unning	-2872
▁Anton	-2873
▁agree	-2874
▁books	-2875
▁fetch	-2876
▁knave	-2877
▁party	-2878
▁thief	-2879
▁write	-2880
▁Listen	-2881
▁Silvia	-2882
▁Theres	-2883
▁condem	-2884
▁remain	-2885
▁school	-2886
▁triump	-2887
▁tyrant	-2888
incentio	-2889
▁Besides	-2890
▁Stanley	-2891
▁arrived	-2892
▁changed	-2893
▁dressed	-2894
▁embrace	-2895
▁leaving	-2896
▁suspect	-2897
▁towards	-2898
▁unhappy	-2899
▁Andronic	-2900
▁obedient	-2901
▁daughters	-2902
▁friendship	-2903
ene	-2904
und	-2905
wor	-2906
you	-2907
ages	-2908
eleb	-2909
hold	-2910
ters	-2911
▁Apo	-2912
▁dry	-2913
▁hid	-2914
▁vow	-2915
anity	-2916
eding	-2917
ining	-2918
orses	-2919
pping	-2920
▁Does	-2921
▁opin	-2922
▁pict	-2923
▁pull	-2924
▁qual	-2925
▁rasc	-2926
▁situ	-2927
▁sour	-2928
▁vict	-2929
▁wasn	-2930
ainted	-2931
▁Ariel	-2932
▁Being	-2933
▁broke	-2934
▁calls	-2935
▁concl	-2936
▁conqu	-2937
▁glory	-2938
▁pains	-2939
▁rogue	-2940
▁sharp	-2941
Singing	-2942
▁affair	-2943
▁choose	-2944
▁effect	-2945
▁horses	-2946
▁revere	-2947
▁silver	-2948
▁suspic	-2949
▁willow	-2950
▁wrongs	-2951
▁Antonio	-2952
▁Trincul	-2953
▁cunning	-2954
▁drunken	-2955
▁hearing	-2956
▁mistake	-2957
▁pretend	-2958
▁although	-2959
▁murdered	-2960
▁offended	-2961
Whispering	-2962
▁presently	-2963
▁suffering	-2964
OR	-2965
sin	-2966
▁er	-2967
▁ug	-2968
▁ut	-2969
born	-2970
icul	-2971
ites	-2972
medi	-2973
▁bur	-2974
▁fig	-2975
▁saf	-2976
▁sho	-2977
agger	-2978
hered	-2979
inite	-2980
ortun	-2981
▁Shes	-2982
▁Thus	-2983
▁joke	-2984
▁mend	-2985
▁publ	-2986
▁rank	-2987
▁root	-2988
▁vile	-2989
▁wood	-2990
atched	-2991
▁Count	-2992
▁Stand	-2993
▁admit	-2994
▁celeb	-2995
▁drawn	-2996
▁knees	-2997
▁lived	-2998
▁stars	-2999
▁turns	-3000
▁walls	-3001
▁waves	-3002
▁whats	-3003
▁Emilia	-3004
▁Verona	-3005
▁descri	-3006
▁endure	-3007
▁oracle	-3008
▁seeing	-3009
▁destroy	-3010
▁prosper	-3011
▁whether	-3012
▁faithful	-3013
▁princely	-3014
▁sentence	-3015
▁standing	-3016
▁Gentlemen	-3017
▁Katherine	-3018
▁Vincentio	-3019
▁yourselves	-3020
RI	-3021
iny	-3022
ora	-3023
▁TR	-3024
anch	-3025
ards	-3026
bast	-3027
gers	-3028
sing	-3029
▁Bra	-3030
▁Con	-3031
▁fut	-3032
▁mal	-3033
▁oft	-3034
asion	-3035
earch	-3036
earer	-3037
ident	-3038
▁Dian	-3039
▁Hark	-3040
▁Help	-3041
▁Mist	-3042
▁Tyre	-3043
▁Whom	-3044
▁conv	-3045
▁fart	-3046
▁plot	-3047
▁prov	-3048
▁wars	-3049
seless	-3050
▁After	-3051
▁Friar	-3052
▁Honor	-3053
▁chest	-3054
▁contr	-3055
▁delic	-3056
▁dread	-3057
▁enter	-3058
▁knife	-3059
▁moved	-3060
▁scold	-3061
▁seven	-3062
▁shake	-3063
▁tried	-3064
▁Apollo	-3065
▁Valent	-3066
▁choice	-3067
▁escape	-3068
▁faults	-3069
▁leaves	-3070
▁minute	-3071
▁shadow	-3072
▁Prithee	-3073
▁delight	-3074
▁journey	-3075
▁circumst	-3076
▁instruct	-3077
▁situation	-3078
▁sometimes	-3079
▁Andronicus	-3080
▁completely	-3081
Be	-3082
Of	-3083
So	-3084
pes	-3085
▁Ge	-3086
ancy	-3087
cial	-3088
ized	-3089
reck	-3090
ysic	-3091
▁Any	-3092
▁Gra	-3093
▁fle	-3094
▁sep	-3095
▁tal	-3096
▁ung	-3097
bably	-3098
right	-3099
▁Fool	-3100
▁Keep	-3101
▁Murd	-3102
▁Stop	-3103
▁bare	-3104
▁boys	-3105
▁dull	-3106
▁gard	-3107
▁liar	-3108
▁list	-3109
▁mild	-3110
▁vain	-3111
▁wash	-3112
▁wert	-3113
▁wits	-3114
▁Orsin	-3115
▁front	-3116
▁judge	-3117
▁large	-3118
▁waste	-3119
bastian	-3120
ination	-3121
▁Andrew	-3122
▁asking	-3123
▁crimes	-3124
▁future	-3125
▁humble	-3126
▁madman	-3127
▁taking	-3128
▁thrust	-3129
▁yellow	-3130
▁Villain	-3131
▁consent	-3132
▁explain	-3133
▁fearful	-3134
▁playing	-3135
▁profess	-3136
▁silence	-3137
▁thunder	-3138
▁language	-3139
▁stranger	-3140
▁Sebastian	-3141
▁desperate	-3142
bi	-3143
dle	-3144
eem	-3145
erv	-3146
she	-3147
aded	-3148
anus	-3149
bury	-3150
cibi	-3151
give	-3152
ioch	-3153
▁rot	-3154
▁sav	-3155
ERDIN	-3156
ument	-3157
urden	-3158
▁Love	-3159
▁aren	-3160
▁bell	-3161
▁fash	-3162
▁fate	-3163
▁paid	-3164
▁shed	-3165
▁sins	-3166
▁test	-3167
ointed	-3168
▁Death	-3169
▁Helic	-3170
▁Hello	-3171
▁North	-3172
▁hurry	-3173
▁liber	-3174
▁names	-3175
▁nurse	-3176
▁quite	-3177
▁sends	-3178
▁twice	-3179
ourable	-3180
▁Alcibi	-3181
▁FERDIN	-3182
▁George	-3183
▁Marina	-3184
▁Murder	-3185
▁assist	-3186
▁cheeks	-3187
▁forced	-3188
▁lament	-3189
▁neighb	-3190
▁sacred	-3191
▁smooth	-3192
▁Antioch	-3193
▁Prosper	-3194
▁imagine	-3195
▁learned	-3196
▁opinion	-3197
▁private	-3198
▁wearing	-3199
umberland	-3200
▁Remember	-3201
▁behavior	-3202
▁heavenly	-3203
▁position	-3204
▁received	-3205
▁traitors	-3206
▁FERDINAND	-3207
▁Valentine	-3208
▁advantage	-3209
▁Alcibiades	-3210
▁Northumberland	-3211
AL	-3212
▁]	-3213
ICH	-3214
MIO	-3215
bts	-3216
esy	-3217
ita	-3218
pen	-3219
uct	-3220
▁En	-3221
▁sy	-3222
Than	-3223
cend	-3224
haps	-3225
omas	-3226
stit	-3227
▁Tha	-3228
▁fat	-3229
▁idi	-3230
▁mel	-3231
▁unp	-3232
▁uns	-3233
acher	-3234
itten	-3235
▁Amen	-3236
▁Dost	-3237
▁RICH	-3238
▁acqu	-3239
▁fell	-3240
▁rule	-3241
▁toad	-3242
▁tran	-3243
geance	-3244
▁Heres	-3245
▁bears	-3246
▁crime	-3247
▁hadst	-3248
▁lands	-3249
▁oppos	-3250
▁shape	-3251
▁steel	-3252
▁third	-3253
▁begins	-3254
▁castle	-3255
▁degree	-3256
▁entire	-3257
▁freely	-3258
▁humbly	-3259
▁immedi	-3260
▁lovers	-3261
▁morrow	-3262
▁public	-3263
▁ruined	-3264
▁senses	-3265
▁summer	-3266
▁wretch	-3267
▁Paulina	-3268
▁desires	-3269
▁exactly	-3270
▁picture	-3271
▁singing	-3272
▁torment	-3273
▁Trinculo	-3274
▁continue	-3275
▁goodness	-3276
▁opportun	-3277
▁supposed	-3278
▁different	-3279
▁flatterer	-3280
▁greatness	-3281
▁Everything	-3282
PH	-3283
UE	-3284
ays	-3285
com	-3286
ien	-3287
phe	-3288
uri	-3289
▁SE	-3290
IOLA	-3291
bing	-3292
elve	-3293
lier	-3294
lish	-3295
uiet	-3296
uses	-3297
will	-3298
▁ANT	-3299
▁Cal	-3300
▁lod	-3301
▁owe	-3302
▁sli	-3303
ative	-3304
idden	-3305
ontes	-3306
rence	-3307
woman	-3308
▁Must	-3309
▁bury	-3310
▁cure	-3311
▁dust	-3312
▁gage	-3313
▁held	-3314
▁nine	-3315
▁pack	-3316
▁post	-3317
▁surv	-3318
eading	-3319
idence	-3320
orious	-3321
▁Leave	-3322
▁VIOLA	-3323
▁awful	-3324
▁beard	-3325
▁disgu	-3326
▁labor	-3327
▁saved	-3328
▁sever	-3329
▁spite	-3330
▁witch	-3331
▁France	-3332
▁attack	-3333
▁burden	-3334
▁compan	-3335
▁estate	-3336
▁goodly	-3337
▁helped	-3338
▁hollow	-3339
▁jewels	-3340
▁manner	-3341
▁physic	-3342
▁profit	-3343
▁repent	-3344
▁seemed	-3345
▁sounds	-3346
▁weapon	-3347
▁Against	-3348
▁anymore	-3349
▁charity	-3350
▁control	-3351
▁fellows	-3352
▁instant	-3353
▁kinsman	-3354
▁natural	-3355
▁valiant	-3356
▁waiting	-3357
▁written	-3358
▁darkness	-3359
▁handsome	-3360
▁judgment	-3361
▁important	-3362
▁knowledge	-3363
▁vengeance	-3364
IL	-3365
INC	-3366
app	-3367
ils	-3368
▁ed	-3369
UEEN	-3370
With	-3371
Your	-3372
ceit	-3373
hano	-3374
illy	-3375
▁avo	-3376
▁bag	-3377
▁bod	-3378
▁cle	-3379
▁cup	-3380
▁eld	-3381
▁pal	-3382
▁top	-3383
ement	-3384
iment	-3385
ounce	-3386
pleas	-3387
rison	-3388
ustom	-3389
vious	-3390
▁Both	-3391
▁Goth	-3392
▁coff	-3393
▁debt	-3394
▁fled	-3395
▁gain	-3396
▁mans	-3397
▁meas	-3398
▁ours	-3399
▁ride	-3400
▁salt	-3401
▁seal	-3402
▁ugly	-3403
▁woes	-3404
ortune	-3405
▁build	-3406
▁claim	-3407
▁fruit	-3408
▁gross	-3409
▁grows	-3410
▁inher	-3411
▁liest	-3412
▁separ	-3413
▁sheep	-3414
▁sport	-3415
▁tells	-3416
▁upset	-3417
▁weary	-3418
▁wives	-3419
▁youve	-3420
ossible	-3421
▁belong	-3422
▁bottle	-3423
▁easily	-3424
▁excuse	-3425
▁pieces	-3426
▁prayer	-3427
▁search	-3428
▁silent	-3429
▁breathe	-3430
▁compass	-3431
▁counter	-3432
▁courage	-3433
▁current	-3434
▁outside	-3435
▁thieves	-3436
▁working	-3437
▁Stephano	-3438
▁friendly	-3439
▁imprison	-3440
▁murderer	-3441
▁occasion	-3442
▁probably	-3443
▁treacher	-3444
▁forgotten	-3445
▁punishment	-3446
NE	-3447
SO	-3448
mn	-3449
uc	-3450
AST	-3451
EPH	-3452
ify	-3453
let	-3454
▁Br	-3455
▁Lo	-3456
▁od	-3457
ONSO	-3458
This	-3459
Thou	-3460
form	-3461
ific	-3462
ills	-3463
ilst	-3464
just	-3465
look	-3466
▁Set	-3467
▁Unc	-3468
▁Yea	-3469
▁glo	-3470
▁guy	-3471
▁hig	-3472
▁ing	-3473
▁pet	-3474
ament	-3475
ators	-3476
ening	-3477
hange	-3478
omach	-3479
rench	-3480
sings	-3481
▁Dear	-3482
▁Doth	-3483
▁fond	-3484
▁peas	-3485
▁rise	-3486
▁sees	-3487
▁stol	-3488
▁temp	-3489
reedom	-3490
▁Harry	-3491
▁becom	-3492
▁began	-3493
▁faces	-3494
▁glass	-3495
▁human	-3496
▁later	-3497
▁mourn	-3498
▁pride	-3499
▁round	-3500
▁shipw	-3501
▁sighs	-3502
▁spell	-3503
▁swall	-3504
▁tempt	-3505
▁treas	-3506
▁winds	-3507
▁Thomas	-3508
▁action	-3509
▁credit	-3510
▁former	-3511
▁garden	-3512
▁refuse	-3513
▁travel	-3514
▁Believe	-3515
▁Capulet	-3516
▁English	-3517
▁Leontes	-3518
▁greater	-3519
▁madness	-3520
▁pleased	-3521
▁steward	-3522
▁stopped	-3523
▁violent	-3524
▁Mistress	-3525
▁courtesy	-3526
▁perceive	-3527
▁prisoner	-3528
▁challenge	-3529
▁government	-3530
▁honourable	-3531
▁impossible	-3532
In	-3533
TH	-3534
cy	-3535
gy	-3536
BIO	-3537
ETH	-3538
How	-3539
elt	-3540
erm	-3541
fer	-3542
fri	-3543
ude	-3544
who	-3545
▁AL	-3546
▁LI	-3547
▁oc	-3548
ONIO	-3549
When	-3550
rets	-3551
ueen	-3552
▁Dis	-3553
▁ELI	-3554
▁VIN	-3555
▁cal	-3556
▁clo	-3557
▁lun	-3558
▁tot	-3559
ABETH	-3560
amour	-3561
ising	-3562
ollow	-3563
▁Hear	-3564
▁Only	-3565
▁babe	-3566
▁ball	-3567
▁corn	-3568
▁dogs	-3569
▁earn	-3570
▁easy	-3571
▁incl	-3572
▁knee	-3573
▁lend	-3574
▁mere	-3575
▁prod	-3576
▁yond	-3577
▁LITIO	-3578
▁While	-3579
▁accus	-3580
▁below	-3581
▁dying	-3582
▁famil	-3583
▁holds	-3584
▁reven	-3585
▁slept	-3586
▁wench	-3587
▁Either	-3588
▁Romeos	-3589
▁abused	-3590
▁assure	-3591
▁caught	-3592
▁dagger	-3593
▁denied	-3594
▁double	-3595
▁intent	-3596
▁played	-3597
▁rememb	-3598
▁solemn	-3599
▁struck	-3600
▁twelve	-3601
▁wounds	-3602
▁ANTONIO	-3603
▁Without	-3604
▁besides	-3605
▁careful	-3606
▁fingers	-3607
▁prevent	-3608
▁proceed	-3609
▁stomach	-3610
▁streets	-3611
▁Prospero	-3612
▁approach	-3613
▁generous	-3614
▁husbands	-3615
▁prepared	-3616
▁proclaim	-3617
▁Helicanus	-3618
▁Sometimes	-3619
▁VINCENTIO	-3620
▁experience	-3621
▁opportunity	-3622
Is	-3623
No	-3624
We	-3625
ek	-3626
God	-3627
mit	-3628
ogn	-3629
ohn	-3630
▁Ma	-3631
▁gh	-3632
▁pi	-3633
BAST	-3634
Come	-3635
alts	-3636
avin	-3637
iond	-3638
mony	-3639
osal	-3640
phew	-3641
teen	-3642
then	-3643
wife	-3644
▁Art	-3645
▁Sic	-3646
▁arg	-3647
▁bew	-3648
▁cre	-3649
▁due	-3650
▁fix	-3651
▁fro	-3652
▁imm	-3653
▁ink	-3654
▁lip	-3655
▁mil	-3656
▁mor	-3657
▁mot	-3658
▁pil	-3659
▁san	-3660
▁six	-3661
▁High	-3662
▁Mine	-3663
▁bird	-3664
▁decl	-3665
▁fury	-3666
▁pair	-3667
▁pear	-3668
▁tall	-3669
avinia	-3670
worthy	-3671
▁Diana	-3672
▁Dorse	-3673
▁aband	-3674
▁armor	-3675
▁cares	-3676
▁cries	-3677
▁flies	-3678
▁ghost	-3679
▁grass	-3680
▁lucky	-3681
▁maids	-3682
▁medic	-3683
▁ocean	-3684
▁spare	-3685
▁stick	-3686
▁swift	-3687
BASTIAN	-3688
ancholy	-3689
▁ALONSO	-3690
▁CAMBIO	-3691
▁Cousin	-3692
▁awhile	-3693
▁borrow	-3694
▁brains	-3695
▁demand	-3696
▁direct	-3697
▁famous	-3698
▁hatred	-3699
▁joyful	-3700
▁lovely	-3701
▁nephew	-3702
▁riches	-3703
▁served	-3704
▁stupid	-3705
▁surely	-3706
▁undert	-3707
▁Forgive	-3708
▁Fortune	-3709
▁Lavinia	-3710
▁affairs	-3711
▁slander	-3712
▁sorrows	-3713
▁support	-3714
▁torture	-3715
▁drinking	-3716
▁commanded	-3717
▁creatures	-3718
▁melancholy	-3719
dy	-3720
zz	-3721
BAN	-3722
alo	-3723
edy	-3724
ieu	-3725
kin	-3726
onz	-3727
▁ir	-3728
dita	-3729
feit	-3730
hest	-3731
itus	-3732
▁Fie	-3733
▁spe	-3734
LIBAN	-3735
ondon	-3736
▁Gonz	-3737
▁Know	-3738
▁anon	-3739
▁auth	-3740
▁clos	-3741
▁diff	-3742
▁doct	-3743
▁doom	-3744
▁ease	-3745
▁isle	-3746
▁lion	-3747
▁puts	-3748
▁sell	-3749
▁shri	-3750
▁wand	-3751
▁wept	-3752
father	-3753
ursday	-3754
▁Peace	-3755
▁Still	-3756
▁Thank	-3757
▁Three	-3758
▁color	-3759
▁dwell	-3760
▁girls	-3761
▁idiot	-3762
▁reach	-3763
▁share	-3764
▁table	-3765
▁threw	-3766
▁tired	-3767
▁torch	-3768
▁trans	-3769
mission	-3770
▁Honest	-3771
▁London	-3772
▁Orsino	-3773
▁Pardon	-3774
▁Rivers	-3775
▁acting	-3776
▁curses	-3777
▁custom	-3778
▁fought	-3779
▁graves	-3780
▁griefs	-3781
▁intell	-3782
▁moving	-3783
▁places	-3784
▁recogn	-3785
▁safety	-3786
▁simple	-3787
▁statue	-3788
▁thrown	-3789
▁undone	-3790
▁unkind	-3791
▁whence	-3792
iondello	-3793
▁Tybalts	-3794
▁calling	-3795
▁despite	-3796
▁extreme	-3797
▁farther	-3798
▁fashion	-3799
▁freedom	-3800
▁officer	-3801
▁protest	-3802
▁talents	-3803
▁whoever	-3804
▁Thursday	-3805
▁blessing	-3806
▁contempt	-3807
▁governor	-3808
▁minister	-3809
▁pleasant	-3810
▁shameful	-3811
▁suddenly	-3812
▁SEBASTIAN	-3813
▁affection	-3814
▁execution	-3815
▁following	-3816
▁otherwise	-3817
▁immediately	-3818
Oh	-3819
eg	-3820
hy	-3821
lm	-3822
we	-3823
ONT	-3824
ULO	-3825
aff	-3826
nat	-3827
pse	-3828
rat	-3829
tle	-3830
uce	-3831
vey	-3832
▁RO	-3833
▁ev	-3834
▁fi	-3835
EMON	-3836
cket	-3837
even	-3838
fall	-3839
ical	-3840
irty	-3841
omen	-3842
ours	-3843
vish	-3844
▁Bid	-3845
▁MAR	-3846
▁Men	-3847
▁ach	-3848
▁cam	-3849
▁hap	-3850
▁tut	-3851
▁unk	-3852
▁wag	-3853
▁wra	-3854
ERMIO	-3855
aints	-3856
arsus	-3857
board	-3858
clock	-3859
ierce	-3860
kedom	-3861
otted	-3862
reads	-3863
stage	-3864
ursed	-3865
verse	-3866
▁Desp	-3867
▁Didn	-3868
▁Fear	-3869
▁Gods	-3870
▁John	-3871
▁Pisa	-3872
▁Wait	-3873
▁alas	-3874
▁amen	-3875
▁bark	-3876
▁boar	-3877
▁busy	-3878
▁cere	-3879
▁conj	-3880
▁firm	-3881
▁hasn	-3882
▁liqu	-3883
▁seat	-3884
▁sink	-3885
▁twas	-3886
▁usur	-3887
▁vice	-3888
INCULO	-3889
igence	-3890
ivered	-3891
ushing	-3892
▁Calib	-3893
▁Faith	-3894
▁Peter	-3895
▁aught	-3896
▁cheek	-3897
▁equal	-3898
▁faire	-3899
▁fleet	-3900
▁harsh	-3901
▁heres	-3902
▁mayst	-3903
▁minds	-3904
▁provo	-3905
▁swore	-3906
▁weigh	-3907
▁weren	-3908
▁wrath	-3909
ERMIONE	-3910
Reading	-3911
rateful	-3912
▁Dorset	-3913
▁Follow	-3914
▁Tarsus	-3915
▁determ	-3916
▁number	-3917
▁prophe	-3918
▁recent	-3919
▁scarce	-3920
▁spoken	-3921
▁thrive	-3922
▁throat	-3923
▁Gonzalo	-3924
▁Perdita	-3925
▁Revenge	-3926
▁account	-3927
▁corrupt	-3928
▁dearest	-3929
▁dukedom	-3930
▁follows	-3931
▁hateful	-3932
▁killing	-3933
▁passing	-3934
▁several	-3935
▁weather	-3936
▁Lordship	-3937
▁Methinks	-3938
▁bringing	-3939
▁commands	-3940
▁jealousy	-3941
▁treasure	-3942
▁Biondello	-3943
▁certainly	-3944
Or	-3945
my	-3946
Ill	-3947
eng	-3948
ept	-3949
har	-3950
omf	-3951
pit	-3952
ulf	-3953
ales	-3954
aron	-3955
atcl	-3956
gare	-3957
ints	-3958
oler	-3959
vest	-3960
what	-3961
▁Nat	-3962
▁ann	-3963
▁dew	-3964
▁eff	-3965
▁mut	-3966
▁pot	-3967
▁rum	-3968
▁wat	-3969
▁wol	-3970
anish	-3971
ddess	-3972
eared	-3973
ences	-3974
hamed	-3975
oteus	-3976
▁Send	-3977
▁Turk	-3978
▁Wilt	-3979
▁aunt	-3980
▁boat	-3981
▁cove	-3982
▁crow	-3983
▁foes	-3984
▁gate	-3985
▁jack	-3986
▁joys	-3987
▁lest	-3988
▁owes	-3989
▁tent	-3990
▁thin	-3991
ienced	-3992
urance	-3993
▁Aaron	-3994
▁Could	-3995
▁Great	-3996
▁Julia	-3997
▁Rosal	-3998
▁Titus	-3999
▁Youll	-4000
▁avoid	-4001
▁cloak	-4002
▁enfor	-4003
▁falls	-4004
▁humor	-4005
▁naked	-4006
▁prize	-4007
▁sanct	-4008
▁split	-4009
▁trees	-4010
▁trial	-4011
osition	-4012
▁Father	-4013
▁author	-4014
▁chaste	-4015
▁clever	-4016
▁finger	-4017
▁gotten	-4018
▁kisses	-4019
▁notice	-4020
▁raised	-4021
▁rebels	-4022
▁restra	-4023
▁showed	-4024
▁sleeps	-4025
▁smiles	-4026
▁stolen	-4027
▁stones	-4028
▁tailor	-4029
▁thence	-4030
▁weight	-4031
atcliffe	-4032
▁Proteus	-4033
▁ashamed	-4034
▁conquer	-4035
▁dancing	-4036
▁goddess	-4037
▁happens	-4038
▁keeping	-4039
▁meeting	-4040
▁thither	-4041
▁triumph	-4042
▁trumpet	-4043
▁Whatever	-4044
▁conceive	-4045
▁contrary	-4046
▁mountain	-4047
▁appearance	-4048
▁remembrance	-4049
▁treacherous	-4050
IA	-4051
TA	-4052
go	-4053
oc	-4054
ARD	-4055
ESD	-4056
Off	-4057
acy	-4058
lex	-4059
mal	-4060
pri	-4061
rog	-4062
uts	-4063
whe	-4064
▁ci	-4065
atic	-4066
hire	-4067
iter	-4068
ived	-4069
mend	-4070
ploy	-4071
your	-4072
▁Lie	-4073
▁Old	-4074
▁Too	-4075
▁Two	-4076
▁bud	-4077
▁cat	-4078
▁led	-4079
▁odd	-4080
▁pol	-4081
▁squ	-4082
▁tou	-4083
▁unb	-4084
erved	-4085
iring	-4086
ision	-4087
▁DESD	-4088
▁Grey	-4089
▁Hell	-4090
▁Lest	-4091
▁Live	-4092
▁Long	-4093
▁Pomf	-4094
▁Save	-4095
▁True	-4096
▁Unto	-4097
▁bite	-4098
▁bond	-4099
▁cher	-4100
▁cost	-4101
▁deaf	-4102
▁east	-4103
▁exam	-4104
▁gets	-4105
▁port	-4106
▁task	-4107
▁unre	-4108
ourage	-4109
▁Lords	-4110
▁Swear	-4111
▁Truly	-4112
▁Uncle	-4113
▁apart	-4114
▁benef	-4115
▁civil	-4116
▁consp	-4117
▁dress	-4118
▁eager	-4119
▁grown	-4120
▁lover	-4121
▁lowly	-4122
▁plant	-4123
▁polit	-4124
▁raise	-4125
▁silly	-4126
▁sings	-4127
▁stood	-4128
▁value	-4129
initely	-4130
ruction	-4131
▁Myself	-4132
▁Thaisa	-4133
▁Thanks	-4134
▁aboard	-4135
▁beasts	-4136
▁bounty	-4137
▁corpse	-4138
▁crowns	-4139
▁diseas	-4140
▁during	-4141
▁guests	-4142
▁prefer	-4143
▁rascal	-4144
▁wooing	-4145
▁CALIBAN	-4146
▁Edwards	-4147
▁Margare	-4148
▁Pomfret	-4149
▁RICHARD	-4150
▁Wherein	-4151
▁absence	-4152
▁allowed	-4153
▁becomes	-4154
▁burning	-4155
▁compare	-4156
▁hanging	-4157
▁measure	-4158
▁parents	-4159
▁running	-4160
▁shouldn	-4161
▁started	-4162
▁tongues	-4163
▁worship	-4164
▁wronged	-4165
▁younger	-4166
▁DESDEMON	-4167
▁TRINCULO	-4168
▁contract	-4169
▁delicate	-4170
▁deserved	-4171
▁dispatch	-4172
▁ignorant	-4173
▁opposite	-4174
▁returned	-4175
▁condition	-4176
▁delivered	-4177
▁obedience	-4178
▁stockings	-4179
▁wonderful	-4180
▁conclusion	-4181
▁instrument	-4182
▁sweetheart	-4183
EO	-4184
St	-4185
ANO	-4186
SIO	-4187
aph	-4188
iew	-4189
ipe	-4190
key	-4191
oke	-4192
ony	-4193
ria	-4194
tic	-4195
▁Ph	-4196
EONT	-4197
ails	-4198
body	-4199
iced	-4200
ilos	-4201
ldom	-4202
mity	-4203
ping	-4204
pond	-4205
ream	-4206
rees	-4207
rove	-4208
sequ	-4209
some	-4210
yria	-4211
▁Cle	-4212
▁Egl	-4213
▁Ser	-4214
▁Tom	-4215
▁amb	-4216
▁baw	-4217
▁cop	-4218
▁dow	-4219
▁fil	-4220
▁gaz	-4221
▁hol	-4222
▁nay	-4223
▁suf	-4224
▁unl	-4225
Where	-4226
erest	-4227
house	-4228
ified	-4229
illed	-4230
unate	-4231
using	-4232
▁Earl	-4233
▁None	-4234
▁Show	-4235
▁Stri	-4236
▁abro	-4237
▁begu	-4238
▁boot	-4239
▁cock	-4240
▁ends	-4241
▁jail	-4242
▁leis	-4243
▁leng	-4244
▁poet	-4245
▁shot	-4246
▁tame	-4247
▁undo	-4248
▁worm	-4249
EONTES	-4250
ilosop	-4251
urious	-4252
▁Alack	-4253
▁Hence	-4254
▁ahead	-4255
▁angel	-4256
▁brain	-4257
▁cloud	-4258
▁debts	-4259
▁delay	-4260
▁dirty	-4261
▁forsw	-4262
▁griev	-4263
▁groan	-4264
▁innoc	-4265
▁loath	-4266
▁lower	-4267
▁named	-4268
▁north	-4269
▁reign	-4270
▁shell	-4271
▁shout	-4272
▁signs	-4273
▁smart	-4274
▁troth	-4275
▁tyran	-4276
▁valor	-4277
▁weeds	-4278
▁works	-4279
attered	-4280
hearted	-4281
oundrel	-4282
stitute	-4283
venture	-4284
▁access	-4285
▁afford	-4286
▁amazed	-4287
▁ballad	-4288
▁bodies	-4289
▁coffin	-4290
▁employ	-4291
▁fairly	-4292
▁gently	-4293
▁height	-4294
▁hungry	-4295
▁kindly	-4296
▁passed	-4297
▁record	-4298
▁Caliban	-4299
▁Illyria	-4300
▁accused	-4301
▁begging	-4302
▁condemn	-4303
▁deposed	-4304
▁inherit	-4305
▁kindred	-4306
▁outward	-4307
▁respons	-4308
▁serving	-4309
▁smiling	-4310
▁special	-4311
▁unknown	-4312
▁Eglamour	-4313
▁Tomorrow	-4314
▁accident	-4315
▁deceived	-4316
▁exchange	-4317
▁greatest	-4318
▁preserve	-4319
▁sickness	-4320
▁suffered	-4321
▁DESDEMONA	-4322
▁Ratcliffe	-4323
▁attention	-4324
▁authority	-4325
▁lightning	-4326
▁scoundrel	-4327
▁permission	-4328
▁gentlewoman	-4329
▁instruments	-4330
..	-4331
bb	-4332
gn	-4333
ph	-4334
Let	-4335
MEO	-4336
ank	-4337
dge	-4338
erd	-4339
iar	-4340
now	-4341
run	-4342
til	-4343
▁De	-4344
▁Wr	-4345
▁vo	-4346
Have	-4347
bles	-4348
crif	-4349
inal	-4350
orns	-4351
ulls	-4352
unis	-4353
veal	-4354
▁Jun	-4355
▁Lay	-4356
▁Pri	-4357
▁Tut	-4358
▁Tyr	-4359
▁aid	-4360
▁eng	-4361
▁haz	-4362
▁pin	-4363
▁shr	-4364
▁spr	-4365
▁suc	-4366
IRAND	-4367
There	-4368
ached	-4369
agues	-4370
glect	-4371
iance	-4372
ories	-4373
ourse	-4374
verty	-4375
▁Into	-4376
▁Many	-4377
▁Open	-4378
▁cand	-4379
▁clim	-4380
▁coll	-4381
▁curt	-4382
▁dign	-4383
▁drum	-4384
▁felt	-4385
▁fulf	-4386
▁goss	-4387
▁heed	-4388
▁odds	-4389
▁path	-4390
▁rare	-4391
▁witt	-4392
atives	-4393
bearer	-4394
ichael	-4395
icious	-4396
ounter	-4397
ourish	-4398
overed	-4399
▁Goths	-4400
▁Maybe	-4401
▁Right	-4402
▁Tunis	-4403
▁blunt	-4404
▁blush	-4405
▁folly	-4406
▁friar	-4407
▁hates	-4408
▁incre	-4409
▁march	-4410
▁plays	-4411
▁plead	-4412
▁shown	-4413
▁surpr	-4414
▁swell	-4415
▁venom	-4416
atience	-4417
▁Within	-4418
▁accuse	-4419
▁arrest	-4420
▁bother	-4421
▁drinks	-4422
▁hidden	-4423
▁memory	-4424
▁mouths	-4425
▁regret	-4426
▁reject	-4427
▁robbed	-4428
▁sacrif	-4429
▁sirrah	-4430
▁supper	-4431
▁swears	-4432
▁taught	-4433
▁temper	-4434
▁tricks	-4435
▁Michael	-4436
▁Neither	-4437
▁assured	-4438
▁attempt	-4439
▁conduct	-4440
▁crowned	-4441
▁decided	-4442
▁disease	-4443
▁earnest	-4444
▁leisure	-4445
▁mothers	-4446
▁offense	-4447
▁perhaps	-4448
▁pitiful	-4449
▁poverty	-4450
▁shortly	-4451
▁stories	-4452
▁succeed	-4453
▁tempest	-4454
▁victory	-4455
▁warlike	-4456
▁weapons	-4457
▁whisper	-4458
▁worried	-4459
▁Although	-4460
▁Highness	-4461
▁Rosaline	-4462
▁constant	-4463
▁disguise	-4464
▁followed	-4465
▁forehead	-4466
▁laughing	-4467
▁methinks	-4468
▁midnight	-4469
▁philosop	-4470
▁weakness	-4471
▁Wherefore	-4472
▁carefully	-4473
▁innocence	-4474
▁qualities	-4475
▁slaughter	-4476
▁suspicion	-4477
▁entertainment	-4478
,'	-4479
CH	-4480
Do	-4481
sy	-4482
▁,	-4483
INA	-4484
Who	-4485
cil	-4486
isk	-4487
▁Ca	-4488
▁Me	-4489
▁Ox	-4490
▁Sc	-4491
▁gn	-4492
From	-4493
TEPH	-4494
Twas	-4495
ames	-4496
grim	-4497
hall	-4498
hand	-4499
ibly	-4500
ists	-4501
lict	-4502
lius	-4503
roll	-4504
uary	-4505
▁Sat	-4506
▁Tis	-4507
▁aim	-4508
▁dig	-4509
▁dim	-4510
▁gru	-4511
▁hug	-4512
▁rej	-4513
▁sup	-4514
olute	-4515
raced	-4516
round	-4517
ushed	-4518
▁Hang	-4519
▁bend	-4520
▁bids	-4521
▁blue	-4522
▁braw	-4523
▁cave	-4524
▁coin	-4525
▁comb	-4526
▁crim	-4527
▁fant	-4528
▁furn	-4529
▁heat	-4530
▁jump	-4531
▁mill	-4532
▁perf	-4533
▁rust	-4534
▁spur	-4535
▁trif	-4536
▁vows	-4537
▁wide	-4538
IRANDA	-4539
asting	-4540
edious	-4541
headed	-4542
ically	-4543
ording	-4544
priate	-4545
ublius	-4546
▁Roman	-4547
▁Shore	-4548
▁Young	-4549
▁blows	-4550
▁boots	-4551
▁chase	-4552
▁clock	-4553
▁didnt	-4554
▁doors	-4555
▁forty	-4556
▁gates	-4557
▁guide	-4558
▁hangs	-4559
▁ladys	-4560
▁likes	-4561
▁newly	-4562
▁trade	-4563
▁unnat	-4564
TEPHANO	-4565
aithful	-4566
▁Oxford	-4567
▁abroad	-4568
▁commit	-4569
▁concer	-4570
▁design	-4571
▁device	-4572
▁disapp	-4573
▁eating	-4574
▁figure	-4575
▁filled	-4576
▁groans	-4577
▁higher	-4578
▁incred	-4579
▁kissed	-4580
▁knowst	-4581
▁maiden	-4582
▁mirror	-4583
▁months	-4584
▁polite	-4585
▁safely	-4586
▁washed	-4587
ethought	-4588
▁LEONTES	-4589
▁MIRANDA	-4590
▁clearly	-4591
▁commend	-4592
▁complex	-4593
▁descend	-4594
▁example	-4595
▁mankind	-4596
▁mention	-4597
▁offence	-4598
▁painted	-4599
▁pilgrim	-4600
▁respond	-4601
▁sailors	-4602
▁secrets	-4603
▁tricked	-4604
▁HERMIONE	-4605
▁bleeding	-4606
▁cheerful	-4607
▁deserves	-4608
▁disgrace	-4609
▁displeas	-4610
▁elements	-4611
▁fourteen	-4612
▁infected	-4613
▁medicine	-4614
▁reverend	-4615
▁troubled	-4616
▁violence	-4617
▁Antiochus	-4618
▁blessings	-4619
▁encounter	-4620
▁greetings	-4621
▁musicians	-4622
▁undertake	-4623
▁confession	-4624
▁unfaithful	-4625
▁ungrateful	-4626
▁experienced	-4627
do	-4628
ex	-4629
sa	-4630
su	-4631
ug	-4632
amn	-4633
con	-4634
ida	-4635
oup	-4636
pet	-4637
ser	-4638
▁Ho	-4639
▁Sy	-4640
Good	-4641
ming	-4642
oriz	-4643
reak	-4644
utes	-4645
vail	-4646
▁Acc	-4647
▁Ben	-4648
▁Del	-4649
▁Ere	-4650
▁Ire	-4651
▁Isn	-4652
▁Sit	-4653
▁Tam	-4654
▁apt	-4655
▁bay	-4656
▁lin	-4657
▁mud	-4658
▁pee	-4659
▁sex	-4660
▁sol	-4661
after	-4662
ality	-4663
chers	-4664
eless	-4665
groom	-4666
hance	-4667
icult	-4668
iddle	-4669
ieved	-4670
inary	-4671
ipped	-4672
itude	-4673
ption	-4674
twere	-4675
ullus	-4676
▁Anne	-4677
▁Cont	-4678
▁Dido	-4679
▁Draw	-4680
▁Each	-4681
▁Find	-4682
▁Juno	-4683
▁Lead	-4684
▁acts	-4685
▁asks	-4686
▁butt	-4687
▁coat	-4688
▁deck	-4689
▁drew	-4690
▁fail	-4691
▁flag	-4692
▁hers	-4693
▁host	-4694
▁huge	-4695
▁idle	-4696
▁lark	-4697
▁lent	-4698
▁onto	-4699
▁spit	-4700
▁west	-4701
Giving	-4702
cially	-4703
tering	-4704
tilene	-4705
▁Other	-4706
▁birds	-4707
▁burst	-4708
▁corse	-4709
▁dowry	-4710
▁elder	-4711
▁fears	-4712
▁fiend	-4713
▁flood	-4714
▁honey	-4715
▁lines	-4716
▁oaths	-4717
▁prett	-4718
▁price	-4719
▁quoth	-4720
▁roots	-4721
▁stain	-4722
▁stoop	-4723
▁stuck	-4724
▁study	-4725
▁thick	-4726
▁wrink	-4727
▁French	-4728
▁Sirrah	-4729
▁bottom	-4730
▁caused	-4731
▁convey	-4732
▁couple	-4733
▁deeply	-4734
▁defeat	-4735
▁insult	-4736
▁knaves	-4737
▁ladder	-4738
▁lively	-4739
▁malice	-4740
▁nights	-4741
▁proble	-4742
▁regard	-4743
▁repeat	-4744
▁resign	-4745
▁rotten	-4746
▁savage	-4747
▁thread	-4748
▁unjust	-4749
▁waters	-4750
Offstage	-4751
▁Ireland	-4752
▁covered	-4753
▁disgust	-4754
▁feather	-4755
▁growing	-4756
▁murders	-4757
▁neglect	-4758
▁recover	-4759
▁resolve	-4760
▁stabbed	-4761
▁tedious	-4762
▁therein	-4763
▁treated	-4764
▁tremble	-4765
▁useless	-4766
▁walking	-4767
▁windows	-4768
▁Everyone	-4769
▁Margaret	-4770
▁Mytilene	-4771
▁complain	-4772
▁dreadful	-4773
▁evidence	-4774
▁ladyship	-4775
▁particul	-4776
▁shouldst	-4777
▁trumpets	-4778
▁abandoned	-4779
▁celebrate	-4780
▁difficult	-4781
▁discourse	-4782
▁listening	-4783
▁performed	-4784
▁reverence	-4785
▁unnatural	-4786
▁bridegroom	-4787
▁imprisoned	-4788
AM	-4789
Go	-4790
IS	-4791
rs	-4792
rt	-4793
ITA	-4794
OLI	-4795
ORT	-4796
bar	-4797
can	-4798
cra	-4799
fts	-4800
gic	-4801
rem	-4802
Here	-4803
RIEL	-4804
They	-4805
ands	-4806
bant	-4807
chor	-4808
odes	-4809
onus	-4810
oult	-4811
peak	-4812
▁Bar	-4813
▁Cur	-4814
▁Der	-4815
▁Him	-4816
▁Law	-4817
▁Min	-4818
▁Mon	-4819
▁Pre	-4820
▁Sur	-4821
▁Unt	-4822
▁Wit	-4823
▁cas	-4824
▁fie	-4825
▁ped	-4826
▁scr	-4827
ORTEN	-4828
inate	-4829
inous	-4830
oring	-4831
osing	-4832
ution	-4833
▁Cons	-4834
▁Exce	-4835
▁Read	-4836
▁Soft	-4837
▁bade	-4838
▁chat	-4839
▁dumb	-4840
▁educ	-4841
▁envy	-4842
▁fits	-4843
▁hadn	-4844
▁heav	-4845
▁lamb	-4846
▁rash	-4847
▁reck	-4848
▁sets	-4849
▁sits	-4850
▁stum	-4851
▁subt	-4852
▁teet	-4853
▁view	-4854
▁week	-4855
▁writ	-4856
ERDITA	-4857
bantio	-4858
formed	-4859
itable	-4860
itions	-4861
pardon	-4862
resent	-4863
within	-4864
▁ARIEL	-4865
▁Noble	-4866
▁Shame	-4867
▁Turks	-4868
▁Under	-4869
▁Women	-4870
▁brace	-4871
▁bread	-4872
▁breed	-4873
▁cheap	-4874
▁drops	-4875
▁event	-4876
▁extra	-4877
▁fancy	-4878
▁goose	-4879
▁level	-4880
▁loose	-4881
▁lusty	-4882
▁moral	-4883
▁saint	-4884
▁seize	-4885
▁sides	-4886
▁sooth	-4887
▁super	-4888
▁witty	-4889
▁worms	-4890
ression	-4891
▁HORTEN	-4892
▁Tyrrel	-4893
▁angels	-4894
▁bigger	-4895
▁brings	-4896
▁events	-4897
▁highly	-4898
▁injury	-4899
▁lights	-4900
▁manage	-4901
▁marvel	-4902
▁middle	-4903
▁mocked	-4904
▁motion	-4905
▁needed	-4906
▁orders	-4907
▁palace	-4908
▁points	-4909
▁reveal	-4910
▁sooner	-4911
▁strict	-4912
▁stroke	-4913
▁waking	-4914
▁wanton	-4915
▁Majesty	-4916
▁Publius	-4917
▁bearing	-4918
▁beggars	-4919
▁beneath	-4920
▁carried	-4921
▁confirm	-4922
▁dreamed	-4923
▁earlier	-4924
▁helping	-4925
▁liberty	-4926
▁loyalty	-4927
▁midwife	-4928
▁modesty	-4929
▁politic	-4930
▁putting	-4931
▁throats	-4932
▁writing	-4933
▁Lucullus	-4934
▁STEPHANO	-4935
▁acquaint	-4936
▁argument	-4937
▁convince	-4938
▁finished	-4939
▁garments	-4940
▁laughter	-4941
▁marrying	-4942
▁punished	-4943
▁recently	-4944
▁senators	-4945
▁Something	-4946
▁breathing	-4947
▁household	-4948
▁ignorance	-4949
▁interrupt	-4950
▁recognize	-4951
▁shipwreck	-4952
▁trembling	-4953
▁virginity	-4954
▁imagination	-4955
▁circumstance	-4956
It	-4957
br	-4958
oe	-4959
Did	-4960
ICL	-4961
ULI	-4962
aug	-4963
fty	-4964
iqu	-4965
liz	-4966
nes	-4967
oot	-4968
ope	-4969
rop	-4970
urb	-4971
▁Ra	-4972
▁Rh	-4973
▁Sm	-4974
Look	-4975
Will	-4976
agen	-4977
amin	-4978
aped	-4979
ayed	-4980
bear	-4981
cest	-4982
cora	-4983
draw	-4984
eral	-4985
gues	-4986
held	-4987
ilts	-4988
iver	-4989
long	-4990
ords	-4991
pass	-4992
rehe	-4993
ushy	-4994
yard	-4995
▁Ask	-4996
▁Boy	-4997
▁Day	-4998
▁Jud	-4999
▁Rea	-5000
▁War	-5001
▁abh	-5002
▁cab	-5003
▁lap	-5004
▁pop	-5005
▁sal	-5006
▁tar	-5007
▁tid	-5008
▁tow	-5009
▁vex	-5010
▁voy	-5011
▁wax	-5012
ERICL	-5013
bered	-5014
corax	-5015
eturn	-5016
faced	-5017
ggest	-5018
ilius	-5019
ishes	-5020
stone	-5021
▁Damn	-5022
▁Down	-5023
▁Holy	-5024
▁Made	-5025
▁Turn	-5026
▁anim	-5027
▁bill	-5028
▁brid	-5029
▁cook	-5030
▁cram	-5031
▁crit	-5032
▁diso	-5033
▁dove	-5034
▁espe	-5035
▁flow	-5036
▁gest	-5037
▁lift	-5038
▁mask	-5039
▁nest	-5040
▁nobl	-5041
▁pill	-5042
▁rose	-5043
▁slee	-5044
▁trim	-5045
▁vill	-5046
eating	-5047
ensive	-5048
friend	-5049
idered	-5050
igious	-5051
igonus	-5052
orizel	-5053
urally	-5054
vilius	-5055
▁Boult	-5056
▁Bushy	-5057
▁Cupid	-5058
▁Derby	-5059
▁Plant	-5060
▁Simon	-5061
▁admir	-5062
▁appet	-5063
▁badly	-5064
▁brows	-5065
▁chair	-5066
▁coron	-5067
▁dares	-5068
▁disci	-5069
▁dozen	-5070
▁faint	-5071
▁finds	-5072
▁image	-5073
▁maybe	-5074
▁mayor	-5075
▁repay	-5076
▁revol	-5077
▁ruled	-5078
▁rules	-5079
▁scene	-5080
▁shock	-5081
▁songs	-5082
▁teeth	-5083
▁terms	-5084
▁utter	-5085
▁veins	-5086
▁wings	-5087
ERICLES	-5088
aintain	-5089
because	-5090
▁Enough	-5091
▁Nature	-5092
▁Tamora	-5093
▁Wheres	-5094
▁agreed	-5095
▁allies	-5096
▁ancest	-5097
▁beaten	-5098
▁became	-5099
▁begged	-5100
▁celebr	-5101
▁dearly	-5102
▁desert	-5103
▁divine	-5104
▁effort	-5105
▁feared	-5106
▁gather	-5107
▁grands	-5108
▁hiding	-5109
▁joints	-5110
▁labour	-5111
▁lawful	-5112
▁market	-5113
▁pocket	-5114
▁powers	-5115
▁purcha	-5116
▁remedy	-5117
▁remove	-5118
▁rights	-5119
▁secure	-5120
▁slaves	-5121
▁stream	-5122
▁suitor	-5123
▁terror	-5124
▁unfort	-5125
▁voices	-5126
▁woeful	-5127
▁Sycorax	-5128
▁Whither	-5129
▁bedroom	-5130
▁benefit	-5131
▁closely	-5132
▁consequ	-5133
▁destiny	-5134
▁dignity	-5135
▁endured	-5136
▁enforce	-5137
▁fairest	-5138
▁foreign	-5139
▁happily	-5140
▁knowing	-5141
▁letting	-5142
▁misfort	-5143
▁offered	-5144
▁peasant	-5145
▁peevish	-5146
▁plainly	-5147
▁problem	-5148
▁remorse	-5149
▁shadows	-5150
▁slaught	-5151
▁tidings	-5152
▁breaking	-5153
▁distract	-5154
▁distress	-5155
▁drowning	-5156
▁feelings	-5157
▁glorious	-5158
▁immortal	-5159
▁interest	-5160
▁mourning	-5161
▁neighbor	-5162
▁practice	-5163
▁promises	-5164
▁property	-5165
▁resolved	-5166
▁sometime	-5167
▁strongly	-5168
▁Brabantio	-5169
▁Excellent	-5170
▁HORTENSIO	-5171
▁Katherina	-5172
▁Otherwise	-5173
▁Servilius	-5174
▁necessity	-5175
▁poisonous	-5176
▁relatives	-5177
▁sanctuary	-5178
▁surprised	-5179
▁wherefore	-5180
▁worthless	-5181
▁companions	-5182
▁complexion	-5183
▁countrymen	-5184
▁disgusting	-5185
▁particular	-5186
▁profession	-5187
▁prosperous	-5188
▁successful	-5189
▁counterfeit	-5190
▁disposition	-5191
▁grandfather	-5192
▁slaughtered	-5193
▁circumstances	-5194
UT	-5195
YC	-5196
ey	-5197
fl	-5198
na	-5199
ALO	-5200
ILI	-5201
aly	-5202
ano	-5203
bio	-5204
bol	-5205
cho	-5206
iam	-5207
ids	-5208
mph	-5209
oin	-5210
oon	-5211
rac	-5212
rey	-5213
uss	-5214
▁Aw	-5215
▁Ro	-5216
OLYC	-5217
aker	-5218
alis	-5219
anda	-5220
ator	-5221
ault	-5222
fast	-5223
geon	-5224
gest	-5225
noon	-5226
oses	-5227
oted	-5228
quet	-5229
twas	-5230
▁Bea	-5231
▁Dem	-5232
▁GON	-5233
▁Jes	-5234
▁Jup	-5235
▁Rut	-5236
▁aud	-5237
▁foe	-5238
▁mat	-5239
▁nun	-5240
▁rap	-5241
▁sew	-5242
▁ves	-5243
Would	-5244
abeth	-5245
craft	-5246
erdin	-5247
ickle	-5248
igent	-5249
imely	-5250
inces	-5251
itary	-5252
ively	-5253
light	-5254
orous	-5255
osity	-5256
water	-5257
▁Calm	-5258
▁Conf	-5259
▁Eliz	-5260
▁Fair	-5261
▁JULI	-5262
▁Perc	-5263
▁Sure	-5264
▁brow	-5265
▁buzz	-5266
▁date	-5267
▁gent	-5268
▁grew	-5269
▁laws	-5270
▁line	-5271
▁main	-5272
▁melt	-5273
▁mile	-5274
▁obst	-5275
▁perj	-5276
▁pomp	-5277
▁pred	-5278
▁prey	-5279
▁push	-5280
▁rape	-5281
▁resc	-5282
▁role	-5283
▁roof	-5284
▁skin	-5285
▁slip	-5286
▁urge	-5287
▁vast	-5288
▁whip	-5289
▁wing	-5290
OLYCUS	-5291
enance	-5292
mother	-5293
ortion	-5294
▁Fetch	-5295
▁Maria	-5296
▁ROMEO	-5297
▁Salis	-5298
▁adieu	-5299
▁amiss	-5300
▁annoy	-5301
▁brook	-5302
▁charm	-5303
▁clean	-5304
▁curst	-5305
▁divor	-5306
▁eight	-5307
▁habit	-5308
▁hated	-5309
▁heels	-5310
▁hills	-5311
▁shine	-5312
▁shook	-5313
▁south	-5314
▁steps	-5315
▁thumb	-5316
▁toast	-5317
▁token	-5318
▁wills	-5319
fulness	-5320
idering	-5321
itation	-5322
othered	-5323
▁Ferdin	-5324
▁Really	-5325
▁Strike	-5326
▁barren	-5327
▁bought	-5328
▁charac	-5329
▁closer	-5330
▁deaths	-5331
▁detest	-5332
▁devise	-5333
▁eleven	-5334
▁fantas	-5335
▁filthy	-5336
▁flight	-5337
▁grieve	-5338
▁invite	-5339
▁locked	-5340
▁native	-5341
▁nearby	-5342
▁nobles	-5343
▁object	-5344
▁parted	-5345
▁plants	-5346
▁raging	-5347
▁remind	-5348
▁renown	-5349
▁shines	-5350
▁spread	-5351
▁storms	-5352
▁street	-5353
▁sullen	-5354
▁theirs	-5355
▁thrice	-5356
▁uncles	-5357
▁vanity	-5358
▁vessel	-5359
▁voyage	-5360
▁whores	-5361
▁wither	-5362
▁worked	-5363
▁yonder	-5364
UTOLYCUS	-5365
▁Brother	-5366
▁Despair	-5367
▁Jupiter	-5368
▁Monster	-5369
▁Rutland	-5370
▁approve	-5371
▁banquet	-5372
▁bravery	-5373
▁conceit	-5374
▁crossed	-5375
▁equally	-5376
▁funeral	-5377
▁harvest	-5378
▁knights	-5379
▁ordered	-5380
▁quietly	-5381
▁sitting	-5382
▁stained	-5383
▁suggest	-5384
▁thereof	-5385
▁totally	-5386
▁turning	-5387
▁wounded	-5388
▁Florizel	-5389
▁Patience	-5390
▁absolute	-5391
▁betrayed	-5392
▁courtier	-5393
▁devotion	-5394
▁diseases	-5395
▁executed	-5396
▁familiar	-5397
▁mischief	-5398
▁mistaken	-5399
▁monument	-5400
▁watching	-5401
▁Antigonus	-5402
▁Elizabeth	-5403
▁Ferdinand	-5404
▁Montagues	-5405
▁Plantagen	-5406
▁Salisbury	-5407
▁afternoon	-5408
▁assurance	-5409
▁beauteous	-5410
▁departure	-5411
▁naturally	-5412
▁pleasures	-5413
▁scattered	-5414
▁thousands	-5415
▁wandering	-5416
▁definitely	-5417
▁especially	-5418
▁witchcraft	-5419
▁appropriate	-5420
▁destruction	-5421
▁intelligence	-5422
!'	-5423
AT	-5424
GO	-5425
Sh	-5426
wr	-5427
ALV	-5428
Not	-5429
OOL	-5430
See	-5431
ads	-5432
asp	-5433
aws	-5434
che	-5435
got	-5436
isp	-5437
kay	-5438
ola	-5439
▁et	-5440
▁ny	-5441
ENES	-5442
OLIO	-5443
arch	-5444
eand	-5445
edic	-5446
ethe	-5447
etri	-5448
have	-5449
hore	-5450
inct	-5451
lend	-5452
mpet	-5453
ompl	-5454
oyal	-5455
rial	-5456
rily	-5457
ruly	-5458
shal	-5459
ular	-5460
urst	-5461
▁Ber	-5462
▁Bet	-5463
▁Cry	-5464
▁Fab	-5465
▁Hur	-5466
▁Mir	-5467
▁Sly	-5468
▁Tra	-5469
▁Wed	-5470
▁Wor	-5471
▁dar	-5472
▁dee	-5473
▁fif	-5474
▁unm	-5475
Faith	-5476
Speak	-5477
aches	-5478
avery	-5479
blood	-5480
ernal	-5481
icing	-5482
onine	-5483
stant	-5484
▁Cast	-5485
▁Dion	-5486
▁FOOL	-5487
▁MALV	-5488
▁Mark	-5489
▁Mary	-5490
▁Much	-5491
▁Nept	-5492
▁Vaug	-5493
▁Vent	-5494
▁Whos	-5495
▁appl	-5496
▁bank	-5497
▁beef	-5498
▁bred	-5499
▁drag	-5500
▁fain	-5501
▁fame	-5502
▁farm	-5503
▁game	-5504
▁gull	-5505
▁hark	-5506
▁hire	-5507
▁hist	-5508
▁insp	-5509
▁isnt	-5510
▁milk	-5511
▁misc	-5512
▁pled	-5513
▁quit	-5514
▁rock	-5515
▁shun	-5516
▁sirs	-5517
▁slew	-5518
▁snow	-5519
▁summ	-5520
▁wail	-5521
▁worn	-5522
etrius	-5523
morrow	-5524
recked	-5525
▁About	-5526
▁Curse	-5527
▁Flore	-5528
▁Italy	-5529
▁Venet	-5530
▁apple	-5531
▁arrog	-5532
▁blast	-5533
▁bleed	-5534
▁cease	-5535
▁crack	-5536
▁dedic	-5537
▁feels	-5538
▁groom	-5539
▁haunt	-5540
▁imper	-5541
▁invis	-5542
▁jokes	-5543
▁kinds	-5544
▁older	-5545
▁ought	-5546
▁pound	-5547
▁pregn	-5548
▁seest	-5549
▁shoes	-5550
▁spake	-5551
▁store	-5552
▁terri	-5553
▁trave	-5554
▁twere	-5555
▁weeps	-5556
▁wreck	-5557
aminius	-5558
ibility	-5559
looking	-5560
onsense	-5561
▁Behold	-5562
▁Cambio	-5563
▁Fabian	-5564
▁MARINA	-5565
▁Rhodes	-5566
▁Whilst	-5567
▁accomp	-5568
▁advise	-5569
▁appare	-5570
▁ashore	-5571
▁beheld	-5572
▁breaks	-5573
▁camest	-5574
▁deceit	-5575
▁doctor	-5576
▁fallen	-5577
▁favour	-5578
▁fickle	-5579
▁gossip	-5580
▁invent	-5581
▁landed	-5582
▁liquor	-5583
▁plenty	-5584
▁potent	-5585
▁recomp	-5586
▁repair	-5587
▁revolt	-5588
▁shield	-5589
▁subtle	-5590
▁temple	-5591
▁trusty	-5592
▁unluck	-5593
▁whilst	-5594
▁wisely	-5595
▁wished	-5596
▁womans	-5597
▁Commend	-5598
▁Leonine	-5599
▁Miranda	-5600
▁Neptune	-5601
▁Turkish	-5602
▁Vaughan	-5603
▁beguile	-5604
▁belongs	-5605
▁convers	-5606
▁council	-5607
▁discipl	-5608
▁forbear	-5609
▁furnish	-5610
▁gallant	-5611
▁healthy	-5612
▁hunting	-5613
▁natures	-5614
▁priests	-5615
▁satisfy	-5616
▁seeming	-5617
▁shallow	-5618
▁soundly	-5619
▁staying	-5620
▁suitors	-5621
▁swallow	-5622
▁sweeter	-5623
▁tyranny	-5624
▁whipped	-5625
▁Benvolio	-5626
▁MALVOLIO	-5627
▁anointed	-5628
▁appetite	-5629
▁ceremony	-5630
▁chastity	-5631
▁confound	-5632
▁discover	-5633
▁dishonor	-5634
▁greeting	-5635
▁grievous	-5636
▁infinite	-5637
▁maintain	-5638
▁merchant	-5639
▁personal	-5640
▁persuade	-5641
▁purchase	-5642
▁requires	-5643
▁stronger	-5644
▁surround	-5645
▁thankful	-5646
▁Demetrius	-5647
▁Flaminius	-5648
▁Simonides	-5649
▁according	-5650
▁afterward	-5651
▁confessed	-5652
▁direction	-5653
▁disgraced	-5654
▁education	-5655
▁followers	-5656
▁questions	-5657
▁somewhere	-5658
▁compassion	-5659
▁compliment	-5660
▁coronation	-5661
▁everywhere	-5662
▁unfortunate	-5663
:'	-5664
By	-5665
RO	-5666
lo	-5667
Are	-5668
DER	-5669
VIA	-5670
cer	-5671
eys	-5672
has	-5673
lar	-5674
off	-5675
ril	-5676
rod	-5677
zes	-5678
▁Ly	-5679
▁fe	-5680
ANIO	-5681
ELLO	-5682
ILLO	-5683
LORI	-5684
aged	-5685
agot	-5686
each	-5687
eads	-5688
eant	-5689
ergy	-5690
itio	-5691
ival	-5692
keep	-5693
ores	-5694
pret	-5695
pter	-5696
rank	-5697
time	-5698
umed	-5699
▁Hum	-5700
▁Mam	-5701
▁Off	-5702
▁Run	-5703
▁alc	-5704
▁ale	-5705
▁box	-5706
▁fed	-5707
▁fee	-5708
▁fox	-5709
▁kin	-5710
▁laz	-5711
▁net	-5712
▁non	-5713
▁oak	-5714
▁tam	-5715
▁urg	-5716
acles	-5717
akest	-5718
eased	-5719
geons	-5720
habit	-5721
imble	-5722
ishop	-5723
ongst	-5724
swain	-5725
tered	-5726
think	-5727
ulate	-5728
unday	-5729
▁Gree	-5730
▁Hail	-5731
▁Lend	-5732
▁Phil	-5733
▁alto	-5734
▁bawd	-5735
▁beds	-5736
▁brat	-5737
▁defy	-5738
▁dine	-5739
▁diss	-5740
▁epit	-5741
▁feat	-5742
▁gray	-5743
▁grey	-5744
▁helm	-5745
▁hung	-5746
▁inch	-5747
▁infl	-5748
▁load	-5749
▁logs	-5750
▁mens	-5751
▁owed	-5752
▁page	-5753
▁pron	-5754
▁pupp	-5755
▁rags	-5756
▁rece	-5757
▁roar	-5758
▁rush	-5759
▁sham	-5760
▁soci	-5761
▁spot	-5762
▁stam	-5763
▁stub	-5764
▁vial	-5765
▁whos	-5766
▁wink	-5767
action	-5768
illius	-5769
ission	-5770
nesday	-5771
ousins	-5772
rehend	-5773
rences	-5774
semble	-5775
usions	-5776
▁Athen	-5777
▁FLORI	-5778
▁Green	-5779
▁Litio	-5780
▁Mayor	-5781
▁Until	-5782
▁Wilts	-5783
▁abuse	-5784
▁backs	-5785
▁bells	-5786
▁blest	-5787
▁board	-5788
▁brawl	-5789
▁eagle	-5790
▁exile	-5791
▁faced	-5792
▁fares	-5793
▁gorge	-5794
▁group	-5795
▁kills	-5796
▁merit	-5797
▁metal	-5798
▁mouse	-5799
▁nymph	-5800
▁pause	-5801
▁peril	-5802
▁rebel	-5803
▁recon	-5804
▁rings	-5805
▁sadly	-5806
▁sails	-5807
▁schol	-5808
▁shoot	-5809
▁smoke	-5810
▁sting	-5811
▁strew	-5812
▁twixt	-5813
▁urged	-5814
▁wakes	-5815
▁wears	-5816
chorida	-5817
iculous	-5818
willing	-5819
▁Minola	-5820
▁Saturn	-5821
▁Sicily	-5822
▁Sunday	-5823
▁Surrey	-5824
▁TRANIO	-5825
▁across	-5826
▁actual	-5827
▁appeal	-5828
▁barbar	-5829
▁barely	-5830
▁burial	-5831
▁candle	-5832
▁choler	-5833
▁convin	-5834
▁doesnt	-5835
▁frowns	-5836
▁ingrat	-5837
▁kingly	-5838
▁kneels	-5839
▁modest	-5840
▁naught	-5841
▁normal	-5842
▁pearls	-5843
▁perpet	-5844
▁queens	-5845
▁sailor	-5846
▁scared	-5847
▁shapes	-5848
▁sheets	-5849
▁slowly	-5850
▁strive	-5851
▁summon	-5852
▁valour	-5853
▁wolves	-5854
▁CAMILLO	-5855
▁PERDITA	-5856
▁Princes	-5857
▁achieve	-5858
▁amazing	-5859
▁betwixt	-5860
▁cherish	-5861
▁conspir	-5862
▁curtain	-5863
▁eternal	-5864
▁history	-5865
▁kinsmen	-5866
▁liberal	-5867
▁mockery	-5868
▁observe	-5869
▁overwhe	-5870
▁pigeons	-5871
▁plucked	-5872
▁praised	-5873
▁prophet	-5874
▁quality	-5875
▁rascals	-5876
▁remains	-5877
▁wealthy	-5878
▁whereof	-5879
▁PERICLES	-5880
▁ambition	-5881
▁backward	-5882
▁bitterly	-5883
▁boldness	-5884
▁careless	-5885
▁cowardly	-5886
▁criminal	-5887
▁flourish	-5888
▁kingdoms	-5889
▁merciful	-5890
▁nobility	-5891
▁nonsense	-5892
▁officers	-5893
▁painting	-5894
▁revenged	-5895
▁separate	-5896
▁services	-5897
▁strumpet	-5898
▁stubborn	-5899
▁sweetest	-5900
▁untimely	-5901
▁villainy	-5902
▁whenever	-5903
▁youngest	-5904
▁Lychorida	-5905
▁Mamillius	-5906
▁Wednesday	-5907
▁Wiltshire	-5908
▁breakfast	-5909
▁companion	-5910
▁condemned	-5911
▁courteous	-5912
▁grandsire	-5913
▁happening	-5914
▁hereafter	-5915
▁invisible	-5916
▁necessary	-5917
▁parentage	-5918
▁persuaded	-5919
▁seriously	-5920
▁swallowed	-5921
▁witnesses	-5922
▁altogether	-5923
▁comforting	-5924
▁considered	-5925
▁discipline	-5926
▁flattering	-5927
▁frightened	-5928
▁generosity	-5929
▁incredible	-5930
▁prostitute	-5931
▁Plantagenet	-5932
▁comfortable	-5933
▁considering	-5934
▁forgiveness	-5935
▁grandmother	-5936
▁ingratitude	-5937
▁responsible	-5938
▁conversation	-5939
▁satisfaction	-5940
![	-5941
;'	-5942
CA	-5943
ax	-5944
His	-5945
Now	-5946
Sir	-5947
Why	-5948
ado	-5949
bow	-5950
ded	-5951
emp	-5952
gar	-5953
ric	-5954
str	-5955
▁Co	-5956
▁GR	-5957
▁Hy	-5958
▁Up	-5959
ALTH	-5960
ASAR	-5961
MILI	-5962
Some	-5963
bers	-5964
eter	-5965
gged	-5966
ifes	-5967
iron	-5968
itan	-5969
othe	-5970
ourn	-5971
pper	-5972
rick	-5973
they	-5974
this	-5975
tled	-5976
work	-5977
▁Adv	-5978
▁App	-5979
▁Che	-5980
▁Def	-5981
▁Fit	-5982
▁Man	-5983
▁Rep	-5984
▁dil	-5985
▁dut	-5986
▁hal	-5987
▁hey	-5988
▁mas	-5989
▁nap	-5990
▁pat	-5991
▁pir	-5992
▁spy	-5993
▁tab	-5994
▁wet	-5995
▁yea	-5996
adies	-5997
arant	-5998
aries	-5999
ersed	-6000
idius	-6001
keley	-6002
loyal	-6003
orted	-6004
ouses	-6005
there	-6006
▁Aren	-6007
▁Gold	-6008
▁Miss	-6009
▁Next	-6010
▁POLI	-6011
▁Pent	-6012
▁Play	-6013
▁Wake	-6014
▁answ	-6015
▁bent	-6016
▁bind	-6017
▁bran	-6018
▁buck	-6019
▁cann	-6020
▁cool	-6021
▁disd	-6022
▁exha	-6023
▁fert	-6024
▁foam	-6025
▁fors	-6026
▁gaze	-6027
▁gnaw	-6028
▁harb	-6029
▁harp	-6030
▁hole	-6031
▁iron	-6032
▁knit	-6033
▁knot	-6034
▁mass	-6035
▁palm	-6036
▁pawn	-6037
▁pour	-6038
▁purp	-6039
▁ripe	-6040
▁risk	-6041
▁rode	-6042
▁rope	-6043
▁ruff	-6044
▁sack	-6045
▁suck	-6046
▁toss	-6047
▁uses	-6048
▁wipe	-6049
▁woke	-6050
Seeing	-6051
attern	-6052
eaning	-6053
eeling	-6054
giving	-6055
icient	-6056
iteous	-6057
master	-6058
orship	-6059
unless	-6060
▁BALTH	-6061
▁Bagot	-6062
▁Bless	-6063
▁Happy	-6064
▁Hurry	-6065
▁March	-6066
▁Throw	-6067
▁Write	-6068
▁abhor	-6069
▁alter	-6070
▁armed	-6071
▁begun	-6072
▁block	-6073
▁built	-6074
▁cabin	-6075
▁chide	-6076
▁coast	-6077
▁corre	-6078
▁crave	-6079
▁demon	-6080
▁depth	-6081
▁eaten	-6082
▁evils	-6083
▁fairy	-6084
▁fatal	-6085
▁frant	-6086
▁funny	-6087
▁glove	-6088
▁herbs	-6089
▁joint	-6090
▁moder	-6091
▁moves	-6092
▁paint	-6093
▁pearl	-6094
▁peers	-6095
▁pierc	-6096
▁prays	-6097
▁pulls	-6098
▁reply	-6099
▁revel	-6100
▁roses	-6101
▁staff	-6102
▁steep	-6103
▁straw	-6104
▁subst	-6105
▁usurp	-6106
▁warri	-6107
▁wooed	-6108
▁Curtis	-6109
▁JULIET	-6110
▁Things	-6111
▁advers	-6112
▁arrive	-6113
▁befall	-6114
▁bestow	-6115
▁boldly	-6116
▁bridal	-6117
▁charms	-6118
▁conven	-6119
▁critic	-6120
▁deeper	-6121
▁depend	-6122
▁fierce	-6123
▁frozen	-6124
▁infant	-6125
▁lesser	-6126
▁losing	-6127
▁louder	-6128
▁pursue	-6129
▁rebell	-6130
▁resist	-6131
▁senate	-6132
▁serves	-6133
▁shores	-6134
▁shroud	-6135
▁spider	-6136
▁stayed	-6137
▁steals	-6138
▁talked	-6139
▁walked	-6140
▁wallet	-6141
▁window	-6142
▁yester	-6143
▁Certain	-6144
▁Whereof	-6145
▁Whether	-6146
▁accompl	-6147
▁animals	-6148
▁appears	-6149
▁blowing	-6150
▁capable	-6151
▁changes	-6152
▁conceal	-6153
▁cousins	-6154
▁created	-6155
▁devoted	-6156
▁discont	-6157
▁divided	-6158
▁epitaph	-6159
▁execute	-6160
▁falling	-6161
▁fulfill	-6162
▁guarant	-6163
▁happier	-6164
▁harmony	-6165
▁insults	-6166
▁kissing	-6167
▁lodging	-6168
▁lunatic	-6169
▁lustful	-6170
▁matters	-6171
▁painful	-6172
▁parting	-6173
▁praying	-6174
▁privile	-6175
▁process	-6176
▁reading	-6177
▁refused	-6178
▁rejoice	-6179
▁returns	-6180
▁scratch	-6181
▁springs	-6182
▁usually	-6183
▁virtues	-6184
▁wherein	-6185
▁whither	-6186
▁willful	-6187
▁wouldnt	-6188
▁Berkeley	-6189
▁Capulets	-6190
▁Venetian	-6191
▁babbling	-6192
▁breathed	-6193
▁carriage	-6194
▁describe	-6195
▁disloyal	-6196
▁drunkard	-6197
▁entrance	-6198
▁families	-6199
▁honestly	-6200
▁increase	-6201
▁musician	-6202
▁nighting	-6203
▁pregnant	-6204
▁provided	-6205
▁troubles	-6206
▁wondrous	-6207
▁BALTHASAR	-6208
▁Ventidius	-6209
▁adventure	-6210
▁appointed	-6211
▁assistant	-6212
▁beholding	-6213
▁overboard	-6214
▁prettiest	-6215
▁prevented	-6216
▁privately	-6217
▁sacrifice	-6218
▁senseless	-6219
▁separated	-6220
▁smothered	-6221
▁unwilling	-6222
▁willingly	-6223
▁affections	-6224
▁attendants	-6225
▁commission	-6226
▁committing	-6227
▁determined	-6228
▁misfortune	-6229
▁perfection	-6230
▁recompense	-6231
▁remembered	-6232
▁celebration	-6233
▁countenance	-6234
▁displeasure	-6235
▁inheritance	-6236
BY	-6237
DO	-6238
sc	-6239
▁:	-6240
▁z	-6241
All	-6242
DOV	-6243
Her	-6244
ICO	-6245
IUS	-6246
MAN	-6247
Out	-6248
bes	-6249
dst	-6250
due	-6251
his	-6252
ias	-6253
new	-6254
omy	-6255
oqu	-6256
rov	-6257
rue	-6258
see	-6259
zed	-6260
▁Ce	-6261
▁LO	-6262
▁Po	-6263
▁SH	-6264
▁hy	-6265
▁la	-6266
▁ox	-6267
ache	-6268
anks	-6269
arib	-6270
ased	-6271
bary	-6272
bert	-6273
bute	-6274
cats	-6275
cock	-6276
cure	-6277
eard	-6278
fare	-6279
foot	-6280
ghed	-6281
good	-6282
hage	-6283
icle	-6284
iddy	-6285
iery	-6286
ique	-6287
llos	-6288
ohol	-6289
omin	-6290
onna	-6291
oops	-6292
part	-6293
play	-6294
post	-6295
quis	-6296
reet	-6297
rors	-6298
spur	-6299
urvy	-6300
vial	-6301
ween	-6302
▁Hic	-6303
▁Sad	-6304
▁Six	-6305
▁dot	-6306
▁ens	-6307
▁fan	-6308
▁gam	-6309
▁gun	-6310
▁hag	-6311
▁hie	-6312
▁hom	-6313
▁inh	-6314
▁sau	-6315
▁toy	-6316
▁tur	-6317
▁vel	-6318
▁vol	-6319
▁yon	-6320
Shall	-6321
adict	-6322
andal	-6323
field	-6324
iders	-6325
irect	-6326
itate	-6327
nific	-6328
orate	-6329
otect	-6330
place	-6331
rable	-6332
since	-6333
stead	-6334
ulous	-6335
uries	-6336
ushes	-6337
▁Bear	-6338
▁Cart	-6339
▁Ever	-6340
▁Kind	-6341
▁Part	-6342
▁Rape	-6343
▁Talk	-6344
▁Virt	-6345
▁Walk	-6346
▁Wife	-6347
▁bows	-6348
▁caps	-6349
▁dirt	-6350
▁duel	-6351
▁enri	-6352
▁eyeb	-6353
▁eyel	-6354
▁fare	-6355
▁flat	-6356
▁gait	-6357
▁gobl	-6358
▁hall	-6359
▁hill	-6360
▁hits	-6361
▁lazy	-6362
▁lean	-6363
▁lick	-6364
▁mort	-6365
▁noon	-6366
▁pays	-6367
▁rail	-6368
▁tied	-6369
▁weed	-6370
DOVICO	-6371
aribel	-6372
ifteen	-6373
ouchsa	-6374
ouring	-6375
semary	-6376
spurgh	-6377
uckold	-6378
▁Ceres	-6379
▁Earth	-6380
▁Knock	-6381
▁Raven	-6382
▁Trust	-6383
▁Youve	-6384
▁advoc	-6385
▁aloud	-6386
▁antic	-6387
▁babes	-6388
▁based	-6389
▁borne	-6390
▁cheat	-6391
▁chose	-6392
▁coins	-6393
▁dried	-6394
▁drums	-6395
▁durst	-6396
▁ended	-6397
▁feeds	-6398
▁fiery	-6399
▁fifty	-6400
▁fills	-6401
▁fires	-6402
▁frost	-6403
▁gaunt	-6404
▁haply	-6405
▁hasty	-6406
▁hazel	-6407
▁hears	-6408
▁horns	-6409
▁hurts	-6410
▁laces	-6411
▁lambs	-6412
▁leads	-6413
▁liars	-6414
▁liver	-6415
▁mates	-6416
▁memor	-6417
▁miles	-6418
▁motto	-6419
▁pursu	-6420
▁raped	-6421
▁raven	-6422
▁sands	-6423
▁score	-6424
▁stays	-6425
▁stret	-6426
▁suits	-6427
▁tight	-6428
▁tread	-6429
▁tries	-6430
▁twill	-6431
▁using	-6432
▁vault	-6433
▁verse	-6434
▁whist	-6435
artered	-6436
ference	-6437
lasting	-6438
writing	-6439
▁Anyone	-6440
▁Banish	-6441
▁Cannot	-6442
▁Chiron	-6443
▁Graces	-6444
▁Having	-6445
▁Return	-6446
▁absent	-6447
▁afeard	-6448
▁amount	-6449
▁behave	-6450
▁beware	-6451
▁biting	-6452
▁comest	-6453
▁courts	-6454
▁darest	-6455
▁driven	-6456
▁enmity	-6457
▁fights	-6458
▁forest	-6459
▁fruits	-6460
▁gloves	-6461
▁hunger	-6462
▁inward	-6463
▁keeper	-6464
▁lately	-6465
▁liquid	-6466
▁merely	-6467
▁nymphs	-6468
▁partly	-6469
▁pounds	-6470
▁quench	-6471
▁repose	-6472
▁saints	-6473
▁season	-6474
▁seldom	-6475
▁settle	-6476
▁silken	-6477
▁skulls	-6478
▁slight	-6479
▁social	-6480
▁sought	-6481
▁spices	-6482
▁starts	-6483
▁strain	-6484
▁theyre	-6485
▁thirty	-6486
▁unruly	-6487
▁wasted	-6488
▁Another	-6489
▁Barbary	-6490
▁Cassios	-6491
▁Comfort	-6492
▁Mercury	-6493
▁Montano	-6494
▁Perhaps	-6495
▁Sicilia	-6496
▁Worship	-6497
▁advised	-6498
▁afflict	-6499
▁alcohol	-6500
▁amongst	-6501
▁apparel	-6502
▁attract	-6503
▁bidding	-6504
▁butcher	-6505
▁ceremon	-6506
▁charged	-6507
▁cheated	-6508
▁earthly	-6509
▁escaped	-6510
▁fertile	-6511
▁figured	-6512
▁fooling	-6513
▁frantic	-6514
▁greatly	-6515
▁grieves	-6516
▁holding	-6517
▁madonna	-6518
▁mightst	-6519
▁miracle	-6520
▁mustard	-6521
▁obvious	-6522
▁opposed	-6523
▁outrage	-6524
▁passage	-6525
▁pattern	-6526
▁piteous	-6527
▁prevail	-6528
▁produce	-6529
▁profane	-6530
▁provide	-6531
▁regards	-6532
▁reports	-6533
▁roaring	-6534
▁scholar	-6535
▁setting	-6536
▁sounded	-6537
▁suppose	-6538
▁survive	-6539
▁touched	-6540
▁unlucky	-6541
▁wanting	-6542
▁Carthage	-6543
▁Claribel	-6544
▁Englands	-6545
▁LODOVICO	-6546
▁accursed	-6547
▁bastards	-6548
▁believed	-6549
▁blushing	-6550
▁branches	-6551
▁carrying	-6552
▁conjured	-6553
▁distance	-6554
▁forswear	-6555
▁frighten	-6556
▁meantime	-6557
▁nobleman	-6558
▁noblemen	-6559
▁peaceful	-6560
▁perforce	-6561
▁petition	-6562
▁planning	-6563
▁rosemary	-6564
▁shoulder	-6565
▁survived	-6566
▁swearing	-6567
▁touching	-6568
▁unjustly	-6569
▁unworthy	-6570
▁wherever	-6571
▁withered	-6572
▁AUTOLYCUS	-6573
▁Mercutios	-6574
▁bounteous	-6575
▁character	-6576
▁dispersed	-6577
▁encourage	-6578
▁flattered	-6579
▁guarantee	-6580
▁infection	-6581
▁ministers	-6582
▁murderous	-6583
▁patiently	-6584
▁privilege	-6585
▁religious	-6586
▁substance	-6587
▁accusation	-6588
▁conspiracy	-6589
▁contradict	-6590
▁discontent	-6591
▁generation	-6592
▁maidenhead	-6593
▁philosophy	-6594
▁pretending	-6595
▁reasonable	-6596
▁ridiculous	-6597
▁surrounded	-6598
▁whispering	-6599
▁wickedness	-6600
▁Ravenspurgh	-6601
▁battlefield	-6602
▁handwriting	-6603
▁shipwrecked	-6604
▁threatening	-6605
▁trustworthy	-6606
▁acquaintance	-6607
Ex	-6608
Kn	-6609
On	-6610
Sw	-6611
UL	-6612
Un	-6613
ho	-6614
ov	-6615
po	-6616
tt	-6617
...	-6618
IGO	-6619
ING	-6620
OBY	-6621
Our	-6622
bel	-6623
boy	-6624
des	-6625
eks	-6626
fit	-6627
imp	-6628
ipt	-6629
isc	-6630
ism	-6631
lor	-6632
nal	-6633
sey	-6634
som	-6635
uls	-6636
upp	-6637
vet	-6638
was	-6639
why	-6640
yes	-6641
▁Ac	-6642
▁Jo	-6643
▁Ju	-6644
▁Sl	-6645
▁TH	-6646
▁ax	-6647
▁ic	-6648
▁na	-6649
▁om	-6650
Call	-6651
Draw	-6652
Give	-6653
Hath	-6654
MOND	-6655
Then	-6656
acks	-6657
adam	-6658
athe	-6659
back	-6660
elsh	-6661
empl	-6662
eyed	-6663
fold	-6664
gins	-6665
hern	-6666
hips	-6667
iety	-6668
line	-6669
onso	-6670
osen	-6671
rish	-6672
roop	-6673
uick	-6674
uish	-6675
uman	-6676
umes	-6677
wick	-6678
▁Act	-6679
▁Att	-6680
▁Hie	-6681
▁Mab	-6682
▁Rel	-6683
▁Sus	-6684
▁Tew	-6685
▁Thr	-6686
▁Use	-6687
▁Vir	-6688
▁Wal	-6689
▁ber	-6690
▁deb	-6691
▁dun	-6692
▁fen	-6693
▁hut	-6694
▁lif	-6695
▁nea	-6696
▁oer	-6697
▁orn	-6698
▁por	-6699
▁sue	-6700
▁tig	-6701
▁unh	-6702
MILIA	-6703
Twere	-6704
anced	-6705
bbing	-6706
chard	-6707
cknow	-6708
cribe	-6709
eable	-6710
enses	-6711
estic	-6712
ighed	-6713
imate	-6714
imony	-6715
inent	-6716
isted	-6717
liard	-6718
maker	-6719
ously	-6720
overy	-6721
owder	-6722
quess	-6723
range	-6724
roach	-6725
stain	-6726
while	-6727
would	-6728
▁Came	-6729
▁Foul	-6730
▁Full	-6731
▁Kill	-6732
▁Name	-6733
▁Sirs	-6734
▁TOBY	-6735
▁Time	-6736
▁ages	-6737
▁argu	-6738
▁balm	-6739
▁band	-6740
▁blem	-6741
▁bore	-6742
▁calf	-6743
▁dram	-6744
▁fake	-6745
▁fest	-6746
▁frag	-6747
▁guys	-6748
▁hail	-6749
▁hoar	-6750
▁horn	-6751
▁lads	-6752
▁lawy	-6753
▁lute	-6754
▁mart	-6755
▁neer	-6756
▁nort	-6757
▁okay	-6758
▁pine	-6759
▁riot	-6760
▁runs	-6761
▁sane	-6762
▁shop	-6763
▁shru	-6764
▁silk	-6765
▁spin	-6766
▁sway	-6767
▁swim	-6768
▁symp	-6769
▁tide	-6770
▁trad	-6771
▁tres	-6772
▁trun	-6773
▁ward	-6774
▁warn	-6775
▁wasp	-6776
▁wolf	-6777
▁wore	-6778
▁wors	-6779
▁youd	-6780
DERIGO	-6781
EPHERD	-6782
THELLO	-6783
anting	-6784
ending	-6785
ercise	-6786
fellow	-6787
leness	-6788
ounced	-6789
ulting	-6790
ustice	-6791
▁Adieu	-6792
▁Awake	-6793
▁Blunt	-6794
▁Cleon	-6795
▁Didst	-6796
▁Grand	-6797
▁Lucre	-6798
▁Makes	-6799
▁Venus	-6800
▁Welsh	-6801
▁added	-6802
▁amend	-6803
▁beest	-6804
▁beget	-6805
▁champ	-6806
▁choke	-6807
▁climb	-6808
▁coats	-6809
▁couch	-6810
▁creep	-6811
▁daily	-6812
▁drive	-6813
▁eloqu	-6814
▁flint	-6815
▁frame	-6816
▁giddy	-6817
▁heirs	-6818
▁ident	-6819
▁lacks	-6820
▁lance	-6821
▁legal	-6822
▁liked	-6823
▁limit	-6824
▁marks	-6825
▁mocks	-6826
▁model	-6827
▁noted	-6828
▁penit	-6829
▁penny	-6830
▁pitch	-6831
▁plans	-6832
▁plate	-6833
▁plots	-6834
▁prank	-6835
▁press	-6836
▁prime	-6837
▁print	-6838
▁realm	-6839
▁rides	-6840
▁robes	-6841
▁rumor	-6842
▁scent	-6843
▁scept	-6844
▁scope	-6845
▁sland	-6846
▁sorts	-6847
▁stake	-6848
▁stops	-6849
▁taunt	-6850
▁trash	-6851
▁twain	-6852
▁wager	-6853
▁waked	-6854
▁wifes	-6855
kesbury	-6856
monster	-6857
quisite	-6858
▁Alonso	-6859
▁Answer	-6860
▁Church	-6861
▁EMILIA	-6862
▁Fellow	-6863
▁Forget	-6864
▁Ladies	-6865
▁burned	-6866
▁chosen	-6867
▁contri	-6868
▁craves	-6869
▁create	-6870
▁dances	-6871
▁eldest	-6872
▁feasts	-6873
▁flying	-6874
▁gladly	-6875
▁hazard	-6876
▁honors	-6877
▁houses	-6878
▁insati	-6879
▁jacket	-6880
▁joined	-6881
▁joking	-6882
▁justly	-6883
▁length	-6884
▁loudly	-6885
▁missed	-6886
▁nobody	-6887
▁nought	-6888
▁opened	-6889
▁perish	-6890
▁pierce	-6891
▁placed	-6892
▁poetry	-6893
▁prodig	-6894
▁prompt	-6895
▁proved	-6896
▁puppet	-6897
▁repaid	-6898
▁repeal	-6899
▁riding	-6900
▁sealed	-6901
▁seized	-6902
▁shrewd	-6903
▁sights	-6904
▁sleeve	-6905
▁starve	-6906
▁strang	-6907
▁strife	-6908
▁supply	-6909
▁tasted	-6910
▁troops	-6911
▁unfold	-6912
▁urgent	-6913
▁velvet	-6914
▁watery	-6915
▁welcom	-6916
▁worlds	-6917
standing	-6918
▁Beseech	-6919
▁Instead	-6920
▁Protect	-6921
▁Warwick	-6922
▁Witness	-6923
▁advance	-6924
▁beastly	-6925
▁beating	-6926
▁blister	-6927
▁bravely	-6928
▁climate	-6929
▁cuckold	-6930
▁curious	-6931
▁dangers	-6932
▁disdain	-6933
▁disturb	-6934
▁divorce	-6935
▁enjoyed	-6936
▁envious	-6937
▁evening	-6938
▁fifteen	-6939
▁finally	-6940
▁hangman	-6941
▁heavier	-6942
▁heinous	-6943
▁highest	-6944
▁however	-6945
▁improve	-6946
▁inhabit	-6947
▁minutes	-6948
▁payment	-6949
▁planned	-6950
▁pleases	-6951
▁prophes	-6952
▁removed	-6953
▁rescued	-6954
▁retired	-6955
▁scandal	-6956
▁scatter	-6957
▁skilled	-6958
▁society	-6959
▁streams	-6960
▁sweetly	-6961
▁thanked	-6962
▁thereby	-6963
▁thinkst	-6964
▁trusted	-6965
▁upright	-6966
▁vantage	-6967
▁warrior	-6968
▁wasting	-6969
▁winters	-6970
▁worldly	-6971
▁wrought	-6972
▁Othellos	-6973
▁RICHMOND	-6974
▁RODERIGO	-6975
▁SHEPHERD	-6976
▁Thaliard	-6977
▁affected	-6978
▁answered	-6979
▁appeared	-6980
▁approval	-6981
▁changing	-6982
▁comforts	-6983
▁devilish	-6984
▁dreaming	-6985
▁entirely	-6986
▁exercise	-6987
▁expected	-6988
▁eyebrows	-6989
▁forsworn	-6990
▁gorgeous	-6991
▁humility	-6992
▁knocking	-6993
▁learning	-6994
▁military	-6995
▁miseries	-6996
▁monsters	-6997
▁pleasing	-6998
▁possibly	-6999
▁provoked	-7000
▁purposes	-7001
▁reported	-7002
▁requests	-7003
▁required	-7004
▁rewarded	-7005
▁shouting	-7006
▁smallest	-7007
▁stomachs	-7008
▁teaching	-7009
▁trespass	-7010
▁Certainly	-7011
▁confusion	-7012
▁damnation	-7013
▁delicious	-7014
▁destroyed	-7015
▁disguised	-7016
▁dishonour	-7017
▁expensive	-7018
▁extremely	-7019
▁guiltless	-7020
▁injustice	-7021
▁methought	-7022
▁mountains	-7023
▁overwhelm	-7024
▁yesterday	-7025
▁Tewkesbury	-7026
▁absolutely	-7027
▁dishonored	-7028
▁flatterers	-7029
▁intentions	-7030
▁messengers	-7031
▁proportion	-7032
▁sufficient	-7033
▁triumphant	-7034
▁philosopher	-7035
UR	-7036
][	-7037
kn	-7038
za	-7039
Can	-7040
Com	-7041
ERV	-7042
Too	-7043
Yet	-7044
aps	-7045
bod	-7046
cat	-7047
cis	-7048
ext	-7049
hey	-7050
how	-7051
ico	-7052
iel	-7053
inu	-7054
ird	-7055
oen	-7056
orm	-7057
ply	-7058
rot	-7059
sec	-7060
sha	-7061
unk	-7062
vag	-7063
▁Gu	-7064
▁Mr	-7065
▁Si	-7066
▁ba	-7067
AMIL	-7068
ELCH	-7069
IMON	-7070
LIUS	-7071
Take	-7072
Till	-7073
alse	-7074
aned	-7075
bbed	-7076
comb	-7077
ency	-7078
ersu	-7079
gage	-7080
gypt	-7081
itch	-7082
leen	-7083
lest	-7084
licy	-7085
live	-7086
odov	-7087
olks	-7088
olog	-7089
orks	-7090
ourt	-7091
reft	-7092
rity	-7093
uced	-7094
urio	-7095
utch	-7096
whom	-7097
wood	-7098
xton	-7099
▁Car	-7100
▁Cer	-7101
▁Dor	-7102
▁Ely	-7103
▁Pra	-7104
▁SIR	-7105
▁Woe	-7106
▁ado	-7107
▁coz	-7108
▁der	-7109
▁een	-7110
▁haw	-7111
▁ice	-7112
▁jot	-7113
▁key	-7114
▁obt	-7115
▁oil	-7116
▁ope	-7117
▁pig	-7118
▁pox	-7119
▁rhy	-7120
▁sap	-7121
▁sce	-7122
▁sed	-7123
▁sem	-7124
▁spl	-7125
▁swo	-7126
▁sym	-7127
▁tum	-7128
▁una	-7129
▁unw	-7130
▁ver	-7131
IANCA	-7132
Sweet	-7133
andra	-7134
athed	-7135
atory	-7136
civil	-7137
forth	-7138
irsty	-7139
oenix	-7140
oning	-7141
order	-7142
ospit	-7143
ossom	-7144
owing	-7145
quire	-7146
speak	-7147
uding	-7148
▁Beat	-7149
▁Besh	-7150
▁Care	-7151
▁Dead	-7152
▁Dest	-7153
▁Five	-7154
▁Isnt	-7155
▁Pret	-7156
▁SERV	-7157
▁Serv	-7158
▁Troy	-7159
▁adul	-7160
▁aged	-7161
▁agre	-7162
▁brim	-7163
▁bull	-7164
▁cens	-7165
▁clam	-7166
▁dawn	-7167
▁duck	-7168
▁edge	-7169
▁fanc	-7170
▁frow	-7171
▁grat	-7172
▁grim	-7173
▁gust	-7174
▁hera	-7175
▁leop	-7176
▁lock	-7177
▁meth	-7178
▁mole	-7179
▁mute	-7180
▁negl	-7181
▁pest	-7182
▁poem	-7183
▁rear	-7184
▁ribb	-7185
▁roll	-7186
▁sequ	-7187
▁serp	-7188
▁shel	-7189
▁slay	-7190
▁sore	-7191
▁sums	-7192
▁swam	-7193
▁tiny	-7194
▁toil	-7195
▁tops	-7196
▁vent	-7197
▁whit	-7198
▁zeal	-7199
blance	-7200
ertime	-7201
iction	-7202
iments	-7203
iously	-7204
ipping	-7205
lesome	-7206
liable	-7207
lihood	-7208
omenes	-7209
otions	-7210
rained	-7211
rament	-7212
wealth	-7213
▁Above	-7214
▁BELCH	-7215
▁Cheer	-7216
▁Doesn	-7217
▁Egypt	-7218
▁Greet	-7219
▁Jesus	-7220
▁Kings	-7221
▁Light	-7222
▁Lodov	-7223
▁Might	-7224
▁Percy	-7225
▁Watch	-7226
▁Worse	-7227
▁Yorks	-7228
▁afore	-7229
▁alleg	-7230
▁argue	-7231
▁arrow	-7232
▁blank	-7233
▁boast	-7234
▁brand	-7235
▁burnt	-7236
▁cases	-7237
▁cater	-7238
▁chief	-7239
▁clink	-7240
▁curts	-7241
▁drugs	-7242
▁error	-7243
▁exact	-7244
▁fired	-7245
▁flame	-7246
▁flock	-7247
▁folks	-7248
▁goods	-7249
▁grate	-7250
▁holid	-7251
▁lions	-7252
▁lists	-7253
▁logic	-7254
▁opens	-7255
▁pants	-7256
▁plent	-7257
▁prick	-7258
▁rocky	-7259
▁rusty	-7260
▁sayst	-7261
▁shirt	-7262
▁slack	-7263
▁spark	-7264
▁stale	-7265
▁stout	-7266
▁sugar	-7267
▁tarry	-7268
▁toads	-7269
▁tower	-7270
▁train	-7271
▁troop	-7272
▁waits	-7273
liction	-7274
nothing	-7275
onstant	-7276
ountain	-7277
▁BIANCA	-7278
▁Castle	-7279
▁Except	-7280
▁Hearts	-7281
▁Lovell	-7282
▁Theyre	-7283
▁Twenty	-7284
▁Virtue	-7285
▁Walter	-7286
▁Whiles	-7287
▁amends	-7288
▁armour	-7289
▁assume	-7290
▁barrel	-7291
▁bloods	-7292
▁branch	-7293
▁causes	-7294
▁chains	-7295
▁closed	-7296
▁colors	-7297
▁contag	-7298
▁corner	-7299
▁crafty	-7300
▁depose	-7301
▁dissol	-7302
▁doubts	-7303
▁ducats	-7304
▁duties	-7305
▁easier	-7306
▁expose	-7307
▁fairer	-7308
▁falcon	-7309
▁forces	-7310
▁graces	-7311
▁grassy	-7312
▁havent	-7313
▁hounds	-7314
▁hunted	-7315
▁indign	-7316
▁infirm	-7317
▁inform	-7318
▁insane	-7319
▁jailer	-7320
▁knocks	-7321
▁liking	-7322
▁oclock	-7323
▁overth	-7324
▁pillow	-7325
▁pitied	-7326
▁pledge	-7327
▁policy	-7328
▁proves	-7329
▁ransom	-7330
▁rapier	-7331
▁redeem	-7332
▁result	-7333
▁rumors	-7334
▁scream	-7335
▁scurvy	-7336
▁sleepy	-7337
▁spleen	-7338
▁stormy	-7339
▁string	-7340
▁target	-7341
▁titles	-7342
▁tragic	-7343
▁unique	-7344
▁visage	-7345
▁whiles	-7346
▁wishes	-7347
AMILLIUS	-7348
Speaking	-7349
gartered	-7350
shearing	-7351
▁Beshrew	-7352
▁Cerimon	-7353
▁Heavens	-7354
▁Juliets	-7355
▁Justice	-7356
▁Lucrece	-7357
▁OTHELLO	-7358
▁Orsinos	-7359
▁Proceed	-7360
▁Stephen	-7361
▁William	-7362
▁ability	-7363
▁arrival	-7364
▁attends	-7365
▁bargain	-7366
▁berries	-7367
▁biggest	-7368
▁chasing	-7369
▁correct	-7370
▁couldst	-7371
▁courses	-7372
▁darling	-7373
▁dischar	-7374
▁discuss	-7375
▁dislike	-7376
▁dropped	-7377
▁eagerly	-7378
▁earldom	-7379
▁exhaust	-7380
▁falsely	-7381
▁fantasy	-7382
▁fasting	-7383
▁finding	-7384
▁froward	-7385
▁furious	-7386
▁garland	-7387
▁grieved	-7388
▁honored	-7389
▁hostess	-7390
▁howling	-7391
▁invited	-7392
▁laughed	-7393
▁marshal	-7394
▁monarch	-7395
▁notable	-7396
▁offices	-7397
▁perfume	-7398
▁perjury	-7399
▁persons	-7400
▁reality	-7401
▁receipt	-7402
▁release	-7403
▁require	-7404
▁restore	-7405
▁royalty	-7406
▁sending	-7407
▁shaking	-7408
▁showers	-7409
▁showing	-7410
▁starved	-7411
▁summers	-7412
▁threats	-7413
▁touches	-7414
▁trivial	-7415
▁uncivil	-7416
▁unpleas	-7417
▁usurped	-7418
▁warning	-7419
▁yielded	-7420
▁Anything	-7421
▁Florence	-7422
▁Lawrence	-7423
▁Lodovico	-7424
▁Richards	-7425
▁advocate	-7426
▁anywhere	-7427
▁apparent	-7428
▁approved	-7429
▁arrogant	-7430
▁attacked	-7431
▁audience	-7432
▁bankrupt	-7433
▁breeding	-7434
▁building	-7435
▁compared	-7436
▁concerns	-7437
▁confused	-7438
▁conquest	-7439
▁contempl	-7440
▁covering	-7441
▁despised	-7442
▁doubtful	-7443
▁farthest	-7444
▁flattery	-7445
▁gestures	-7446
▁grieving	-7447
▁magnific	-7448
▁ordinary	-7449
▁peasants	-7450
▁physical	-7451
▁poisoned	-7452
▁quarrels	-7453
▁receives	-7454
▁reckless	-7455
▁rightful	-7456
▁scolding	-7457
▁sensible	-7458
▁threaten	-7459
▁wasteful	-7460
▁withdraw	-7461
▁youthful	-7462
cknowledge	-7463
▁Cleomenes	-7464
▁Lawrences	-7465
▁Methought	-7466
▁Protector	-7467
▁Saturnine	-7468
▁accompany	-7469
▁ancestors	-7470
▁apprehend	-7471
▁beginning	-7472
▁bothering	-7473
▁conceived	-7474
▁concerned	-7475
▁convinced	-7476
▁corrupted	-7477
▁cowardice	-7478
▁described	-7479
▁determine	-7480
▁exquisite	-7481
▁extremity	-7482
▁foolishly	-7483
▁instantly	-7484
▁intention	-7485
▁notorious	-7486
▁perpetual	-7487
▁prisoners	-7488
▁restraint	-7489
▁shoulders	-7490
▁suspected	-7491
▁threatens	-7492
▁traveling	-7493
▁wholesome	-7494
▁Englishman	-7495
▁afterwards	-7496
▁allegiance	-7497
▁charitable	-7498
▁conference	-7499
▁convenient	-7500
▁difference	-7501
▁proclaimed	-7502
▁substitute	-7503
▁suspicions	-7504
▁suspicious	-7505
▁threatened	-7506
▁unkindness	-7507
▁unreliable	-7508
▁villainous	-7509
▁accusations	-7510
▁everlasting	-7511
▁executioner	-7512
▁nightingale	-7513
▁commonwealth	-7514
▁imprisonment	-7515
?'	-7516
?[	-7517
An	-7518
LE	-7519
ev	-7520
sl	-7521
ux	-7522
AIN	-7523
Get	-7524
Has	-7525
May	-7526
PER	-7527
Thy	-7528
aby	-7529
aur	-7530
aze	-7531
bet	-7532
eav	-7533
erk	-7534
ewd	-7535
ews	-7536
gor	-7537
imo	-7538
ipp	-7539
isy	-7540
ket	-7541
len	-7542
lis	-7543
low	-7544
lse	-7545
min	-7546
net	-7547
nut	-7548
ode	-7549
par	-7550
rid	-7551
tha	-7552
ung	-7553
wit	-7554
yza	-7555
▁AE	-7556
▁BA	-7557
▁BO	-7558
▁Mo	-7559
▁Ur	-7560
▁cy	-7561
Rome	-7562
angs	-7563
apol	-7564
ares	-7565
aste	-7566
bits	-7567
cate	-7568
cile	-7569
cted	-7570
eans	-7571
eeds	-7572
gone	-7573
gory	-7574
ignt	-7575
ilar	-7576
izes	-7577
kest	-7578
kill	-7579
love	-7580
maid	-7581
mast	-7582
merc	-7583
oken	-7584
oubt	-7585
requ	-7586
runk	-7587
seen	-7588
sues	-7589
thri	-7590
ties	-7591
uded	-7592
ules	-7593
uned	-7594
upon	-7595
wing	-7596
▁Aha	-7597
▁Den	-7598
▁Die	-7599
▁Ott	-7600
▁PET	-7601
▁Res	-7602
▁Rom	-7603
▁Sem	-7604
▁Sen	-7605
▁bol	-7606
▁bul	-7607
▁cox	-7608
▁cri	-7609
▁dom	-7610
▁ebb	-7611
▁fem	-7612
▁gab	-7613
▁gem	-7614
▁huh	-7615
▁icy	-7616
▁log	-7617
▁meI	-7618
▁nut	-7619
▁pag	-7620
▁pul	-7621
▁rab	-7622
▁ram	-7623
▁raw	-7624
▁rev	-7625
▁roo	-7626
▁rue	-7627
▁sie	-7628
▁tax	-7629
▁tim	-7630
▁upb	-7631
▁van	-7632
▁web	-7633
▁wot	-7634
▁yew	-7635
Being	-7636
Madam	-7637
Reads	-7638
These	-7639
ading	-7640
adise	-7641
ainty	-7642
ardel	-7643
armed	-7644
arted	-7645
asing	-7646
aurus	-7647
avish	-7648
emper	-7649
erman	-7650
gging	-7651
hable	-7652
iding	-7653
igned	-7654
irmed	-7655
isher	-7656
isses	-7657
istic	-7658
itiff	-7659
izing	-7660
mance	-7661
opher	-7662
orter	-7663
plain	-7664
ponse	-7665
power	-7666
sters	-7667
three	-7668
trees	-7669
uence	-7670
▁Ague	-7671
▁Boat	-7672
▁Burn	-7673
▁Capt	-7674
▁Ease	-7675
▁Fall	-7676
▁Four	-7677
▁Fran	-7678
▁Happ	-7679
▁Mars	-7680
▁Mean	-7681
▁Pres	-7682
▁Prom	-7683
▁Soon	-7684
▁Wear	-7685
▁West	-7686
▁bags	-7687
▁bait	-7688
▁begs	-7689
▁blot	-7690
▁bone	-7691
▁copy	-7692
▁diet	-7693
▁dism	-7694
▁earl	-7695
▁echo	-7696
▁glit	-7697
▁harl	-7698
▁heel	-7699
▁kick	-7700
▁lame	-7701
▁leap	-7702
▁lewd	-7703
▁loan	-7704
▁meed	-7705
▁mold	-7706
▁mult	-7707
▁numb	-7708
▁nuns	-7709
▁perd	-7710
▁pile	-7711
▁puny	-7712
▁repl	-7713
▁scra	-7714
▁sire	-7715
▁size	-7716
▁soil	-7717
▁tang	-7718
▁term	-7719
▁text	-7720
▁uncl	-7721
▁unst	-7722
▁wave	-7723
▁yard	-7724
apable	-7725
apolis	-7726
atient	-7727
bation	-7728
eeming	-7729
eneral	-7730
gentle	-7731
hamber	-7732
icking	-7733
ieving	-7734
ifully	-7735
irable	-7736
keeper	-7737
keness	-7738
orough	-7739
please	-7740
seeing	-7741
spring	-7742
uments	-7743
utiful	-7744
witted	-7745
▁Arise	-7746
▁Break	-7747
▁Carry	-7748
▁Dream	-7749
▁Drown	-7750
▁House	-7751
▁Hymen	-7752
▁Irish	-7753
▁Judas	-7754
▁MARIA	-7755
▁Music	-7756
▁Priam	-7757
▁Wales	-7758
▁acted	-7759
▁adore	-7760
▁advis	-7761
▁alack	-7762
▁alike	-7763
▁apace	-7764
▁arent	-7765
▁baked	-7766
▁beats	-7767
▁bliss	-7768
▁brass	-7769
▁brown	-7770
▁burns	-7771
▁chari	-7772
▁check	-7773
▁chick	-7774
▁crush	-7775
▁decay	-7776
▁decor	-7777
▁depri	-7778
▁draws	-7779
▁drows	-7780
▁exped	-7781
▁fated	-7782
▁flirt	-7783
▁forms	-7784
▁frail	-7785
▁globe	-7786
▁hairs	-7787
▁hedge	-7788
▁hired	-7789
▁infer	-7790
▁limbs	-7791
▁lungs	-7792
▁marin	-7793
▁mirth	-7794
▁moons	-7795
▁nobly	-7796
▁noses	-7797
▁notes	-7798
▁pinch	-7799
▁refle	-7800
▁rocks	-7801
▁ropes	-7802
▁safer	-7803
▁scale	-7804
▁shift	-7805
▁skull	-7806
▁slipp	-7807
▁solic	-7808
▁spear	-7809
▁stamp	-7810
▁stern	-7811
▁swain	-7812
▁sweat	-7813
▁tales	-7814
▁talks	-7815
▁taver	-7816
▁thigh	-7817
▁thorn	-7818
▁toler	-7819
▁tooth	-7820
▁tourn	-7821
▁trunk	-7822
▁tutor	-7823
▁unfit	-7824
▁unlaw	-7825
▁usure	-7826
▁vouch	-7827
▁weeks	-7828
▁woken	-7829
▁woods	-7830
▁wrote	-7831
bedient	-7832
eantime	-7833
empered	-7834
igation	-7835
racious	-7836
raction	-7837
respect	-7838
version	-7839
▁Accost	-7840
▁Almost	-7841
▁Caesar	-7842
▁County	-7843
▁Peters	-7844
▁Poison	-7845
▁Rather	-7846
▁Taurus	-7847
▁Toward	-7848
▁Virgin	-7849
▁Worthy	-7850
▁actors	-7851
▁anyway	-7852
▁arrows	-7853
▁aspect	-7854
▁attorn	-7855
▁belike	-7856
▁bowing	-7857
▁clergy	-7858
▁cloudy	-7859
▁coldly	-7860
▁colour	-7861
▁combat	-7862
▁deputy	-7863
▁dismal	-7864
▁donkey	-7865
▁enrich	-7866
▁equals	-7867
▁faster	-7868
▁favors	-7869
▁finish	-7870
▁framed	-7871
▁gained	-7872
▁ghosts	-7873
▁handle	-7874
▁haught	-7875
▁homage	-7876
▁hoping	-7877
▁humour	-7878
▁income	-7879
▁insinu	-7880
▁interc	-7881
▁jumped	-7882
▁knives	-7883
▁league	-7884
▁livery	-7885
▁mended	-7886
▁method	-7887
▁monkey	-7888
▁nearly	-7889
▁nimble	-7890
▁obsess	-7891
▁pestil	-7892
▁picked	-7893
▁poster	-7894
▁preced	-7895
▁pulled	-7896
▁purses	-7897
▁retire	-7898
▁riddle	-7899
▁rudely	-7900
▁rushed	-7901
▁saddle	-7902
▁shower	-7903
▁shrift	-7904
▁signal	-7905
▁softly	-7906
▁speedy	-7907
▁spells	-7908
▁stable	-7909
▁suppli	-7910
▁symbol	-7911
▁terrif	-7912
▁throws	-7913
▁traged	-7914
▁trifle	-7915
▁tutors	-7916
▁tyrann	-7917
▁unrest	-7918
▁vision	-7919
▁wander	-7920
▁wester	-7921
▁worser	-7922
▁worshi	-7923
etheless	-7924
ouchsafe	-7925
▁Courage	-7926
▁Dionyza	-7927
▁Francis	-7928
▁Friends	-7929
▁Silence	-7930
▁Someone	-7931
▁Spanish	-7932
▁Thieves	-7933
▁appoint	-7934
▁	-7935
e	-7936
o	-7937
t	-7938
a	-7939
s	-7940
n	-7941
h	-7942
r	-7943
i	-7944
l	-7945
d	-7946
u	-7947
m	-7948
y	-7949
w	-7950
,	-7951
f	-7952
c	-7953
g	-7954
.	-7955
b	-7956
p	-7957
v	-7958
I	-7959
k	-7960
'	-7961
T	-7962
A	-7963
?	-7964
W	-7965
!	-7966
H	-7967
S	-7968
O	-7969
B	-7970
M	-7971
N	-7972
;	-7973
C	-7974
L	-7975
G	-7976
Y	-7977
:	-7978
j	-7979
D	-7980
]	-7981
[	-7982
F	-7983
E	-7984
R	-7985
P	-7986
x	-7987
-	-7988
q	-7989
"	-7990
z	-7991
U	-7992
K	-7993
V	-7994
J	-7995
