{
  "version": "1.0",
  "truncation": null,
  "padding": null,
  "added_tokens": [
    {
      "id": 0,
      "content": "<PAD>",
      "single_word": false,
      "lstrip": false,
      "rstrip": false,
      "normalized": false,
      "special": true
    },
    {
      "id": 1,
      "content": "<UNK>",
      "single_word": false,
      "lstrip": false,
      "rstrip": false,
      "normalized": false,
      "special": true
    }
  ],
  "normalizer": null,
  "pre_tokenizer": {
    "type": "Whitespace"
  },
  "post_processor": null,
  "decoder": null,
  "model": {
    "type": "BPE",
    "dropout": null,
    "unk_token": null,
    "continuing_subword_prefix": null,
    "end_of_word_suffix": null,
    "fuse_unk": false,
    "byte_fallback": false,
    "ignore_merges": false,
    "vocab": {
      "<PAD>": 0,
      "<UNK>": 1,
      "!": 2,
      "#": 3,
      "$": 4,
      "%": 5,
      "'": 6,
      "(": 7,
      ")": 8,
      "*": 9,
      ",": 10,
      "-": 11,
      ".": 12,
      "/": 13,
      "0": 14,
      "1": 15,
      "2": 16,
      "3": 17,
      "4": 18,
      "5": 19,
      "6": 20,
      "7": 21,
      "8": 22,
      "9": 23,
      ":": 24,
      ";": 25,
      "?": 26,
      "A": 27,
      "B": 28,
      "C": 29,
      "D": 30,
      "E": 31,
      "F": 32,
      "G": 33,
      "H": 34,
      "I": 35,
      "J": 36,
      "K": 37,
      "L": 38,
      "M": 39,
      "N": 40,
      "O": 41,
      "P": 42,
      "Q": 43,
      "R": 44,
      "S": 45,
      "T": 46,
      "U": 47,
      "V": 48,
      "W": 49,
      "X": 50,
      "Y": 51,
      "Z": 52,
      "[": 53,
      "]": 54,
      "_": 55,
      "a": 56,
      "b": 57,
      "c": 58,
      "d": 59,
      "e": 60,
      "f": 61,
      "g": 62,
      "h": 63,
      "i": 64,
      "j": 65,
      "k": 66,
      "l": 67,
      "m": 68,
      "n": 69,
      "o": 70,
      "p": 71,
      "q": 72,
      "r": 73,
      "s": 74,
      "t": 75,
      "u": 76,
      "v": 77,
      "w": 78,
      "x": 79,
      "y": 80,
      "z": 81,
      "ù": 82,
      "—": 83,
      "‘": 84,
      "’": 85,
      "“": 86,
      "”": 87,
      "•": 88,
      "™": 89,
      "﻿": 90,
      "he": 91,
      "the": 92,
      "in": 93,
      "ou": 94,
      "an": 95,
      "it": 96,
      "er": 97,
      "at": 98,
      "on": 99,
      "re": 100,
      "ing": 101,
      "to": 102,
      "th": 103,
      "ed": 104,
      "and": 105,
      "en": 106,
      "as": 107,
      "or": 108,
      "ll": 109,
      "ce": 110,
      "id": 111,
      "of": 112,
      "is": 113,
      "ar": 114,
      "se": 115,
      "le": 116,
      "li": 117,
      "sa": 118,
      "ow": 119,
      "she": 120,
      "you": 121,
      "be": 122,
      "me": 123,
      "ad": 124,
      "said": 125,
      "st": 126,
      "ut": 127,
      "ly": 128,
      ",”": 129,
      "Ali": 130,
      "Alice": 131,
      "ch": 132,
      "was": 133,
      "ver": 134,
      "ld": 135,
      "ot": 136,
      "her": 137,
      "gh": 138,
      "all": 139,
      "es": 140,
      "ro": 141,
      "that": 142,
      "ent": 143,
      "so": 144,
      "wh": 145,
      "!”": 146,
      "ri": 147,
      "wit": 148,
      "out": 149,
      "ve": 150,
      "with": 151,
      "al": 152,
      "ght": 153,
      "oo": 154,
      "nd": 155,
      "ur": 156,
      "ion": 157,
      "ter": 158,
      "ab": 159,
      "ct": 160,
      "for": 161,
      "ay": 162,
      "ould": 163,
      "ke": 164,
      "ge": 165,
      "tle": 166,
      "The": 167,
      "sh": 168,
      "up": 169,
      "ne": 170,
      "one": 171,
      "not": 172,
      ".”": 173,
      "had": 174,
      "ir": 175,
      "but": 176,
      "ag": 177,
      "very": 178,
      "ck": 179,
      "ther": 180,
      "do": 181,
      "thing": 182,
      "ti": 183,
      "ook": 184,
      "ain": 185,
      "co": 186,
      "this": 187,
      "?”": 188,
      "ha": 189,
      "ue": 190,
      "now": 191,
      "ry": 192,
      "fe": 193,
      "are": 194,
      "own": 195,
      "wor": 196,
      "lit": 197,
      "if": 198,
      "ss": 199,
      "no": 200,
      "they": 201,
      "im": 202,
      "pe": 203,
      "mo": 204,
      "ound": 205,
      "mu": 206,
      "little": 207,
      "sel": 208,
      "his": 209,
      "Wh": 210,
      "ber": 211,
      "ill": 212,
      "su": 213,
      "self": 214,
      "ra": 215,
      "ect": 216,
      "de": 217,
      "any": 218,
      "po": 219,
      "ard": 220,
      "te": 221,
      "un": 222,
      "whe": 223,
      "see": 224,
      "look": 225,
      "beg": 226,
      "way": 227,
      "ouse": 228,
      "what": 229,
      "down": 230,
      "ite": 231,
      "ink": 232,
      "about": 233,
      "wer": 234,
      "we": 235,
      "our": 236,
      "ought": 237,
      "know": 238,
      "per": 239,
      "us": 240,
      "ation": 241,
      "ca": 242,
      "enber": 243,
      "utenber": 244,
      "again": 245,
      "utenberg": 246,
      "go": 247,
      "ject": 248,
      "other": 249,
      "them": 250,
      "like": 251,
      "could": 252,
      "went": 253,
      "would": 254,
      "work": 255,
      "che": 256,
      "am": 257,
      "con": 258,
      "fo": 259,
      "off": 260,
      "were": 261,
      "Gutenberg": 262,
      "Pro": 263,
      "ice": 264,
      "qu": 265,
      "some": 266,
      "Project": 267,
      "ex": 268,
      "ind": 269,
      "herself": 270,
      "have": 271,
      "ic": 272,
      "your": 273,
      "by": 274,
      "pl": 275,
      "thought": 276,
      "ph": 277,
      "ong": 278,
      "time": 279,
      "ment": 280,
      "ree": 281,
      "can": 282,
      "Que": 283,
      "Queen": 284,
      "did": 285,
      "et": 286,
      "lo": 287,
      "right": 288,
      "then": 289,
      "get": 290,
      "bit": 291,
      "don": 292,
      "gr": 293,
      "atter": 294,
      "say": 295,
      "ist": 296,
      "whi": 297,
      "when": 298,
      "ting": 299,
      "who": 300,
      "And": 301,
      "It": 302,
      "You": 303,
      "head": 304,
      "into": 305,
      "fu": 306,
      "ta": 307,
      "there": 308,
      "its": 309,
      "reat": 310,
      "ple": 311,
      "ast": 312,
      "ju": 313,
      "si": 314,
      "Tur": 315,
      "bo": 316,
      "ers": 317,
      "ate": 318,
      "think": 319,
      "King": 320,
      "my": 321,
      "ous": 322,
      "ark": 323,
      "pp": 324,
      "ant": 325,
      "vo": 326,
      "too": 327,
      "rom": 328,
      "Turtle": 329,
      "Mo": 330,
      "ma": 331,
      "ried": 332,
      "began": 333,
      "ep": 334,
      "ort": 335,
      "ide": 336,
      "must": 337,
      "Mock": 338,
      "how": 339,
      "ling": 340,
      "Cat": 341,
      "Gry": 342,
      "Hatter": 343,
      "af": 344,
      "der": 345,
      "king": 346,
      "ure": 347,
      "use": 348,
      "much": 349,
      "quite": 350,
      "phon": 351,
      "Gryphon": 352,
      "mouse": 353,
      "que": 354,
      "won": 355,
      "ish": 356,
      "ac": 357,
      "ever": 358,
      "got": 359,
      "la": 360,
      "ning": 361,
      "read": 362,
      "end": 363,
      "abbit": 364,
      "lar": 365,
      "mark": 366,
      "tw": 367,
      "their": 368,
      "from": 369,
      "ive": 370,
      "pi": 371,
      "irst": 372,
      "voice": 373,
      "cour": 374,
      "ho": 375,
      "only": 376,
      "more": 377,
      "pro": 378,
      "tur": 379,
      "ough": 380,
      "art": 381,
      "com": 382,
      "him": 383,
      "ight": 384,
      "—”": 385,
      "which": 386,
      "Rabbit": 387,
      "led": 388,
      "here": 389,
      "never": 390,
      "just": 391,
      "ack": 392,
      "ance": 393,
      "fore": 394,
      "Du": 395,
      "med": 396,
      "able": 397,
      "such": 398,
      "looked": 399,
      "first": 400,
      "mad": 401,
      "ven": 402,
      "cu": 403,
      "min": 404,
      "py": 405,
      "round": 406,
      "arch": 407,
      "What": 408,
      "How": 409,
      "day": 410,
      "over": 411,
      "pt": 412,
      "tone": 413,
      "came": 414,
      "chess": 415,
      "Duchess": 416,
      "ked": 417,
      "long": 418,
      "erp": 419,
      "should": 420,
      "Dor": 421,
      "She": 422,
      "ace": 423,
      "put": 424,
      "hed": 425,
      "before": 426,
      "well": 427,
      "Dormouse": 428,
      "back": 429,
      "great": 430,
      "lt": 431,
      "man": 432,
      "und": 433,
      "rep": 434,
      "ence": 435,
      "after": 436,
      "cat": 437,
      "ey": 438,
      "low": 439,
      "ang": 440,
      "been": 441,
      "But": 442,
      "hand": 443,
      "ms": 444,
      "pa": 445,
      "ru": 446,
      "ood": 447,
      "We": 448,
      "ave": 449,
      "il": 450,
      "last": 451,
      "There": 452,
      "ER": 453,
      "Oh": 454,
      "Th": 455,
      "ded": 456,
      "dist": 457,
      "ire": 458,
      "ron": 459,
      "will": 460,
      "come": 461,
      "copy": 462,
      "full": 463,
      "If": 464,
      "March": 465,
      "ds": 466,
      "without": 467,
      "large": 468,
      "two": 469,
      "So": 470,
      "el": 471,
      "ele": 472,
      "door": 473,
      "things": 474,
      "tell": 475,
      "works": 476,
      "turn": 477,
      "under": 478,
      "found": 479,
      "pr": 480,
      "spe": 481,
      "wr": 482,
      "ited": 483,
      "ase": 484,
      "set": 485,
      "looking": 486,
      "minut": 487,
      "Do": 488,
      "Hare": 489,
      "gl": 490,
      "jur": 491,
      "tr": 492,
      "tain": 493,
      "try": 494,
      "xt": 495,
      "ates": 496,
      "once": 497,
      "ally": 498,
      "near": 499,
      "moment": 500,
      "dear": 501,
      "begin": 502,
      "CH": 503,
      "Mouse": 504,
      "ap": 505,
      "mber": 506,
      "tal": 507,
      "ves": 508,
      "heard": 509,
      "ine": 510,
      "ense": 511,
      "lied": 512,
      "ess": 513,
      "nothing": 514,
      "grow": 515,
      "make": 516,
      "made": 517,
      "elect": 518,
      "He": 519,
      "dy": 520,
      "est": 521,
      "every": 522,
      "even": 523,
      "mb": 524,
      "may": 525,
      "pre": 526,
      "row": 527,
      "than": 528,
      "ribut": 529,
      "upon": 530,
      "illar": 531,
      "erpillar": 532,
      "replied": 533,
      "eyes": 534,
      "That": 535,
      "ronic": 536,
      "electronic": 537,
      "ame": 538,
      "away": 539,
      "ear": 540,
      "hur": 541,
      "might": 542,
      "old": 543,
      "ving": 544,
      "ved": 545,
      "wa": 546,
      "remark": 547,
      "three": 548,
      "ened": 549,
      "ass": 550,
      "next": 551,
      "Caterpillar": 552,
      "wonder": 553,
      "No": 554,
      "has": 555,
      "om": 556,
      "ted": 557,
      "iting": 558,
      "mean": 559,
      "agree": 560,
      "Why": 561,
      "seemed": 562,
      "going": 563,
      "course": 564,
      "Found": 565,
      "cl": 566,
      "cut": 567,
      "den": 568,
      "good": 569,
      "ild": 570,
      "ten": 571,
      "ity": 572,
      "ated": 573,
      "less": 574,
      "soon": 575,
      "jury": 576,
      "AP": 577,
      "air": 578,
      "ble": 579,
      "dis": 580,
      "find": 581,
      "gard": 582,
      "ig": 583,
      "op": 584,
      "ran": 585,
      "side": 586,
      "tre": 587,
      "ons": 588,
      "llow": 589,
      "ise": 590,
      "ions": 591,
      "shall": 592,
      "does": 593,
      "rather": 594,
      "poor": 595,
      "getting": 596,
      "body": 597,
      "curi": 598,
      "distribut": 599,
      "Co": 600,
      "TER": 601,
      "gu": 602,
      "ious": 603,
      "ary": 604,
      "same": 605,
      "form": 606,
      "new": 607,
      "happ": 608,
      "where": 609,
      "used": 610,
      "took": 611,
      "ures": 612,
      "CHAP": 613,
      "Foundation": 614,
      "garden": 615,
      "CHAPTER": 616,
      "Of": 617,
      "cer": 618,
      "sm": 619,
      "sort": 620,
      "added": 621,
      "alf": 622,
      "felt": 623,
      "imp": 624,
      "ations": 625,
      "quest": 626,
      "Well": 627,
      "_I": 628,
      "clo": 629,
      "fan": 630,
      "half": 631,
      "ps": 632,
      "table": 633,
      "wal": 634,
      "wish": 635,
      "yet": 636,
      "another": 637,
      "let": 638,
      "child": 639,
      "room": 640,
      "ool": 641,
      "till": 642,
      "most": 643,
      "White": 644,
      "while": 645,
      "ak": 646,
      "act": 647,
      "call": 648,
      "dre": 649,
      "gs": 650,
      "pu": 651,
      "part": 652,
      "sent": 653,
      "sup": 654,
      "ul": 655,
      "vid": 656,
      "cess": 657,
      "arm": 658,
      "terms": 659,
      "Then": 660,
      "They": 661,
      "fee": 662,
      "words": 663,
      "cause": 664,
      "exe": 665,
      "play": 666,
      "law": 667,
      "minute": 668,
      "Come": 669,
      "In": 670,
      "This": 671,
      "ci": 672,
      "cro": 673,
      "cried": 674,
      "ea": 675,
      "eat": 676,
      "face": 677,
      "house": 678,
      "ily": 679,
      "kes": 680,
      "mid": 681,
      "par": 682,
      "sit": 683,
      "spo": 684,
      "vent": 685,
      "’”": 686,
      "hear": 687,
      "inter": 688,
      "reme": 689,
      "les": 690,
      "sure": 691,
      "anything": 692,
      "curious": 693,
      "remember": 694,
      "EN": 695,
      "ah": 696,
      "creat": 697,
      "dif": 698,
      "fin": 699,
      "hi": 700,
      "hard": 701,
      "sto": 702,
      "tried": 703,
      "wat": 704,
      "ze": 705,
      "“—": 706,
      "red": 707,
      "repe": 708,
      "iss": 709,
      "leep": 710,
      "bet": 711,
      "being": 712,
      "ently": 713,
      "feet": 714,
      "tea": 715,
      "ful": 716,
      "copyright": 717,
      "fully": 718,
      "execut": 719,
      "Ma": 720,
      "St": 721,
      "TH": 722,
      "Un": 723,
      "dden": 724,
      "mor": 725,
      "ww": 726,
      "oup": 727,
      "thr": 728,
      "enough": 729,
      "lear": 730,
      "lic": 731,
      "follow": 732,
      "something": 733,
      "take": 734,
      "sil": 735,
      "court": 736,
      "turned": 737,
      "appe": 738,
      "iously": 739,
      "certain": 740,
      "As": 741,
      "Bill": 742,
      "age": 743,
      "ob": 744,
      "oot": 745,
      "sat": 746,
      "ans": 747,
      "anx": 748,
      "ren": 749,
      "asked": 750,
      "ished": 751,
      "lie": 752,
      "haps": 753,
      "iful": 754,
      "Who": 755,
      "sudden": 756,
      "place": 757,
      "agreement": 758,
      "small": 759,
      "question": 760,
      "spoke": 761,
      "diff": 762,
      ".)": 763,
      "Book": 764,
      "II": 765,
      "cou": 766,
      "eBook": 767,
      "ople": 768,
      "ring": 769,
      "sid": 770,
      "sur": 771,
      "tri": 772,
      "inde": 773,
      "oud": 774,
      "ener": 775,
      "lef": 776,
      "nee": 777,
      "tily": 778,
      "ared": 779,
      "people": 780,
      "pose": 781,
      "pers": 782,
      "talking": 783,
      "hastily": 784,
      "clu": 785,
      "doesn": 786,
      "high": 787,
      "through": 788,
      ":—": 789,
      "Ar": 790,
      "Din": 791,
      "Her": 792,
      "Lit": 793,
      "OR": 794,
      "book": 795,
      "cur": 796,
      "done": 797,
      "dance": 798,
      "fl": 799,
      "gave": 800,
      "jo": 801,
      "knew": 802,
      "list": 803,
      "sw": 804,
      "tin": 805,
      "want": 806,
      "these": 807,
      "ange": 808,
      "seen": 809,
      "because": 810,
      "cho": 811,
      "aby": 812,
      "keep": 813,
      "fect": 814,
      "ssed": 815,
      "raw": 816,
      "raph": 817,
      "foot": 818,
      "qui": 819,
      "saying": 820,
      "pleas": 821,
      "please": 822,
      "both": 823,
      "pped": 824,
      "idea": 825,
      "arts": 826,
      "beginning": 827,
      "_I_": 828,
      "called": 829,
      "States": 830,
      "United": 831,
      "indeed": 832,
      "AN": 833,
      "For": 834,
      "IN": 835,
      "LI": 836,
      "RE": 837,
      "Will": 838,
      "_very": 839,
      "bot": 840,
      "bus": 841,
      "baby": 842,
      "du": 843,
      "far": 844,
      "ile": 845,
      "mou": 846,
      "ner": 847,
      "ness": 848,
      "sing": 849,
      "zz": 850,
      "hel": 851,
      "itself": 852,
      "rest": 853,
      "toge": 854,
      "sea": 855,
      "saw": 856,
      "ade": 857,
      "stand": 858,
      "change": 859,
      "tem": 860,
      "ways": 861,
      "perhaps": 862,
      "conf": 863,
      "expl": 864,
      "didn": 865,
      "pie": 866,
      "hold": 867,
      "comp": 868,
      "However": 869,
      "irect": 870,
      "speak": 871,
      "trying": 872,
      "talk": 873,
      "happen": 874,
      "close": 875,
      "puzz": 876,
      "better": 877,
      "answer": 878,
      "anxiously": 879,
      "left": 880,
      "Dinah": 881,
      "_very_": 882,
      "mouth": 883,
      "together": 884,
      "Soup": 885,
      "cook": 886,
      "direct": 887,
      "ek": 888,
      "fall": 889,
      "gone": 890,
      "game": 891,
      "hind": 892,
      "ither": 893,
      "mp": 894,
      "many": 895,
      "name": 896,
      "rup": 897,
      "run": 898,
      "sl": 899,
      "inclu": 900,
      "erary": 901,
      "reas": 902,
      "cept": 903,
      "ister": 904,
      "life": 905,
      "behind": 906,
      "ster": 907,
      "utiful": 908,
      "ching": 909,
      "chive": 910,
      "why": 911,
      "whis": 912,
      "fort": 913,
      "kept": 914,
      "shri": 915,
      "agraph": 916,
      "whole": 917,
      "size": 918,
      "ortant": 919,
      "queer": 920,
      "turning": 921,
      "cats": 922,
      "Dodo": 923,
      "trade": 924,
      "hurried": 925,
      "important": 926,
      "paragraph": 927,
      "certainly": 928,
      "Archive": 929,
      "Literary": 930,
      "help": 931,
      "trademark": 932,
      "),": 933,
      "An": 934,
      "Foot": 935,
      "Now": 936,
      "Yes": 937,
      "_that": 938,
      "bb": 939,
      "bir": 940,
      "cla": 941,
      "di": 942,
      "ely": 943,
      "free": 944,
      "glo": 945,
      "give": 946,
      "gener": 947,
      "jest": 948,
      "mind": 949,
      "miss": 950,
      "sound": 951,
      "ask": 952,
      "bea": 953,
      "best": 954,
      "still": 955,
      "lying": 956,
      "chang": 957,
      "vers": 958,
      "always": 959,
      "geon": 960,
      "sho": 961,
      "shar": 962,
      "butter": 963,
      "ager": 964,
      "timid": 965,
      "raid": 966,
      "ection": 967,
      "deal": 968,
      "ards": 969,
      "wouldn": 970,
      "ched": 971,
      "ches": 972,
      "among": 973,
      "donations": 974,
      "tail": 975,
      "antly": 976,
      "makes": 977,
      "afraid": 978,
      "access": 979,
      "medi": 980,
      "erpent": 981,
      "hedge": 982,
      "hands": 983,
      "else": 984,
      "everything": 985,
      "hurry": 986,
      "suppose": 987,
      "laws": 988,
      "interrup": 989,
      "finished": 990,
      "Majest": 991,
      "suddenly": 992,
      "surpr": 993,
      "join": 994,
      "Majesty": 995,
      "Don": 996,
      "Let": 997,
      "OF": 998,
      "Pi": 999,
      "ake": 1000,
      "cr": 1001,
      "car": 1002,
      "dou": 1003,
      "ef": 1004,
      "eager": 1005,
      "hall": 1006,
      "ken": 1007,
      "main": 1008,
      "matter": 1009,
      "pass": 1010,
      "rink": 1011,
      "sleep": 1012,
      "snee": 1013,
      "sister": 1014,
      "inst": 1015,
      "rece": 1016,
      "really": 1017,
      "tho": 1018,
      "ised": 1019,
      "ars": 1020,
      "live": 1021,
      "char": 1022,
      "wasn": 1023,
      "ldi": 1024,
      "soldi": 1025,
      "shout": 1026,
      "cked": 1027,
      "word": 1028,
      "sub": 1029,
      "deep": 1030,
      "whether": 1031,
      "using": 1032,
      "convers": 1033,
      "offend": 1034,
      "times": 1035,
      "grin": 1036,
      "box": 1037,
      "quet": 1038,
      "ready": 1039,
      "minutes": 1040,
      "glad": 1041,
      "nearly": 1042,
      "growing": 1043,
      "waited": 1044,
      "Off": 1045,
      "hardly": 1046,
      "learn": 1047,
      "silence": 1048,
      "trial": 1049,
      "Here": 1050,
      "listen": 1051,
      "reason": 1052,
      "Footman": 1053,
      "claim": 1054,
      "gloves": 1055,
      "Pigeon": 1056,
      "AR": 1057,
      "Lic": 1058,
      "On": 1059,
      "Whe": 1060,
      "_you": 1061,
      "aking": 1062,
      "bright": 1063,
      "cre": 1064,
      "cor": 1065,
      "cid": 1066,
      "ding": 1067,
      "dle": 1068,
      "either": 1069,
      "fur": 1070,
      "fright": 1071,
      "gra": 1072,
      "ick": 1073,
      "oh": 1074,
      "opp": 1075,
      "pool": 1076,
      "stoo": 1077,
      "vi": 1078,
      "wo": 1079,
      "wind": 1080,
      "erent": 1081,
      "though": 1082,
      "org": 1083,
      "sever": 1084,
      "belie": 1085,
      "adv": 1086,
      "rily": 1087,
      "witness": 1088,
      "key": 1089,
      "having": 1090,
      "few": 1091,
      "tears": 1092,
      "against": 1093,
      "contin": 1094,
      "yourself": 1095,
      "ments": 1096,
      "jump": 1097,
      "sig": 1098,
      "sight": 1099,
      "thinking": 1100,
      "ortun": 1101,
      "twink": 1102,
      "mine": 1103,
      "writing": 1104,
      "glass": 1105,
      "mbling": 1106,
      "remarked": 1107,
      "lessons": 1108,
      "open": 1109,
      "opened": 1110,
      "walked": 1111,
      "children": 1112,
      "dream": 1113,
      "party": 1114,
      "sitting": 1115,
      "creatures": 1116,
      "repeated": 1117,
      "appeared": 1118,
      "different": 1119,
      "coun": 1120,
      "person": 1121,
      "bottle": 1122,
      "piece": 1123,
      "sharp": 1124,
      "hedgeho": 1125,
      "doub": 1126,
      "soldiers": 1127,
      "offended": 1128,
      "License": 1129,
      "When": 1130,
      "opportun": 1131,
      ",)": 1132,
      "Ad": 1133,
      "At": 1134,
      "Bea": 1135,
      "CT": 1136,
      "Ju": 1137,
      "Kn": 1138,
      "Not": 1139,
      "Would": 1140,
      "au": 1141,
      "aw": 1142,
      "ather": 1143,
      "br": 1144,
      "bs": 1145,
      "bow": 1146,
      "bro": 1147,
      "ced": 1148,
      "care": 1149,
      "crow": 1150,
      "des": 1151,
      "four": 1152,
      "ger": 1153,
      "gutenberg": 1154,
      "ich": 1155,
      "ky": 1156,
      "kind": 1157,
      "loud": 1158,
      "mn": 1159,
      "ol": 1160,
      "rate": 1161,
      "sp": 1162,
      "serpent": 1163,
      "tree": 1164,
      "um": 1165,
      "ued": 1166,
      "wood": 1167,
      "itten": 1168,
      "ati": 1169,
      "rea": 1170,
      "top": 1171,
      "tory": 1172,
      "order": 1173,
      "least": 1174,
      "ket": 1175,
      "shook": 1176,
      "notic": 1177,
      "cking": 1178,
      "copi": 1179,
      "world": 1180,
      "moved": 1181,
      "gold": 1182,
      "couldn": 1183,
      "consid": 1184,
      "lob": 1185,
      "heads": 1186,
      "fund": 1187,
      "ending": 1188,
      "pig": 1189,
      "prov": 1190,
      "coming": 1191,
      "angrily": 1192,
      "prot": 1193,
      "written": 1194,
      "ears": 1195,
      "feeling": 1196,
      "ventures": 1197,
      "repeat": 1198,
      "execution": 1199,
      "THE": 1200,
      "moral": 1201,
      "www": 1202,
      "explain": 1203,
      "puzzled": 1204,
      "birds": 1205,
      "mission": 1206,
      "timidly": 1207,
      "interrupted": 1208,
      "sneez": 1209,
      "recei": 1210,
      "those": 1211,
      "shouted": 1212,
      "conversation": 1213,
      "believe": 1214,
      "continued": 1215,
      "opportunity": 1216,
      "Knave": 1217,
      "consider": 1218,
      "**": 1219,
      "En": 1220,
      "IT": 1221,
      "ON": 1222,
      "OU": 1223,
      "UT": 1224,
      "_is": 1225,
      "_your": 1226,
      "bat": 1227,
      "cy": 1228,
      "cus": 1229,
      "cket": 1230,
      "dly": 1231,
      "dry": 1232,
      "dread": 1233,
      "draw": 1234,
      "fish": 1235,
      "fact": 1236,
      "ged": 1237,
      "iam": 1238,
      "late": 1239,
      "mit": 1240,
      "mer": 1241,
      "ni": 1242,
      "nu": 1243,
      "nat": 1244,
      "ned": 1245,
      "nice": 1246,
      "pper": 1247,
      "prom": 1248,
      "slow": 1249,
      "ught": 1250,
      "usu": 1251,
      "ult": 1252,
      "yal": 1253,
      "—‘": 1254,
      "int": 1255,
      "iness": 1256,
      "refund": 1257,
      "ash": 1258,
      "asleep": 1259,
      "ses": 1260,
      "secon": 1261,
      "leave": 1262,
      "light": 1263,
      "state": 1264,
      "chin": 1265,
      "sole": 1266,
      "white": 1267,
      "whiting": 1268,
      "almost": 1269,
      "forth": 1270,
      "forgot": 1271,
      "shroom": 1272,
      "ney": 1273,
      "aged": 1274,
      "haven": 1275,
      "feel": 1276,
      "nose": 1277,
      "mushroom": 1278,
      "Which": 1279,
      "ected": 1280,
      "seem": 1281,
      "usion": 1282,
      "others": 1283,
      "aming": 1284,
      "offic": 1285,
      "making": 1286,
      "acle": 1287,
      "marked": 1288,
      "cular": 1289,
      "days": 1290,
      "paw": 1291,
      "distance": 1292,
      "pressed": 1293,
      "waiting": 1294,
      "means": 1295,
      "meaning": 1296,
      "distributing": 1297,
      "formation": 1298,
      "gardeners": 1299,
      "fancy": 1300,
      "actly": 1301,
      "vidence": 1302,
      "croquet": 1303,
      "each": 1304,
      "middle": 1305,
      "watch": 1306,
      "followed": 1307,
      "William": 1308,
      "business": 1309,
      "running": 1310,
      "slates": 1311,
      "including": 1312,
      "whisper": 1313,
      "_that_": 1314,
      "beautiful": 1315,
      "changed": 1316,
      "eagerly": 1317,
      "subject": 1318,
      "_you_": 1319,
      "viol": 1320,
      "window": 1321,
      "doubt": 1322,
      "noticed": 1323,
      "Engl": 1324,
      "_is_": 1325,
      "slowly": 1326,
      ".’”": 1327,
      "AG": 1328,
      "Che": 1329,
      "ED": 1330,
      "Ex": 1331,
      "Five": 1332,
      "First": 1333,
      "IS": 1334,
      "Li": 1335,
      "Lor": 1336,
      "Re": 1337,
      "SE": 1338,
      "Soo": 1339,
      "Section": 1340,
      "_not": 1341,
      "_what": 1342,
      "bur": 1343,
      "bread": 1344,
      "cri": 1345,
      "dro": 1346,
      "eg": 1347,
      "em": 1348,
      "eas": 1349,
      "ell": 1350,
      "gir": 1351,
      "hot": 1352,
      "hun": 1353,
      "ies": 1354,
      "ls": 1355,
      "pay": 1356,
      "pup": 1357,
      "pard": 1358,
      "sch": 1359,
      "sir": 1360,
      "song": 1361,
      "scre": 1362,
      "tu": 1363,
      "ty": 1364,
      "ug": 1365,
      "—“": 1366,
      "ank": 1367,
      "itions": 1368,
      "att": 1369,
      "ret": 1370,
      "remain": 1371,
      "asso": 1372,
      "aster": 1373,
      "isn": 1374,
      "lea": 1375,
      "stup": 1376,
      "sters": 1377,
      "chim": 1378,
      "oop": 1379,
      "show": 1380,
      "shut": 1381,
      "shire": 1382,
      "neck": 1383,
      "notice": 1384,
      "hadn": 1385,
      "tired": 1386,
      "ticular": 1387,
      "hair": 1388,
      "ssi": 1389,
      "history": 1390,
      "decid": 1391,
      "delight": 1392,
      "pocket": 1393,
      "possi": 1394,
      "uncom": 1395,
      "begun": 1396,
      "goes": 1397,
      "quire": 1398,
      "locat": 1399,
      "grown": 1400,
      "ground": 1401,
      "tax": 1402,
      "sigh": 1403,
      "ately": 1404,
      "myself": 1405,
      "however": 1406,
      "reading": 1407,
      "ends": 1408,
      "larger": 1409,
      "provid": 1410,
      "process": 1411,
      "manage": 1412,
      "eye": 1413,
      "pair": 1414,
      "understand": 1415,
      "mbled": 1416,
      "wondering": 1417,
      "trees": 1418,
      "onsense": 1419,
      "distribution": 1420,
      "happened": 1421,
      "sentence": 1422,
      "ciated": 1423,
      "particular": 1424,
      "venture": 1425,
      "story": 1426,
      "silent": 1427,
      "diffic": 1428,
      "eBooks": 1429,
      "sides": 1430,
      "flaming": 1431,
      "quiet": 1432,
      "pleased": 1433,
      "temper": 1434,
      "tempt": 1435,
      "generally": 1436,
      "shoes": 1437,
      "surprised": 1438,
      "frightened": 1439,
      "stood": 1440,
      "hedgehog": 1441,
      "Just": 1442,
      "atiently": 1443,
      "copies": 1444,
      "golden": 1445,
      "lobsters": 1446,
      "provide": 1447,
      "_your_": 1448,
      "number": 1449,
      "solemn": 1450,
      "English": 1451,
      "Cheshire": 1452,
      "Lory": 1453,
      "puppy": 1454,
      "pardon": 1455,
      "school": 1456,
      "associated": 1457,
      "chimney": 1458,
      "decided": 1459,
      "located": 1460,
      "flamingo": 1461,
      "(“": 1462,
      "Af": 1463,
      "All": 1464,
      "CE": 1465,
      "ES": 1466,
      "Lob": 1467,
      "One": 1468,
      "Ple": 1469,
      "Qu": 1470,
      "TI": 1471,
      "Two": 1472,
      "YOU": 1473,
      "av": 1474,
      "app": 1475,
      "ail": 1476,
      "bly": 1477,
      "dare": 1478,
      "evidence": 1479,
      "fun": 1480,
      "gre": 1481,
      "ging": 1482,
      "ges": 1483,
      "hour": 1484,
      "ix": 1485,
      "ied": 1486,
      "lan": 1487,
      "land": 1488,
      "lad": 1489,
      "link": 1490,
      "line": 1491,
      "men": 1492,
      "nur": 1493,
      "nonsense": 1494,
      "por": 1495,
      "pri": 1496,
      "rid": 1497,
      "rabbit": 1498,
      "s_": 1499,
      "sn": 1500,
      "sor": 1501,
      "sim": 1502,
      "tch": 1503,
      "tru": 1504,
      "tarts": 1505,
      "ual": 1506,
      "wise": 1507,
      "wards": 1508,
      "zes": 1509,
      "zard": 1510,
      "inches": 1511,
      "ouble": 1512,
      "anim": 1513,
      "ith": 1514,
      "require": 1515,
      "told": 1516,
      "editions": 1517,
      "ors": 1518,
      "often": 1519,
      "ison": 1520,
      "aring": 1521,
      "arms": 1522,
      "argu": 1523,
      "liked": 1524,
      "youth": 1525,
      "bel": 1526,
      "beat": 1527,
      "below": 1528,
      "melan": 1529,
      "sts": 1530,
      "stay": 1531,
      "utter": 1532,
      "lded": 1533,
      "allow": 1534,
      "roof": 1535,
      "ross": 1536,
      "royal": 1537,
      "outside": 1538,
      "within": 1539,
      "als": 1540,
      "along": 1541,
      "ties": 1542,
      "coll": 1543,
      "fell": 1544,
      "fetch": 1545,
      "worth": 1546,
      "litely": 1547,
      "ssing": 1548,
      "immedi": 1549,
      "pepper": 1550,
      "While": 1551,
      "politely": 1552,
      "unte": 1553,
      "wel": 1554,
      "ween": 1555,
      "permission": 1556,
      "somebody": 1557,
      "ext": 1558,
      "exclaim": 1559,
      "love": 1560,
      "vol": 1561,
      "pict": 1562,
      "pigs": 1563,
      "hope": 1564,
      "himself": 1565,
      "paid": 1566,
      "paper": 1567,
      "spect": 1568,
      "trouble": 1569,
      "inea": 1570,
      "Hearts": 1571,
      "present": 1572,
      "display": 1573,
      "ign": 1574,
      "trembling": 1575,
      "distribute": 1576,
      "guess": 1577,
      "guinea": 1578,
      "walk": 1579,
      "interest": 1580,
      "finish": 1581,
      "executed": 1582,
      "license": 1583,
      "swim": 1584,
      "swam": 1585,
      "choly": 1586,
      "comply": 1587,
      "shriek": 1588,
      "charge": 1589,
      "grave": 1590,
      "jumped": 1591,
      "broken": 1592,
      "protected": 1593,
      "executioner": 1594,
      "sneezing": 1595,
      "received": 1596,
      "dreadfully": 1597,
      "second": 1598,
      "forgotten": 1599,
      "Lizard": 1600,
      "_not_": 1601,
      "scream": 1602,
      "leaves": 1603,
      "stupid": 1604,
      "difficult": 1605,
      "After": 1606,
      "Lobster": 1607,
      "Please": 1608,
      "simple": 1609,
      "melancholy": 1610,
      "exclaimed": 1611,
      "!’": 1612,
      "00": 1613,
      "AD": 1614,
      "Ah": 1615,
      "Are": 1616,
      "Be": 1617,
      "By": 1618,
      "Con": 1619,
      "Every": 1620,
      "FU": 1621,
      "My": 1622,
      "Miss": 1623,
      "NO": 1624,
      "Nor": 1625,
      "PR": 1626,
      "Seven": 1627,
      "TR": 1628,
      "TY": 1629,
      "To": 1630,
      "Tell": 1631,
      "Ver": 1632,
      "Won": 1633,
      "Where": 1634,
      "_was": 1635,
      "_would": 1636,
      "bring": 1637,
      "cle": 1638,
      "cup": 1639,
      "cry": 1640,
      "cru": 1641,
      "case": 1642,
      "clear": 1643,
      "din": 1644,
      "drink": 1645,
      "ew": 1646,
      "ff": 1647,
      "fing": 1648,
      "fri": 1649,
      "fire": 1650,
      "fig": 1651,
      "gar": 1652,
      "hook": 1653,
      "kid": 1654,
      "kno": 1655,
      "knee": 1656,
      "lay": 1657,
      "mon": 1658,
      "mutter": 1659,
      "ng": 1660,
      "ny": 1661,
      "night": 1662,
      "nine": 1663,
      "oc": 1664,
      "os": 1665,
      "pit": 1666,
      "ping": 1667,
      "pur": 1668,
      "pack": 1669,
      "rown": 1670,
      "sic": 1671,
      "spl": 1672,
      "sque": 1673,
      "sky": 1674,
      "twel": 1675,
      "umb": 1676,
      "van": 1677,
      "vous": 1678,
      "wand": 1679,
      "wink": 1680,
      "height": 1681,
      "inv": 1682,
      "ition": 1683,
      "ered": 1684,
      "thor": 1685,
      "throw": 1686,
      "eds": 1687,
      "asking": 1688,
      "lle": 1689,
      "lled": 1690,
      "ceed": 1691,
      "arrow": 1692,
      "leg": 1693,
      "lif": 1694,
      "liance": 1695,
      "sage": 1696,
      "sadly": 1697,
      "young": 1698,
      "become": 1699,
      "meant": 1700,
      "adri": 1701,
      "addre": 1702,
      "stra": 1703,
      "start": 1704,
      "stran": 1705,
      "stick": 1706,
      "wash": 1707,
      "ots": 1708,
      "rose": 1709,
      "alone": 1710,
      "aloud": 1711,
      "altogether": 1712,
      "oose": 1713,
      "fortable": 1714,
      "shan": 1715,
      "shrink": 1716,
      "neat": 1717,
      "doing": 1718,
      "til": 1719,
      "fellow": 1720,
      "nobody": 1721,
      "sul": 1722,
      "race": 1723,
      "defect": 1724,
      "anyone": 1725,
      "poin": 1726,
      "teen": 1727,
      "teac": 1728,
      "until": 1729,
      "seems": 1730,
      "perform": 1731,
      "likely": 1732,
      "check": 1733,
      "folded": 1734,
      "sometimes": 1735,
      "except": 1736,
      "exactly": 1737,
      "indign": 1738,
      "plan": 1739,
      "plain": 1740,
      "cannot": 1741,
      "donate": 1742,
      "grun": 1743,
      "taking": 1744,
      "jud": 1745,
      "pping": 1746,
      "derland": 1747,
      "across": 1748,
      "twice": 1749,
      "home": 1750,
      "proper": 1751,
      "produ": 1752,
      "shouldn": 1753,
      "reply": 1754,
      "angry": 1755,
      "speaking": 1756,
      "write": 1757,
      "wrong": 1758,
      "nearer": 1759,
      "everybody": 1760,
      "evening": 1761,
      "mbs": 1762,
      "waving": 1763,
      "airs": 1764,
      "treacle": 1765,
      "curios": 1766,
      "format": 1767,
      "impatiently": 1768,
      "clock": 1769,
      "walking": 1770,
      "letter": 1771,
      "drew": 1772,
      "Information": 1773,
      "faces": 1774,
      "remembered": 1775,
      "ENT": 1776,
      "stop": 1777,
      "water": 1778,
      "between": 1779,
      "morning": 1780,
      "obtain": 1781,
      "rawling": 1782,
      "nervous": 1783,
      "confusion": 1784,
      "explan": 1785,
      "happens": 1786,
      "direction": 1787,
      "shrill": 1788,
      "bbing": 1789,
      "sounded": 1790,
      "medium": 1791,
      "surprise": 1792,
      "effort": 1793,
      "passed": 1794,
      "sleepy": 1795,
      "instantly": 1796,
      "several": 1797,
      "sighed": 1798,
      "twinkle": 1799,
      "country": 1800,
      "Adventures": 1801,
      "Beautiful": 1802,
      "crowded": 1803,
      "mitted": 1804,
      "nibb": 1805,
      "usual": 1806,
      "paws": 1807,
      "whispered": 1808,
      "dropped": 1809,
      "eggs": 1810,
      "procession": 1811,
      "quietly": 1812,
      "Quadri": 1813,
      "sorrow": 1814,
      "unteers": 1815,
      "interesting": 1816,
      "PRO": 1817,
      "Very": 1818,
      "Wonderland": 1819,
      "_was_": 1820,
      "_would_": 1821,
      "finger": 1822,
      "hookah": 1823,
      "strange": 1824,
      "teacup": 1825,
      "curiosity": 1826,
      "Quadrille": 1827,
      ").": 1828,
      ",’”": 1829,
      "?—": 1830,
      "AB": 1831,
      "AL": 1832,
      "BER": 1833,
      "Can": 1834,
      "Call": 1835,
      "Cau": 1836,
      "DA": 1837,
      "Down": 1838,
      "ECT": 1839,
      "Fren": 1840,
      "FOR": 1841,
      "Father": 1842,
      "GUT": 1843,
      "Hold": 1844,
      "IV": 1845,
      "JECT": 1846,
      "LL": 1847,
      "Long": 1848,
      "Mary": 1849,
      "Never": 1850,
      "Pr": 1851,
      "Ro": 1852,
      "RAN": 1853,
      "Sa": 1854,
      "Se": 1855,
      "Sh": 1856,
      "Sure": 1857,
      "Take": 1858,
      "VII": 1859,
      "WAR": 1860,
      "With": 1861,
      "_me": 1862,
      "_have": 1863,
      "_can": 1864,
      "_You": 1865,
      "_think": 1866,
      "ax": 1867,
      "breat": 1868,
      "bank": 1869,
      "dam": 1870,
      "dark": 1871,
      "dish": 1872,
      "dition": 1873,
      "ead": 1874,
      "fit": 1875,
      "fer": 1876,
      "fon": 1877,
      "fly": 1878,
      "fill": 1879,
      "flo": 1880,
      "fast": 1881,
      "fla": 1882,
      "flow": 1883,
      "fair": 1884,
      "frown": 1885,
      "gi": 1886,
      "gue": 1887,
      "gently": 1888,
      "hon": 1889,
      "ie": 1890,
      "ial": 1891,
      "ilit": 1892,
      "ivid": 1893,
      "iles": 1894,
      "kit": 1895,
      "lat": 1896,
      "mice": 1897,
      "master": 1898,
      "none": 1899,
      "pan": 1900,
      "pas": 1901,
      "patter": 1902,
      "port": 1903,
      "rase": 1904,
      "sin": 1905,
      "ser": 1906,
      "sed": 1907,
      "sli": 1908,
      "soup": 1909,
      "tong": 1910,
      "tast": 1911,
      "ull": 1912,
      "ude": 1913,
      "uff": 1914,
      "vil": 1915,
      "vage": 1916,
      "wow": 1917,
      "wide": 1918,
      "wild": 1919,
      "yer": 1920,
      "yaw": 1921,
      "—’": 1922,
      "—’”": 1923,
      "held": 1924,
      "itude": 1925,
      "atus": 1926,
      "ones": 1927,
      "online": 1928,
      "real": 1929,
      "return": 1930,
      "replace": 1931,
      "removed": 1932,
      "tom": 1933,
      "thim": 1934,
      "orus": 1935,
      "ider": 1936,
      "isit": 1937,
      "arre": 1938,
      "arse": 1939,
      "arches": 1940,
      "search": 1941,
      "lives": 1942,
      "savage": 1943,
      "behead": 1944,
      "met": 1945,
      "meet": 1946,
      "adventures": 1947,
      "sted": 1948,
      "states": 1949,
      "stairs": 1950,
      "status": 1951,
      "chance": 1952,
      "verse": 1953,
      "verdi": 1954,
      "verses": 1955,
      "ote": 1956,
      "hers": 1957,
      "esca": 1958,
      "solic": 1959,
      "sobs": 1960,
      "also": 1961,
      "alter": 1962,
      "ural": 1963,
      "short": 1964,
      "upset": 1965,
      "need": 1966,
      "tip": 1967,
      "cost": 1968,
      "cover": 1969,
      "fear": 1970,
      "fees": 1971,
      "ify": 1972,
      "pet": 1973,
      "pect": 1974,
      "peep": 1975,
      "move": 1976,
      "selves": 1977,
      "rage": 1978,
      "dead": 1979,
      "poise": 1980,
      "posted": 1981,
      "teles": 1982,
      "unless": 1983,
      "week": 1984,
      "webs": 1985,
      "perfect": 1986,
      "capit": 1987,
      "otherwise": 1988,
      "chen": 1989,
      "concer": 1990,
      "contempt": 1991,
      "quarre": 1992,
      "exp": 1993,
      "expect": 1994,
      "individ": 1995,
      "ication": 1996,
      "thoughtfully": 1997,
      "phrase": 1998,
      "grass": 1999,
      "says": 2000,
      "tact": 2001,
      "taken": 2002,
      "taught": 2003,
      "deri": 2004,
      "accept": 2005,
      "hole": 2006,
      "hoarse": 2007,
      "comput": 2008,
      "ledge": 2009,
      "shoulder": 2010,
      "shoulders": 2011,
      "managed": 2012,
      "pale": 2013,
      "rule": 2014,
      "rush": 2015,
      "rules": 2016,
      "copying": 2017,
      "Some": 2018,
      "elbow": 2019,
      "sett": 2020,
      "jurors": 2021,
      "true": 2022,
      "begins": 2023,
      "pret": 2024,
      "earth": 2025,
      "Nothing": 2026,
      "jurymen": 2027,
      "disclaim": 2028,
      "igging": 2029,
      "distributed": 2030,
      "smi": 2031,
      "questions": 2032,
      "suppressed": 2033,
      "support": 2034,
      "players": 2035,
      "civil": 2036,
      "cross": 2037,
      "hearing": 2038,
      "ENBER": 2039,
      "creature": 2040,
      "Mabel": 2041,
      "following": 2042,
      "appear": 2043,
      "ootiful": 2044,
      "courage": 2045,
      "tiny": 2046,
      "wanted": 2047,
      "keeping": 2048,
      "quick": 2049,
      "AND": 2050,
      "ANY": 2051,
      "bottom": 2052,
      "busily": 2053,
      "confused": 2054,
      "holder": 2055,
      "compliance": 2056,
      "puzzling": 2057,
      "answered": 2058,
      "mouths": 2059,
      "fallen": 2060,
      "slate": 2061,
      "fortun": 2062,
      "Ann": 2063,
      "freely": 2064,
      "beaut": 2065,
      "shore": 2066,
      "carry": 2067,
      "carried": 2068,
      "passion": 2069,
      "deeply": 2070,
      "corner": 2071,
      "further": 2072,
      "severely": 2073,
      "jumping": 2074,
      "twinkling": 2075,
      "sharply": 2076,
      "Beau": 2077,
      "bowed": 2078,
      "crowd": 2079,
      "reach": 2080,
      "ordered": 2081,
      "***": 2082,
      "bats": 2083,
      "natural": 2084,
      "officers": 2085,
      "violently": 2086,
      "easily": 2087,
      "girl": 2088,
      "hung": 2089,
      "retched": 2090,
      "possible": 2091,
      "uncomfortable": 2092,
      "providing": 2093,
      "ventured": 2094,
      "solemnly": 2095,
      "decidedly": 2096,
      "green": 2097,
      "hours": 2098,
      "porpoise": 2099,
      "animals": 2100,
      "requirements": 2101,
      "argument": 2102,
      "collection": 2103,
      "volunteers": 2104,
      "pictures": 2105,
      "displaying": 2106,
      "screamed": 2107,
      "difficulty": 2108,
      "crumbs": 2109,
      "twelve": 2110,
      "vanished": 2111,
      "straight": 2112,
      "shrinking": 2113,
      "pointing": 2114,
      "indignantly": 2115,
      "grunted": 2116,
      "judge": 2117,
      "explanation": 2118,
      "PROJECT": 2119,
      "Caucus": 2120,
      "French": 2121,
      "GUTENBER": 2122,
      "Said": 2123,
      "WARRAN": 2124,
      "_me_": 2125,
      "_have_": 2126,
      "_can_": 2127,
      "_think_": 2128,
      "breath": 2129,
      "fond": 2130,
      "frowning": 2131,
      "honour": 2132,
      "ility": 2133,
      "kitchen": 2134,
      "passage": 2135,
      "since": 2136,
      "tongue": 2137,
      "thimble": 2138,
      "verdict": 2139,
      "escape": 2140,
      "telesco": 2141,
      "website": 2142,
      "perfectly": 2143,
      "capital": 2144,
      "individual": 2145,
      "GUTENBERG": 2146,
      "!—": 2147,
      "!’”": 2148,
      ",’": 2149,
      ".—": 2150,
      ".’": 2151,
      ";”": 2152,
      "AS": 2153,
      "AT": 2154,
      "BUT": 2155,
      "Ch": 2156,
      "Cons": 2157,
      "Did": 2158,
      "DER": 2159,
      "DIS": 2160,
      "Drawling": 2161,
      "EM": 2162,
      "Ed": 2163,
      "Eag": 2164,
      "Go": 2165,
      "Give": 2166,
      "Gener": 2167,
      "Have": 2168,
      "Is": 2169,
      "ILI": 2170,
      "LA": 2171,
      "Lat": 2172,
      "ME": 2173,
      "May": 2174,
      "MIT": 2175,
      "MAG": 2176,
      "Ow": 2177,
      "Pan": 2178,
      "Per": 2179,
      "Pat": 2180,
      "Pep": 2181,
      "Pig": 2182,
      "Right": 2183,
      "Sto": 2184,
      "Sup": 2185,
      "Spe": 2186,
      "Sil": 2187,
      "Serpent": 2188,
      "Ti": 2189,
      "Tor": 2190,
      "Tis": 2191,
      "Twink": 2192,
      "Up": 2193,
      "VI": 2194,
      "Yet": 2195,
      "_he": 2196,
      "_she": 2197,
      "_one": 2198,
      "_this": 2199,
      "_are": 2200,
      "_could": 2201,
      "_must": 2202,
      "_will": 2203,
      "_That": 2204,
      "alive": 2205,
      "bound": 2206,
      "bark": 2207,
      "blow": 2208,
      "bran": 2209,
      "blic": 2210,
      "brea": 2211,
      "cing": 2212,
      "cand": 2213,
      "cal": 2214,
      "cil": 2215,
      "cards": 2216,
      "cceed": 2217,
      "dri": 2218,
      "date": 2219,
      "dated": 2220,
      "ech": 2221,
      "eel": 2222,
      "equi": 2223,
      "fut": 2224,
      "fits": 2225,
      "fight": 2226,
      "fron": 2227,
      "faster": 2228,
      "fix": 2229,
      "hang": 2230,
      "humb": 2231,
      "jaw": 2232,
      "kill": 2233,
      "kers": 2234,
      "kick": 2235,
      "kni": 2236,
      "m_": 2237,
      "ming": 2238,
      "mis": 2239,
      "mone": 2240,
      "mist": 2241,
      "mile": 2242,
      "miles": 2243,
      "mpet": 2244,
      "non": 2245,
      "ners": 2246,
      "oy": 2247,
      "ove": 2248,
      "pin": 2249,
      "pen": 2250,
      "pain": 2251,
      "pun": 2252,
      "pment": 2253,
      "past": 2254,
      "pity": 2255,
      "rat": 2256,
      "sk": 2257,
      "smo": 2258,
      "sense": 2259,
      "simp": 2260,
      "sending": 2261,
      "tis": 2262,
      "twent": 2263,
      "treat": 2264,
      "ush": 2265,
      "une": 2266,
      "uck": 2267,
      "uous": 2268,
      "vat": 2269,
      "var": 2270,
      "vice": 2271,
      "win": 2272,
      "ying": 2273,
      "yest": 2274,
      "zed": 2275,
      "’!”": 2276,
      "“‘": 2277,
      "hes": 2278,
      "inted": 2279,
      "information": 2280,
      "oun": 2281,
      "anta": 2282,
      "anced": 2283,
      "itation": 2284,
      "ering": 2285,
      "eral": 2286,
      "erday": 2287,
      "attempt": 2288,
      "regu": 2289,
      "resent": 2290,
      "relie": 2291,
      "respect": 2292,
      "toes": 2293,
      "toise": 2294,
      "tossing": 2295,
      "thand": 2296,
      "edge": 2297,
      "eng": 2298,
      "encour": 2299,
      "ashed": 2300,
      "lling": 2301,
      "ising": 2302,
      "around": 2303,
      "legs": 2304,
      "livery": 2305,
      "lived": 2306,
      "liged": 2307,
      "limit": 2308,
      "sad": 2309,
      "sal": 2310,
      "sau": 2311,
      "beast": 2312,
      "belong": 2313,
      "besides": 2314,
      "mes": 2315,
      "ading": 2316,
      "aded": 2317,
      "addition": 2318,
      "stant": 2319,
      "staring": 2320,
      "stuff": 2321,
      "utiously": 2322,
      "chorus": 2323,
      "rog": 2324,
      "rodu": 2325,
      "roses": 2326,
      "entity": 2327,
      "sobbing": 2328,
      "rious": 2329,
      "alas": 2330,
      "already": 2331,
      "ioned": 2332,
      "ability": 2333,
      "above": 2334,
      "forgetting": 2335,
      "shap": 2336,
      "shaking": 2337,
      "nest": 2338,
      "notion": 2339,
      "aging": 2340,
      "ages": 2341,
      "cks": 2342,
      "dog": 2343,
      "doth": 2344,
      "dogs": 2345,
      "owner": 2346,
      "worse": 2347,
      "noise": 2348,
      "impossible": 2349,
      "moving": 2350,
      "music": 2351,
      "suit": 2352,
      "sult": 2353,
      "succeed": 2354,
      "ract": 2355,
      "decl": 2356,
      "anywhere": 2357,
      "pos": 2358,
      "posit": 2359,
      "poison": 2360,
      "text": 2361,
      "unimportant": 2362,
      "unfortun": 2363,
      "ourn": 2364,
      "knowledge": 2365,
      "permitted": 2366,
      "user": 2367,
      "cake": 2368,
      "cakes": 2369,
      "caught": 2370,
      "cautiously": 2371,
      "themselves": 2372,
      "checked": 2373,
      "cheered": 2374,
      "contain": 2375,
      "contact": 2376,
      "constant": 2377,
      "somewhere": 2378,
      "exam": 2379,
      "plate": 2380,
      "mentioned": 2381,
      "lost": 2382,
      "grand": 2383,
      "tale": 2384,
      "takes": 2385,
      "ples": 2386,
      "pleaded": 2387,
      "six": 2388,
      "Turn": 2389,
      "boy": 2390,
      "boots": 2391,
      "mail": 2392,
      "mustard": 2393,
      "howling": 2394,
      "muchness": 2395,
      "acles": 2396,
      "accid": 2397,
      "accoun": 2398,
      "twist": 2399,
      "picked": 2400,
      "voices": 2401,
      "hoping": 2402,
      "oughly": 2403,
      "Duck": 2404,
      "longer": 2405,
      "putting": 2406,
      "catch": 2407,
      "handed": 2408,
      "Thank": 2409,
      "turns": 2410,
      "prison": 2411,
      "printed": 2412,
      "speech": 2413,
      "wrote": 2414,
      "trot": 2415,
      "dears": 2416,
      "growl": 2417,
      "hurt": 2418,
      "waist": 2419,
      "remarks": 2420,
      "remarking": 2421,
      "Nobody": 2422,
      "clusion": 2423,
      "lesson": 2424,
      "finding": 2425,
      "happy": 2426,
      "sorts": 2427,
      "public": 2428,
      "parts": 2429,
      "cial": 2430,
      "crossed": 2431,
      "END": 2432,
      "creating": 2433,
      "stopped": 2434,
      "watching": 2435,
      "THIS": 2436,
      "licable": 2437,
      "follows": 2438,
      "obliged": 2439,
      "anxious": 2440,
      "smaller": 2441,
      "swallow": 2442,
      "choked": 2443,
      "footman": 2444,
      "pleasant": 2445,
      "IND": 2446,
      "ING": 2447,
      "LIMIT": 2448,
      "RES": 2449,
      "dull": 2450,
      "confusing": 2451,
      "holding": 2452,
      "complying": 2453,
      "directly": 2454,
      "directions": 2455,
      "included": 2456,
      "whiskers": 2457,
      "paragraphs": 2458,
      "general": 2459,
      "sounds": 2460,
      "tails": 2461,
      "joined": 2462,
      "crown": 2463,
      "crash": 2464,
      "effect": 2465,
      "instance": 2466,
      "instead": 2467,
      "grinned": 2468,
      "listening": 2469,
      "ART": 2470,
      "Once": 2471,
      "Only": 2472,
      "advance": 2473,
      "advanta": 2474,
      "sign": 2475,
      "opening": 2476,
      "pieces": 2477,
      "hedgehogs": 2478,
      "brought": 2479,
      "carefully": 2480,
      "loudly": 2481,
      "spread": 2482,
      "serpents": 2483,
      "repeating": 2484,
      "considering": 2485,
      "considered": 2486,
      "custo": 2487,
      "promot": 2488,
      "usually": 2489,
      "introdu": 2490,
      "official": 2491,
      "AGRE": 2492,
      "Exactly": 2493,
      "burn": 2494,
      "easy": 2495,
      "girls": 2496,
      "hunting": 2497,
      "paying": 2498,
      "payments": 2499,
      "tucked": 2500,
      "attending": 2501,
      "remained": 2502,
      "possibly": 2503,
      "sighing": 2504,
      "provided": 2505,
      "applicable": 2506,
      "funny": 2507,
      "lady": 2508,
      "links": 2509,
      "nurse": 2510,
      "nursing": 2511,
      "prizes": 2512,
      "snail": 2513,
      "trumpet": 2514,
      "royalties": 2515,
      "immediate": 2516,
      "immediately": 2517,
      "extra": 2518,
      "spectacles": 2519,
      "guessed": 2520,
      "gravely": 2521,
      "Everybody": 2522,
      "North": 2523,
      "TRI": 2524,
      "bringing": 2525,
      "friend": 2526,
      "figure": 2527,
      "knocking": 2528,
      "muttering": 2529,
      "occur": 2530,
      "splash": 2531,
      "washing": 2532,
      "sulky": 2533,
      "defective": 2534,
      "teenth": 2535,
      "performing": 2536,
      "efforts": 2537,
      "nibbling": 2538,
      "DAMAG": 2539,
      "Pray": 2540,
      "See": 2541,
      "filled": 2542,
      "floor": 2543,
      "guests": 2544,
      "later": 2545,
      "pattering": 2546,
      "slipped": 2547,
      "tasted": 2548,
      "replacement": 2549,
      "beheaded": 2550,
      "needn": 2551,
      "covered": 2552,
      "peeped": 2553,
      "contemptuous": 2554,
      "expense": 2555,
      "expecting": 2556,
      "derivat": 2557,
      "settled": 2558,
      "hungry": 2559,
      "telescope": 2560,
      "Consider": 2561,
      "Eaglet": 2562,
      "General": 2563,
      "ILITY": 2564,
      "Owl": 2565,
      "Panther": 2566,
      "Perhaps": 2567,
      "Pepper": 2568,
      "Silence": 2569,
      "Time": 2570,
      "Tortoise": 2571,
      "Twinkle": 2572,
      "_he_": 2573,
      "_one_": 2574,
      "_are_": 2575,
      "_must_": 2576,
      "_will_": 2577,
      "_That_": 2578,
      "breathe": 2579,
      "candle": 2580,
      "equipment": 2581,
      "future": 2582,
      "hanging": 2583,
      "knife": 2584,
      "money": 2585,
      "mistake": 2586,
      "pencil": 2587,
      "simply": 2588,
      "uneas": 2589,
      "yesterday": 2590,
      "limitation": 2591,
      "shaped": 2592,
      "succeeded": 2593,
      "unfortunate": 2594,
      "accident": 2595,
      "LIMITED": 2596,
      "advantage": 2597,
      "derivative": 2598,
      "):": 2599,
      ");": 2600,
      ")—“": 2601,
      "01": 2602,
      "11": 2603,
      "15": 2604,
      "20": 2605,
      "200": 2606,
      "90": 2607,
      "?’”": 2608,
      "Al": 2609,
      "Au": 2610,
      "ACH": 2611,
      "ALI": 2612,
      "ACT": 2613,
      "BE": 2614,
      "BO": 2615,
      "BRE": 2616,
      "Cr": 2617,
      "Car": 2618,
      "Cro": 2619,
      "Com": 2620,
      "CEN": 2621,
      "CII": 2622,
      "CON": 2623,
      "DR": 2624,
      "De": 2625,
      "Digging": 2626,
      "EX": 2627,
      "Evidence": 2628,
      "EBO": 2629,
      "Fur": 2630,
      "Fish": 2631,
      "Get": 2632,
      "Ground": 2633,
      "Ho": 2634,
      "Hush": 2635,
      "IM": 2636,
      "IX": 2637,
      "Im": 2638,
      "IRE": 2639,
      "ILL": 2640,
      "Ke": 2641,
      "LE": 2642,
      "Last": 2643,
      "Lew": 2644,
      "LAND": 2645,
      "Mer": 2646,
      "Mor": 2647,
      "Mad": 2648,
      "Mind": 2649,
      "Near": 2650,
      "NIT": 2651,
      "Next": 2652,
      "OK": 2653,
      "OSE": 2654,
      "PG": 2655,
      "PU": 2656,
      "Pl": 2657,
      "Po": 2658,
      "Par": 2659,
      "Pri": 2660,
      "Part": 2661,
      "Pool": 2662,
      "Present": 2663,
      "QU": 2664,
      "Red": 2665,
      "Race": 2666,
      "ST": 2667,
      "Su": 2668,
      "Shall": 2669,
      "Story": 2670,
      "Sends": 2671,
      "TO": 2672,
      "Ta": 2673,
      "Ter": 2674,
      "Tre": 2675,
      "Tea": 2676,
      "Tarts": 2677,
      "Tears": 2678,
      "UM": 2679,
      "US": 2680,
      "Ug": 2681,
      "Use": 2682,
      "Ugh": 2683,
      "URES": 2684,
      "Van": 2685,
      "VENT": 2686,
      "Wr": 2687,
      "Wow": 2688,
      "Wake": 2689,
      "WON": 2690,
      "XI": 2691,
      "XII": 2692,
      "Your": 2693,
      "_in": 2694,
      "_it": 2695,
      "_said": 2696,
      "_quite": 2697,
      "_ever": 2698,
      "_here": 2699,
      "_never": 2700,
      "_Un": 2701,
      "_important": 2702,
      "_best": 2703,
      "_mine": 2704,
      "ais": 2705,
      "ach": 2706,
      "aked": 2707,
      "bl": 2708,
      "bre": 2709,
      "bed": 2710,
      "bas": 2711,
      "bad": 2712,
      "bite": 2713,
      "bour": 2714,
      "bish": 2715,
      "bla": 2716,
      "bend": 2717,
      "blast": 2718,
      "bble": 2719,
      "beds": 2720,
      "barrow": 2721,
      "brush": 2722,
      "cas": 2723,
      "cir": 2724,
      "cif": 2725,
      "cra": 2726,
      "card": 2727,
      "cart": 2728,
      "cations": 2729,
      "cool": 2730,
      "claws": 2731,
      "dan": 2732,
      "dles": 2733,
      "drun": 2734,
      "digging": 2735,
      "dais": 2736,
      "ebook": 2737,
      "fed": 2738,
      "fain": 2739,
      "fif": 2740,
      "fra": 2741,
      "fam": 2742,
      "fine": 2743,
      "farm": 2744,
      "father": 2745,
      "fash": 2746,
      "fav": 2747,
      "foun": 2748,
      "frog": 2749,
      "gid": 2750,
      "graph": 2751,
      "gister": 2752,
      "goose": 2753,
      "hit": 2754,
      "hat": 2755,
      "hatter": 2756,
      "hate": 2757,
      "hund": 2758,
      "harm": 2759,
      "hint": 2760,
      "igh": 2761,
      "ible": 2762,
      "ief": 2763,
      "jar": 2764,
      "kne": 2765,
      "knot": 2766,
      "kily": 2767,
      "kiss": 2768,
      "lid": 2769,
      "lone": 2770,
      "lves": 2771,
      "loose": 2772,
      "mar": 2773,
      "mur": 2774,
      "mous": 2775,
      "mpt": 2776,
      "mil": 2777,
      "mited": 2778,
      "mmer": 2779,
      "mix": 2780,
      "mourn": 2781,
      "nor": 2782,
      "nam": 2783,
      "narrow": 2784,
      "od": 2785,
      "ograph": 2786,
      "pat": 2787,
      "ped": 2788,
      "pid": 2789,
      "pot": 2790,
      "pes": 2791,
      "pite": 2792,
      "parch": 2793,
      "prep": 2794,
      "pence": 2795,
      "pends": 2796,
      "patiently": 2797,
      "pract": 2798,
      "rance": 2799,
      "ratt": 2800,
      "sand": 2801,
      "sen": 2802,
      "sof": 2803,
      "sour": 2804,
      "sation": 2805,
      "sca": 2806,
      "sang": 2807,
      "scro": 2808,
      "snat": 2809,
      "tou": 2810,
      "tas": 2811,
      "tse": 2812,
      "tly": 2813,
      "tall": 2814,
      "tent": 2815,
      "tra": 2816,
      "tribut": 2817,
      "treading": 2818,
      "tones": 2819,
      "uld": 2820,
      "ugh": 2821,
      "ump": 2822,
      "visit": 2823,
      "war": 2824,
      "wag": 2825,
      "wine": 2826,
      "wig": 2827,
      "wretched": 2828,
      "ys": 2829,
      "year": 2830,
      "years": 2831,
      "ysic": 2832,
      "zy": 2833,
      "zing": 2834,
      "’—": 2835,
      "“’": 2836,
      "heart": 2837,
      "heav": 2838,
      "ining": 2839,
      "intell": 2840,
      "invent": 2841,
      "inently": 2842,
      "oured": 2843,
      "aning": 2844,
      "anno": 2845,
      "itated": 2846,
      "ities": 2847,
      "eror": 2848,
      "erable": 2849,
      "atom": 2850,
      "ref": 2851,
      "rew": 2852,
      "returned": 2853,
      "refer": 2854,
      "research": 2855,
      "recovered": 2856,
      "register": 2857,
      "ings": 2858,
      "toe": 2859,
      "thro": 2860,
      "thous": 2861,
      "thump": 2862,
      "threw": 2863,
      "edu": 2864,
      "enny": 2865,
      "asse": 2866,
      "asha": 2867,
      "orter": 2868,
      "orig": 2869,
      "ordin": 2870,
      "ornam": 2871,
      "llent": 2872,
      "cep": 2873,
      "cellent": 2874,
      "ides": 2875,
      "ident": 2876,
      "ises": 2877,
      "ision": 2878,
      "isable": 2879,
      "arr": 2880,
      "arily": 2881,
      "sell": 2882,
      "leaning": 2883,
      "living": 2884,
      "liability": 2885,
      "limited": 2886,
      "safe": 2887,
      "salt": 2888,
      "sault": 2889,
      "sages": 2890,
      "shed": 2891,
      "shelves": 2892,
      "bear": 2893,
      "became": 2894,
      "mely": 2895,
      "memor": 2896,
      "meek": 2897,
      "metho": 2898,
      "sting": 2899,
      "stro": 2900,
      "stir": 2901,
      "stam": 2902,
      "step": 2903,
      "stru": 2904,
      "stretched": 2905,
      "chain": 2906,
      "chief": 2907,
      "wasting": 2908,
      "otic": 2909,
      "all_": 2910,
      "roll": 2911,
      "rolled": 2912,
      "roots": 2913,
      "enty": 2914,
      "ented": 2915,
      "entang": 2916,
      "entire": 2917,
      "soever": 2918,
      "somer": 2919,
      "ria": 2920,
      "rier": 2921,
      "rict": 2922,
      "alarm": 2923,
      "tern": 2924,
      "ably": 2925,
      "abide": 2926,
      "absur": 2927,
      "forget": 2928,
      "tles": 2929,
      "These": 2930,
      "shion": 2931,
      "share": 2932,
      "shill": 2933,
      "shared": 2934,
      "shorter": 2935,
      "neither": 2936,
      "neigh": 2937,
      "note": 2938,
      "ago": 2939,
      "agine": 2940,
      "domain": 2941,
      "tic": 2942,
      "tiers": 2943,
      "coat": 2944,
      "costs": 2945,
      "coax": 2946,
      "thistle": 2947,
      "nowhere": 2948,
      "feather": 2949,
      "owns": 2950,
      "ifies": 2951,
      "ifull": 2952,
      "ssion": 2953,
      "iment": 2954,
      "pebble": 2955,
      "moder": 2956,
      "modif": 2957,
      "ounds": 2958,
      "mus": 2959,
      "little_": 2960,
      "illa": 2961,
      "sun": 2962,
      "sugar": 2963,
      "summer": 2964,
      "raven": 2965,
      "rail": 2966,
      "raving": 2967,
      "raised": 2968,
      "rapid": 2969,
      "ectual": 2970,
      "depends": 2971,
      "destro": 2972,
      "unfolded": 2973,
      "unhappy": 2974,
      "unpleasant": 2975,
      "unrolled": 2976,
      "whenever": 2977,
      "whatever": 2978,
      "whatsoever": 2979,
      "wet": 2980,
      "weak": 2981,
      "knows": 2982,
      "knowing": 2983,
      "periment": 2984,
      "ational": 2985,
      "caused": 2986,
      "cauld": 2987,
      "conclu": 2988,
      "concept": 2989,
      "conclusion": 2990,
      "offer": 2991,
      "queror": 2992,
      "exist": 2993,
      "expre": 2994,
      "extre": 2995,
      "excellent": 2996,
      "experiment": 2997,
      "indic": 2998,
      "yours": 2999,
      "bye": 3000,
      "plates": 3001,
      "ploy": 3002,
      "plenty": 3003,
      "thoughts": 3004,
      "phantly": 3005,
      "physic": 3006,
      "etary": 3007,
      "locks": 3008,
      "bition": 3009,
      "grant": 3010,
      "isted": 3011,
      "istling": 3012,
      "istribut": 3013,
      "whom": 3014,
      "whose": 3015,
      "furious": 3016,
      "plete": 3017,
      "boards": 3018,
      "void": 3019,
      "Most": 3020,
      "linging": 3021,
      "ured": 3022,
      "useful": 3023,
      "accor": 3024,
      "lap": 3025,
      "laid": 3026,
      "laug": 3027,
      "label": 3028,
      "laugh": 3029,
      "readable": 3030,
      "ively": 3031,
      "picking": 3032,
      "courtiers": 3033,
      "prove": 3034,
      "proves": 3035,
      "proved": 3036,
      "propri": 3037,
      "proceed": 3038,
      "turtles": 3039,
      "comfort": 3040,
      "complain": 3041,
      "comfits": 3042,
      "complete": 3043,
      "ances": 3044,
      "forehead": 3045,
      "cucu": 3046,
      "cushion": 3047,
      "archbish": 3048,
      "ption": 3049,
      "longed": 3050,
      "pute": 3051,
      "manner": 3052,
      "undo": 3053,
      "unders": 3054,
      "report": 3055,
      "ences": 3056,
      "afterwards": 3057,
      "catching": 3058,
      "angu": 3059,
      "anger": 3060,
      "mson": 3061,
      "page": 3062,
      "pause": 3063,
      "rust": 3064,
      "rude": 3065,
      "rubbing": 3066,
      "lasted": 3067,
      "distant": 3068,
      "comes": 3069,
      "two_": 3070,
      "els": 3071,
      "doors": 3072,
      "tells": 3073,
      "telling": 3074,
      "undertone": 3075,
      "underneat": 3076,
      "prof": 3077,
      "proud": 3078,
      "specif": 3079,
      "Does": 3080,
      "trans": 3081,
      "tains": 3082,
      "CHOR": 3083,
      "apples": 3084,
      "prevent": 3085,
      "electronically": 3086,
      "earls": 3087,
      "earnest": 3088,
      "older": 3089,
      "remarkable": 3090,
      "wonderful": 3091,
      "hasn": 3092,
      "clam": 3093,
      "deny": 3094,
      "denied": 3095,
      "sooner": 3096,
      "blew": 3097,
      "disappeared": 3098,
      "dishes": 3099,
      "dispute": 3100,
      "trembled": 3101,
      "news": 3102,
      "wherever": 3103,
      "smile": 3104,
      "closed": 3105,
      "fanci": 3106,
      "lets": 3107,
      "mostly": 3108,
      "active": 3109,
      "feeble": 3110,
      "exempt": 3111,
      "playing": 3112,
      "Intern": 3113,
      "cia": 3114,
      "croque": 3115,
      "spoon": 3116,
      "created": 3117,
      "watched": 3118,
      "executions": 3119,
      "THAT": 3120,
      "learning": 3121,
      "appearing": 3122,
      "lieu": 3123,
      "places": 3124,
      "smallest": 3125,
      "III": 3126,
      "ringlets": 3127,
      "trium": 3128,
      "lefthand": 3129,
      "persisted": 3130,
      "Little": 3131,
      "books": 3132,
      "curled": 3133,
      "curtse": 3134,
      "flat": 3135,
      "wants": 3136,
      "chose": 3137,
      "choice": 3138,
      "footstep": 3139,
      "pleasure": 3140,
      "INC": 3141,
      "INK": 3142,
      "LIAB": 3143,
      "LICEN": 3144,
      "busy": 3145,
      "singing": 3146,
      "singers": 3147,
      "resting": 3148,
      "restrict": 3149,
      "confir": 3150,
      "directed": 3151,
      "falling": 3152,
      "names": 3153,
      "stery": 3154,
      "hurriedly": 3155,
      "Any": 3156,
      "bbed": 3157,
      "bird": 3158,
      "dipped": 3159,
      "generations": 3160,
      "minding": 3161,
      "missed": 3162,
      "changing": 3163,
      "changes": 3164,
      "sharing": 3165,
      "interrupting": 3166,
      "Donations": 3167,
      "matters": 3168,
      "sneeze": 3169,
      "sisters": 3170,
      "receive": 3171,
      "charges": 3172,
      "shouting": 3173,
      "conversations": 3174,
      "learnt": 3175,
      "reasonable": 3176,
      "brightened": 3177,
      "furrow": 3178,
      "stoop": 3179,
      "view": 3180,
      "woman": 3181,
      "advisable": 3182,
      "signed": 3183,
      "personal": 3184,
      "Advice": 3185,
      "June": 3186,
      "author": 3187,
      "brown": 3188,
      "broke": 3189,
      "cares": 3190,
      "desk": 3191,
      "desper": 3192,
      "kindly": 3193,
      "reaching": 3194,
      "ordering": 3195,
      "copied": 3196,
      "goldfish": 3197,
      "lobster": 3198,
      "protect": 3199,
      "feelings": 3200,
      "sneezes": 3201,
      "receipt": 3202,
      "considerable": 3203,
      "dreadful": 3204,
      "merely": 3205,
      "nicely": 3206,
      "prominently": 3207,
      "yalty": 3208,
      "intment": 3209,
      "secondly": 3210,
      "William_": 3211,
      "violent": 3212,
      "doubtful": 3213,
      "doubtfully": 3214,
      "Except": 3215,
      "Explain": 3216,
      "Really": 3217,
      "_what_": 3218,
      "cribe": 3219,
      "crimson": 3220,
      "employ": 3221,
      "tumbling": 3222,
      "ugly": 3223,
      "uglif": 3224,
      "rets": 3225,
      "remaining": 3226,
      "shower": 3227,
      "showing": 3228,
      "shutting": 3229,
      "delighted": 3230,
      "delightful": 3231,
      "tempered": 3232,
      "flamingoes": 3233,
      "TION": 3234,
      "TIES": 3235,
      "avail": 3236,
      "linked": 3237,
      "riddles": 3238,
      "truth": 3239,
      "animal": 3240,
      "beating": 3241,
      "collected": 3242,
      "lovely": 3243,
      "presents": 3244,
      "swimming": 3245,
      "ADVENT": 3246,
      "Conqueror": 3247,
      "Everything": 3248,
      "FUL": 3249,
      "FULL": 3250,
      "Mystery": 3251,
      "NOT": 3252,
      "clever": 3253,
      "cupboards": 3254,
      "crying": 3255,
      "clearly": 3256,
      "dinner": 3257,
      "friends": 3258,
      "month": 3259,
      "muttered": 3260,
      "occas": 3261,
      "purring": 3262,
      "purpose": 3263,
      "squee": 3264,
      "squeaking": 3265,
      "umbria": 3266,
      "wandered": 3267,
      "wandering": 3268,
      "invited": 3269,
      "invitation": 3270,
      "thoroughly": 3271,
      "throwing": 3272,
      "legal": 3273,
      "legged": 3274,
      "lification": 3275,
      "addressed": 3276,
      "started": 3277,
      "startled": 3278,
      "neatly": 3279,
      "sulkily": 3280,
      "property": 3281,
      "produced": 3282,
      "obtaining": 3283,
      "nibbled": 3284,
      "sorrowful": 3285,
      "teacups": 3286,
      "IVE": 3287,
      "Longitude": 3288,
      "Rome": 3289,
      "Royalty": 3290,
      "VIII": 3291,
      "damages": 3292,
      "fit_": 3293,
      "ferrets": 3294,
      "flower": 3295,
      "flowers": 3296,
      "given": 3297,
      "giving": 3298,
      "panting": 3299,
      "widest": 3300,
      "wildly": 3301,
      "yawning": 3302,
      "yawned": 3303,
      "solicit": 3304,
      "altern": 3305,
      "tiptoe": 3306,
      "concert": 3307,
      "concerning": 3308,
      "quarrelling": 3309,
      "accepted": 3310,
      "computer": 3311,
      "computers": 3312,
      "disclaimer": 3313,
      "smiling": 3314,
      "smiled": 3315,
      "quickly": 3316,
      "beautifull": 3317,
      "carrying": 3318,
      "WARRANTY": 3319,
      "WARRANTIES": 3320,
      "ASCII": 3321,
      "DERLAND": 3322,
      "DISTRI": 3323,
      "Edwin": 3324,
      "Latitude": 3325,
      "Stole": 3326,
      "Suppose": 3327,
      "Speak": 3328,
      "_she_": 3329,
      "_this_": 3330,
      "_could_": 3331,
      "branches": 3332,
      "calcu": 3333,
      "front": 3334,
      "humbly": 3335,
      "jaws": 3336,
      "miserable": 3337,
      "pinched": 3338,
      "painting": 3339,
      "smoking": 3340,
      "twenty": 3341,
      "uckily": 3342,
      "vari": 3343,
      "regular": 3344,
      "relief": 3345,
      "encouraging": 3346,
      "beasts": 3347,
      "belongs": 3348,
      "messages": 3349,
      "additional": 3350,
      "declare": 3351,
      "posse": 3352,
      "position": 3353,
      "texts": 3354,
      "examine": 3355,
      "account": 3356,
      "prisoner": 3357,
      "trotting": 3358,
      "waistcoat": 3359,
      "custody": 3360,
      "promoting": 3361,
      "introduce": 3362,
      "AGREE": 3363,
      "extraordin": 3364,
      "Northumbria": 3365,
      "occurred": 3366,
      "splashing": 3367,
      "DAMAGES": 3368,
      "contemptuously": 3369,
      "expenses": 3370,
      "uneasily": 3371,
      "ALICE": 3372,
      "BREACH": 3373,
      "Crab": 3374,
      "Carroll": 3375,
      "Croquet": 3376,
      "DRINK": 3377,
      "Defect": 3378,
      "EBOOK": 3379,
      "Fury": 3380,
      "Hole": 3381,
      "IRECT": 3382,
      "Keep": 3383,
      "Lewis": 3384,
      "Mercia": 3385,
      "Morcar": 3386,
      "Nearly": 3387,
      "Plain": 3388,
      "Poor": 3389,
      "Paris": 3390,
      "Prizes": 3391,
      "Party": 3392,
      "Presently": 3393,
      "Redistribut": 3394,
      "START": 3395,
      "Tale": 3396,
      "Terms": 3397,
      "Treacle": 3398,
      "Uglification": 3399,
      "Vanilla": 3400,
      "WONDERLAND": 3401,
      "_it_": 3402,
      "_quite_": 3403,
      "_ever_": 3404,
      "_here_": 3405,
      "_never_": 3406,
      "_Un_important": 3407,
      "_best_": 3408,
      "_mine_": 3409,
      "break": 3410,
      "based": 3411,
      "blasts": 3412,
      "barrowful": 3413,
      "dancing": 3414,
      "drunk": 3415,
      "federal": 3416,
      "fashion": 3417,
      "fountains": 3418,
      "giddy": 3419,
      "lonely": 3420,
      "murder": 3421,
      "milk": 3422,
      "mixed": 3423,
      "ography": 3424,
      "parchment": 3425,
      "prepare": 3426,
      "rattling": 3427,
      "sensation": 3428,
      "scroll": 3429,
      "snatch": 3430,
      "taste": 3431,
      "taller": 3432,
      "tributions": 3433,
      "heavy": 3434,
      "intellectual": 3435,
      "annoy": 3436,
      "references": 3437,
      "registered": 3438,
      "throat": 3439,
      "thousand": 3440,
      "ennyworth": 3441,
      "assembled": 3442,
      "ashamed": 3443,
      "origin": 3444,
      "ornamented": 3445,
      "meekly": 3446,
      "stirring": 3447,
      "stamping": 3448,
      "struck": 3449,
      "entangled": 3450,
      "entirely": 3451,
      "somersault": 3452,
      "absurd": 3453,
      "neighbour": 3454,
      "coaxing": 3455,
      "pebbles": 3456,
      "railway": 3457,
      "rapidly": 3458,
      "destroy": 3459,
      "cauldron": 3460,
      "concluded": 3461,
      "extremely": 3462,
      "physical": 3463,
      "accordance": 3464,
      "laughed": 3465,
      "proprietary": 3466,
      "cucumber": 3467,
      "archbishop": 3468,
      "underneath": 3469,
      "specified": 3470,
      "CHORUS": 3471,
      "earnestly": 3472,
      "fancied": 3473,
      "triumphantly": 3474,
      "footsteps": 3475,
      "LICENSE": 3476,
      "restrictions": 3477,
      "authority": 3478,
      "employe": 3479,
      "available": 3480,
      "ADVENTURES": 3481,
      "occasion": 3482,
      "beautifully": 3483,
      "DISTRIBUT": 3484,
      "extraordinary": 3485,
      "!)": 3486,
      "($": 3487,
      ")(": 3488,
      ")—": 3489,
      ".,": 3490,
      ".]": 3491,
      ".—“": 3492,
      "09": 3493,
      "18": 3494,
      "22": 3495,
      "25": 3496,
      "26": 3497,
      "27": 3498,
      "30": 3499,
      "41": 3500,
      "411": 3501,
      "50": 3502,
      "59": 3503,
      "501": 3504,
      "60": 3505,
      "64": 3506,
      "622": 3507,
      "87": 3508,
      "801": 3509,
      "809": 3510,
      "8411": 3511,
      ";—": 3512,
      "?)": 3513,
      "AV": 3514,
      "Ab": 3515,
      "Am": 3516,
      "Ahe": 3517,
      "Athe": 3518,
      "Allow": 3519,
      "ASE": 3520,
      "ATION": 3521,
      "Bi": 3522,
      "Br": 3523,
      "Bes": 3524,
      "Bir": 3525,
      "Bet": 3526,
      "Back": 3527,
      "Boot": 3528,
      "Bring": 3529,
      "BIT": 3530,
      "Beg": 3531,
      "BILITY": 3532,
      "CR": 3533,
      "Cl": 3534,
      "Cu": 3535,
      "Cer": 3536,
      "Creat": 3537,
      "City": 3538,
      "Cred": 3539,
      "CLA": 3540,
      "Da": 3541,
      "Di": 3542,
      "Der": 3543,
      "Des": 3544,
      "Dri": 3545,
      "Dist": 3546,
      "Dear": 3547,
      "Drink": 3548,
      "DON": 3549,
      "DED": 3550,
      "DENT": 3551,
      "DING": 3552,
      "DIRECT": 3553,
      "EG": 3554,
      "EV": 3555,
      "El": 3556,
      "Es": 3557,
      "Even": 3558,
      "EEN": 3559,
      "EIN": 3560,
      "Either": 3561,
      "EAT": 3562,
      "Email": 3563,
      "EART": 3564,
      "Each": 3565,
      "Fen": 3566,
      "Fain": 3567,
      "Fif": 3568,
      "Four": 3569,
      "Fet": 3570,
      "From": 3571,
      "Fort": 3572,
      "FIT": 3573,
      "FOU": 3574,
      "Full": 3575,
      "Frog": 3576,
      "France": 3577,
      "GE": 3578,
      "GH": 3579,
      "Ge": 3580,
      "Gri": 3581,
      "Gra": 3582,
      "Good": 3583,
      "Game": 3584,
      "GEN": 3585,
      "GIVE": 3586,
      "Hj": 3587,
      "Hm": 3588,
      "Hand": 3589,
      "Has": 3590,
      "His": 3591,
      "Had": 3592,
      "Him": 3593,
      "Hard": 3594,
      "Hart": 3595,
      "Half": 3596,
      "HAV": 3597,
      "HEART": 3598,
      "IF": 3599,
      "IR": 3600,
      "Ill": 3601,
      "Ind": 3602,
      "ITH": 3603,
      "Idi": 3604,
      "ION": 3605,
      "IES": 3606,
      "IUM": 3607,
      "IBILITY": 3608,
      "IDENT": 3609,
      "IGH": 3610,
      "Jack": 3611,
      "KIND": 3612,
      "KING": 3613,
      "LU": 3614,
      "Le": 3615,
      "Lon": 3616,
      "Look": 3617,
      "Lac": 3618,
      "Lake": 3619,
      "Lau": 3620,
      "Langu": 3621,
      "Luckily": 3622,
      "Mag": 3623,
      "Many": 3624,
      "MER": 3625,
      "Mine": 3626,
      "Mul": 3627,
      "MAR": 3628,
      "Mich": 3629,
      "MED": 3630,
      "MENT": 3631,
      "MAL": 3632,
      "MILL": 3633,
      "ND": 3634,
      "Nu": 3635,
      "Nay": 3636,
      "NER": 3637,
      "Nile": 3638,
      "Nonsense": 3639,
      "NES": 3640,
      "New": 3641,
      "NDA": 3642,
      "NDER": 3643,
      "NEG": 3644,
      "NIUM": 3645,
      "OS": 3646,
      "OW": 3647,
      "Or": 3648,
      "Où": 3649,
      "Our": 3650,
      "OTH": 3651,
      "PT": 3652,
      "Pu": 3653,
      "Pin": 3654,
      "PLI": 3655,
      "PAR": 3656,
      "PLA": 3657,
      "PRES": 3658,
      "PLE": 3659,
      "POSE": 3660,
      "Pennyworth": 3661,
      "POS": 3662,
      "Ru": 3663,
      "Run": 3664,
      "Rele": 3665,
      "Reven": 3666,
      "RAP": 3667,
      "RAB": 3668,
      "RIGH": 3669,
      "RPOSE": 3670,
      "SU": 3671,
      "Sw": 3672,
      "Sit": 3673,
      "Ser": 3674,
      "Sing": 3675,
      "Sent": 3676,
      "Sal": 3677,
      "Sti": 3678,
      "Sha": 3679,
      "Sect": 3680,
      "Same": 3681,
      "Stre": 3682,
      "Still": 3683,
      "Sea": 3684,
      "Stop": 3685,
      "SOU": 3686,
      "Six": 3687,
      "SEND": 3688,
      "STRI": 3689,
      "Sounds": 3690,
      "SIBILITY": 3691,
      "Tit": 3692,
      "Ten": 3693,
      "Tut": 3694,
      "Tri": 3695,
      "Tal": 3696,
      "Too": 3697,
      "Till": 3698,
      "Twent": 3699,
      "Tho": 3700,
      "Table": 3701,
      "TAB": 3702,
      "USE": 3703,
      "UAL": 3704,
      "UNDER": 3705,
      "Vol": 3706,
      "Visit": 3707,
      "Wa": 3708,
      "Was": 3709,
      "Wid": 3710,
      "WOR": 3711,
      "WILL": 3712,
      "WITH": 3713,
      "Ze": 3714,
      "_h": 3715,
      "_at": 3716,
      "_and": 3717,
      "_Alice": 3718,
      "_her": 3719,
      "_with": 3720,
      "_no": 3721,
      "_they": 3722,
      "_his": 3723,
      "_beg": 3724,
      "_our": 3725,
      "_some": 3726,
      "_then": 3727,
      "_don": 3728,
      "_It": 3729,
      "_there": 3730,
      "_Turtle": 3731,
      "_began": 3732,
      "_their": 3733,
      "_more": 3734,
      "_him": 3735,
      "_What": 3736,
      "_How": 3737,
      "_She": 3738,
      "_before": 3739,
      "_We": 3740,
      "_pre": 3741,
      "_less": 3742,
      "_took": 3743,
      "_yet": 3744,
      "_sit": 3745,
      "_red": 3746,
      "_something": 3747,
      "_through": 3748,
      "_these": 3749,
      "_please": 3750,
      "_speak": 3751,
      "_myself": 3752,
      "_All": 3753,
      "_outside": 3754,
      "_somebody": 3755,
      "_Are": 3756,
      "_Sto": 3757,
      "_Tis": 3758,
      "_poison": 3759,
      "_somewhere": 3760,
      "_Everybody": 3761,
      "_Twinkle": 3762,
      "_all_": 3763,
      "_little_": 3764,
      "_plenty": 3765,
      "_proves": 3766,
      "_two_": 3767,
      "_curtse": 3768,
      "_fit_": 3769,
      "ald": 3770,
      "ape": 3771,
      "ache": 3772,
      "ause": 3773,
      "afore": 3774,
      "ael": 3775,
      "azing": 3776,
      "amus": 3777,
      "avoid": 3778,
      "bin": 3779,
      "ban": 3780,
      "bar": 3781,
      "ball": 3782,
      "bent": 3783,
      "bal": 3784,
      "bone": 3785,
      "bag": 3786,
      "bill": 3787,
      "bra": 3788,
      "bother": 3789,
      "bree": 3790,
      "bough": 3791,
      "baw": 3792,
      "blad": 3793,
      "bones": 3794,
      "baked": 3795,
      "cli": 3796,
      "cow": 3797,
      "cher": 3798,
      "cent": 3799,
      "cun": 3800,
      "cree": 3801,
      "cure": 3802,
      "cious": 3803,
      "cred": 3804,
      "cently": 3805,
      "craw": 3806,
      "creas": 3807,
      "crawling": 3808,
      "cational": 3809,
      "clinging": 3810,
      "d_": 3811,
      "dr": 3812,
      "dat": 3813,
      "dain": 3814,
      "dun": 3815,
      "dried": 3816,
      "dive": 3817,
      "dded": 3818,
      "dates": 3819,
      "dig": 3820,
      "dile": 3821,
      "ddle": 3822,
      "dau": 3823,
      "dged": 3824,
      "ditions": 3825,
      "dging": 3826,
      "drown": 3827,
      "eh": 3828,
      "eth": 3829,
      "eed": 3830,
      "epe": 3831,
      "eam": 3832,
      "ement": 3833,
      "eling": 3834,
      "eked": 3835,
      "evid": 3836,
      "email": 3837,
      "fat": 3838,
      "fth": 3839,
      "fid": 3840,
      "fis": 3841,
      "fle": 3842,
      "fry": 3843,
      "fac": 3844,
      "five": 3845,
      "fool": 3846,
      "ffee": 3847,
      "fring": 3848,
      "file": 3849,
      "flying": 3850,
      "fail": 3851,
      "fie": 3852,
      "files": 3853,
      "fading": 3854,
      "flinging": 3855,
      "gg": 3856,
      "gn": 3857,
      "gth": 3858,
      "gand": 3859,
      "gher": 3860,
      "gall": 3861,
      "gay": 3862,
      "gain": 3863,
      "gant": 3864,
      "glar": 3865,
      "gled": 3866,
      "gather": 3867,
      "gged": 3868,
      "gross": 3869,
      "gazing": 3870,
      "hy": 3871,
      "hing": 3872,
      "hor": 3873,
      "hid": 3874,
      "hone": 3875,
      "hide": 3876,
      "hood": 3877,
      "hig": 3878,
      "hush": 3879,
      "ili": 3880,
      "iver": 3881,
      "ict": 3882,
      "ife": 3883,
      "iling": 3884,
      "ilt": 3885,
      "iform": 3886,
      "ized": 3887,
      "iod": 3888,
      "iotic": 3889,
      "jour": 3890,
      "jell": 3891,
      "journ": 3892,
      "ker": 3893,
      "knu": 3894,
      "lin": 3895,
      "lou": 3896,
      "len": 3897,
      "lot": 3898,
      "lve": 3899,
      "lation": 3900,
      "lam": 3901,
      "lous": 3902,
      "lark": 3903,
      "lence": 3904,
      "lated": 3905,
      "lull": 3906,
      "leng": 3907,
      "langu": 3908,
      "luckily": 3909,
      "mand": 3910,
      "mas": 3911,
      "mst": 3912,
      "mly": 3913,
      "mot": 3914,
      "mall": 3915,
      "mag": 3916,
      "mation": 3917,
      "mpl": 3918,
      "monly": 3919,
      "mense": 3920,
      "mily": 3921,
      "mmar": 3922,
      "nly": 3923,
      "nast": 3924,
      "obe": 3925,
      "othing": 3926,
      "option": 3927,
      "ointment": 3928,
      "pow": 3929,
      "pher": 3930,
      "ppo": 3931,
      "pink": 3932,
      "pour": 3933,
      "pation": 3934,
      "ppl": 3935,
      "pant": 3936,
      "pread": 3937,
      "pace": 3938,
      "pron": 3939,
      "pine": 3940,
      "ppers": 3941,
      "pati": 3942,
      "pliance": 3943,
      "pages": 3944,
      "poured": 3945,
      "pounds": 3946,
      "rh": 3947,
      "rm": 3948,
      "ror": 3949,
      "rus": 3950,
      "ration": 3951,
      "rist": 3952,
      "rant": 3953,
      "rise": 3954,
      "rors": 3955,
      "rising": 3956,
      "roughly": 3957,
      "ritated": 3958,
      "rises": 3959,
      "rrh": 3960,
      "sy": 3961,
      "son": 3962,
      "sco": 3963,
      "sue": 3964,
      "sink": 3965,
      "swe": 3966,
      "sits": 3967,
      "send": 3968,
      "sence": 3969,
      "scr": 3970,
      "sses": 3971,
      "slight": 3972,
      "scra": 3973,
      "scribe": 3974,
      "t_": 3975,
      "tit": 3976,
      "ton": 3977,
      "tid": 3978,
      "tut": 3979,
      "tun": 3980,
      "tink": 3981,
      "twork": 3982,
      "tide": 3983,
      "ture": 3984,
      "tart": 3985,
      "tons": 3986,
      "tching": 3987,
      "ust": 3988,
      "uct": 3989,
      "ually": 3990,
      "uster": 3991,
      "uced": 3992,
      "umbled": 3993,
      "vy": 3994,
      "vas": 3995,
      "vir": 3996,
      "vag": 3997,
      "vour": 3998,
      "vive": 3999
    },
    "merges": [
      [
        "h",
        "e"
      ],
      [
        "t",
        "he"
      ],
      [
        "i",
        "n"
      ],
      [
        "o",
        "u"
      ],
      [
        "a",
        "n"
      ],
      [
        "i",
        "t"
      ],
      [
        "e",
        "r"
      ],
      [
        "a",
        "t"
      ],
      [
        "o",
        "n"
      ],
      [
        "r",
        "e"
      ],
      [
        "in",
        "g"
      ],
      [
        "t",
        "o"
      ],
      [
        "t",
        "h"
      ],
      [
        "e",
        "d"
      ],
      [
        "an",
        "d"
      ],
      [
        "e",
        "n"
      ],
      [
        "a",
        "s"
      ],
      [
        "o",
        "r"
      ],
      [
        "l",
        "l"
      ],
      [
        "c",
        "e"
      ],
      [
        "i",
        "d"
      ],
      [
        "o",
        "f"
      ],
      [
        "i",
        "s"
      ],
      [
        "a",
        "r"
      ],
      [
        "s",
        "e"
      ],
      [
        "l",
        "e"
      ],
      [
        "l",
        "i"
      ],
      [
        "s",
        "a"
      ],
      [
        "o",
        "w"
      ],
      [
        "s",
        "he"
      ],
      [
        "y",
        "ou"
      ],
      [
        "b",
        "e"
      ],
      [
        "m",
        "e"
      ],
      [
        "a",
        "d"
      ],
      [
        "sa",
        "id"
      ],
      [
        "s",
        "t"
      ],
      [
        "u",
        "t"
      ],
      [
        "l",
        "y"
      ],
      [
        ",",
        "”"
      ],
      [
        "A",
        "li"
      ],
      [
        "Ali",
        "ce"
      ],
      [
        "c",
        "h"
      ],
      [
        "w",
        "as"
      ],
      [
        "v",
        "er"
      ],
      [
        "l",
        "d"
      ],
      [
        "o",
        "t"
      ],
      [
        "he",
        "r"
      ],
      [
        "g",
        "h"
      ],
      [
        "a",
        "ll"
      ],
      [
        "e",
        "s"
      ],
      [
        "r",
        "o"
      ],
      [
        "th",
        "at"
      ],
      [
        "en",
        "t"
      ],
      [
        "s",
        "o"
      ],
      [
        "w",
        "h"
      ],
      [
        "!",
        "”"
      ],
      [
        "r",
        "i"
      ],
      [
        "w",
        "it"
      ],
      [
        "ou",
        "t"
      ],
      [
        "v",
        "e"
      ],
      [
        "wit",
        "h"
      ],
      [
        "a",
        "l"
      ],
      [
        "gh",
        "t"
      ],
      [
        "o",
        "o"
      ],
      [
        "n",
        "d"
      ],
      [
        "u",
        "r"
      ],
      [
        "i",
        "on"
      ],
      [
        "t",
        "er"
      ],
      [
        "a",
        "b"
      ],
      [
        "c",
        "t"
      ],
      [
        "f",
        "or"
      ],
      [
        "a",
        "y"
      ],
      [
        "ou",
        "ld"
      ],
      [
        "k",
        "e"
      ],
      [
        "g",
        "e"
      ],
      [
        "t",
        "le"
      ],
      [
        "T",
        "he"
      ],
      [
        "s",
        "h"
      ],
      [
        "u",
        "p"
      ],
      [
        "n",
        "e"
      ],
      [
        "on",
        "e"
      ],
      [
        "n",
        "ot"
      ],
      [
        ".",
        "”"
      ],
      [
        "h",
        "ad"
      ],
      [
        "i",
        "r"
      ],
      [
        "b",
        "ut"
      ],
      [
        "a",
        "g"
      ],
      [
        "ver",
        "y"
      ],
      [
        "c",
        "k"
      ],
      [
        "the",
        "r"
      ],
      [
        "d",
        "o"
      ],
      [
        "th",
        "ing"
      ],
      [
        "t",
        "i"
      ],
      [
        "oo",
        "k"
      ],
      [
        "a",
        "in"
      ],
      [
        "c",
        "o"
      ],
      [
        "th",
        "is"
      ],
      [
        "?",
        "”"
      ],
      [
        "h",
        "a"
      ],
      [
        "u",
        "e"
      ],
      [
        "n",
        "ow"
      ],
      [
        "r",
        "y"
      ],
      [
        "f",
        "e"
      ],
      [
        "a",
        "re"
      ],
      [
        "ow",
        "n"
      ],
      [
        "w",
        "or"
      ],
      [
        "l",
        "it"
      ],
      [
        "i",
        "f"
      ],
      [
        "s",
        "s"
      ],
      [
        "n",
        "o"
      ],
      [
        "the",
        "y"
      ],
      [
        "i",
        "m"
      ],
      [
        "p",
        "e"
      ],
      [
        "m",
        "o"
      ],
      [
        "ou",
        "nd"
      ],
      [
        "m",
        "u"
      ],
      [
        "lit",
        "tle"
      ],
      [
        "se",
        "l"
      ],
      [
        "h",
        "is"
      ],
      [
        "W",
        "h"
      ],
      [
        "b",
        "er"
      ],
      [
        "i",
        "ll"
      ],
      [
        "s",
        "u"
      ],
      [
        "sel",
        "f"
      ],
      [
        "r",
        "a"
      ],
      [
        "e",
        "ct"
      ],
      [
        "d",
        "e"
      ],
      [
        "an",
        "y"
      ],
      [
        "p",
        "o"
      ],
      [
        "ar",
        "d"
      ],
      [
        "t",
        "e"
      ],
      [
        "u",
        "n"
      ],
      [
        "w",
        "he"
      ],
      [
        "se",
        "e"
      ],
      [
        "l",
        "ook"
      ],
      [
        "be",
        "g"
      ],
      [
        "w",
        "ay"
      ],
      [
        "ou",
        "se"
      ],
      [
        "wh",
        "at"
      ],
      [
        "d",
        "own"
      ],
      [
        "it",
        "e"
      ],
      [
        "in",
        "k"
      ],
      [
        "ab",
        "out"
      ],
      [
        "w",
        "er"
      ],
      [
        "w",
        "e"
      ],
      [
        "ou",
        "r"
      ],
      [
        "ou",
        "ght"
      ],
      [
        "k",
        "now"
      ],
      [
        "p",
        "er"
      ],
      [
        "u",
        "s"
      ],
      [
        "at",
        "ion"
      ],
      [
        "c",
        "a"
      ],
      [
        "en",
        "ber"
      ],
      [
        "ut",
        "enber"
      ],
      [
        "ag",
        "ain"
      ],
      [
        "utenber",
        "g"
      ],
      [
        "g",
        "o"
      ],
      [
        "j",
        "ect"
      ],
      [
        "o",
        "ther"
      ],
      [
        "the",
        "m"
      ],
      [
        "li",
        "ke"
      ],
      [
        "c",
        "ould"
      ],
      [
        "w",
        "ent"
      ],
      [
        "w",
        "ould"
      ],
      [
        "wor",
        "k"
      ],
      [
        "c",
        "he"
      ],
      [
        "a",
        "m"
      ],
      [
        "c",
        "on"
      ],
      [
        "f",
        "o"
      ],
      [
        "of",
        "f"
      ],
      [
        "wer",
        "e"
      ],
      [
        "G",
        "utenberg"
      ],
      [
        "P",
        "ro"
      ],
      [
        "i",
        "ce"
      ],
      [
        "q",
        "u"
      ],
      [
        "so",
        "me"
      ],
      [
        "Pro",
        "ject"
      ],
      [
        "e",
        "x"
      ],
      [
        "in",
        "d"
      ],
      [
        "her",
        "self"
      ],
      [
        "ha",
        "ve"
      ],
      [
        "i",
        "c"
      ],
      [
        "you",
        "r"
      ],
      [
        "b",
        "y"
      ],
      [
        "p",
        "l"
      ],
      [
        "th",
        "ought"
      ],
      [
        "p",
        "h"
      ],
      [
        "on",
        "g"
      ],
      [
        "ti",
        "me"
      ],
      [
        "m",
        "ent"
      ],
      [
        "re",
        "e"
      ],
      [
        "c",
        "an"
      ],
      [
        "Q",
        "ue"
      ],
      [
        "Que",
        "en"
      ],
      [
        "d",
        "id"
      ],
      [
        "e",
        "t"
      ],
      [
        "l",
        "o"
      ],
      [
        "ri",
        "ght"
      ],
      [
        "the",
        "n"
      ],
      [
        "ge",
        "t"
      ],
      [
        "b",
        "it"
      ],
      [
        "d",
        "on"
      ],
      [
        "g",
        "r"
      ],
      [
        "at",
        "ter"
      ],
      [
        "sa",
        "y"
      ],
      [
        "is",
        "t"
      ],
      [
        "wh",
        "i"
      ],
      [
        "whe",
        "n"
      ],
      [
        "t",
        "ing"
      ],
      [
        "wh",
        "o"
      ],
      [
        "A",
        "nd"
      ],
      [
        "I",
        "t"
      ],
      [
        "Y",
        "ou"
      ],
      [
        "he",
        "ad"
      ],
      [
        "in",
        "to"
      ],
      [
        "f",
        "u"
      ],
      [
        "t",
        "a"
      ],
      [
        "the",
        "re"
      ],
      [
        "it",
        "s"
      ],
      [
        "re",
        "at"
      ],
      [
        "p",
        "le"
      ],
      [
        "as",
        "t"
      ],
      [
        "j",
        "u"
      ],
      [
        "s",
        "i"
      ],
      [
        "T",
        "ur"
      ],
      [
        "b",
        "o"
      ],
      [
        "er",
        "s"
      ],
      [
        "at",
        "e"
      ],
      [
        "th",
        "ink"
      ],
      [
        "K",
        "ing"
      ],
      [
        "m",
        "y"
      ],
      [
        "ou",
        "s"
      ],
      [
        "ar",
        "k"
      ],
      [
        "p",
        "p"
      ],
      [
        "an",
        "t"
      ],
      [
        "v",
        "o"
      ],
      [
        "to",
        "o"
      ],
      [
        "ro",
        "m"
      ],
      [
        "Tur",
        "tle"
      ],
      [
        "M",
        "o"
      ],
      [
        "m",
        "a"
      ],
      [
        "ri",
        "ed"
      ],
      [
        "beg",
        "an"
      ],
      [
        "e",
        "p"
      ],
      [
        "or",
        "t"
      ],
      [
        "id",
        "e"
      ],
      [
        "mu",
        "st"
      ],
      [
        "Mo",
        "ck"
      ],
      [
        "h",
        "ow"
      ],
      [
        "l",
        "ing"
      ],
      [
        "C",
        "at"
      ],
      [
        "G",
        "ry"
      ],
      [
        "H",
        "atter"
      ],
      [
        "a",
        "f"
      ],
      [
        "d",
        "er"
      ],
      [
        "k",
        "ing"
      ],
      [
        "u",
        "re"
      ],
      [
        "u",
        "se"
      ],
      [
        "mu",
        "ch"
      ],
      [
        "qu",
        "ite"
      ],
      [
        "ph",
        "on"
      ],
      [
        "Gry",
        "phon"
      ],
      [
        "m",
        "ouse"
      ],
      [
        "q",
        "ue"
      ],
      [
        "w",
        "on"
      ],
      [
        "is",
        "h"
      ],
      [
        "a",
        "c"
      ],
      [
        "e",
        "ver"
      ],
      [
        "g",
        "ot"
      ],
      [
        "l",
        "a"
      ],
      [
        "n",
        "ing"
      ],
      [
        "re",
        "ad"
      ],
      [
        "en",
        "d"
      ],
      [
        "ab",
        "bit"
      ],
      [
        "l",
        "ar"
      ],
      [
        "m",
        "ark"
      ],
      [
        "t",
        "w"
      ],
      [
        "the",
        "ir"
      ],
      [
        "f",
        "rom"
      ],
      [
        "i",
        "ve"
      ],
      [
        "p",
        "i"
      ],
      [
        "ir",
        "st"
      ],
      [
        "vo",
        "ice"
      ],
      [
        "c",
        "our"
      ],
      [
        "h",
        "o"
      ],
      [
        "on",
        "ly"
      ],
      [
        "mo",
        "re"
      ],
      [
        "p",
        "ro"
      ],
      [
        "t",
        "ur"
      ],
      [
        "ou",
        "gh"
      ],
      [
        "ar",
        "t"
      ],
      [
        "co",
        "m"
      ],
      [
        "h",
        "im"
      ],
      [
        "i",
        "ght"
      ],
      [
        "—",
        "”"
      ],
      [
        "whi",
        "ch"
      ],
      [
        "R",
        "abbit"
      ],
      [
        "l",
        "ed"
      ],
      [
        "he",
        "re"
      ],
      [
        "ne",
        "ver"
      ],
      [
        "ju",
        "st"
      ],
      [
        "a",
        "ck"
      ],
      [
        "an",
        "ce"
      ],
      [
        "fo",
        "re"
      ],
      [
        "D",
        "u"
      ],
      [
        "m",
        "ed"
      ],
      [
        "ab",
        "le"
      ],
      [
        "su",
        "ch"
      ],
      [
        "look",
        "ed"
      ],
      [
        "f",
        "irst"
      ],
      [
        "m",
        "ad"
      ],
      [
        "v",
        "en"
      ],
      [
        "c",
        "u"
      ],
      [
        "m",
        "in"
      ],
      [
        "p",
        "y"
      ],
      [
        "r",
        "ound"
      ],
      [
        "ar",
        "ch"
      ],
      [
        "Wh",
        "at"
      ],
      [
        "H",
        "ow"
      ],
      [
        "d",
        "ay"
      ],
      [
        "o",
        "ver"
      ],
      [
        "p",
        "t"
      ],
      [
        "t",
        "one"
      ],
      [
        "ca",
        "me"
      ],
      [
        "che",
        "ss"
      ],
      [
        "Du",
        "chess"
      ],
      [
        "k",
        "ed"
      ],
      [
        "l",
        "ong"
      ],
      [
        "er",
        "p"
      ],
      [
        "sh",
        "ould"
      ],
      [
        "D",
        "or"
      ],
      [
        "S",
        "he"
      ],
      [
        "a",
        "ce"
      ],
      [
        "p",
        "ut"
      ],
      [
        "he",
        "d"
      ],
      [
        "be",
        "fore"
      ],
      [
        "we",
        "ll"
      ],
      [
        "Dor",
        "mouse"
      ],
      [
        "b",
        "ack"
      ],
      [
        "g",
        "reat"
      ],
      [
        "l",
        "t"
      ],
      [
        "m",
        "an"
      ],
      [
        "u",
        "nd"
      ],
      [
        "re",
        "p"
      ],
      [
        "en",
        "ce"
      ],
      [
        "af",
        "ter"
      ],
      [
        "c",
        "at"
      ],
      [
        "e",
        "y"
      ],
      [
        "l",
        "ow"
      ],
      [
        "an",
        "g"
      ],
      [
        "be",
        "en"
      ],
      [
        "B",
        "ut"
      ],
      [
        "h",
        "and"
      ],
      [
        "m",
        "s"
      ],
      [
        "p",
        "a"
      ],
      [
        "r",
        "u"
      ],
      [
        "oo",
        "d"
      ],
      [
        "W",
        "e"
      ],
      [
        "a",
        "ve"
      ],
      [
        "i",
        "l"
      ],
      [
        "l",
        "ast"
      ],
      [
        "The",
        "re"
      ],
      [
        "E",
        "R"
      ],
      [
        "O",
        "h"
      ],
      [
        "T",
        "h"
      ],
      [
        "d",
        "ed"
      ],
      [
        "d",
        "ist"
      ],
      [
        "i",
        "re"
      ],
      [
        "r",
        "on"
      ],
      [
        "w",
        "ill"
      ],
      [
        "co",
        "me"
      ],
      [
        "co",
        "py"
      ],
      [
        "fu",
        "ll"
      ],
      [
        "I",
        "f"
      ],
      [
        "M",
        "arch"
      ],
      [
        "d",
        "s"
      ],
      [
        "with",
        "out"
      ],
      [
        "lar",
        "ge"
      ],
      [
        "tw",
        "o"
      ],
      [
        "S",
        "o"
      ],
      [
        "e",
        "l"
      ],
      [
        "e",
        "le"
      ],
      [
        "do",
        "or"
      ],
      [
        "thing",
        "s"
      ],
      [
        "te",
        "ll"
      ],
      [
        "work",
        "s"
      ],
      [
        "tur",
        "n"
      ],
      [
        "und",
        "er"
      ],
      [
        "f",
        "ound"
      ],
      [
        "p",
        "r"
      ],
      [
        "s",
        "pe"
      ],
      [
        "w",
        "r"
      ],
      [
        "it",
        "ed"
      ],
      [
        "as",
        "e"
      ],
      [
        "se",
        "t"
      ],
      [
        "look",
        "ing"
      ],
      [
        "min",
        "ut"
      ],
      [
        "D",
        "o"
      ],
      [
        "H",
        "are"
      ],
      [
        "g",
        "l"
      ],
      [
        "j",
        "ur"
      ],
      [
        "t",
        "r"
      ],
      [
        "t",
        "ain"
      ],
      [
        "t",
        "ry"
      ],
      [
        "x",
        "t"
      ],
      [
        "at",
        "es"
      ],
      [
        "on",
        "ce"
      ],
      [
        "all",
        "y"
      ],
      [
        "ne",
        "ar"
      ],
      [
        "mo",
        "ment"
      ],
      [
        "de",
        "ar"
      ],
      [
        "beg",
        "in"
      ],
      [
        "C",
        "H"
      ],
      [
        "M",
        "ouse"
      ],
      [
        "a",
        "p"
      ],
      [
        "m",
        "ber"
      ],
      [
        "t",
        "al"
      ],
      [
        "v",
        "es"
      ],
      [
        "he",
        "ard"
      ],
      [
        "in",
        "e"
      ],
      [
        "en",
        "se"
      ],
      [
        "li",
        "ed"
      ],
      [
        "es",
        "s"
      ],
      [
        "no",
        "thing"
      ],
      [
        "gr",
        "ow"
      ],
      [
        "ma",
        "ke"
      ],
      [
        "mad",
        "e"
      ],
      [
        "ele",
        "ct"
      ],
      [
        "H",
        "e"
      ],
      [
        "d",
        "y"
      ],
      [
        "e",
        "st"
      ],
      [
        "e",
        "very"
      ],
      [
        "e",
        "ven"
      ],
      [
        "m",
        "b"
      ],
      [
        "m",
        "ay"
      ],
      [
        "p",
        "re"
      ],
      [
        "r",
        "ow"
      ],
      [
        "th",
        "an"
      ],
      [
        "ri",
        "but"
      ],
      [
        "up",
        "on"
      ],
      [
        "ill",
        "ar"
      ],
      [
        "erp",
        "illar"
      ],
      [
        "rep",
        "lied"
      ],
      [
        "ey",
        "es"
      ],
      [
        "Th",
        "at"
      ],
      [
        "ron",
        "ic"
      ],
      [
        "elect",
        "ronic"
      ],
      [
        "a",
        "me"
      ],
      [
        "a",
        "way"
      ],
      [
        "e",
        "ar"
      ],
      [
        "h",
        "ur"
      ],
      [
        "m",
        "ight"
      ],
      [
        "o",
        "ld"
      ],
      [
        "v",
        "ing"
      ],
      [
        "v",
        "ed"
      ],
      [
        "w",
        "a"
      ],
      [
        "re",
        "mark"
      ],
      [
        "th",
        "ree"
      ],
      [
        "en",
        "ed"
      ],
      [
        "as",
        "s"
      ],
      [
        "ne",
        "xt"
      ],
      [
        "Cat",
        "erpillar"
      ],
      [
        "won",
        "der"
      ],
      [
        "N",
        "o"
      ],
      [
        "h",
        "as"
      ],
      [
        "o",
        "m"
      ],
      [
        "t",
        "ed"
      ],
      [
        "it",
        "ing"
      ],
      [
        "me",
        "an"
      ],
      [
        "ag",
        "ree"
      ],
      [
        "Wh",
        "y"
      ],
      [
        "see",
        "med"
      ],
      [
        "go",
        "ing"
      ],
      [
        "cour",
        "se"
      ],
      [
        "F",
        "ound"
      ],
      [
        "c",
        "l"
      ],
      [
        "c",
        "ut"
      ],
      [
        "d",
        "en"
      ],
      [
        "g",
        "ood"
      ],
      [
        "i",
        "ld"
      ],
      [
        "t",
        "en"
      ],
      [
        "it",
        "y"
      ],
      [
        "at",
        "ed"
      ],
      [
        "le",
        "ss"
      ],
      [
        "so",
        "on"
      ],
      [
        "jur",
        "y"
      ],
      [
        "A",
        "P"
      ],
      [
        "a",
        "ir"
      ],
      [
        "b",
        "le"
      ],
      [
        "d",
        "is"
      ],
      [
        "f",
        "ind"
      ],
      [
        "g",
        "ard"
      ],
      [
        "i",
        "g"
      ],
      [
        "o",
        "p"
      ],
      [
        "r",
        "an"
      ],
      [
        "s",
        "ide"
      ],
      [
        "t",
        "re"
      ],
      [
        "on",
        "s"
      ],
      [
        "ll",
        "ow"
      ],
      [
        "is",
        "e"
      ],
      [
        "ion",
        "s"
      ],
      [
        "sh",
        "all"
      ],
      [
        "do",
        "es"
      ],
      [
        "ra",
        "ther"
      ],
      [
        "po",
        "or"
      ],
      [
        "get",
        "ting"
      ],
      [
        "bo",
        "dy"
      ],
      [
        "cu",
        "ri"
      ],
      [
        "dist",
        "ribut"
      ],
      [
        "C",
        "o"
      ],
      [
        "T",
        "ER"
      ],
      [
        "g",
        "u"
      ],
      [
        "i",
        "ous"
      ],
      [
        "ar",
        "y"
      ],
      [
        "sa",
        "me"
      ],
      [
        "for",
        "m"
      ],
      [
        "ne",
        "w"
      ],
      [
        "ha",
        "pp"
      ],
      [
        "whe",
        "re"
      ],
      [
        "us",
        "ed"
      ],
      [
        "too",
        "k"
      ],
      [
        "ure",
        "s"
      ],
      [
        "CH",
        "AP"
      ],
      [
        "Found",
        "ation"
      ],
      [
        "gard",
        "en"
      ],
      [
        "CHAP",
        "TER"
      ],
      [
        "O",
        "f"
      ],
      [
        "c",
        "er"
      ],
      [
        "s",
        "m"
      ],
      [
        "s",
        "ort"
      ],
      [
        "ad",
        "ded"
      ],
      [
        "al",
        "f"
      ],
      [
        "fe",
        "lt"
      ],
      [
        "im",
        "p"
      ],
      [
        "ation",
        "s"
      ],
      [
        "que",
        "st"
      ],
      [
        "We",
        "ll"
      ],
      [
        "_",
        "I"
      ],
      [
        "c",
        "lo"
      ],
      [
        "f",
        "an"
      ],
      [
        "h",
        "alf"
      ],
      [
        "p",
        "s"
      ],
      [
        "t",
        "able"
      ],
      [
        "w",
        "al"
      ],
      [
        "w",
        "ish"
      ],
      [
        "y",
        "et"
      ],
      [
        "an",
        "other"
      ],
      [
        "le",
        "t"
      ],
      [
        "ch",
        "ild"
      ],
      [
        "ro",
        "om"
      ],
      [
        "oo",
        "l"
      ],
      [
        "ti",
        "ll"
      ],
      [
        "mo",
        "st"
      ],
      [
        "Wh",
        "ite"
      ],
      [
        "whi",
        "le"
      ],
      [
        "a",
        "k"
      ],
      [
        "a",
        "ct"
      ],
      [
        "c",
        "all"
      ],
      [
        "d",
        "re"
      ],
      [
        "g",
        "s"
      ],
      [
        "p",
        "u"
      ],
      [
        "p",
        "art"
      ],
      [
        "s",
        "ent"
      ],
      [
        "s",
        "up"
      ],
      [
        "u",
        "l"
      ],
      [
        "v",
        "id"
      ],
      [
        "ce",
        "ss"
      ],
      [
        "ar",
        "m"
      ],
      [
        "ter",
        "ms"
      ],
      [
        "The",
        "n"
      ],
      [
        "The",
        "y"
      ],
      [
        "fe",
        "e"
      ],
      [
        "wor",
        "ds"
      ],
      [
        "ca",
        "use"
      ],
      [
        "ex",
        "e"
      ],
      [
        "pl",
        "ay"
      ],
      [
        "la",
        "w"
      ],
      [
        "minut",
        "e"
      ],
      [
        "Co",
        "me"
      ],
      [
        "I",
        "n"
      ],
      [
        "T",
        "his"
      ],
      [
        "c",
        "i"
      ],
      [
        "c",
        "ro"
      ],
      [
        "c",
        "ried"
      ],
      [
        "e",
        "a"
      ],
      [
        "e",
        "at"
      ],
      [
        "f",
        "ace"
      ],
      [
        "h",
        "ouse"
      ],
      [
        "i",
        "ly"
      ],
      [
        "k",
        "es"
      ],
      [
        "m",
        "id"
      ],
      [
        "p",
        "ar"
      ],
      [
        "s",
        "it"
      ],
      [
        "s",
        "po"
      ],
      [
        "v",
        "ent"
      ],
      [
        "’",
        "”"
      ],
      [
        "he",
        "ar"
      ],
      [
        "in",
        "ter"
      ],
      [
        "re",
        "me"
      ],
      [
        "le",
        "s"
      ],
      [
        "su",
        "re"
      ],
      [
        "any",
        "thing"
      ],
      [
        "curi",
        "ous"
      ],
      [
        "reme",
        "mber"
      ],
      [
        "E",
        "N"
      ],
      [
        "a",
        "h"
      ],
      [
        "c",
        "reat"
      ],
      [
        "d",
        "if"
      ],
      [
        "f",
        "in"
      ],
      [
        "h",
        "i"
      ],
      [
        "h",
        "ard"
      ],
      [
        "s",
        "to"
      ],
      [
        "t",
        "ried"
      ],
      [
        "w",
        "at"
      ],
      [
        "z",
        "e"
      ],
      [
        "“",
        "—"
      ],
      [
        "re",
        "d"
      ],
      [
        "re",
        "pe"
      ],
      [
        "is",
        "s"
      ],
      [
        "le",
        "ep"
      ],
      [
        "be",
        "t"
      ],
      [
        "be",
        "ing"
      ],
      [
        "ent",
        "ly"
      ],
      [
        "fe",
        "et"
      ],
      [
        "te",
        "a"
      ],
      [
        "fu",
        "l"
      ],
      [
        "copy",
        "right"
      ],
      [
        "full",
        "y"
      ],
      [
        "exe",
        "cut"
      ],
      [
        "M",
        "a"
      ],
      [
        "S",
        "t"
      ],
      [
        "T",
        "H"
      ],
      [
        "U",
        "n"
      ],
      [
        "d",
        "den"
      ],
      [
        "m",
        "or"
      ],
      [
        "w",
        "w"
      ],
      [
        "ou",
        "p"
      ],
      [
        "th",
        "r"
      ],
      [
        "en",
        "ough"
      ],
      [
        "le",
        "ar"
      ],
      [
        "li",
        "c"
      ],
      [
        "fo",
        "llow"
      ],
      [
        "some",
        "thing"
      ],
      [
        "ta",
        "ke"
      ],
      [
        "si",
        "l"
      ],
      [
        "cour",
        "t"
      ],
      [
        "turn",
        "ed"
      ],
      [
        "ap",
        "pe"
      ],
      [
        "ious",
        "ly"
      ],
      [
        "cer",
        "tain"
      ],
      [
        "A",
        "s"
      ],
      [
        "B",
        "ill"
      ],
      [
        "a",
        "ge"
      ],
      [
        "o",
        "b"
      ],
      [
        "o",
        "ot"
      ],
      [
        "s",
        "at"
      ],
      [
        "an",
        "s"
      ],
      [
        "an",
        "x"
      ],
      [
        "re",
        "n"
      ],
      [
        "as",
        "ked"
      ],
      [
        "is",
        "hed"
      ],
      [
        "li",
        "e"
      ],
      [
        "ha",
        "ps"
      ],
      [
        "if",
        "ul"
      ],
      [
        "Wh",
        "o"
      ],
      [
        "su",
        "dden"
      ],
      [
        "pl",
        "ace"
      ],
      [
        "agree",
        "ment"
      ],
      [
        "sm",
        "all"
      ],
      [
        "quest",
        "ion"
      ],
      [
        "spo",
        "ke"
      ],
      [
        "dif",
        "f"
      ],
      [
        ".",
        ")"
      ],
      [
        "B",
        "ook"
      ],
      [
        "I",
        "I"
      ],
      [
        "c",
        "ou"
      ],
      [
        "e",
        "Book"
      ],
      [
        "o",
        "ple"
      ],
      [
        "r",
        "ing"
      ],
      [
        "s",
        "id"
      ],
      [
        "s",
        "ur"
      ],
      [
        "t",
        "ri"
      ],
      [
        "in",
        "de"
      ],
      [
        "ou",
        "d"
      ],
      [
        "en",
        "er"
      ],
      [
        "le",
        "f"
      ],
      [
        "ne",
        "e"
      ],
      [
        "ti",
        "ly"
      ],
      [
        "are",
        "d"
      ],
      [
        "pe",
        "ople"
      ],
      [
        "po",
        "se"
      ],
      [
        "per",
        "s"
      ],
      [
        "tal",
        "king"
      ],
      [
        "has",
        "tily"
      ],
      [
        "cl",
        "u"
      ],
      [
        "does",
        "n"
      ],
      [
        "hi",
        "gh"
      ],
      [
        "thr",
        "ough"
      ],
      [
        ":",
        "—"
      ],
      [
        "A",
        "r"
      ],
      [
        "D",
        "in"
      ],
      [
        "H",
        "er"
      ],
      [
        "L",
        "it"
      ],
      [
        "O",
        "R"
      ],
      [
        "b",
        "ook"
      ],
      [
        "c",
        "ur"
      ],
      [
        "d",
        "one"
      ],
      [
        "d",
        "ance"
      ],
      [
        "f",
        "l"
      ],
      [
        "g",
        "ave"
      ],
      [
        "j",
        "o"
      ],
      [
        "k",
        "new"
      ],
      [
        "l",
        "ist"
      ],
      [
        "s",
        "w"
      ],
      [
        "t",
        "in"
      ],
      [
        "w",
        "ant"
      ],
      [
        "the",
        "se"
      ],
      [
        "an",
        "ge"
      ],
      [
        "se",
        "en"
      ],
      [
        "be",
        "cause"
      ],
      [
        "ch",
        "o"
      ],
      [
        "ab",
        "y"
      ],
      [
        "ke",
        "ep"
      ],
      [
        "fe",
        "ct"
      ],
      [
        "ss",
        "ed"
      ],
      [
        "ra",
        "w"
      ],
      [
        "ra",
        "ph"
      ],
      [
        "fo",
        "ot"
      ],
      [
        "qu",
        "i"
      ],
      [
        "say",
        "ing"
      ],
      [
        "ple",
        "as"
      ],
      [
        "ple",
        "ase"
      ],
      [
        "bo",
        "th"
      ],
      [
        "pp",
        "ed"
      ],
      [
        "ide",
        "a"
      ],
      [
        "art",
        "s"
      ],
      [
        "begin",
        "ning"
      ],
      [
        "_I",
        "_"
      ],
      [
        "call",
        "ed"
      ],
      [
        "St",
        "ates"
      ],
      [
        "Un",
        "ited"
      ],
      [
        "inde",
        "ed"
      ],
      [
        "A",
        "N"
      ],
      [
        "F",
        "or"
      ],
      [
        "I",
        "N"
      ],
      [
        "L",
        "I"
      ],
      [
        "R",
        "E"
      ],
      [
        "W",
        "ill"
      ],
      [
        "_",
        "very"
      ],
      [
        "b",
        "ot"
      ],
      [
        "b",
        "us"
      ],
      [
        "b",
        "aby"
      ],
      [
        "d",
        "u"
      ],
      [
        "f",
        "ar"
      ],
      [
        "i",
        "le"
      ],
      [
        "m",
        "ou"
      ],
      [
        "n",
        "er"
      ],
      [
        "n",
        "ess"
      ],
      [
        "s",
        "ing"
      ],
      [
        "z",
        "z"
      ],
      [
        "he",
        "l"
      ],
      [
        "it",
        "self"
      ],
      [
        "re",
        "st"
      ],
      [
        "to",
        "ge"
      ],
      [
        "se",
        "a"
      ],
      [
        "sa",
        "w"
      ],
      [
        "ad",
        "e"
      ],
      [
        "st",
        "and"
      ],
      [
        "ch",
        "ange"
      ],
      [
        "te",
        "m"
      ],
      [
        "way",
        "s"
      ],
      [
        "per",
        "haps"
      ],
      [
        "con",
        "f"
      ],
      [
        "ex",
        "pl"
      ],
      [
        "did",
        "n"
      ],
      [
        "pi",
        "e"
      ],
      [
        "ho",
        "ld"
      ],
      [
        "com",
        "p"
      ],
      [
        "How",
        "ever"
      ],
      [
        "ire",
        "ct"
      ],
      [
        "spe",
        "ak"
      ],
      [
        "try",
        "ing"
      ],
      [
        "tal",
        "k"
      ],
      [
        "happ",
        "en"
      ],
      [
        "clo",
        "se"
      ],
      [
        "pu",
        "zz"
      ],
      [
        "bet",
        "ter"
      ],
      [
        "ans",
        "wer"
      ],
      [
        "anx",
        "iously"
      ],
      [
        "lef",
        "t"
      ],
      [
        "Din",
        "ah"
      ],
      [
        "_very",
        "_"
      ],
      [
        "mou",
        "th"
      ],
      [
        "toge",
        "ther"
      ],
      [
        "S",
        "oup"
      ],
      [
        "c",
        "ook"
      ],
      [
        "d",
        "irect"
      ],
      [
        "e",
        "k"
      ],
      [
        "f",
        "all"
      ],
      [
        "g",
        "one"
      ],
      [
        "g",
        "ame"
      ],
      [
        "h",
        "ind"
      ],
      [
        "i",
        "ther"
      ],
      [
        "m",
        "p"
      ],
      [
        "m",
        "any"
      ],
      [
        "n",
        "ame"
      ],
      [
        "r",
        "up"
      ],
      [
        "r",
        "un"
      ],
      [
        "s",
        "l"
      ],
      [
        "in",
        "clu"
      ],
      [
        "er",
        "ary"
      ],
      [
        "re",
        "as"
      ],
      [
        "ce",
        "pt"
      ],
      [
        "is",
        "ter"
      ],
      [
        "li",
        "fe"
      ],
      [
        "be",
        "hind"
      ],
      [
        "st",
        "er"
      ],
      [
        "ut",
        "iful"
      ],
      [
        "ch",
        "ing"
      ],
      [
        "ch",
        "ive"
      ],
      [
        "wh",
        "y"
      ],
      [
        "wh",
        "is"
      ],
      [
        "for",
        "t"
      ],
      [
        "ke",
        "pt"
      ],
      [
        "sh",
        "ri"
      ],
      [
        "ag",
        "raph"
      ],
      [
        "who",
        "le"
      ],
      [
        "si",
        "ze"
      ],
      [
        "ort",
        "ant"
      ],
      [
        "que",
        "er"
      ],
      [
        "tur",
        "ning"
      ],
      [
        "cat",
        "s"
      ],
      [
        "Do",
        "do"
      ],
      [
        "tr",
        "ade"
      ],
      [
        "hur",
        "ried"
      ],
      [
        "imp",
        "ortant"
      ],
      [
        "par",
        "agraph"
      ],
      [
        "certain",
        "ly"
      ],
      [
        "Ar",
        "chive"
      ],
      [
        "Lit",
        "erary"
      ],
      [
        "hel",
        "p"
      ],
      [
        "trade",
        "mark"
      ],
      [
        ")",
        ","
      ],
      [
        "A",
        "n"
      ],
      [
        "F",
        "oot"
      ],
      [
        "N",
        "ow"
      ],
      [
        "Y",
        "es"
      ],
      [
        "_",
        "that"
      ],
      [
        "b",
        "b"
      ],
      [
        "b",
        "ir"
      ],
      [
        "c",
        "la"
      ],
      [
        "d",
        "i"
      ],
      [
        "e",
        "ly"
      ],
      [
        "f",
        "ree"
      ],
      [
        "g",
        "lo"
      ],
      [
        "g",
        "ive"
      ],
      [
        "g",
        "ener"
      ],
      [
        "j",
        "est"
      ],
      [
        "m",
        "ind"
      ],
      [
        "m",
        "iss"
      ],
      [
        "s",
        "ound"
      ],
      [
        "as",
        "k"
      ],
      [
        "be",
        "a"
      ],
      [
        "be",
        "st"
      ],
      [
        "st",
        "ill"
      ],
      [
        "ly",
        "ing"
      ],
      [
        "ch",
        "ang"
      ],
      [
        "ver",
        "s"
      ],
      [
        "al",
        "ways"
      ],
      [
        "ge",
        "on"
      ],
      [
        "sh",
        "o"
      ],
      [
        "sh",
        "ar"
      ],
      [
        "but",
        "ter"
      ],
      [
        "ag",
        "er"
      ],
      [
        "ti",
        "mid"
      ],
      [
        "ra",
        "id"
      ],
      [
        "ect",
        "ion"
      ],
      [
        "de",
        "al"
      ],
      [
        "ard",
        "s"
      ],
      [
        "would",
        "n"
      ],
      [
        "che",
        "d"
      ],
      [
        "che",
        "s"
      ],
      [
        "am",
        "ong"
      ],
      [
        "don",
        "ations"
      ],
      [
        "ta",
        "il"
      ],
      [
        "ant",
        "ly"
      ],
      [
        "ma",
        "kes"
      ],
      [
        "af",
        "raid"
      ],
      [
        "ac",
        "cess"
      ],
      [
        "med",
        "i"
      ],
      [
        "erp",
        "ent"
      ],
      [
        "hed",
        "ge"
      ],
      [
        "hand",
        "s"
      ],
      [
        "el",
        "se"
      ],
      [
        "every",
        "thing"
      ],
      [
        "hur",
        "ry"
      ],
      [
        "sup",
        "pose"
      ],
      [
        "law",
        "s"
      ],
      [
        "inter",
        "rup"
      ],
      [
        "fin",
        "ished"
      ],
      [
        "Ma",
        "jest"
      ],
      [
        "sudden",
        "ly"
      ],
      [
        "sur",
        "pr"
      ],
      [
        "jo",
        "in"
      ],
      [
        "Majest",
        "y"
      ],
      [
        "D",
        "on"
      ],
      [
        "L",
        "et"
      ],
      [
        "O",
        "F"
      ],
      [
        "P",
        "i"
      ],
      [
        "a",
        "ke"
      ],
      [
        "c",
        "r"
      ],
      [
        "c",
        "ar"
      ],
      [
        "d",
        "ou"
      ],
      [
        "e",
        "f"
      ],
      [
        "e",
        "ager"
      ],
      [
        "h",
        "all"
      ],
      [
        "k",
        "en"
      ],
      [
        "m",
        "ain"
      ],
      [
        "m",
        "atter"
      ],
      [
        "p",
        "ass"
      ],
      [
        "r",
        "ink"
      ],
      [
        "s",
        "leep"
      ],
      [
        "s",
        "nee"
      ],
      [
        "s",
        "ister"
      ],
      [
        "in",
        "st"
      ],
      [
        "re",
        "ce"
      ],
      [
        "re",
        "ally"
      ],
      [
        "th",
        "o"
      ],
      [
        "is",
        "ed"
      ],
      [
        "ar",
        "s"
      ],
      [
        "li",
        "ve"
      ],
      [
        "ch",
        "ar"
      ],
      [
        "was",
        "n"
      ],
      [
        "ld",
        "i"
      ],
      [
        "so",
        "ldi"
      ],
      [
        "sh",
        "out"
      ],
      [
        "ck",
        "ed"
      ],
      [
        "wor",
        "d"
      ],
      [
        "su",
        "b"
      ],
      [
        "de",
        "ep"
      ],
      [
        "whe",
        "ther"
      ],
      [
        "us",
        "ing"
      ],
      [
        "con",
        "vers"
      ],
      [
        "off",
        "end"
      ],
      [
        "time",
        "s"
      ],
      [
        "gr",
        "in"
      ],
      [
        "bo",
        "x"
      ],
      [
        "que",
        "t"
      ],
      [
        "read",
        "y"
      ],
      [
        "minut",
        "es"
      ],
      [
        "gl",
        "ad"
      ],
      [
        "near",
        "ly"
      ],
      [
        "grow",
        "ing"
      ],
      [
        "wa",
        "ited"
      ],
      [
        "Of",
        "f"
      ],
      [
        "hard",
        "ly"
      ],
      [
        "lear",
        "n"
      ],
      [
        "sil",
        "ence"
      ],
      [
        "tri",
        "al"
      ],
      [
        "Her",
        "e"
      ],
      [
        "list",
        "en"
      ],
      [
        "reas",
        "on"
      ],
      [
        "Foot",
        "man"
      ],
      [
        "cla",
        "im"
      ],
      [
        "glo",
        "ves"
      ],
      [
        "Pi",
        "geon"
      ],
      [
        "A",
        "R"
      ],
      [
        "L",
        "ic"
      ],
      [
        "O",
        "n"
      ],
      [
        "W",
        "he"
      ],
      [
        "_",
        "you"
      ],
      [
        "a",
        "king"
      ],
      [
        "b",
        "right"
      ],
      [
        "c",
        "re"
      ],
      [
        "c",
        "or"
      ],
      [
        "c",
        "id"
      ],
      [
        "d",
        "ing"
      ],
      [
        "d",
        "le"
      ],
      [
        "e",
        "ither"
      ],
      [
        "f",
        "ur"
      ],
      [
        "f",
        "right"
      ],
      [
        "g",
        "ra"
      ],
      [
        "i",
        "ck"
      ],
      [
        "o",
        "h"
      ],
      [
        "o",
        "pp"
      ],
      [
        "p",
        "ool"
      ],
      [
        "s",
        "too"
      ],
      [
        "v",
        "i"
      ],
      [
        "w",
        "o"
      ],
      [
        "w",
        "ind"
      ],
      [
        "er",
        "ent"
      ],
      [
        "th",
        "ough"
      ],
      [
        "or",
        "g"
      ],
      [
        "se",
        "ver"
      ],
      [
        "be",
        "lie"
      ],
      [
        "ad",
        "v"
      ],
      [
        "ri",
        "ly"
      ],
      [
        "wit",
        "ness"
      ],
      [
        "ke",
        "y"
      ],
      [
        "ha",
        "ving"
      ],
      [
        "fe",
        "w"
      ],
      [
        "te",
        "ars"
      ],
      [
        "again",
        "st"
      ],
      [
        "con",
        "tin"
      ],
      [
        "your",
        "self"
      ],
      [
        "ment",
        "s"
      ],
      [
        "ju",
        "mp"
      ],
      [
        "si",
        "g"
      ],
      [
        "si",
        "ght"
      ],
      [
        "think",
        "ing"
      ],
      [
        "ort",
        "un"
      ],
      [
        "tw",
        "ink"
      ],
      [
        "min",
        "e"
      ],
      [
        "wr",
        "iting"
      ],
      [
        "gl",
        "ass"
      ],
      [
        "mb",
        "ling"
      ],
      [
        "remark",
        "ed"
      ],
      [
        "less",
        "ons"
      ],
      [
        "op",
        "en"
      ],
      [
        "op",
        "ened"
      ],
      [
        "wal",
        "ked"
      ],
      [
        "child",
        "ren"
      ],
      [
        "dre",
        "am"
      ],
      [
        "part",
        "y"
      ],
      [
        "sit",
        "ting"
      ],
      [
        "creat",
        "ures"
      ],
      [
        "repe",
        "ated"
      ],
      [
        "appe",
        "ared"
      ],
      [
        "diff",
        "erent"
      ],
      [
        "cou",
        "n"
      ],
      [
        "pers",
        "on"
      ],
      [
        "bot",
        "tle"
      ],
      [
        "pie",
        "ce"
      ],
      [
        "shar",
        "p"
      ],
      [
        "hedge",
        "ho"
      ],
      [
        "dou",
        "b"
      ],
      [
        "soldi",
        "ers"
      ],
      [
        "offend",
        "ed"
      ],
      [
        "Lic",
        "ense"
      ],
      [
        "Whe",
        "n"
      ],
      [
        "opp",
        "ortun"
      ],
      [
        ",",
        ")"
      ],
      [
        "A",
        "d"
      ],
      [
        "A",
        "t"
      ],
      [
        "B",
        "ea"
      ],
      [
        "C",
        "T"
      ],
      [
        "J",
        "u"
      ],
      [
        "K",
        "n"
      ],
      [
        "N",
        "ot"
      ],
      [
        "W",
        "ould"
      ],
      [
        "a",
        "u"
      ],
      [
        "a",
        "w"
      ],
      [
        "a",
        "ther"
      ],
      [
        "b",
        "r"
      ],
      [
        "b",
        "s"
      ],
      [
        "b",
        "ow"
      ],
      [
        "b",
        "ro"
      ],
      [
        "c",
        "ed"
      ],
      [
        "c",
        "are"
      ],
      [
        "c",
        "row"
      ],
      [
        "d",
        "es"
      ],
      [
        "f",
        "our"
      ],
      [
        "g",
        "er"
      ],
      [
        "g",
        "utenberg"
      ],
      [
        "i",
        "ch"
      ],
      [
        "k",
        "y"
      ],
      [
        "k",
        "ind"
      ],
      [
        "l",
        "oud"
      ],
      [
        "m",
        "n"
      ],
      [
        "o",
        "l"
      ],
      [
        "r",
        "ate"
      ],
      [
        "s",
        "p"
      ],
      [
        "s",
        "erpent"
      ],
      [
        "t",
        "ree"
      ],
      [
        "u",
        "m"
      ],
      [
        "u",
        "ed"
      ],
      [
        "w",
        "ood"
      ],
      [
        "it",
        "ten"
      ],
      [
        "at",
        "i"
      ],
      [
        "re",
        "a"
      ],
      [
        "to",
        "p"
      ],
      [
        "to",
        "ry"
      ],
      [
        "or",
        "der"
      ],
      [
        "le",
        "ast"
      ],
      [
        "ke",
        "t"
      ],
      [
        "sh",
        "ook"
      ],
      [
        "not",
        "ic"
      ],
      [
        "ck",
        "ing"
      ],
      [
        "co",
        "pi"
      ],
      [
        "wor",
        "ld"
      ],
      [
        "mo",
        "ved"
      ],
      [
        "go",
        "ld"
      ],
      [
        "could",
        "n"
      ],
      [
        "con",
        "sid"
      ],
      [
        "lo",
        "b"
      ],
      [
        "head",
        "s"
      ],
      [
        "fu",
        "nd"
      ],
      [
        "end",
        "ing"
      ],
      [
        "pi",
        "g"
      ],
      [
        "pro",
        "v"
      ],
      [
        "com",
        "ing"
      ],
      [
        "ang",
        "rily"
      ],
      [
        "pr",
        "ot"
      ],
      [
        "wr",
        "itten"
      ],
      [
        "ear",
        "s"
      ],
      [
        "fee",
        "ling"
      ],
      [
        "vent",
        "ures"
      ],
      [
        "repe",
        "at"
      ],
      [
        "execut",
        "ion"
      ],
      [
        "TH",
        "E"
      ],
      [
        "mor",
        "al"
      ],
      [
        "ww",
        "w"
      ],
      [
        "expl",
        "ain"
      ],
      [
        "puzz",
        "led"
      ],
      [
        "bir",
        "ds"
      ],
      [
        "miss",
        "ion"
      ],
      [
        "timid",
        "ly"
      ],
      [
        "interrup",
        "ted"
      ],
      [
        "snee",
        "z"
      ],
      [
        "rece",
        "i"
      ],
      [
        "tho",
        "se"
      ],
      [
        "shout",
        "ed"
      ],
      [
        "convers",
        "ation"
      ],
      [
        "belie",
        "ve"
      ],
      [
        "contin",
        "ued"
      ],
      [
        "opportun",
        "ity"
      ],
      [
        "Kn",
        "ave"
      ],
      [
        "consid",
        "er"
      ],
      [
        "*",
        "*"
      ],
      [
        "E",
        "n"
      ],
      [
        "I",
        "T"
      ],
      [
        "O",
        "N"
      ],
      [
        "O",
        "U"
      ],
      [
        "U",
        "T"
      ],
      [
        "_",
        "is"
      ],
      [
        "_",
        "your"
      ],
      [
        "b",
        "at"
      ],
      [
        "c",
        "y"
      ],
      [
        "c",
        "us"
      ],
      [
        "c",
        "ket"
      ],
      [
        "d",
        "ly"
      ],
      [
        "d",
        "ry"
      ],
      [
        "d",
        "read"
      ],
      [
        "d",
        "raw"
      ],
      [
        "f",
        "ish"
      ],
      [
        "f",
        "act"
      ],
      [
        "g",
        "ed"
      ],
      [
        "i",
        "am"
      ],
      [
        "l",
        "ate"
      ],
      [
        "m",
        "it"
      ],
      [
        "m",
        "er"
      ],
      [
        "n",
        "i"
      ],
      [
        "n",
        "u"
      ],
      [
        "n",
        "at"
      ],
      [
        "n",
        "ed"
      ],
      [
        "n",
        "ice"
      ],
      [
        "p",
        "per"
      ],
      [
        "p",
        "rom"
      ],
      [
        "s",
        "low"
      ],
      [
        "u",
        "ght"
      ],
      [
        "u",
        "su"
      ],
      [
        "u",
        "lt"
      ],
      [
        "y",
        "al"
      ],
      [
        "—",
        "‘"
      ],
      [
        "in",
        "t"
      ],
      [
        "in",
        "ess"
      ],
      [
        "re",
        "fund"
      ],
      [
        "as",
        "h"
      ],
      [
        "as",
        "leep"
      ],
      [
        "se",
        "s"
      ],
      [
        "se",
        "con"
      ],
      [
        "le",
        "ave"
      ],
      [
        "li",
        "ght"
      ],
      [
        "st",
        "ate"
      ],
      [
        "ch",
        "in"
      ],
      [
        "so",
        "le"
      ],
      [
        "wh",
        "ite"
      ],
      [
        "wh",
        "iting"
      ],
      [
        "al",
        "most"
      ],
      [
        "for",
        "th"
      ],
      [
        "for",
        "got"
      ],
      [
        "sh",
        "room"
      ],
      [
        "ne",
        "y"
      ],
      [
        "ag",
        "ed"
      ],
      [
        "ha",
        "ven"
      ],
      [
        "fe",
        "el"
      ],
      [
        "no",
        "se"
      ],
      [
        "mu",
        "shroom"
      ],
      [
        "Wh",
        "ich"
      ],
      [
        "ect",
        "ed"
      ],
      [
        "see",
        "m"
      ],
      [
        "us",
        "ion"
      ],
      [
        "other",
        "s"
      ],
      [
        "am",
        "ing"
      ],
      [
        "off",
        "ic"
      ],
      [
        "ma",
        "king"
      ],
      [
        "ac",
        "le"
      ],
      [
        "mark",
        "ed"
      ],
      [
        "cu",
        "lar"
      ],
      [
        "day",
        "s"
      ],
      [
        "pa",
        "w"
      ],
      [
        "dist",
        "ance"
      ],
      [
        "pre",
        "ssed"
      ],
      [
        "wa",
        "iting"
      ],
      [
        "mean",
        "s"
      ],
      [
        "mean",
        "ing"
      ],
      [
        "distribut",
        "ing"
      ],
      [
        "form",
        "ation"
      ],
      [
        "garden",
        "ers"
      ],
      [
        "fan",
        "cy"
      ],
      [
        "act",
        "ly"
      ],
      [
        "vid",
        "ence"
      ],
      [
        "cro",
        "quet"
      ],
      [
        "ea",
        "ch"
      ],
      [
        "mid",
        "dle"
      ],
      [
        "wat",
        "ch"
      ],
      [
        "follow",
        "ed"
      ],
      [
        "Will",
        "iam"
      ],
      [
        "bus",
        "iness"
      ],
      [
        "run",
        "ning"
      ],
      [
        "sl",
        "ates"
      ],
      [
        "inclu",
        "ding"
      ],
      [
        "whis",
        "per"
      ],
      [
        "_that",
        "_"
      ],
      [
        "bea",
        "utiful"
      ],
      [
        "chang",
        "ed"
      ],
      [
        "eager",
        "ly"
      ],
      [
        "sub",
        "ject"
      ],
      [
        "_you",
        "_"
      ],
      [
        "vi",
        "ol"
      ],
      [
        "wind",
        "ow"
      ],
      [
        "doub",
        "t"
      ],
      [
        "notic",
        "ed"
      ],
      [
        "En",
        "gl"
      ],
      [
        "_is",
        "_"
      ],
      [
        "slow",
        "ly"
      ],
      [
        ".",
        "’”"
      ],
      [
        "A",
        "G"
      ],
      [
        "C",
        "he"
      ],
      [
        "E",
        "D"
      ],
      [
        "E",
        "x"
      ],
      [
        "F",
        "ive"
      ],
      [
        "F",
        "irst"
      ],
      [
        "I",
        "S"
      ],
      [
        "L",
        "i"
      ],
      [
        "L",
        "or"
      ],
      [
        "R",
        "e"
      ],
      [
        "S",
        "E"
      ],
      [
        "S",
        "oo"
      ],
      [
        "S",
        "ection"
      ],
      [
        "_",
        "not"
      ],
      [
        "_",
        "what"
      ],
      [
        "b",
        "ur"
      ],
      [
        "b",
        "read"
      ],
      [
        "c",
        "ri"
      ],
      [
        "d",
        "ro"
      ],
      [
        "e",
        "g"
      ],
      [
        "e",
        "m"
      ],
      [
        "e",
        "as"
      ],
      [
        "e",
        "ll"
      ],
      [
        "g",
        "ir"
      ],
      [
        "h",
        "ot"
      ],
      [
        "h",
        "un"
      ],
      [
        "i",
        "es"
      ],
      [
        "l",
        "s"
      ],
      [
        "p",
        "ay"
      ],
      [
        "p",
        "up"
      ],
      [
        "p",
        "ard"
      ],
      [
        "s",
        "ch"
      ],
      [
        "s",
        "ir"
      ],
      [
        "s",
        "ong"
      ],
      [
        "s",
        "cre"
      ],
      [
        "t",
        "u"
      ],
      [
        "t",
        "y"
      ],
      [
        "u",
        "g"
      ],
      [
        "—",
        "“"
      ],
      [
        "an",
        "k"
      ],
      [
        "it",
        "ions"
      ],
      [
        "at",
        "t"
      ],
      [
        "re",
        "t"
      ],
      [
        "re",
        "main"
      ],
      [
        "as",
        "so"
      ],
      [
        "as",
        "ter"
      ],
      [
        "is",
        "n"
      ],
      [
        "le",
        "a"
      ],
      [
        "st",
        "up"
      ],
      [
        "st",
        "ers"
      ],
      [
        "ch",
        "im"
      ],
      [
        "oo",
        "p"
      ],
      [
        "sh",
        "ow"
      ],
      [
        "sh",
        "ut"
      ],
      [
        "sh",
        "ire"
      ],
      [
        "ne",
        "ck"
      ],
      [
        "not",
        "ice"
      ],
      [
        "had",
        "n"
      ],
      [
        "ti",
        "red"
      ],
      [
        "ti",
        "cular"
      ],
      [
        "ha",
        "ir"
      ],
      [
        "ss",
        "i"
      ],
      [
        "his",
        "tory"
      ],
      [
        "de",
        "cid"
      ],
      [
        "de",
        "light"
      ],
      [
        "po",
        "cket"
      ],
      [
        "po",
        "ssi"
      ],
      [
        "un",
        "com"
      ],
      [
        "beg",
        "un"
      ],
      [
        "go",
        "es"
      ],
      [
        "qu",
        "ire"
      ],
      [
        "lo",
        "cat"
      ],
      [
        "gr",
        "own"
      ],
      [
        "gr",
        "ound"
      ],
      [
        "ta",
        "x"
      ],
      [
        "si",
        "gh"
      ],
      [
        "ate",
        "ly"
      ],
      [
        "my",
        "self"
      ],
      [
        "how",
        "ever"
      ],
      [
        "read",
        "ing"
      ],
      [
        "end",
        "s"
      ],
      [
        "lar",
        "ger"
      ],
      [
        "pro",
        "vid"
      ],
      [
        "pro",
        "cess"
      ],
      [
        "man",
        "age"
      ],
      [
        "ey",
        "e"
      ],
      [
        "pa",
        "ir"
      ],
      [
        "under",
        "stand"
      ],
      [
        "mb",
        "led"
      ],
      [
        "wonder",
        "ing"
      ],
      [
        "tre",
        "es"
      ],
      [
        "ons",
        "ense"
      ],
      [
        "distribut",
        "ion"
      ],
      [
        "happ",
        "ened"
      ],
      [
        "sent",
        "ence"
      ],
      [
        "ci",
        "ated"
      ],
      [
        "par",
        "ticular"
      ],
      [
        "vent",
        "ure"
      ],
      [
        "sto",
        "ry"
      ],
      [
        "sil",
        "ent"
      ],
      [
        "diff",
        "ic"
      ],
      [
        "eBook",
        "s"
      ],
      [
        "sid",
        "es"
      ],
      [
        "fl",
        "aming"
      ],
      [
        "qui",
        "et"
      ],
      [
        "pleas",
        "ed"
      ],
      [
        "tem",
        "per"
      ],
      [
        "tem",
        "pt"
      ],
      [
        "gener",
        "ally"
      ],
      [
        "sho",
        "es"
      ],
      [
        "surpr",
        "ised"
      ],
      [
        "fright",
        "ened"
      ],
      [
        "stoo",
        "d"
      ],
      [
        "hedgeho",
        "g"
      ],
      [
        "Ju",
        "st"
      ],
      [
        "ati",
        "ently"
      ],
      [
        "copi",
        "es"
      ],
      [
        "gold",
        "en"
      ],
      [
        "lob",
        "sters"
      ],
      [
        "prov",
        "ide"
      ],
      [
        "_your",
        "_"
      ],
      [
        "nu",
        "mber"
      ],
      [
        "sole",
        "mn"
      ],
      [
        "Engl",
        "ish"
      ],
      [
        "Che",
        "shire"
      ],
      [
        "Lor",
        "y"
      ],
      [
        "pup",
        "py"
      ],
      [
        "pard",
        "on"
      ],
      [
        "sch",
        "ool"
      ],
      [
        "asso",
        "ciated"
      ],
      [
        "chim",
        "ney"
      ],
      [
        "decid",
        "ed"
      ],
      [
        "locat",
        "ed"
      ],
      [
        "flaming",
        "o"
      ],
      [
        "(",
        "“"
      ],
      [
        "A",
        "f"
      ],
      [
        "A",
        "ll"
      ],
      [
        "C",
        "E"
      ],
      [
        "E",
        "S"
      ],
      [
        "L",
        "ob"
      ],
      [
        "O",
        "ne"
      ],
      [
        "P",
        "le"
      ],
      [
        "Q",
        "u"
      ],
      [
        "T",
        "I"
      ],
      [
        "T",
        "wo"
      ],
      [
        "Y",
        "OU"
      ],
      [
        "a",
        "v"
      ],
      [
        "a",
        "pp"
      ],
      [
        "a",
        "il"
      ],
      [
        "b",
        "ly"
      ],
      [
        "d",
        "are"
      ],
      [
        "e",
        "vidence"
      ],
      [
        "f",
        "un"
      ],
      [
        "g",
        "re"
      ],
      [
        "g",
        "ing"
      ],
      [
        "g",
        "es"
      ],
      [
        "h",
        "our"
      ],
      [
        "i",
        "x"
      ],
      [
        "i",
        "ed"
      ],
      [
        "l",
        "an"
      ],
      [
        "l",
        "and"
      ],
      [
        "l",
        "ad"
      ],
      [
        "l",
        "ink"
      ],
      [
        "l",
        "ine"
      ],
      [
        "m",
        "en"
      ],
      [
        "n",
        "ur"
      ],
      [
        "n",
        "onsense"
      ],
      [
        "p",
        "or"
      ],
      [
        "p",
        "ri"
      ],
      [
        "r",
        "id"
      ],
      [
        "r",
        "abbit"
      ],
      [
        "s",
        "_"
      ],
      [
        "s",
        "n"
      ],
      [
        "s",
        "or"
      ],
      [
        "s",
        "im"
      ],
      [
        "t",
        "ch"
      ],
      [
        "t",
        "ru"
      ],
      [
        "t",
        "arts"
      ],
      [
        "u",
        "al"
      ],
      [
        "w",
        "ise"
      ],
      [
        "w",
        "ards"
      ],
      [
        "z",
        "es"
      ],
      [
        "z",
        "ard"
      ],
      [
        "in",
        "ches"
      ],
      [
        "ou",
        "ble"
      ],
      [
        "an",
        "im"
      ],
      [
        "it",
        "h"
      ],
      [
        "re",
        "quire"
      ],
      [
        "to",
        "ld"
      ],
      [
        "ed",
        "itions"
      ],
      [
        "or",
        "s"
      ],
      [
        "of",
        "ten"
      ],
      [
        "is",
        "on"
      ],
      [
        "ar",
        "ing"
      ],
      [
        "ar",
        "ms"
      ],
      [
        "ar",
        "gu"
      ],
      [
        "li",
        "ked"
      ],
      [
        "you",
        "th"
      ],
      [
        "be",
        "l"
      ],
      [
        "be",
        "at"
      ],
      [
        "be",
        "low"
      ],
      [
        "me",
        "lan"
      ],
      [
        "st",
        "s"
      ],
      [
        "st",
        "ay"
      ],
      [
        "ut",
        "ter"
      ],
      [
        "ld",
        "ed"
      ],
      [
        "all",
        "ow"
      ],
      [
        "ro",
        "of"
      ],
      [
        "ro",
        "ss"
      ],
      [
        "ro",
        "yal"
      ],
      [
        "out",
        "side"
      ],
      [
        "with",
        "in"
      ],
      [
        "al",
        "s"
      ],
      [
        "al",
        "ong"
      ],
      [
        "ti",
        "es"
      ],
      [
        "co",
        "ll"
      ],
      [
        "fe",
        "ll"
      ],
      [
        "fe",
        "tch"
      ],
      [
        "wor",
        "th"
      ],
      [
        "lit",
        "ely"
      ],
      [
        "ss",
        "ing"
      ],
      [
        "im",
        "medi"
      ],
      [
        "pe",
        "pper"
      ],
      [
        "Wh",
        "ile"
      ],
      [
        "po",
        "litely"
      ],
      [
        "un",
        "te"
      ],
      [
        "we",
        "l"
      ],
      [
        "we",
        "en"
      ],
      [
        "per",
        "mission"
      ],
      [
        "some",
        "body"
      ],
      [
        "ex",
        "t"
      ],
      [
        "ex",
        "claim"
      ],
      [
        "lo",
        "ve"
      ],
      [
        "vo",
        "l"
      ],
      [
        "pi",
        "ct"
      ],
      [
        "pi",
        "gs"
      ],
      [
        "ho",
        "pe"
      ],
      [
        "him",
        "self"
      ],
      [
        "pa",
        "id"
      ],
      [
        "pa",
        "per"
      ],
      [
        "spe",
        "ct"
      ],
      [
        "tr",
        "ouble"
      ],
      [
        "ine",
        "a"
      ],
      [
        "He",
        "arts"
      ],
      [
        "pre",
        "sent"
      ],
      [
        "dis",
        "play"
      ],
      [
        "ig",
        "n"
      ],
      [
        "tre",
        "mbling"
      ],
      [
        "distribut",
        "e"
      ],
      [
        "gu",
        "ess"
      ],
      [
        "gu",
        "inea"
      ],
      [
        "wal",
        "k"
      ],
      [
        "inter",
        "est"
      ],
      [
        "fin",
        "ish"
      ],
      [
        "execut",
        "ed"
      ],
      [
        "lic",
        "ense"
      ],
      [
        "sw",
        "im"
      ],
      [
        "sw",
        "am"
      ],
      [
        "cho",
        "ly"
      ],
      [
        "comp",
        "ly"
      ],
      [
        "shri",
        "ek"
      ],
      [
        "char",
        "ge"
      ],
      [
        "gra",
        "ve"
      ],
      [
        "jump",
        "ed"
      ],
      [
        "bro",
        "ken"
      ],
      [
        "prot",
        "ected"
      ],
      [
        "execution",
        "er"
      ],
      [
        "sneez",
        "ing"
      ],
      [
        "recei",
        "ved"
      ],
      [
        "dread",
        "fully"
      ],
      [
        "secon",
        "d"
      ],
      [
        "forgot",
        "ten"
      ],
      [
        "Li",
        "zard"
      ],
      [
        "_not",
        "_"
      ],
      [
        "scre",
        "am"
      ],
      [
        "lea",
        "ves"
      ],
      [
        "stup",
        "id"
      ],
      [
        "diffic",
        "ult"
      ],
      [
        "Af",
        "ter"
      ],
      [
        "Lob",
        "ster"
      ],
      [
        "Ple",
        "ase"
      ],
      [
        "sim",
        "ple"
      ],
      [
        "melan",
        "choly"
      ],
      [
        "exclaim",
        "ed"
      ],
      [
        "!",
        "’"
      ],
      [
        "0",
        "0"
      ],
      [
        "A",
        "D"
      ],
      [
        "A",
        "h"
      ],
      [
        "A",
        "re"
      ],
      [
        "B",
        "e"
      ],
      [
        "B",
        "y"
      ],
      [
        "C",
        "on"
      ],
      [
        "E",
        "very"
      ],
      [
        "F",
        "U"
      ],
      [
        "M",
        "y"
      ],
      [
        "M",
        "iss"
      ],
      [
        "N",
        "O"
      ],
      [
        "N",
        "or"
      ],
      [
        "P",
        "R"
      ],
      [
        "S",
        "even"
      ],
      [
        "T",
        "R"
      ],
      [
        "T",
        "Y"
      ],
      [
        "T",
        "o"
      ],
      [
        "T",
        "ell"
      ],
      [
        "V",
        "er"
      ],
      [
        "W",
        "on"
      ],
      [
        "W",
        "here"
      ],
      [
        "_",
        "was"
      ],
      [
        "_",
        "would"
      ],
      [
        "b",
        "ring"
      ],
      [
        "c",
        "le"
      ],
      [
        "c",
        "up"
      ],
      [
        "c",
        "ry"
      ],
      [
        "c",
        "ru"
      ],
      [
        "c",
        "ase"
      ],
      [
        "c",
        "lear"
      ],
      [
        "d",
        "in"
      ],
      [
        "d",
        "rink"
      ],
      [
        "e",
        "w"
      ],
      [
        "f",
        "f"
      ],
      [
        "f",
        "ing"
      ],
      [
        "f",
        "ri"
      ],
      [
        "f",
        "ire"
      ],
      [
        "f",
        "ig"
      ],
      [
        "g",
        "ar"
      ],
      [
        "h",
        "ook"
      ],
      [
        "k",
        "id"
      ],
      [
        "k",
        "no"
      ],
      [
        "k",
        "nee"
      ],
      [
        "l",
        "ay"
      ],
      [
        "m",
        "on"
      ],
      [
        "m",
        "utter"
      ],
      [
        "n",
        "g"
      ],
      [
        "n",
        "y"
      ],
      [
        "n",
        "ight"
      ],
      [
        "n",
        "ine"
      ],
      [
        "o",
        "c"
      ],
      [
        "o",
        "s"
      ],
      [
        "p",
        "it"
      ],
      [
        "p",
        "ing"
      ],
      [
        "p",
        "ur"
      ],
      [
        "p",
        "ack"
      ],
      [
        "r",
        "own"
      ],
      [
        "s",
        "ic"
      ],
      [
        "s",
        "pl"
      ],
      [
        "s",
        "que"
      ],
      [
        "s",
        "ky"
      ],
      [
        "t",
        "wel"
      ],
      [
        "u",
        "mb"
      ],
      [
        "v",
        "an"
      ],
      [
        "v",
        "ous"
      ],
      [
        "w",
        "and"
      ],
      [
        "w",
        "ink"
      ],
      [
        "he",
        "ight"
      ],
      [
        "in",
        "v"
      ],
      [
        "it",
        "ion"
      ],
      [
        "er",
        "ed"
      ],
      [
        "th",
        "or"
      ],
      [
        "th",
        "row"
      ],
      [
        "ed",
        "s"
      ],
      [
        "as",
        "king"
      ],
      [
        "ll",
        "e"
      ],
      [
        "ll",
        "ed"
      ],
      [
        "ce",
        "ed"
      ],
      [
        "ar",
        "row"
      ],
      [
        "le",
        "g"
      ],
      [
        "li",
        "f"
      ],
      [
        "li",
        "ance"
      ],
      [
        "sa",
        "ge"
      ],
      [
        "sa",
        "dly"
      ],
      [
        "you",
        "ng"
      ],
      [
        "be",
        "come"
      ],
      [
        "me",
        "ant"
      ],
      [
        "ad",
        "ri"
      ],
      [
        "ad",
        "dre"
      ],
      [
        "st",
        "ra"
      ],
      [
        "st",
        "art"
      ],
      [
        "st",
        "ran"
      ],
      [
        "st",
        "ick"
      ],
      [
        "was",
        "h"
      ],
      [
        "ot",
        "s"
      ],
      [
        "ro",
        "se"
      ],
      [
        "al",
        "one"
      ],
      [
        "al",
        "oud"
      ],
      [
        "al",
        "together"
      ],
      [
        "oo",
        "se"
      ],
      [
        "for",
        "table"
      ],
      [
        "sh",
        "an"
      ],
      [
        "sh",
        "rink"
      ],
      [
        "ne",
        "at"
      ],
      [
        "do",
        "ing"
      ],
      [
        "ti",
        "l"
      ],
      [
        "fe",
        "llow"
      ],
      [
        "no",
        "body"
      ],
      [
        "su",
        "l"
      ],
      [
        "ra",
        "ce"
      ],
      [
        "de",
        "fect"
      ],
      [
        "any",
        "one"
      ],
      [
        "po",
        "in"
      ],
      [
        "te",
        "en"
      ],
      [
        "te",
        "ac"
      ],
      [
        "un",
        "til"
      ],
      [
        "see",
        "ms"
      ],
      [
        "per",
        "form"
      ],
      [
        "like",
        "ly"
      ],
      [
        "che",
        "ck"
      ],
      [
        "fo",
        "lded"
      ],
      [
        "some",
        "times"
      ],
      [
        "ex",
        "cept"
      ],
      [
        "ex",
        "actly"
      ],
      [
        "ind",
        "ign"
      ],
      [
        "pl",
        "an"
      ],
      [
        "pl",
        "ain"
      ],
      [
        "can",
        "not"
      ],
      [
        "don",
        "ate"
      ],
      [
        "gr",
        "un"
      ],
      [
        "ta",
        "king"
      ],
      [
        "ju",
        "d"
      ],
      [
        "pp",
        "ing"
      ],
      [
        "der",
        "land"
      ],
      [
        "ac",
        "ross"
      ],
      [
        "tw",
        "ice"
      ],
      [
        "ho",
        "me"
      ],
      [
        "pro",
        "per"
      ],
      [
        "pro",
        "du"
      ],
      [
        "should",
        "n"
      ],
      [
        "rep",
        "ly"
      ],
      [
        "ang",
        "ry"
      ],
      [
        "spe",
        "aking"
      ],
      [
        "wr",
        "ite"
      ],
      [
        "wr",
        "ong"
      ],
      [
        "near",
        "er"
      ],
      [
        "every",
        "body"
      ],
      [
        "even",
        "ing"
      ],
      [
        "mb",
        "s"
      ],
      [
        "wa",
        "ving"
      ],
      [
        "air",
        "s"
      ],
      [
        "tre",
        "acle"
      ],
      [
        "curi",
        "os"
      ],
      [
        "form",
        "at"
      ],
      [
        "imp",
        "atiently"
      ],
      [
        "clo",
        "ck"
      ],
      [
        "wal",
        "king"
      ],
      [
        "let",
        "ter"
      ],
      [
        "dre",
        "w"
      ],
      [
        "In",
        "formation"
      ],
      [
        "face",
        "s"
      ],
      [
        "remember",
        "ed"
      ],
      [
        "EN",
        "T"
      ],
      [
        "sto",
        "p"
      ],
      [
        "wat",
        "er"
      ],
      [
        "bet",
        "ween"
      ],
      [
        "mor",
        "ning"
      ],
      [
        "ob",
        "tain"
      ],
      [
        "raw",
        "ling"
      ],
      [
        "ner",
        "vous"
      ],
      [
        "conf",
        "usion"
      ],
      [
        "expl",
        "an"
      ],
      [
        "happen",
        "s"
      ],
      [
        "direct",
        "ion"
      ],
      [
        "shri",
        "ll"
      ],
      [
        "bb",
        "ing"
      ],
      [
        "sound",
        "ed"
      ],
      [
        "medi",
        "um"
      ],
      [
        "surpr",
        "ise"
      ],
      [
        "ef",
        "fort"
      ],
      [
        "pass",
        "ed"
      ],
      [
        "sleep",
        "y"
      ],
      [
        "inst",
        "antly"
      ],
      [
        "sever",
        "al"
      ],
      [
        "sig",
        "hed"
      ],
      [
        "twink",
        "le"
      ],
      [
        "coun",
        "try"
      ],
      [
        "Ad",
        "ventures"
      ],
      [
        "Bea",
        "utiful"
      ],
      [
        "crow",
        "ded"
      ],
      [
        "mit",
        "ted"
      ],
      [
        "ni",
        "bb"
      ],
      [
        "usu",
        "al"
      ],
      [
        "paw",
        "s"
      ],
      [
        "whisper",
        "ed"
      ],
      [
        "dro",
        "pped"
      ],
      [
        "eg",
        "gs"
      ],
      [
        "process",
        "ion"
      ],
      [
        "quiet",
        "ly"
      ],
      [
        "Qu",
        "adri"
      ],
      [
        "sor",
        "row"
      ],
      [
        "unte",
        "ers"
      ],
      [
        "interest",
        "ing"
      ],
      [
        "PR",
        "O"
      ],
      [
        "Ver",
        "y"
      ],
      [
        "Won",
        "derland"
      ],
      [
        "_was",
        "_"
      ],
      [
        "_would",
        "_"
      ],
      [
        "fing",
        "er"
      ],
      [
        "hook",
        "ah"
      ],
      [
        "stran",
        "ge"
      ],
      [
        "teac",
        "up"
      ],
      [
        "curios",
        "ity"
      ],
      [
        "Quadri",
        "lle"
      ],
      [
        ")",
        "."
      ],
      [
        ",",
        "’”"
      ],
      [
        "?",
        "—"
      ],
      [
        "A",
        "B"
      ],
      [
        "A",
        "L"
      ],
      [
        "B",
        "ER"
      ],
      [
        "C",
        "an"
      ],
      [
        "C",
        "all"
      ],
      [
        "C",
        "au"
      ],
      [
        "D",
        "A"
      ],
      [
        "D",
        "own"
      ],
      [
        "E",
        "CT"
      ],
      [
        "F",
        "ren"
      ],
      [
        "F",
        "OR"
      ],
      [
        "F",
        "ather"
      ],
      [
        "G",
        "UT"
      ],
      [
        "H",
        "old"
      ],
      [
        "I",
        "V"
      ],
      [
        "J",
        "ECT"
      ],
      [
        "L",
        "L"
      ],
      [
        "L",
        "ong"
      ],
      [
        "M",
        "ary"
      ],
      [
        "N",
        "ever"
      ],
      [
        "P",
        "r"
      ],
      [
        "R",
        "o"
      ],
      [
        "R",
        "AN"
      ],
      [
        "S",
        "a"
      ],
      [
        "S",
        "e"
      ],
      [
        "S",
        "h"
      ],
      [
        "S",
        "ure"
      ],
      [
        "T",
        "ake"
      ],
      [
        "V",
        "II"
      ],
      [
        "W",
        "AR"
      ],
      [
        "W",
        "ith"
      ],
      [
        "_",
        "me"
      ],
      [
        "_",
        "have"
      ],
      [
        "_",
        "can"
      ],
      [
        "_",
        "You"
      ],
      [
        "_",
        "think"
      ],
      [
        "a",
        "x"
      ],
      [
        "b",
        "reat"
      ],
      [
        "b",
        "ank"
      ],
      [
        "d",
        "am"
      ],
      [
        "d",
        "ark"
      ],
      [
        "d",
        "ish"
      ],
      [
        "d",
        "ition"
      ],
      [
        "e",
        "ad"
      ],
      [
        "f",
        "it"
      ],
      [
        "f",
        "er"
      ],
      [
        "f",
        "on"
      ],
      [
        "f",
        "ly"
      ],
      [
        "f",
        "ill"
      ],
      [
        "f",
        "lo"
      ],
      [
        "f",
        "ast"
      ],
      [
        "f",
        "la"
      ],
      [
        "f",
        "low"
      ],
      [
        "f",
        "air"
      ],
      [
        "f",
        "rown"
      ],
      [
        "g",
        "i"
      ],
      [
        "g",
        "ue"
      ],
      [
        "g",
        "ently"
      ],
      [
        "h",
        "on"
      ],
      [
        "i",
        "e"
      ],
      [
        "i",
        "al"
      ],
      [
        "i",
        "lit"
      ],
      [
        "i",
        "vid"
      ],
      [
        "i",
        "les"
      ],
      [
        "k",
        "it"
      ],
      [
        "l",
        "at"
      ],
      [
        "m",
        "ice"
      ],
      [
        "m",
        "aster"
      ],
      [
        "n",
        "one"
      ],
      [
        "p",
        "an"
      ],
      [
        "p",
        "as"
      ],
      [
        "p",
        "atter"
      ],
      [
        "p",
        "ort"
      ],
      [
        "r",
        "ase"
      ],
      [
        "s",
        "in"
      ],
      [
        "s",
        "er"
      ],
      [
        "s",
        "ed"
      ],
      [
        "s",
        "li"
      ],
      [
        "s",
        "oup"
      ],
      [
        "t",
        "ong"
      ],
      [
        "t",
        "ast"
      ],
      [
        "u",
        "ll"
      ],
      [
        "u",
        "de"
      ],
      [
        "u",
        "ff"
      ],
      [
        "v",
        "il"
      ],
      [
        "v",
        "age"
      ],
      [
        "w",
        "ow"
      ],
      [
        "w",
        "ide"
      ],
      [
        "w",
        "ild"
      ],
      [
        "y",
        "er"
      ],
      [
        "y",
        "aw"
      ],
      [
        "—",
        "’"
      ],
      [
        "—",
        "’”"
      ],
      [
        "he",
        "ld"
      ],
      [
        "it",
        "ude"
      ],
      [
        "at",
        "us"
      ],
      [
        "on",
        "es"
      ],
      [
        "on",
        "line"
      ],
      [
        "re",
        "al"
      ],
      [
        "re",
        "turn"
      ],
      [
        "re",
        "place"
      ],
      [
        "re",
        "moved"
      ],
      [
        "to",
        "m"
      ],
      [
        "th",
        "im"
      ],
      [
        "or",
        "us"
      ],
      [
        "id",
        "er"
      ],
      [
        "is",
        "it"
      ],
      [
        "ar",
        "re"
      ],
      [
        "ar",
        "se"
      ],
      [
        "ar",
        "ches"
      ],
      [
        "se",
        "arch"
      ],
      [
        "li",
        "ves"
      ],
      [
        "sa",
        "vage"
      ],
      [
        "be",
        "head"
      ],
      [
        "me",
        "t"
      ],
      [
        "me",
        "et"
      ],
      [
        "ad",
        "ventures"
      ],
      [
        "st",
        "ed"
      ],
      [
        "st",
        "ates"
      ],
      [
        "st",
        "airs"
      ],
      [
        "st",
        "atus"
      ],
      [
        "ch",
        "ance"
      ],
      [
        "ver",
        "se"
      ],
      [
        "ver",
        "di"
      ],
      [
        "ver",
        "ses"
      ],
      [
        "ot",
        "e"
      ],
      [
        "her",
        "s"
      ],
      [
        "es",
        "ca"
      ],
      [
        "so",
        "lic"
      ],
      [
        "so",
        "bs"
      ],
      [
        "al",
        "so"
      ],
      [
        "al",
        "ter"
      ],
      [
        "ur",
        "al"
      ],
      [
        "sh",
        "ort"
      ],
      [
        "up",
        "set"
      ],
      [
        "ne",
        "ed"
      ],
      [
        "ti",
        "p"
      ],
      [
        "co",
        "st"
      ],
      [
        "co",
        "ver"
      ],
      [
        "fe",
        "ar"
      ],
      [
        "fe",
        "es"
      ],
      [
        "if",
        "y"
      ],
      [
        "pe",
        "t"
      ],
      [
        "pe",
        "ct"
      ],
      [
        "pe",
        "ep"
      ],
      [
        "mo",
        "ve"
      ],
      [
        "sel",
        "ves"
      ],
      [
        "ra",
        "ge"
      ],
      [
        "de",
        "ad"
      ],
      [
        "po",
        "ise"
      ],
      [
        "po",
        "sted"
      ],
      [
        "te",
        "les"
      ],
      [
        "un",
        "less"
      ],
      [
        "we",
        "ek"
      ],
      [
        "we",
        "bs"
      ],
      [
        "per",
        "fect"
      ],
      [
        "ca",
        "pit"
      ],
      [
        "other",
        "wise"
      ],
      [
        "che",
        "n"
      ],
      [
        "con",
        "cer"
      ],
      [
        "con",
        "tempt"
      ],
      [
        "qu",
        "arre"
      ],
      [
        "ex",
        "p"
      ],
      [
        "ex",
        "pect"
      ],
      [
        "ind",
        "ivid"
      ],
      [
        "ic",
        "ation"
      ],
      [
        "thought",
        "fully"
      ],
      [
        "ph",
        "rase"
      ],
      [
        "gr",
        "ass"
      ],
      [
        "say",
        "s"
      ],
      [
        "ta",
        "ct"
      ],
      [
        "ta",
        "ken"
      ],
      [
        "ta",
        "ught"
      ],
      [
        "der",
        "i"
      ],
      [
        "ac",
        "cept"
      ],
      [
        "ho",
        "le"
      ],
      [
        "ho",
        "arse"
      ],
      [
        "com",
        "put"
      ],
      [
        "led",
        "ge"
      ],
      [
        "should",
        "er"
      ],
      [
        "should",
        "ers"
      ],
      [
        "man",
        "aged"
      ],
      [
        "pa",
        "le"
      ],
      [
        "ru",
        "le"
      ],
      [
        "ru",
        "sh"
      ],
      [
        "ru",
        "les"
      ],
      [
        "copy",
        "ing"
      ],
      [
        "So",
        "me"
      ],
      [
        "el",
        "bow"
      ],
      [
        "set",
        "t"
      ],
      [
        "jur",
        "ors"
      ],
      [
        "tr",
        "ue"
      ],
      [
        "begin",
        "s"
      ],
      [
        "pre",
        "t"
      ],
      [
        "ear",
        "th"
      ],
      [
        "No",
        "thing"
      ],
      [
        "jury",
        "men"
      ],
      [
        "dis",
        "claim"
      ],
      [
        "ig",
        "ging"
      ],
      [
        "distribut",
        "ed"
      ],
      [
        "sm",
        "i"
      ],
      [
        "quest",
        "ions"
      ],
      [
        "sup",
        "pressed"
      ],
      [
        "sup",
        "port"
      ],
      [
        "play",
        "ers"
      ],
      [
        "ci",
        "vil"
      ],
      [
        "cro",
        "ss"
      ],
      [
        "hear",
        "ing"
      ],
      [
        "EN",
        "BER"
      ],
      [
        "creat",
        "ure"
      ],
      [
        "Ma",
        "bel"
      ],
      [
        "follow",
        "ing"
      ],
      [
        "appe",
        "ar"
      ],
      [
        "oot",
        "iful"
      ],
      [
        "cou",
        "rage"
      ],
      [
        "tin",
        "y"
      ],
      [
        "want",
        "ed"
      ],
      [
        "keep",
        "ing"
      ],
      [
        "qui",
        "ck"
      ],
      [
        "AN",
        "D"
      ],
      [
        "AN",
        "Y"
      ],
      [
        "bot",
        "tom"
      ],
      [
        "bus",
        "ily"
      ],
      [
        "conf",
        "used"
      ],
      [
        "hold",
        "er"
      ],
      [
        "comp",
        "liance"
      ],
      [
        "puzz",
        "ling"
      ],
      [
        "answer",
        "ed"
      ],
      [
        "mouth",
        "s"
      ],
      [
        "fall",
        "en"
      ],
      [
        "sl",
        "ate"
      ],
      [
        "fort",
        "un"
      ],
      [
        "An",
        "n"
      ],
      [
        "free",
        "ly"
      ],
      [
        "bea",
        "ut"
      ],
      [
        "sho",
        "re"
      ],
      [
        "car",
        "ry"
      ],
      [
        "car",
        "ried"
      ],
      [
        "pass",
        "ion"
      ],
      [
        "deep",
        "ly"
      ],
      [
        "cor",
        "ner"
      ],
      [
        "fur",
        "ther"
      ],
      [
        "sever",
        "ely"
      ],
      [
        "jump",
        "ing"
      ],
      [
        "twink",
        "ling"
      ],
      [
        "sharp",
        "ly"
      ],
      [
        "Bea",
        "u"
      ],
      [
        "bow",
        "ed"
      ],
      [
        "crow",
        "d"
      ],
      [
        "rea",
        "ch"
      ],
      [
        "order",
        "ed"
      ],
      [
        "**",
        "*"
      ],
      [
        "bat",
        "s"
      ],
      [
        "nat",
        "ural"
      ],
      [
        "offic",
        "ers"
      ],
      [
        "viol",
        "ently"
      ],
      [
        "eas",
        "ily"
      ],
      [
        "gir",
        "l"
      ],
      [
        "hun",
        "g"
      ],
      [
        "ret",
        "ched"
      ],
      [
        "possi",
        "ble"
      ],
      [
        "uncom",
        "fortable"
      ],
      [
        "provid",
        "ing"
      ],
      [
        "venture",
        "d"
      ],
      [
        "solemn",
        "ly"
      ],
      [
        "decided",
        "ly"
      ],
      [
        "gre",
        "en"
      ],
      [
        "hour",
        "s"
      ],
      [
        "por",
        "poise"
      ],
      [
        "anim",
        "als"
      ],
      [
        "require",
        "ments"
      ],
      [
        "argu",
        "ment"
      ],
      [
        "coll",
        "ection"
      ],
      [
        "vol",
        "unteers"
      ],
      [
        "pict",
        "ures"
      ],
      [
        "display",
        "ing"
      ],
      [
        "scream",
        "ed"
      ],
      [
        "difficult",
        "y"
      ],
      [
        "cru",
        "mbs"
      ],
      [
        "twel",
        "ve"
      ],
      [
        "van",
        "ished"
      ],
      [
        "stra",
        "ight"
      ],
      [
        "shrink",
        "ing"
      ],
      [
        "poin",
        "ting"
      ],
      [
        "indign",
        "antly"
      ],
      [
        "grun",
        "ted"
      ],
      [
        "jud",
        "ge"
      ],
      [
        "explan",
        "ation"
      ],
      [
        "PRO",
        "JECT"
      ],
      [
        "Cau",
        "cus"
      ],
      [
        "Fren",
        "ch"
      ],
      [
        "GUT",
        "ENBER"
      ],
      [
        "Sa",
        "id"
      ],
      [
        "WAR",
        "RAN"
      ],
      [
        "_me",
        "_"
      ],
      [
        "_have",
        "_"
      ],
      [
        "_can",
        "_"
      ],
      [
        "_think",
        "_"
      ],
      [
        "breat",
        "h"
      ],
      [
        "fon",
        "d"
      ],
      [
        "frown",
        "ing"
      ],
      [
        "hon",
        "our"
      ],
      [
        "ilit",
        "y"
      ],
      [
        "kit",
        "chen"
      ],
      [
        "pas",
        "sage"
      ],
      [
        "sin",
        "ce"
      ],
      [
        "tong",
        "ue"
      ],
      [
        "thim",
        "ble"
      ],
      [
        "verdi",
        "ct"
      ],
      [
        "esca",
        "pe"
      ],
      [
        "teles",
        "co"
      ],
      [
        "webs",
        "ite"
      ],
      [
        "perfect",
        "ly"
      ],
      [
        "capit",
        "al"
      ],
      [
        "individ",
        "ual"
      ],
      [
        "GUTENBER",
        "G"
      ],
      [
        "!",
        "—"
      ],
      [
        "!",
        "’”"
      ],
      [
        ",",
        "’"
      ],
      [
        ".",
        "—"
      ],
      [
        ".",
        "’"
      ],
      [
        ";",
        "”"
      ],
      [
        "A",
        "S"
      ],
      [
        "A",
        "T"
      ],
      [
        "B",
        "UT"
      ],
      [
        "C",
        "h"
      ],
      [
        "C",
        "ons"
      ],
      [
        "D",
        "id"
      ],
      [
        "D",
        "ER"
      ],
      [
        "D",
        "IS"
      ],
      [
        "D",
        "rawling"
      ],
      [
        "E",
        "M"
      ],
      [
        "E",
        "d"
      ],
      [
        "E",
        "ag"
      ],
      [
        "G",
        "o"
      ],
      [
        "G",
        "ive"
      ],
      [
        "G",
        "ener"
      ],
      [
        "H",
        "ave"
      ],
      [
        "I",
        "s"
      ],
      [
        "I",
        "LI"
      ],
      [
        "L",
        "A"
      ],
      [
        "L",
        "at"
      ],
      [
        "M",
        "E"
      ],
      [
        "M",
        "ay"
      ],
      [
        "M",
        "IT"
      ],
      [
        "M",
        "AG"
      ],
      [
        "O",
        "w"
      ],
      [
        "P",
        "an"
      ],
      [
        "P",
        "er"
      ],
      [
        "P",
        "at"
      ],
      [
        "P",
        "ep"
      ],
      [
        "P",
        "ig"
      ],
      [
        "R",
        "ight"
      ],
      [
        "S",
        "to"
      ],
      [
        "S",
        "up"
      ],
      [
        "S",
        "pe"
      ],
      [
        "S",
        "il"
      ],
      [
        "S",
        "erpent"
      ],
      [
        "T",
        "i"
      ],
      [
        "T",
        "or"
      ],
      [
        "T",
        "is"
      ],
      [
        "T",
        "wink"
      ],
      [
        "U",
        "p"
      ],
      [
        "V",
        "I"
      ],
      [
        "Y",
        "et"
      ],
      [
        "_",
        "he"
      ],
      [
        "_",
        "she"
      ],
      [
        "_",
        "one"
      ],
      [
        "_",
        "this"
      ],
      [
        "_",
        "are"
      ],
      [
        "_",
        "could"
      ],
      [
        "_",
        "must"
      ],
      [
        "_",
        "will"
      ],
      [
        "_",
        "That"
      ],
      [
        "a",
        "live"
      ],
      [
        "b",
        "ound"
      ],
      [
        "b",
        "ark"
      ],
      [
        "b",
        "low"
      ],
      [
        "b",
        "ran"
      ],
      [
        "b",
        "lic"
      ],
      [
        "b",
        "rea"
      ],
      [
        "c",
        "ing"
      ],
      [
        "c",
        "and"
      ],
      [
        "c",
        "al"
      ],
      [
        "c",
        "il"
      ],
      [
        "c",
        "ards"
      ],
      [
        "c",
        "ceed"
      ],
      [
        "d",
        "ri"
      ],
      [
        "d",
        "ate"
      ],
      [
        "d",
        "ated"
      ],
      [
        "e",
        "ch"
      ],
      [
        "e",
        "el"
      ],
      [
        "e",
        "qui"
      ],
      [
        "f",
        "ut"
      ],
      [
        "f",
        "its"
      ],
      [
        "f",
        "ight"
      ],
      [
        "f",
        "ron"
      ],
      [
        "f",
        "aster"
      ],
      [
        "f",
        "ix"
      ],
      [
        "h",
        "ang"
      ],
      [
        "h",
        "umb"
      ],
      [
        "j",
        "aw"
      ],
      [
        "k",
        "ill"
      ],
      [
        "k",
        "ers"
      ],
      [
        "k",
        "ick"
      ],
      [
        "k",
        "ni"
      ],
      [
        "m",
        "_"
      ],
      [
        "m",
        "ing"
      ],
      [
        "m",
        "is"
      ],
      [
        "m",
        "one"
      ],
      [
        "m",
        "ist"
      ],
      [
        "m",
        "ile"
      ],
      [
        "m",
        "iles"
      ],
      [
        "m",
        "pet"
      ],
      [
        "n",
        "on"
      ],
      [
        "n",
        "ers"
      ],
      [
        "o",
        "y"
      ],
      [
        "o",
        "ve"
      ],
      [
        "p",
        "in"
      ],
      [
        "p",
        "en"
      ],
      [
        "p",
        "ain"
      ],
      [
        "p",
        "un"
      ],
      [
        "p",
        "ment"
      ],
      [
        "p",
        "ast"
      ],
      [
        "p",
        "ity"
      ],
      [
        "r",
        "at"
      ],
      [
        "s",
        "k"
      ],
      [
        "s",
        "mo"
      ],
      [
        "s",
        "ense"
      ],
      [
        "s",
        "imp"
      ],
      [
        "s",
        "ending"
      ],
      [
        "t",
        "is"
      ],
      [
        "t",
        "went"
      ],
      [
        "t",
        "reat"
      ],
      [
        "u",
        "sh"
      ],
      [
        "u",
        "ne"
      ],
      [
        "u",
        "ck"
      ],
      [
        "u",
        "ous"
      ],
      [
        "v",
        "at"
      ],
      [
        "v",
        "ar"
      ],
      [
        "v",
        "ice"
      ],
      [
        "w",
        "in"
      ],
      [
        "y",
        "ing"
      ],
      [
        "y",
        "est"
      ],
      [
        "z",
        "ed"
      ],
      [
        "’",
        "!”"
      ],
      [
        "“",
        "‘"
      ],
      [
        "he",
        "s"
      ],
      [
        "in",
        "ted"
      ],
      [
        "in",
        "formation"
      ],
      [
        "ou",
        "n"
      ],
      [
        "an",
        "ta"
      ],
      [
        "an",
        "ced"
      ],
      [
        "it",
        "ation"
      ],
      [
        "er",
        "ing"
      ],
      [
        "er",
        "al"
      ],
      [
        "er",
        "day"
      ],
      [
        "at",
        "tempt"
      ],
      [
        "re",
        "gu"
      ],
      [
        "re",
        "sent"
      ],
      [
        "re",
        "lie"
      ],
      [
        "re",
        "spect"
      ],
      [
        "to",
        "es"
      ],
      [
        "to",
        "ise"
      ],
      [
        "to",
        "ssing"
      ],
      [
        "th",
        "and"
      ],
      [
        "ed",
        "ge"
      ],
      [
        "en",
        "g"
      ],
      [
        "en",
        "cour"
      ],
      [
        "as",
        "hed"
      ],
      [
        "ll",
        "ing"
      ],
      [
        "is",
        "ing"
      ],
      [
        "ar",
        "ound"
      ],
      [
        "le",
        "gs"
      ],
      [
        "li",
        "very"
      ],
      [
        "li",
        "ved"
      ],
      [
        "li",
        "ged"
      ],
      [
        "li",
        "mit"
      ],
      [
        "sa",
        "d"
      ],
      [
        "sa",
        "l"
      ],
      [
        "sa",
        "u"
      ],
      [
        "be",
        "ast"
      ],
      [
        "be",
        "long"
      ],
      [
        "be",
        "sides"
      ],
      [
        "me",
        "s"
      ],
      [
        "ad",
        "ing"
      ],
      [
        "ad",
        "ed"
      ],
      [
        "ad",
        "dition"
      ],
      [
        "st",
        "ant"
      ],
      [
        "st",
        "aring"
      ],
      [
        "st",
        "uff"
      ],
      [
        "ut",
        "iously"
      ],
      [
        "ch",
        "orus"
      ],
      [
        "ro",
        "g"
      ],
      [
        "ro",
        "du"
      ],
      [
        "ro",
        "ses"
      ],
      [
        "ent",
        "ity"
      ],
      [
        "so",
        "bbing"
      ],
      [
        "ri",
        "ous"
      ],
      [
        "al",
        "as"
      ],
      [
        "al",
        "ready"
      ],
      [
        "ion",
        "ed"
      ],
      [
        "ab",
        "ility"
      ],
      [
        "ab",
        "ove"
      ],
      [
        "for",
        "getting"
      ],
      [
        "sh",
        "ap"
      ],
      [
        "sh",
        "aking"
      ],
      [
        "ne",
        "st"
      ],
      [
        "not",
        "ion"
      ],
      [
        "ag",
        "ing"
      ],
      [
        "ag",
        "es"
      ],
      [
        "ck",
        "s"
      ],
      [
        "do",
        "g"
      ],
      [
        "do",
        "th"
      ],
      [
        "do",
        "gs"
      ],
      [
        "own",
        "er"
      ],
      [
        "wor",
        "se"
      ],
      [
        "no",
        "ise"
      ],
      [
        "im",
        "possible"
      ],
      [
        "mo",
        "ving"
      ],
      [
        "mu",
        "sic"
      ],
      [
        "su",
        "it"
      ],
      [
        "su",
        "lt"
      ],
      [
        "su",
        "cceed"
      ],
      [
        "ra",
        "ct"
      ],
      [
        "de",
        "cl"
      ],
      [
        "any",
        "where"
      ],
      [
        "po",
        "s"
      ],
      [
        "po",
        "sit"
      ],
      [
        "po",
        "ison"
      ],
      [
        "te",
        "xt"
      ],
      [
        "un",
        "important"
      ],
      [
        "un",
        "fortun"
      ],
      [
        "our",
        "n"
      ],
      [
        "know",
        "ledge"
      ],
      [
        "per",
        "mitted"
      ],
      [
        "us",
        "er"
      ],
      [
        "ca",
        "ke"
      ],
      [
        "ca",
        "kes"
      ],
      [
        "ca",
        "ught"
      ],
      [
        "ca",
        "utiously"
      ],
      [
        "them",
        "selves"
      ],
      [
        "che",
        "cked"
      ],
      [
        "che",
        "ered"
      ],
      [
        "con",
        "tain"
      ],
      [
        "con",
        "tact"
      ],
      [
        "con",
        "stant"
      ],
      [
        "some",
        "where"
      ],
      [
        "ex",
        "am"
      ],
      [
        "pl",
        "ate"
      ],
      [
        "ment",
        "ioned"
      ],
      [
        "lo",
        "st"
      ],
      [
        "gr",
        "and"
      ],
      [
        "ta",
        "le"
      ],
      [
        "ta",
        "kes"
      ],
      [
        "ple",
        "s"
      ],
      [
        "ple",
        "aded"
      ],
      [
        "si",
        "x"
      ],
      [
        "Tur",
        "n"
      ],
      [
        "bo",
        "y"
      ],
      [
        "bo",
        "ots"
      ],
      [
        "ma",
        "il"
      ],
      [
        "must",
        "ard"
      ],
      [
        "how",
        "ling"
      ],
      [
        "much",
        "ness"
      ],
      [
        "ac",
        "les"
      ],
      [
        "ac",
        "cid"
      ],
      [
        "ac",
        "coun"
      ],
      [
        "tw",
        "ist"
      ],
      [
        "pi",
        "cked"
      ],
      [
        "voice",
        "s"
      ],
      [
        "ho",
        "ping"
      ],
      [
        "ough",
        "ly"
      ],
      [
        "Du",
        "ck"
      ],
      [
        "long",
        "er"
      ],
      [
        "put",
        "ting"
      ],
      [
        "cat",
        "ch"
      ],
      [
        "hand",
        "ed"
      ],
      [
        "Th",
        "ank"
      ],
      [
        "turn",
        "s"
      ],
      [
        "pr",
        "ison"
      ],
      [
        "pr",
        "inted"
      ],
      [
        "spe",
        "ech"
      ],
      [
        "wr",
        "ote"
      ],
      [
        "tr",
        "ot"
      ],
      [
        "dear",
        "s"
      ],
      [
        "grow",
        "l"
      ],
      [
        "hur",
        "t"
      ],
      [
        "wa",
        "ist"
      ],
      [
        "remark",
        "s"
      ],
      [
        "remark",
        "ing"
      ],
      [
        "No",
        "body"
      ],
      [
        "cl",
        "usion"
      ],
      [
        "less",
        "on"
      ],
      [
        "find",
        "ing"
      ],
      [
        "happ",
        "y"
      ],
      [
        "sort",
        "s"
      ],
      [
        "pu",
        "blic"
      ],
      [
        "part",
        "s"
      ],
      [
        "ci",
        "al"
      ],
      [
        "cro",
        "ssed"
      ],
      [
        "EN",
        "D"
      ],
      [
        "creat",
        "ing"
      ],
      [
        "sto",
        "pped"
      ],
      [
        "wat",
        "ching"
      ],
      [
        "TH",
        "IS"
      ],
      [
        "lic",
        "able"
      ],
      [
        "follow",
        "s"
      ],
      [
        "ob",
        "liged"
      ],
      [
        "anx",
        "ious"
      ],
      [
        "small",
        "er"
      ],
      [
        "sw",
        "allow"
      ],
      [
        "cho",
        "ked"
      ],
      [
        "foot",
        "man"
      ],
      [
        "pleas",
        "ant"
      ],
      [
        "IN",
        "D"
      ],
      [
        "IN",
        "G"
      ],
      [
        "LI",
        "MIT"
      ],
      [
        "RE",
        "S"
      ],
      [
        "du",
        "ll"
      ],
      [
        "conf",
        "using"
      ],
      [
        "hold",
        "ing"
      ],
      [
        "comp",
        "lying"
      ],
      [
        "direct",
        "ly"
      ],
      [
        "direct",
        "ions"
      ],
      [
        "inclu",
        "ded"
      ],
      [
        "whis",
        "kers"
      ],
      [
        "paragraph",
        "s"
      ],
      [
        "gener",
        "al"
      ],
      [
        "sound",
        "s"
      ],
      [
        "tail",
        "s"
      ],
      [
        "join",
        "ed"
      ],
      [
        "cr",
        "own"
      ],
      [
        "cr",
        "ash"
      ],
      [
        "ef",
        "fect"
      ],
      [
        "inst",
        "ance"
      ],
      [
        "inst",
        "ead"
      ],
      [
        "grin",
        "ned"
      ],
      [
        "listen",
        "ing"
      ],
      [
        "AR",
        "T"
      ],
      [
        "On",
        "ce"
      ],
      [
        "On",
        "ly"
      ],
      [
        "adv",
        "ance"
      ],
      [
        "adv",
        "anta"
      ],
      [
        "sig",
        "n"
      ],
      [
        "open",
        "ing"
      ],
      [
        "piece",
        "s"
      ],
      [
        "hedgeho",
        "gs"
      ],
      [
        "br",
        "ought"
      ],
      [
        "care",
        "fully"
      ],
      [
        "loud",
        "ly"
      ],
      [
        "sp",
        "read"
      ],
      [
        "serpent",
        "s"
      ],
      [
        "repeat",
        "ing"
      ],
      [
        "consider",
        "ing"
      ],
      [
        "consider",
        "ed"
      ],
      [
        "cus",
        "to"
      ],
      [
        "prom",
        "ot"
      ],
      [
        "usu",
        "ally"
      ],
      [
        "int",
        "rodu"
      ],
      [
        "offic",
        "ial"
      ],
      [
        "AG",
        "RE"
      ],
      [
        "Ex",
        "actly"
      ],
      [
        "bur",
        "n"
      ],
      [
        "eas",
        "y"
      ],
      [
        "gir",
        "ls"
      ],
      [
        "hun",
        "ting"
      ],
      [
        "pay",
        "ing"
      ],
      [
        "pay",
        "ments"
      ],
      [
        "tu",
        "cked"
      ],
      [
        "att",
        "ending"
      ],
      [
        "remain",
        "ed"
      ],
      [
        "possi",
        "bly"
      ],
      [
        "sigh",
        "ing"
      ],
      [
        "provid",
        "ed"
      ],
      [
        "app",
        "licable"
      ],
      [
        "fun",
        "ny"
      ],
      [
        "lad",
        "y"
      ],
      [
        "link",
        "s"
      ],
      [
        "nur",
        "se"
      ],
      [
        "nur",
        "sing"
      ],
      [
        "pri",
        "zes"
      ],
      [
        "sn",
        "ail"
      ],
      [
        "tru",
        "mpet"
      ],
      [
        "royal",
        "ties"
      ],
      [
        "immedi",
        "ate"
      ],
      [
        "immedi",
        "ately"
      ],
      [
        "ext",
        "ra"
      ],
      [
        "spect",
        "acles"
      ],
      [
        "guess",
        "ed"
      ],
      [
        "grave",
        "ly"
      ],
      [
        "Every",
        "body"
      ],
      [
        "Nor",
        "th"
      ],
      [
        "TR",
        "I"
      ],
      [
        "bring",
        "ing"
      ],
      [
        "fri",
        "end"
      ],
      [
        "fig",
        "ure"
      ],
      [
        "kno",
        "cking"
      ],
      [
        "mutter",
        "ing"
      ],
      [
        "oc",
        "cur"
      ],
      [
        "spl",
        "ash"
      ],
      [
        "wash",
        "ing"
      ],
      [
        "sul",
        "ky"
      ],
      [
        "defect",
        "ive"
      ],
      [
        "teen",
        "th"
      ],
      [
        "perform",
        "ing"
      ],
      [
        "effort",
        "s"
      ],
      [
        "nibb",
        "ling"
      ],
      [
        "DA",
        "MAG"
      ],
      [
        "Pr",
        "ay"
      ],
      [
        "Se",
        "e"
      ],
      [
        "fill",
        "ed"
      ],
      [
        "flo",
        "or"
      ],
      [
        "gue",
        "sts"
      ],
      [
        "lat",
        "er"
      ],
      [
        "patter",
        "ing"
      ],
      [
        "sli",
        "pped"
      ],
      [
        "tast",
        "ed"
      ],
      [
        "replace",
        "ment"
      ],
      [
        "behead",
        "ed"
      ],
      [
        "need",
        "n"
      ],
      [
        "cover",
        "ed"
      ],
      [
        "peep",
        "ed"
      ],
      [
        "contempt",
        "uous"
      ],
      [
        "exp",
        "ense"
      ],
      [
        "expect",
        "ing"
      ],
      [
        "deri",
        "vat"
      ],
      [
        "sett",
        "led"
      ],
      [
        "hung",
        "ry"
      ],
      [
        "telesco",
        "pe"
      ],
      [
        "Cons",
        "ider"
      ],
      [
        "Eag",
        "let"
      ],
      [
        "Gener",
        "al"
      ],
      [
        "ILI",
        "TY"
      ],
      [
        "Ow",
        "l"
      ],
      [
        "Pan",
        "ther"
      ],
      [
        "Per",
        "haps"
      ],
      [
        "Pep",
        "per"
      ],
      [
        "Sil",
        "ence"
      ],
      [
        "Ti",
        "me"
      ],
      [
        "Tor",
        "toise"
      ],
      [
        "Twink",
        "le"
      ],
      [
        "_he",
        "_"
      ],
      [
        "_one",
        "_"
      ],
      [
        "_are",
        "_"
      ],
      [
        "_must",
        "_"
      ],
      [
        "_will",
        "_"
      ],
      [
        "_That",
        "_"
      ],
      [
        "brea",
        "the"
      ],
      [
        "cand",
        "le"
      ],
      [
        "equi",
        "pment"
      ],
      [
        "fut",
        "ure"
      ],
      [
        "hang",
        "ing"
      ],
      [
        "kni",
        "fe"
      ],
      [
        "mone",
        "y"
      ],
      [
        "mist",
        "ake"
      ],
      [
        "pen",
        "cil"
      ],
      [
        "simp",
        "ly"
      ],
      [
        "une",
        "as"
      ],
      [
        "yest",
        "erday"
      ],
      [
        "limit",
        "ation"
      ],
      [
        "shap",
        "ed"
      ],
      [
        "succeed",
        "ed"
      ],
      [
        "unfortun",
        "ate"
      ],
      [
        "accid",
        "ent"
      ],
      [
        "LIMIT",
        "ED"
      ],
      [
        "advanta",
        "ge"
      ],
      [
        "derivat",
        "ive"
      ],
      [
        ")",
        ":"
      ],
      [
        ")",
        ";"
      ],
      [
        ")",
        "—“"
      ],
      [
        "0",
        "1"
      ],
      [
        "1",
        "1"
      ],
      [
        "1",
        "5"
      ],
      [
        "2",
        "0"
      ],
      [
        "2",
        "00"
      ],
      [
        "9",
        "0"
      ],
      [
        "?",
        "’”"
      ],
      [
        "A",
        "l"
      ],
      [
        "A",
        "u"
      ],
      [
        "A",
        "CH"
      ],
      [
        "A",
        "LI"
      ],
      [
        "A",
        "CT"
      ],
      [
        "B",
        "E"
      ],
      [
        "B",
        "O"
      ],
      [
        "B",
        "RE"
      ],
      [
        "C",
        "r"
      ],
      [
        "C",
        "ar"
      ],
      [
        "C",
        "ro"
      ],
      [
        "C",
        "om"
      ],
      [
        "C",
        "EN"
      ],
      [
        "C",
        "II"
      ],
      [
        "C",
        "ON"
      ],
      [
        "D",
        "R"
      ],
      [
        "D",
        "e"
      ],
      [
        "D",
        "igging"
      ],
      [
        "E",
        "X"
      ],
      [
        "E",
        "vidence"
      ],
      [
        "E",
        "BO"
      ],
      [
        "F",
        "ur"
      ],
      [
        "F",
        "ish"
      ],
      [
        "G",
        "et"
      ],
      [
        "G",
        "round"
      ],
      [
        "H",
        "o"
      ],
      [
        "H",
        "ush"
      ],
      [
        "I",
        "M"
      ],
      [
        "I",
        "X"
      ],
      [
        "I",
        "m"
      ],
      [
        "I",
        "RE"
      ],
      [
        "I",
        "LL"
      ],
      [
        "K",
        "e"
      ],
      [
        "L",
        "E"
      ],
      [
        "L",
        "ast"
      ],
      [
        "L",
        "ew"
      ],
      [
        "L",
        "AND"
      ],
      [
        "M",
        "er"
      ],
      [
        "M",
        "or"
      ],
      [
        "M",
        "ad"
      ],
      [
        "M",
        "ind"
      ],
      [
        "N",
        "ear"
      ],
      [
        "N",
        "IT"
      ],
      [
        "N",
        "ext"
      ],
      [
        "O",
        "K"
      ],
      [
        "O",
        "SE"
      ],
      [
        "P",
        "G"
      ],
      [
        "P",
        "U"
      ],
      [
        "P",
        "l"
      ],
      [
        "P",
        "o"
      ],
      [
        "P",
        "ar"
      ],
      [
        "P",
        "ri"
      ],
      [
        "P",
        "art"
      ],
      [
        "P",
        "ool"
      ],
      [
        "P",
        "resent"
      ],
      [
        "Q",
        "U"
      ],
      [
        "R",
        "ed"
      ],
      [
        "R",
        "ace"
      ],
      [
        "S",
        "T"
      ],
      [
        "S",
        "u"
      ],
      [
        "S",
        "hall"
      ],
      [
        "S",
        "tory"
      ],
      [
        "S",
        "ends"
      ],
      [
        "T",
        "O"
      ],
      [
        "T",
        "a"
      ],
      [
        "T",
        "er"
      ],
      [
        "T",
        "re"
      ],
      [
        "T",
        "ea"
      ],
      [
        "T",
        "arts"
      ],
      [
        "T",
        "ears"
      ],
      [
        "U",
        "M"
      ],
      [
        "U",
        "S"
      ],
      [
        "U",
        "g"
      ],
      [
        "U",
        "se"
      ],
      [
        "U",
        "gh"
      ],
      [
        "U",
        "RES"
      ],
      [
        "V",
        "an"
      ],
      [
        "V",
        "ENT"
      ],
      [
        "W",
        "r"
      ],
      [
        "W",
        "ow"
      ],
      [
        "W",
        "ake"
      ],
      [
        "W",
        "ON"
      ],
      [
        "X",
        "I"
      ],
      [
        "X",
        "II"
      ],
      [
        "Y",
        "our"
      ],
      [
        "_",
        "in"
      ],
      [
        "_",
        "it"
      ],
      [
        "_",
        "said"
      ],
      [
        "_",
        "quite"
      ],
      [
        "_",
        "ever"
      ],
      [
        "_",
        "here"
      ],
      [
        "_",
        "never"
      ],
      [
        "_",
        "Un"
      ],
      [
        "_",
        "important"
      ],
      [
        "_",
        "best"
      ],
      [
        "_",
        "mine"
      ],
      [
        "a",
        "is"
      ],
      [
        "a",
        "ch"
      ],
      [
        "a",
        "ked"
      ],
      [
        "b",
        "l"
      ],
      [
        "b",
        "re"
      ],
      [
        "b",
        "ed"
      ],
      [
        "b",
        "as"
      ],
      [
        "b",
        "ad"
      ],
      [
        "b",
        "ite"
      ],
      [
        "b",
        "our"
      ],
      [
        "b",
        "ish"
      ],
      [
        "b",
        "la"
      ],
      [
        "b",
        "end"
      ],
      [
        "b",
        "last"
      ],
      [
        "b",
        "ble"
      ],
      [
        "b",
        "eds"
      ],
      [
        "b",
        "arrow"
      ],
      [
        "b",
        "rush"
      ],
      [
        "c",
        "as"
      ],
      [
        "c",
        "ir"
      ],
      [
        "c",
        "if"
      ],
      [
        "c",
        "ra"
      ],
      [
        "c",
        "ard"
      ],
      [
        "c",
        "art"
      ],
      [
        "c",
        "ations"
      ],
      [
        "c",
        "ool"
      ],
      [
        "c",
[...]
