{
  "version": "1.0",
  "truncation": null,
  "padding": null,
  "added_tokens": [
    {
      "id": 0,
      "content": "[UNK]",
      "single_word": false,
      "lstrip": false,
      "rstrip": false,
      "normalized": false,
      "special": true
    },
    {
      "id": 1,
      "content": "[PAD]",
      "single_word": false,
      "lstrip": false,
      "rstrip": false,
      "normalized": false,
      "special": true
    },
    {
      "id": 2,
      "content": "[CLS]",
      "single_word": false,
      "lstrip": false,
      "rstrip": false,
      "normalized": false,
      "special": true
    },
    {
      "id": 3,
      "content": "[SEP]",
      "single_word": false,
      "lstrip": false,
      "rstrip": false,
      "normalized": false,
      "special": true
    },
    {
      "id": 4,
      "content": "[MASK]",
      "single_word": false,
      "lstrip": false,
      "rstrip": false,
      "normalized": false,
      "special": true
    }
  ],
  "normalizer": {
    "type": "Sequence",
    "normalizers": [
      {
        "type": "NFD"
      },
      {
        "type": "StripAccents"
      }
    ]
  },
  "pre_tokenizer": {
    "type": "Whitespace"
  },
  "post_processor": null,
  "decoder": null,
  "model": {
    "type": "BPE",
    "dropout": null,
    "unk_token": "[UNK]",
    "continuing_subword_prefix": null,
    "end_of_word_suffix": null,
    "fuse_unk": false,
    "byte_fallback": false,
    "ignore_merges": false,
    "vocab": {
      "[UNK]": 0,
      "[PAD]": 1,
      "[CLS]": 2,
      "[SEP]": 3,
      "[MASK]": 4,
      "!": 5,
      "$": 6,
      "&": 7,
      "(": 8,
      ")": 9,
      "*": 10,
      ",": 11,
      "-": 12,
      ".": 13,
      "0": 14,
      "1": 15,
      "2": 16,
      "3": 17,
      "4": 18,
      "5": 19,
      "6": 20,
      "7": 21,
      "8": 22,
      "9": 23,
      ":": 24,
      ";": 25,
      "?": 26,
      "A": 27,
      "B": 28,
      "C": 29,
      "D": 30,
      "E": 31,
      "F": 32,
      "G": 33,
      "H": 34,
      "I": 35,
      "J": 36,
      "K": 37,
      "L": 38,
      "M": 39,
      "N": 40,
      "O": 41,
      "P": 42,
      "Q": 43,
      "R": 44,
      "S": 45,
      "T": 46,
      "U": 47,
      "V": 48,
      "W": 49,
      "X": 50,
      "Y": 51,
      "Z": 52,
      "[": 53,
      "]": 54,
      "_": 55,
      "a": 56,
      "b": 57,
      "c": 58,
      "d": 59,
      "e": 60,
      "f": 61,
      "g": 62,
      "h": 63,
      "i": 64,
      "j": 65,
      "k": 66,
      "l": 67,
      "m": 68,
      "n": 69,
      "o": 70,
      "p": 71,
      "q": 72,
      "r": 73,
      "s": 74,
      "t": 75,
      "u": 76,
      "v": 77,
      "w": 78,
      "x": 79,
      "y": 80,
      "z": 81,
      "{": 82,
      "}": 83,
      "£": 84,
      "½": 85,
      "æ": 86,
      "œ": 87,
      "—": 88,
      "‘": 89,
      "’": 90,
      "“": 91,
      "”": 92,
      "…": 93,
      "he": 94,
      "in": 95,
      "the": 96,
      "an": 97,
      "re": 98,
      "ou": 99,
      "th": 100,
      "at": 101,
      "on": 102,
      "er": 103,
      "and": 104,
      "ed": 105,
      "to": 106,
      "as": 107,
      "is": 108,
      "en": 109,
      "ing": 110,
      "of": 111,
      "or": 112,
      "me": 113,
      "ar": 114,
      "ll": 115,
      "it": 116,
      "st": 117,
      "ha": 118,
      "le": 119,
      "se": 120,
      "be": 121,
      "no": 122,
      "ve": 123,
      "hi": 124,
      "that": 125,
      "was": 126,
      "ro": 127,
      "we": 128,
      "ly": 129,
      "ce": 130,
      "wi": 131,
      "gh": 132,
      "ld": 133,
      "ch": 134,
      "you": 135,
      "de": 136,
      "ut": 137,
      "so": 138,
      "my": 139,
      "for": 140,
      "his": 141,
      "al": 142,
      "es": 143,
      "ent": 144,
      "ver": 145,
      "ay": 146,
      "ri": 147,
      "li": 148,
      "ow": 149,
      "id": 150,
      "ght": 151,
      "all": 152,
      "with": 153,
      "had": 154,
      "lo": 155,
      "ti": 156,
      "ir": 157,
      "ad": 158,
      "not": 159,
      "--": 160,
      "ter": 161,
      "ould": 162,
      "co": 163,
      "un": 164,
      "sa": 165,
      "ho": 166,
      "ur": 167,
      "fe": 168,
      "The": 169,
      "her": 170,
      ".”": 171,
      "ac": 172,
      "ke": 173,
      "mo": 174,
      "have": 175,
      "red": 176,
      "ge": 177,
      "whi": 178,
      "but": 179,
      "si": 180,
      "one": 181,
      "him": 182,
      "up": 183,
      "ther": 184,
      "ne": 185,
      "out": 186,
      "ain": 187,
      "our": 188,
      "ab": 189,
      "us": 190,
      "am": 191,
      "oun": 192,
      "which": 193,
      "whe": 194,
      "now": 195,
      "pe": 196,
      "ion": 197,
      "do": 198,
      "rom": 199,
      "she": 200,
      "po": 201,
      "su": 202,
      "are": 203,
      "go": 204,
      "man": 205,
      "He": 206,
      "od": 207,
      "by": 208,
      "ok": 209,
      "hat": 210,
      "ard": 211,
      "from": 212,
      "ra": 213,
      "te": 214,
      "end": 215,
      "con": 216,
      "said": 217,
      "ust": 218,
      "ind": 219,
      ",”": 220,
      "if": 221,
      "ca": 222,
      "ck": 223,
      "sh": 224,
      "were": 225,
      "ss": 226,
      "see": 227,
      "ag": 228,
      "qu": 229,
      "this": 230,
      "ex": 231,
      "et": 232,
      "some": 233,
      "thing": 234,
      "fo": 235,
      "ight": 236,
      "ound": 237,
      "mp": 238,
      "who": 239,
      "very": 240,
      "ted": 241,
      "ul": 242,
      "when": 243,
      "way": 244,
      "there": 245,
      "lf": 246,
      "?”": 247,
      "own": 248,
      "tr": 249,
      "It": 250,
      "per": 251,
      "they": 252,
      "ast": 253,
      "would": 254,
      "fa": 255,
      "la": 256,
      "been": 257,
      "could": 258,
      "ic": 259,
      "ep": 260,
      "ess": 261,
      "them": 262,
      "ate": 263,
      "ant": 264,
      "ough": 265,
      "your": 266,
      "om": 267,
      "ma": 268,
      "ong": 269,
      "ous": 270,
      "know": 271,
      "time": 272,
      "il": 273,
      "pre": 274,
      "ment": 275,
      "ven": 276,
      "ation": 277,
      "what": 278,
      "bo": 279,
      "wor": 280,
      "self": 281,
      "will": 282,
      "can": 283,
      "pp": 284,
      "look": 285,
      "ure": 286,
      "wo": 287,
      "ak": 288,
      "af": 289,
      "fore": 290,
      "into": 291,
      "ack": 292,
      "other": 293,
      "der": 294,
      "over": 295,
      "any": 296,
      "tle": 297,
      "ill": 298,
      "sha": 299,
      "We": 300,
      "ink": 301,
      "ol": 302,
      "----": 303,
      "hed": 304,
      "then": 305,
      "ble": 306,
      "sp": 307,
      "lit": 308,
      "ct": 309,
      "dis": 310,
      "ved": 311,
      "hand": 312,
      "more": 313,
      "than": 314,
      "art": 315,
      "med": 316,
      "able": 317,
      "came": 318,
      "ite": 319,
      "fi": 320,
      "come": 321,
      "day": 322,
      "did": 323,
      "ought": 324,
      "el": 325,
      "urn": 326,
      "op": 327,
      "has": 328,
      "ran": 329,
      "ark": 330,
      "night": 331,
      "ence": 332,
      "gre": 333,
      "must": 334,
      "Mr": 335,
      "their": 336,
      "upon": 337,
      "tion": 338,
      "like": 339,
      "down": 340,
      "sc": 341,
      "may": 342,
      "shall": 343,
      "You": 344,
      "again": 345,
      "ine": 346,
      "sto": 347,
      "should": 348,
      "ance": 349,
      "pro": 350,
      "only": 351,
      "light": 352,
      "before": 353,
      "little": 354,
      "!”": 355,
      "mb": 356,
      "ried": 357,
      "about": 358,
      "ey": 359,
      "room": 360,
      "row": 361,
      "di": 362,
      "ity": 363,
      "But": 364,
      "ear": 365,
      "ry": 366,
      "turn": 367,
      "read": 368,
      "com": 369,
      "pa": 370,
      "ward": 371,
      "new": 372,
      "led": 373,
      "think": 374,
      "ap": 375,
      "back": 376,
      "ass": 377,
      "ten": 378,
      "use": 379,
      "mes": 380,
      "An": 381,
      "pl": 382,
      "where": 383,
      "uc": 384,
      "ta": 385,
      "ful": 386,
      "ort": 387,
      "fri": 388,
      "ally": 389,
      "ive": 390,
      "She": 391,
      "went": 392,
      "after": 393,
      "ask": 394,
      "even": 395,
      "ers": 396,
      "ren": 397,
      "ting": 398,
      "mu": 399,
      "ning": 400,
      "ness": 401,
      "ull": 402,
      "ish": 403,
      "its": 404,
      "ice": 405,
      "long": 406,
      "fir": 407,
      "say": 408,
      "clo": 409,
      "ouse": 410,
      "im": 411,
      "side": 412,
      "sing": 413,
      "here": 414,
      "most": 415,
      "ave": 416,
      "gl": 417,
      "And": 418,
      "thought": 419,
      "There": 420,
      "get": 421,
      "mis": 422,
      "ue": 423,
      "ever": 424,
      "mor": 425,
      "how": 426,
      "rough": 427,
      "saw": 428,
      "eyes": 429,
      "str": 430,
      "house": 431,
      "door": 432,
      "pos": 433,
      "ris": 434,
      "let": 435,
      "less": 436,
      "ty": 437,
      "face": 438,
      "cl": 439,
      "tain": 440,
      "made": 441,
      "friend": 442,
      "dre": 443,
      "ang": 444,
      "ath": 445,
      "qui": 446,
      "just": 447,
      "tre": 448,
      "well": 449,
      "ser": 450,
      "such": 451,
      "Hol": 452,
      "ving": 453,
      "might": 454,
      "rest": 455,
      "away": 456,
      "br": 457,
      "eter": 458,
      "ps": 459,
      "spe": 460,
      "wind": 461,
      "gr": 462,
      "old": 463,
      "hen": 464,
      "off": 465,
      "through": 466,
      "under": 467,
      "Then": 468,
      "llow": 469,
      "ans": 470,
      "much": 471,
      "good": 472,
      "Holmes": 473,
      "ig": 474,
      "every": 475,
      "est": 476,
      "first": 477,
      "ated": 478,
      ":--": 479,
      "bl": 480,
      "ary": 481,
      "ious": 482,
      "ts": 483,
      "sion": 484,
      "wa": 485,
      "tell": 486,
      "though": 487,
      "hy": 488,
      "sle": 489,
      "ened": 490,
      "chi": 491,
      "found": 492,
      "too": 493,
      "beg": 494,
      "age": 495,
      "never": 496,
      "Peter": 497,
      "bed": 498,
      "son": 499,
      "took": 500,
      "--------": 501,
      "No": 502,
      "comp": 503,
      "tor": 504,
      "sm": 505,
      "cre": 506,
      "two": 507,
      "In": 508,
      "ord": 509,
      "seemed": 510,
      "min": 511,
      "pt": 512,
      "head": 513,
      "happ": 514,
      "got": 515,
      "right": 516,
      "rem": 517,
      "ves": 518,
      "When": 519,
      "My": 520,
      "great": 521,
      "ree": 522,
      "ev": 523,
      "sent": 524,
      "ob": 525,
      "vo": 526,
      "looked": 527,
      "ef": 528,
      "alk": 529,
      "che": 530,
      "arm": 531,
      "men": 532,
      "once": 533,
      "ach": 534,
      "ud": 535,
      "yet": 536,
      "ase": 537,
      "feel": 538,
      "ose": 539,
      "dear": 540,
      "What": 541,
      "myself": 542,
      "lace": 543,
      "full": 544,
      "moment": 545,
      "hor": 546,
      "ies": 547,
      "car": 548,
      "life": 549,
      "call": 550,
      "ft": 551,
      "lt": 552,
      "place": 553,
      "heard": 554,
      "last": 555,
      "mat": 556,
      "don": 557,
      "den": 558,
      "Wend": 559,
      "ner": 560,
      "wat": 561,
      "bet": 562,
      "Wendy": 563,
      "This": 564,
      "imp": 565,
      "tic": 566,
      "ise": 567,
      "word": 568,
      "air": 569,
      "They": 570,
      "ared": 571,
      "cour": 572,
      "these": 573,
      "turned": 574,
      "God": 575,
      "still": 576,
      "sleep": 577,
      "knew": 578,
      "fl": 579,
      "appe": 580,
      "asked": 581,
      "wr": 582,
      "um": 583,
      "ats": 584,
      "bre": 585,
      "So": 586,
      "work": 587,
      "make": 588,
      "window": 589,
      "ily": 590,
      "int": 591,
      "coun": 592,
      "pass": 593,
      "heart": 594,
      "mber": 595,
      "take": 596,
      "Hel": 597,
      "cle": 598,
      "As": 599,
      "put": 600,
      "Van": 601,
      "Helsing": 602,
      "ings": 603,
      "mon": 604,
      "child": 605,
      "lie": 606,
      "sat": 607,
      "father": 608,
      "Luc": 609,
      "cause": 610,
      "ling": 611,
      "mind": 612,
      "himself": 613,
      "try": 614,
      "Oh": 615,
      "oh": 616,
      "something": 617,
      "Lucy": 618,
      "sho": 619,
      "want": 620,
      "“‘": 621,
      "ince": 622,
      "land": 623,
      "na": 624,
      "round": 625,
      "sun": 626,
      "ci": 627,
      "cha": 628,
      "ready": 629,
      "stand": 630,
      "told": 631,
      "fear": 632,
      "sup": 633,
      "ssed": 634,
      "cer": 635,
      "ature": 636,
      "nothing": 637,
      "find": 638,
      "vi": 639,
      "cried": 640,
      "part": 641,
      "without": 642,
      "morning": 643,
      "shi": 644,
      "love": 645,
      "set": 646,
      "fort": 647,
      "ways": 648,
      "ple": 649,
      "ina": 650,
      "ster": 651,
      "left": 652,
      "sol": 653,
      "quite": 654,
      "bro": 655,
      "wn": 656,
      "won": 657,
      "open": 658,
      "oc": 659,
      "ction": 660,
      "wever": 661,
      "If": 662,
      "ses": 663,
      "hands": 664,
      "tak": 665,
      "act": 666,
      "mer": 667,
      "hour": 668,
      "That": 669,
      "jo": 670,
      "pr": 671,
      "things": 672,
      "Ho": 673,
      "those": 674,
      "stran": 675,
      "dark": 676,
      "lp": 677,
      "tin": 678,
      "same": 679,
      "gu": 680,
      "inst": 681,
      "Gats": 682,
      "tra": 683,
      "hear": 684,
      "wait": 685,
      "Gatsby": 686,
      "being": 687,
      "while": 688,
      "few": 689,
      "cor": 690,
      "sur": 691,
      "spo": 692,
      "ug": 693,
      "matter": 694,
      "ced": 695,
      "ged": 696,
      "att": 697,
      "many": 698,
      "year": 699,
      "ched": 700,
      "sit": 701,
      "pped": 702,
      "hard": 703,
      "sil": 704,
      "cted": 705,
      "blo": 706,
      "je": 707,
      "seen": 708,
      "av": 709,
      "kind": 710,
      "used": 711,
      "voice": 712,
      "lay": 713,
      "iness": 714,
      "felt": 715,
      ".’": 716,
      "Ar": 717,
      "give": 718,
      "ide": 719,
      "times": 720,
      "ently": 721,
      "far": 722,
      "pi": 723,
      "poor": 724,
      "dou": 725,
      "low": 726,
      "swe": 727,
      "iss": 728,
      "wh": 729,
      "Dr": 730,
      "bit": 731,
      "Mrs": 732,
      "Joh": 733,
      "John": 734,
      "ff": 735,
      "help": 736,
      "til": 737,
      "wards": 738,
      "ms": 739,
      "youn": 740,
      "ount": 741,
      "His": 742,
      "young": 743,
      "cur": 744,
      "par": 745,
      "ins": 746,
      "however": 747,
      "began": 748,
      "home": 749,
      "Mina": 750,
      "dden": 751,
      "gn": 752,
      "sure": 753,
      "always": 754,
      "ained": 755,
      "looking": 756,
      "To": 757,
      "another": 758,
      "dra": 759,
      "until": 760,
      "step": 761,
      "ank": 762,
      "follow": 763,
      "done": 764,
      "gra": 765,
      "les": 766,
      "lad": 767,
      "belie": 768,
      "ished": 769,
      "care": 770,
      "death": 771,
      "mother": 772,
      "ody": 773,
      "lock": 774,
      "course": 775,
      "..": 776,
      "stood": 777,
      "Pr": 778,
      "sound": 779,
      "deed": 780,
      "boy": 781,
      "white": 782,
      "Jon": 783,
      "arri": 784,
      "dri": 785,
      "ek": 786,
      "ist": 787,
      "soon": 788,
      "sudden": 789,
      "doub": 790,
      "near": 791,
      "half": 792,
      "ute": 793,
      "pose": 794,
      "going": 795,
      "At": 796,
      "case": 797,
      "St": 798,
      "gave": 799,
      "pur": 800,
      "walk": 801,
      "ars": 802,
      "Se": 803,
      "rible": 804,
      "Well": 805,
      "fully": 806,
      "strange": 807,
      "Count": 808,
      "quest": 809,
      "ition": 810,
      "present": 811,
      "fin": 812,
      "rep": 813,
      "each": 814,
      "ught": 815,
      "Jona": 816,
      "quick": 817,
      "----------------": 818,
      "Jonathan": 819,
      "gir": 820,
      "sen": 821,
      "ised": 822,
      "Tom": 823,
      "Yes": 824,
      "three": 825,
      "alone": 826,
      "passed": 827,
      "certain": 828,
      "body": 829,
      "dif": 830,
      "ga": 831,
      "ken": 832,
      "ste": 833,
      "small": 834,
      "Da": 835,
      "ded": 836,
      "also": 837,
      "keep": 838,
      "exce": 839,
      "girl": 840,
      "For": 841,
      "app": 842,
      "inte": 843,
      "till": 844,
      "against": 845,
      "lic": 846,
      "cannot": 847,
      "woman": 848,
      "letter": 849,
      "words": 850,
      "hus": 851,
      "ped": 852,
      "vis": 853,
      "res": 854,
      "reme": 855,
      "coming": 856,
      "pris": 857,
      "anything": 858,
      "possi": 859,
      "sed": 860,
      "isy": 861,
      "ene": 862,
      "haps": 863,
      "whole": 864,
      "essor": 865,
      "ween": 866,
      "ru": 867,
      "ofessor": 868,
      "stre": 869,
      "leave": 870,
      "days": 871,
      "Daisy": 872,
      "cent": 873,
      "ith": 874,
      "vent": 875,
      "interest": 876,
      "lves": 877,
      "nor": 878,
      "sou": 879,
      "ref": 880,
      "ations": 881,
      "ming": 882,
      "wered": 883,
      "aut": 884,
      "gone": 885,
      "tri": 886,
      "gether": 887,
      "whom": 888,
      "rather": 889,
      "years": 890,
      "How": 891,
      "speak": 892,
      "paper": 893,
      "between": 894,
      "ered": 895,
      "gi": 896,
      "together": 897,
      "form": 898,
      "believe": 899,
      "since": 900,
      "almost": 901,
      "hope": 902,
      "ror": 903,
      "cu": 904,
      "mean": 905,
      "vered": 906,
      "ross": 907,
      "does": 908,
      "ject": 909,
      "Be": 910,
      "need": 911,
      "Now": 912,
      "because": 913,
      "dead": 914,
      "Professor": 915,
      "pow": 916,
      "ange": 917,
      "show": 918,
      "better": 919,
      "aw": 920,
      "thur": 921,
      "around": 922,
      "Arthur": 923,
      "On": 924,
      "band": 925,
      "ience": 926,
      "talk": 927,
      "exc": 928,
      "happy": 929,
      "wonder": 930,
      "bus": 931,
      "sign": 932,
      "cri": 933,
      "called": 934,
      "lady": 935,
      "hur": 936,
      "late": 937,
      "blood": 938,
      "Do": 939,
      "fall": 940,
      "mur": 941,
      "oud": 942,
      "already": 943,
      "uck": 944,
      "among": 945,
      "Hark": 946,
      "dro": 947,
      "ung": 948,
      "ions": 949,
      "ery": 950,
      "fect": 951,
      "cond": 952,
      "pres": 953,
      "both": 954,
      "answered": 955,
      "lat": 956,
      "ph": 957,
      "held": 958,
      "indeed": 959,
      "temp": 960,
      "sk": 961,
      "inter": 962,
      "comm": 963,
      "understand": 964,
      "ither": 965,
      "ined": 966,
      "ason": 967,
      "beaut": 968,
      "world": 969,
      "towards": 970,
      "eng": 971,
      "opened": 972,
      "close": 973,
      "name": 974,
      "Harker": 975,
      "Miss": 976,
      "ual": 977,
      "why": 978,
      "conf": 979,
      "box": 980,
      "cy": 981,
      "gent": 982,
      "val": 983,
      "uring": 984,
      "contin": 985,
      "dress": 986,
      "pleas": 987,
      "ew": 988,
      "peop": 989,
      "hind": 990,
      "became": 991,
      "fair": 992,
      "others": 993,
      "remark": 994,
      "taken": 995,
      "eas": 996,
      "run": 997,
      "cess": 998,
      "aced": 999,
      "writ": 1000,
      "Hook": 1001,
      "spoke": 1002,
      "cal": 1003,
      "wer": 1004,
      "watch": 1005,
      "sub": 1006,
      "children": 1007,
      "suddenly": 1008,
      "bu": 1009,
      "rus": 1010,
      "sy": 1011,
      "real": 1012,
      "cho": 1013,
      "ground": 1014,
      "appeared": 1015,
      "ron": 1016,
      "ating": 1017,
      "ond": 1018,
      "fell": 1019,
      "Some": 1020,
      "ship": 1021,
      "king": 1022,
      "enough": 1023,
      "mar": 1024,
      "sort": 1025,
      "really": 1026,
      "covered": 1027,
      "spir": 1028,
      "ather": 1029,
      "fam": 1030,
      "hu": 1031,
      "pas": 1032,
      "prom": 1033,
      "whis": 1034,
      "terrible": 1035,
      "brought": 1036,
      "All": 1037,
      "gri": 1038,
      "ned": 1039,
      "pri": 1040,
      "instant": 1041,
      "true": 1042,
      "fire": 1043,
      "strong": 1044,
      "people": 1045,
      "da": 1046,
      "ient": 1047,
      "xt": 1048,
      "behind": 1049,
      "fellow": 1050,
      "dist": 1051,
      "ick": 1052,
      "thre": 1053,
      "met": 1054,
      "hold": 1055,
      "water": 1056,
      "occ": 1057,
      "fre": 1058,
      "ring": 1059,
      "wish": 1060,
      "erable": 1061,
      "ited": 1062,
      "clock": 1063,
      "break": 1064,
      "doubt": 1065,
      "iz": 1066,
      "ces": 1067,
      "iled": 1068,
      ",’": 1069,
      "Co": 1070,
      "flo": 1071,
      "mas": 1072,
      "nat": 1073,
      "return": 1074,
      "perhaps": 1075,
      "quiet": 1076,
      "sweet": 1077,
      "lost": 1078,
      "sight": 1079,
      "dog": 1080,
      "play": 1081,
      "joy": 1082,
      "soul": 1083,
      "feren": 1084,
      "possible": 1085,
      "eld": 1086,
      "gard": 1087,
      "dest": 1088,
      "acc": 1089,
      "dream": 1090,
      "evid": 1091,
      "gentle": 1092,
      "mi": 1093,
      "arling": 1094,
      "wife": 1095,
      "cold": 1096,
      "isten": 1097,
      "cei": 1098,
      "tered": 1099,
      "table": 1100,
      "tried": 1101,
      "within": 1102,
      "pain": 1103,
      "ually": 1104,
      "arge": 1105,
      "along": 1106,
      "key": 1107,
      "Mic": 1108,
      "mad": 1109,
      "hael": 1110,
      "deep": 1111,
      "anger": 1112,
      "chair": 1113,
      "surpris": 1114,
      "Michael": 1115,
      "En": 1116,
      "With": 1117,
      "cut": 1118,
      "ler": 1119,
      "loved": 1120,
      "ments": 1121,
      "earth": 1122,
      "reason": 1123,
      "having": 1124,
      "best": 1125,
      "col": 1126,
      "expe": 1127,
      "wood": 1128,
      "appear": 1129,
      "power": 1130,
      "Why": 1131,
      "simp": 1132,
      "point": 1133,
      "cap": 1134,
      "didn": 1135,
      "pat": 1136,
      "sor": 1137,
      "ister": 1138,
      "fortun": 1139,
      "Qu": 1140,
      "lst": 1141,
      "ot": 1142,
      "heav": 1143,
      "selves": 1144,
      "ket": 1145,
      "cked": 1146,
      "country": 1147,
      "Seward": 1148,
      "fast": 1149,
      "sir": 1150,
      "ane": 1151,
      "road": 1152,
      "ird": 1153,
      "feet": 1154,
      "ably": 1155,
      "black": 1156,
      "husband": 1157,
      "ding": 1158,
      "fron": 1159,
      "ied": 1160,
      "desc": 1161,
      "adv": 1162,
      "ular": 1163,
      "ately": 1164,
      "cry": 1165,
      "fic": 1166,
      "outh": 1167,
      "week": 1168,
      "change": 1169,
      "desp": 1170,
      "ended": 1171,
      "idea": 1172,
      "Let": 1173,
      "Lord": 1174,
      "star": 1175,
      "poin": 1176,
      "book": 1177,
      "friends": 1178,
      "remember": 1179,
      "One": 1180,
      "cr": 1181,
      "wild": 1182,
      "person": 1183,
      "known": 1184,
      "ace": 1185,
      "emp": 1186,
      "gen": 1187,
      "grow": 1188,
      "often": 1189,
      "dered": 1190,
      "ber": 1191,
      "ued": 1192,
      "rely": 1193,
      "high": 1194,
      "utes": 1195,
      "abo": 1196,
      "pret": 1197,
      "Lon": 1198,
      "dread": 1199,
      "four": 1200,
      "nature": 1201,
      "pen": 1202,
      "pic": 1203,
      "moved": 1204,
      "ledge": 1205,
      "London": 1206,
      "meet": 1207,
      "lips": 1208,
      "across": 1209,
      "evening": 1210,
      "compan": 1211,
      "business": 1212,
      "Darling": 1213,
      "Go": 1214,
      "tou": 1215,
      "least": 1216,
      "sever": 1217,
      "next": 1218,
      "Here": 1219,
      "cons": 1220,
      "ial": 1221,
      "hair": 1222,
      "lear": 1223,
      "rose": 1224,
      "exam": 1225,
      "serv": 1226,
      "answer": 1227,
      "Mor": 1228,
      "start": 1229,
      "rid": 1230,
      "minutes": 1231,
      "front": 1232,
      "Just": 1233,
      "Of": 1234,
      "tly": 1235,
      "wre": 1236,
      "lled": 1237,
      "gest": 1238,
      "amp": 1239,
      "whose": 1240,
      "trou": 1241,
      "imag": 1242,
      "hardly": 1243,
      "during": 1244,
      "fac": 1245,
      "wan": 1246,
      "wall": 1247,
      "ates": 1248,
      "ries": 1249,
      "lice": 1250,
      "cot": 1251,
      "dire": 1252,
      "cir": 1253,
      "ead": 1254,
      "noon": 1255,
      "short": 1256,
      "expl": 1257,
      "trust": 1258,
      "silence": 1259,
      "human": 1260,
      "returned": 1261,
      "ents": 1262,
      "moon": 1263,
      "glad": 1264,
      "clear": 1265,
      "given": 1266,
      "za": 1267,
      "lied": 1268,
      "ump": 1269,
      "ering": 1270,
      "live": 1271,
      "ils": 1272,
      "boys": 1273,
      "several": 1274,
      "Her": 1275,
      "sof": 1276,
      "ney": 1277,
      "seems": 1278,
      "followed": 1279,
      "danger": 1280,
      "listen": 1281,
      "sea": 1282,
      "ached": 1283,
      "sum": 1284,
      "exper": 1285,
      "feeling": 1286,
      "Engl": 1287,
      "au": 1288,
      "mine": 1289,
      "oured": 1290,
      "beside": 1291,
      "safe": 1292,
      "move": 1293,
      "sive": 1294,
      "oney": 1295,
      "suc": 1296,
      "suff": 1297,
      "fright": 1298,
      "question": 1299,
      "Mad": 1300,
      "Th": 1301,
      "Wil": 1302,
      "Your": 1303,
      "bra": 1304,
      "ctor": 1305,
      "sus": 1306,
      "ured": 1307,
      "war": 1308,
      "und": 1309,
      "manner": 1310,
      "West": 1311,
      "five": 1312,
      "remain": 1313,
      "ER": 1314,
      "ult": 1315,
      "ures": 1316,
      "begin": 1317,
      "horror": 1318,
      "ceived": 1319,
      "bly": 1320,
      "free": 1321,
      "gar": 1322,
      "past": 1323,
      "xed": 1324,
      "forward": 1325,
      "entered": 1326,
      "owed": 1327,
      "drew": 1328,
      "Af": 1329,
      "bur": 1330,
      "ger": 1331,
      "moun": 1332,
      "ones": 1333,
      "yourself": 1334,
      "consid": 1335,
      "?’": 1336,
      "Car": 1337,
      "either": 1338,
      "mouth": 1339,
      "iful": 1340,
      "story": 1341,
      "eye": 1342,
      "comple": 1343,
      "solute": 1344,
      "steps": 1345,
      "By": 1346,
      "dr": 1347,
      "ye": 1348,
      "thy": 1349,
      "become": 1350,
      "vers": 1351,
      "suppose": 1352,
      "draw": 1353,
      "wanted": 1354,
      "fly": 1355,
      "shad": 1356,
      "yed": 1357,
      "town": 1358,
      "ash": 1359,
      "itted": 1360,
      "hours": 1361,
      "quickly": 1362,
      "papers": 1363,
      "Wilson": 1364,
      "pir": 1365,
      "order": 1366,
      "vel": 1367,
      "kept": 1368,
      "bright": 1369,
      "fing": 1370,
      "large": 1371,
      "nal": 1372,
      "inc": 1373,
      "ention": 1374,
      "ously": 1375,
      "knowledge": 1376,
      "floor": 1377,
      "After": 1378,
      "Eli": 1379,
      "Sher": 1380,
      "save": 1381,
      "whether": 1382,
      "police": 1383,
      "seem": 1384,
      "astle": 1385,
      "creature": 1386,
      "sitting": 1387,
      "Sherlock": 1388,
      "Wat": 1389,
      "ago": 1390,
      "aven": 1391,
      "ile": 1392,
      "jour": 1393,
      "arch": 1394,
      "liar": 1395,
      "shar": 1396,
      "illed": 1397,
      "fig": 1398,
      "field": 1399,
      "placed": 1400,
      "everything": 1401,
      "ele": 1402,
      "mark": 1403,
      "money": 1404,
      "snow": 1405,
      "—”": 1406,
      "throw": 1407,
      "ingly": 1408,
      "secre": 1409,
      "tive": 1410,
      "ants": 1411,
      "spect": 1412,
      "feelings": 1413,
      "Madam": 1414,
      "crow": 1415,
      "ze": 1416,
      "stay": 1417,
      "stri": 1418,
      "state": 1419,
      "leep": 1420,
      "beth": 1421,
      "ceed": 1422,
      "whilst": 1423,
      "sometimes": 1424,
      "tru": 1425,
      "train": 1426,
      "aker": 1427,
      "angu": 1428,
      "continued": 1429,
      "rushed": 1430,
      "heavy": 1431,
      "zabeth": 1432,
      "Elizabeth": 1433,
      "Is": 1434,
      "mid": 1435,
      "none": 1436,
      "stair": 1437,
      "coll": 1438,
      "shut": 1439,
      "ety": 1440,
      "closed": 1441,
      "happened": 1442,
      "month": 1443,
      "differen": 1444,
      "Un": 1445,
      "big": 1446,
      "eag": 1447,
      "hes": 1448,
      "desi": 1449,
      "motion": 1450,
      "doing": 1451,
      "trees": 1452,
      "ughter": 1453,
      "except": 1454,
      "Come": 1455,
      "Cha": 1456,
      "fle": 1457,
      "kne": 1458,
      "anx": 1459,
      "asleep": 1460,
      "sole": 1461,
      "rang": 1462,
      "saying": 1463,
      "arms": 1464,
      "diffic": 1465,
      "threw": 1466,
      "Good": 1467,
      "shadow": 1468,
      "fur": 1469,
      "ude": 1470,
      "anced": 1471,
      "stra": 1472,
      "chance": 1473,
      "alming": 1474,
      "ident": 1475,
      "aged": 1476,
      "die": 1477,
      "Godalming": 1478,
      "waiting": 1479,
      "trouble": 1480,
      "HA": 1481,
      "bar": 1482,
      "cli": 1483,
      "ni": 1484,
      "pu": 1485,
      "hall": 1486,
      "ign": 1487,
      "wake": 1488,
      "destro": 1489,
      "bour": 1490,
      "gy": 1491,
      "nur": 1492,
      "pull": 1493,
      "ining": 1494,
      "ination": 1495,
      "stren": 1496,
      "ided": 1497,
      "cont": 1498,
      "pressed": 1499,
      "write": 1500,
      "taking": 1501,
      "later": 1502,
      "despair": 1503,
      "har": 1504,
      "sad": 1505,
      "thus": 1506,
      "scene": 1507,
      "longer": 1508,
      "morrow": 1509,
      "obser": 1510,
      "incey": 1511,
      "letters": 1512,
      "Quincey": 1513,
      "HE": 1514,
      "II": 1515,
      "Ro": 1516,
      "Tink": 1517,
      "bird": 1518,
      "fas": 1519,
      "pter": 1520,
      "sister": 1521,
      "usion": 1522,
      "vour": 1523,
      "ying": 1524,
      "itself": 1525,
      "nest": 1526,
      "pping": 1527,
      "lightly": 1528,
      "says": 1529,
      "satis": 1530,
      "arrived": 1531,
      "replied": 1532,
      "started": 1533,
      "Al": 1534,
      "Stre": 1535,
      "bri": 1536,
      "dut": 1537,
      "stud": 1538,
      "termin": 1539,
      "affe": 1540,
      "struck": 1541,
      "position": 1542,
      "bring": 1543,
      "view": 1544,
      "walked": 1545,
      "appro": 1546,
      "beautiful": 1547,
      "remarked": 1548,
      "natur": 1549,
      "mountain": 1550,
      "Baker": 1551,
      "kes": 1552,
      "slow": 1553,
      "vic": 1554,
      "anc": 1555,
      "rec": 1556,
      "ony": 1557,
      "habit": 1558,
      "second": 1559,
      "accoun": 1560,
      "laid": 1561,
      "else": 1562,
      "stopped": 1563,
      "died": 1564,
      "afternoon": 1565,
      "remained": 1566,
      "grave": 1567,
      "family": 1568,
      "Chapter": 1569,
      "fain": 1570,
      "glo": 1571,
      "ls": 1572,
      "smo": 1573,
      "vol": 1574,
      "ased": 1575,
      "rock": 1576,
      "delight": 1577,
      "action": 1578,
      "cloud": 1579,
      "brain": 1580,
      "Not": 1581,
      "silent": 1582,
      "street": 1583,
      "Watson": 1584,
      "streng": 1585,
      "cab": 1586,
      "em": 1587,
      "tched": 1588,
      "ugh": 1589,
      "pered": 1590,
      "raid": 1591,
      "grew": 1592,
      "uction": 1593,
      "getting": 1594,
      "cheer": 1595,
      "broken": 1596,
      "promise": 1597,
      "Ah": 1598,
      "cla": 1599,
      "yard": 1600,
      "ana": 1601,
      "thin": 1602,
      "although": 1603,
      "herself": 1604,
      "raised": 1605,
      "omen": 1606,
      "maid": 1607,
      "pale": 1608,
      "ches": 1609,
      "occur": 1610,
      "pursu": 1611,
      "gener": 1612,
      "Morris": 1613,
      "Street": 1614,
      "aving": 1615,
      "fact": 1616,
      "gle": 1617,
      "formed": 1618,
      "coat": 1619,
      "conce": 1620,
      "foot": 1621,
      "ical": 1622,
      "afraid": 1623,
      "viol": 1624,
      "attend": 1625,
      "refle": 1626,
      "appearance": 1627,
      "Fran": 1628,
      "nar": 1629,
      "miserable": 1630,
      "waited": 1631,
      "expected": 1632,
      "sharp": 1633,
      "Lo": 1634,
      "bank": 1635,
      "var": 1636,
      "rel": 1637,
      "ator": 1638,
      "ende": 1639,
      "determin": 1640,
      "sage": 1641,
      "usual": 1642,
      "laugh": 1643,
      "board": 1644,
      "effect": 1645,
      "certainly": 1646,
      "above": 1647,
      "pes": 1648,
      "zz": 1649,
      "lies": 1650,
      "rooms": 1651,
      "--------------------------------": 1652,
      "written": 1653,
      "symp": 1654,
      "companion": 1655,
      "bad": 1656,
      "cat": 1657,
      "gro": 1658,
      "mn": 1659,
      "vill": 1660,
      "women": 1661,
      "zed": 1662,
      "memor": 1663,
      "aring": 1664,
      "search": 1665,
      "enter": 1666,
      "necess": 1667,
      "aren": 1668,
      "tee": 1669,
      "iling": 1670,
      "fice": 1671,
      "fixed": 1672,
      "comes": 1673,
      "blue": 1674,
      "broke": 1675,
      "curi": 1676,
      "subject": 1677,
      "married": 1678,
      "journey": 1679,
      "strength": 1680,
      "endeav": 1681,
      "Jord": 1682,
      "bound": 1683,
      "fun": 1684,
      "igh": 1685,
      "ton": 1686,
      "resol": 1687,
      "bey": 1688,
      "char": 1689,
      "absolute": 1690,
      "medi": 1691,
      "fied": 1692,
      "path": 1693,
      "happiness": 1694,
      "Jordan": 1695,
      "gg": 1696,
      "ie": 1697,
      "sli": 1698,
      "lest": 1699,
      "six": 1700,
      "outside": 1701,
      "peace": 1702,
      "consc": 1703,
      "que": 1704,
      "minute": 1705,
      "import": 1706,
      "bitter": 1707,
      "visi": 1708,
      "passion": 1709,
      "pretty": 1710,
      "complete": 1711,
      "stairs": 1712,
      "por": 1713,
      "van": 1714,
      "vious": 1715,
      "wis": 1716,
      "ative": 1717,
      "stone": 1718,
      "myster": 1719,
      "tice": 1720,
      "cover": 1721,
      "ages": 1722,
      "expres": 1723,
      "making": 1724,
      "ances": 1725,
      "flow": 1726,
      "windows": 1727,
      "nearly": 1728,
      "whispered": 1729,
      "occup": 1730,
      "descri": 1731,
      "hit": 1732,
      "kiss": 1733,
      "lun": 1734,
      "mir": 1735,
      "warm": 1736,
      "inno": 1737,
      "note": 1738,
      "urch": 1739,
      "thank": 1740,
      "grey": 1741,
      "comfort": 1742,
      "carried": 1743,
      "lovely": 1744,
      "corner": 1745,
      "purpose": 1746,
      "spirit": 1747,
      "gentleman": 1748,
      "experience": 1749,
      "!’": 1750,
      "Bo": 1751,
      "lab": 1752,
      "means": 1753,
      "church": 1754,
      "themselves": 1755,
      "early": 1756,
      "posed": 1757,
      "dressed": 1758,
      "prof": 1759,
      "hurried": 1760,
      "easy": 1761,
      "occas": 1762,
      "master": 1763,
      "Never": 1764,
      "Sep": 1765,
      "brow": 1766,
      "cro": 1767,
      "ggest": 1768,
      "wed": 1769,
      "inary": 1770,
      "thro": 1771,
      "chang": 1772,
      "deser": 1773,
      "forgot": 1774,
      "lot": 1775,
      "amed": 1776,
      "suggest": 1777,
      "tember": 1778,
      "seeing": 1779,
      "qual": 1780,
      "prob": 1781,
      "thoughts": 1782,
      "darkness": 1783,
      "attention": 1784,
      "distur": 1785,
      "evidently": 1786,
      "patient": 1787,
      "figure": 1788,
      "account": 1789,
      "September": 1790,
      "TER": 1791,
      "Who": 1792,
      "ake": 1793,
      "dust": 1794,
      "mit": 1795,
      "thous": 1796,
      "oner": 1797,
      "tory": 1798,
      "dem": 1799,
      "forget": 1800,
      "ush": 1801,
      "woke": 1802,
      "tless": 1803,
      "scre": 1804,
      "evil": 1805,
      "object": 1806,
      "carry": 1807,
      "shook": 1808,
      "standing": 1809,
      "sense": 1810,
      "eager": 1811,
      "solemn": 1812,
      "thousand": 1813,
      "cus": 1814,
      "wit": 1815,
      "thes": 1816,
      "anim": 1817,
      "lead": 1818,
      "deal": 1819,
      "poc": 1820,
      "concer": 1821,
      "favour": 1822,
      "common": 1823,
      "brea": 1824,
      "breath": 1825,
      "colour": 1826,
      "affection": 1827,
      "Po": 1828,
      "THE": 1829,
      "bs": 1830,
      "cas": 1831,
      "fat": 1832,
      "rup": 1833,
      "resu": 1834,
      "weak": 1835,
      "neck": 1836,
      "firm": 1837,
      "horses": 1838,
      "fresh": 1839,
      "garden": 1840,
      "touch": 1841,
      "circ": 1842,
      "undred": 1843,
      "study": 1844,
      "Mc": 1845,
      "Nana": 1846,
      "eat": 1847,
      "hung": 1848,
      "lan": 1849,
      "task": 1850,
      "rer": 1851,
      "attemp": 1852,
      "utter": 1853,
      "tired": 1854,
      "smile": 1855,
      "locked": 1856,
      "pleasure": 1857,
      "secret": 1858,
      "months": 1859,
      "May": 1860,
      "burn": 1861,
      "ffe": 1862,
      "hundred": 1863,
      "nu": 1864,
      "phy": 1865,
      "inqui": 1866,
      "inner": 1867,
      "assu": 1868,
      "notic": 1869,
      "ution": 1870,
      "sick": 1871,
      "tears": 1872,
      "therefore": 1873,
      "tles": 1874,
      "drive": 1875,
      "showed": 1876,
      "drove": 1877,
      "calm": 1878,
      "pointed": 1879,
      "truth": 1880,
      "duty": 1881,
      "teeth": 1882,
      "Per": 1883,
      "ny": 1884,
      "port": 1885,
      "reached": 1886,
      "ities": 1887,
      "station": 1888,
      "seiz": 1889,
      "esca": 1890,
      "ties": 1891,
      "pet": 1892,
      "post": 1893,
      "antly": 1894,
      "knows": 1895,
      "ility": 1896,
      "discovered": 1897,
      "uced": 1898,
      "trying": 1899,
      "....": 1900,
      "facts": 1901,
      "Even": 1902,
      "hon": 1903,
      "ture": 1904,
      "office": 1905,
      "wel": 1906,
      "dec": 1907,
      "soci": 1908,
      "ford": 1909,
      "lief": 1910,
      "rise": 1911,
      "effort": 1912,
      "graph": 1913,
      "surprise": 1914,
      "surprised": 1915,
      "sorrow": 1916,
      "colle": 1917,
      "different": 1918,
      "Look": 1919,
      "determined": 1920,
      "necessary": 1921,
      "Ge": 1922,
      "_2": 1923,
      "cou": 1924,
      "eli": 1925,
      "fla": 1926,
      "mag": 1927,
      "swi": 1928,
      "send": 1929,
      "ons": 1930,
      "enev": 1931,
      "lean": 1932,
      "alth": 1933,
      "enti": 1934,
      "lived": 1935,
      "misery": 1936,
      "drawn": 1937,
      "beauty": 1938,
      "boxes": 1939,
      "dreadful": 1940,
      "beginning": 1941,
      "anxious": 1942,
      "occasion": 1943,
      "Cler": 1944,
      "gain": 1945,
      "langu": 1946,
      "nine": 1947,
      "nice": 1948,
      "rain": 1949,
      "uch": 1950,
      "ancy": 1951,
      "orn": 1952,
      "noble": 1953,
      "tim": 1954,
      "These": 1955,
      "gold": 1956,
      "tran": 1957,
      "press": 1958,
      "sport": 1959,
      "prote": 1960,
      "proceed": 1961,
      "diary": 1962,
      "ears": 1963,
      "thinking": 1964,
      "immedi": 1965,
      "blind": 1966,
      "slept": 1967,
      "ordinary": 1968,
      "carri": 1969,
      "wrong": 1970,
      "guard": 1971,
      "pie": 1972,
      "presence": 1973,
      "learn": 1974,
      "England": 1975,
      "success": 1976,
      "brave": 1977,
      "Clerval": 1978,
      "New": 1979,
      "bb": 1980,
      "filled": 1981,
      "line": 1982,
      "wand": 1983,
      "toward": 1984,
      "lly": 1985,
      "wasn": 1986,
      "lying": 1987,
      "als": 1988,
      "added": 1989,
      "ushed": 1990,
      "tele": 1991,
      "exact": 1992,
      "boat": 1993,
      "glass": 1994,
      "umst": 1995,
      "spirits": 1996,
      "breakfast": 1997,
      "simply": 1998,
      "difficul": 1999,
      "natural": 2000,
      "Geor": 2001,
      "bent": 2002,
      "fer": 2003,
      "tu": 2004,
      "uct": 2005,
      "wound": 2006,
      "reg": 2007,
      "regard": 2008,
      "top": 2009,
      "enjoy": 2010,
      "mee": 2011,
      "stu": 2012,
      "advent": 2013,
      "feared": 2014,
      "affair": 2015,
      "afterwards": 2016,
      "horrible": 2017,
      "conscious": 2018,
      "Whi": 2019,
      "fine": 2020,
      "oned": 2021,
      "seven": 2022,
      "deta": 2023,
      "unt": 2024,
      "acqu": 2025,
      "exist": 2026,
      "shoulder": 2027,
      "tree": 2028,
      "chief": 2029,
      "cheek": 2030,
      "daughter": 2031,
      "pirates": 2032,
      "HAP": 2033,
      "expression": 2034,
      "throat": 2035,
      "circumst": 2036,
      "Smee": 2037,
      "Will": 2038,
      "bag": 2039,
      "ption": 2040,
      "pity": 2041,
      "sl": 2042,
      "twent": 2043,
      "heaven": 2044,
      "instr": 2045,
      "arran": 2046,
      "des": 2047,
      "consu": 2048,
      "law": 2049,
      "laug": 2050,
      "turning": 2051,
      "pause": 2052,
      "ortun": 2053,
      "clothes": 2054,
      "sens": 2055,
      "Justine": 2056,
      "consider": 2057,
      "laughed": 2058,
      "CHAP": 2059,
      "Did": 2060,
      "Mon": 2061,
      "Where": 2062,
      "Yet": 2063,
      "fit": 2064,
      "jud": 2065,
      "pit": 2066,
      "thick": 2067,
      "lling": 2068,
      "beat": 2069,
      "bell": 2070,
      "dev": 2071,
      "forth": 2072,
      "neigh": 2073,
      "ours": 2074,
      "concl": 2075,
      "caught": 2076,
      "perfect": 2077,
      "spring": 2078,
      "scar": 2079,
      "shock": 2080,
      "super": 2081,
      "sky": 2082,
      "rush": 2083,
      "passage": 2084,
      "suspic": 2085,
      "memory": 2086,
      "CHAPTER": 2087,
      "Slightly": 2088,
      "Whit": 2089,
      "_1": 2090,
      "bow": 2091,
      "ked": 2092,
      "thir": 2093,
      "tom": 2094,
      "leg": 2095,
      "seat": 2096,
      "bered": 2097,
      "nod": 2098,
      "river": 2099,
      "idence": 2100,
      "tage": 2101,
      "posse": 2102,
      "counten": 2103,
      "monster": 2104,
      "stern": 2105,
      "crime": 2106,
      "yellow": 2107,
      "fashi": 2108,
      "slowly": 2109,
      "record": 2110,
      "neighbour": 2111,
      "dinner": 2112,
      "ping": 2113,
      "tomb": 2114,
      "itude": 2115,
      "convers": 2116,
      "somewhat": 2117,
      "courage": 2118,
      "brother": 2119,
      "guess": 2120,
      "partic": 2121,
      "finished": 2122,
      "wonderful": 2123,
      "easily": 2124,
      "finger": 2125,
      "demand": 2126,
      "honour": 2127,
      "elix": 2128,
      "ian": 2129,
      "ier": 2130,
      "ild": 2131,
      "pal": 2132,
      "sity": 2133,
      "win": 2134,
      "resp": 2135,
      "thor": 2136,
      "ising": 2137,
      "leaving": 2138,
      "iron": 2139,
      "address": 2140,
      "terror": 2141,
      "doctor": 2142,
      "ending": 2143,
      "venge": 2144,
      "wolves": 2145,
      "aking": 2146,
      "news": 2147,
      "smiled": 2148,
      "fallen": 2149,
      "captain": 2150,
      "books": 2151,
      "cottage": 2152,
      "desire": 2153,
      "pulled": 2154,
      "ancing": 2155,
      "entirely": 2156,
      "George": 2157,
      "Felix": 2158,
      "Have": 2159,
      "cra": 2160,
      "eper": 2161,
      "lamp": 2162,
      "marri": 2163,
      "rate": 2164,
      "wished": 2165,
      "reach": 2166,
      "respect": 2167,
      "thu": 2168,
      "enra": 2169,
      "wide": 2170,
      "acter": 2171,
      "ender": 2172,
      "worth": 2173,
      "tingu": 2174,
      "blow": 2175,
      "questions": 2176,
      "visit": 2177,
      "enemy": 2178,
      "culiar": 2179,
      "engaged": 2180,
      "fami": 2181,
      "grief": 2182,
      "holding": 2183,
      "expect": 2184,
      "listened": 2185,
      "further": 2186,
      "mountains": 2187,
      "beyond": 2188,
      "Perhaps": 2189,
      "twenty": 2190,
      "marriage": 2191,
      "Don": 2192,
      "Oc": 2193,
      "Our": 2194,
      "Wo": 2195,
      "coff": 2196,
      "fted": 2197,
      "imed": 2198,
      "iety": 2199,
      "ky": 2200,
      "sank": 2201,
      "vin": 2202,
      "wing": 2203,
      "yes": 2204,
      "edge": 2205,
      "llent": 2206,
      "degre": 2207,
      "sake": 2208,
      "ourselves": 2209,
      "peculiar": 2210,
      "arest": 2211,
      "rap": 2212,
      "seek": 2213,
      "extre": 2214,
      "extra": 2215,
      "couldn": 2216,
      "looks": 2217,
      "stop": 2218,
      "strug": 2219,
      "ester": 2220,
      "shot": 2221,
      "Too": 2222,
      "walking": 2223,
      "dreams": 2224,
      "simple": 2225,
      "emplo": 2226,
      "suffic": 2227,
      "straight": 2228,
      "occurred": 2229,
      "character": 2230,
      "conversation": 2231,
      "Every": 2232,
      "Ren": 2233,
      "dare": 2234,
      "fight": 2235,
      "gas": 2236,
      "ges": 2237,
      "jump": 2238,
      "len": 2239,
      "mil": 2240,
      "mbered": 2241,
      "ners": 2242,
      "tch": 2243,
      "ashed": 2244,
      "island": 2245,
      "ork": 2246,
      "notice": 2247,
      "velo": 2248,
      "living": 2249,
      "hood": 2250,
      "acce": 2251,
      "shud": 2252,
      "somewhere": 2253,
      "sprang": 2254,
      "green": 2255,
      "compl": 2256,
      "places": 2257,
      "sleeping": 2258,
      "sunset": 2259,
      "remembered": 2260,
      "fortune": 2261,
      "empty": 2262,
      "touched": 2263,
      "learned": 2264,
      "direction": 2265,
      "explained": 2266,
      "satisfied": 2267,
      "pocket": 2268,
      "Renfield": 2269,
      "From": 2270,
      "city": 2271,
      "harm": 2272,
      "kno": 2273,
      "opp": 2274,
      "rust": 2275,
      "zen": 2276,
      "inside": 2277,
      "thed": 2278,
      "resto": 2279,
      "received": 2280,
      "meant": 2281,
      "lose": 2282,
      "add": 2283,
      "tern": 2284,
      "quar": 2285,
      "whatever": 2286,
      "spent": 2287,
      "dim": 2288,
      "single": 2289,
      "happen": 2290,
      "greater": 2291,
      "party": 2292,
      "instead": 2293,
      "finite": 2294,
      "interesting": 2295,
      "awful": 2296,
      "murder": 2297,
      "writing": 2298,
      "instantly": 2299,
      "dogs": 2300,
      "English": 2301,
      "difficulty": 2302,
      "acquain": 2303,
      "existence": 2304,
      "esterday": 2305,
      "00": 2306,
      "Di": 2307,
      "cast": 2308,
      "ec": 2309,
      "leng": 2310,
      "ray": 2311,
      "twi": 2312,
      "tober": 2313,
      "isted": 2314,
      "ham": 2315,
      "allow": 2316,
      "hot": 2317,
      "acul": 2318,
      "neither": 2319,
      "wheel": 2320,
      "rage": 2321,
      "ific": 2322,
      "food": 2323,
      "lawn": 2324,
      "forehead": 2325,
      "science": 2326,
      "prod": 2327,
      "earnest": 2328,
      "events": 2329,
      "spot": 2330,
      "driver": 2331,
      "pleasant": 2332,
      "dawn": 2333,
      "distance": 2334,
      "quietly": 2335,
      "Westenra": 2336,
      "knees": 2337,
      "destroy": 2338,
      "gloom": 2339,
      "various": 2340,
      "absolutely": 2341,
      "important": 2342,
      "changed": 2343,
      "carriage": 2344,
      "October": 2345,
      "Ab": 2346,
      "cure": 2347,
      "fut": 2348,
      "hang": 2349,
      "mal": 2350,
      "hell": 2351,
      "atic": 2352,
      "ital": 2353,
      "weather": 2354,
      "devo": 2355,
      "aded": 2356,
      "conne": 2357,
      "aston": 2358,
      "mbled": 2359,
      "ishment": 2360,
      "mist": 2361,
      "impres": 2362,
      "kindness": 2363,
      "See": 2364,
      "excla": 2365,
      "commun": 2366,
      "moonlight": 2367,
      "drink": 2368,
      "cheerful": 2369,
      "sympath": 2370,
      "breathing": 2371,
      "seized": 2372,
      "coffin": 2373,
      "Tootles": 2374,
      "AR": 2375,
      "Amer": 2376,
      "Ja": 2377,
      "blic": 2378,
      "cig": 2379,
      "castle": 2380,
      "ging": 2381,
      "hesit": 2382,
      "reco": 2383,
      "bear": 2384,
      "nose": 2385,
      "vest": 2386,
      "youth": 2387,
      "dep": 2388,
      "delay": 2389,
      "force": 2390,
      "lives": 2391,
      "unhappy": 2392,
      "polit": 2393,
      "suffe": 2394,
      "tea": 2395,
      "contr": 2396,
      "shout": 2397,
      "exer": 2398,
      "fold": 2399,
      "faith": 2400,
      "worn": 2401,
      "disappeared": 2402,
      "fiend": 2403,
      "plan": 2404,
      "plain": 2405,
      "lessly": 2406,
      "type": 2407,
      "gram": 2408,
      "obli": 2409,
      "passing": 2410,
      "pray": 2411,
      "prac": 2412,
      "stranger": 2413,
      "matters": 2414,
      "Sometimes": 2415,
      "evidence": 2416,
      "weeks": 2417,
      "wretched": 2418,
      "observed": 2419,
      "conceal": 2420,
      "flowers": 2421,
      "immediately": 2422,
      "countenance": 2423,
      "Are": 2424,
      "Doc": 2425,
      "Ex": 2426,
      "Re": 2427,
      "Sim": 2428,
      "ade": 2429,
      "pay": 2430,
      "slight": 2431,
      "uce": 2432,
      "inj": 2433,
      "thered": 2434,
      "reat": 2435,
      "lid": 2436,
      "contemp": 2437,
      "pers": 2438,
      "wouldn": 2439,
      "mention": 2440,
      "serious": 2441,
      "understood": 2442,
      "obvious": 2443,
      "shore": 2444,
      "wants": 2445,
      "spoken": 2446,
      "parted": 2447,
      "stead": 2448,
      "excellent": 2449,
      "speaking": 2450,
      "excited": 2451,
      "latter": 2452,
      "watching": 2453,
      "burst": 2454,
      "mystery": 2455,
      "forgotten": 2456,
      "Whitby": 2457,
      "familiar": 2458,
      "extreme": 2459,
      "Diary": 2460,
      "King": 2461,
      "Very": 2462,
      "aid": 2463,
      "eight": 2464,
      "loud": 2465,
      "ost": 2466,
      "sme": 2467,
      "scho": 2468,
      "wise": 2469,
      "incre": 2470,
      "erce": 2471,
      "lls": 2472,
      "alive": 2473,
      "vert": 2474,
      "sail": 2475,
      "keen": 2476,
      "moving": 2477,
      "bye": 2478,
      "prec": 2479,
      "discover": 2480,
      "lights": 2481,
      "tale": 2482,
      "uded": 2483,
      "clean": 2484,
      "situ": 2485,
      "talking": 2486,
      "command": 2487,
      "confess": 2488,
      "frightened": 2489,
      "Thank": 2490,
      "fingers": 2491,
      "nurser": 2492,
      "clouds": 2493,
      "innocent": 2494,
      "assured": 2495,
      "possessed": 2496,
      "length": 2497,
      "future": 2498,
      "exclaimed": 2499,
      "Can": 2500,
      "East": 2501,
      "Ruc": 2502,
      "Was": 2503,
      "cred": 2504,
      "dle": 2505,
      "emb": 2506,
      "fate": 2507,
      "fancy": 2508,
      "gue": 2509,
      "hum": 2510,
      "ia": 2511,
      "ior": 2512,
      "kins": 2513,
      "yesterday": 2514,
      "incl": 2515,
      "rect": 2516,
      "ceive": 2517,
      "deli": 2518,
      "idly": 2519,
      "ters": 2520,
      "terri": 2521,
      "acted": 2522,
      "rade": 2523,
      "atest": 2524,
      "ilt": 2525,
      "bot": 2526,
      "rank": 2527,
      "greatest": 2528,
      "proper": 2529,
      "assist": 2530,
      "houses": 2531,
      "tained": 2532,
      "broad": 2533,
      "ugust": 2534,
      "finally": 2535,
      "talked": 2536,
      "fortunate": 2537,
      "exactly": 2538,
      "nodded": 2539,
      "fashion": 2540,
      "opportun": 2541,
      "Doctor": 2542,
      "Simon": 2543,
      "nursery": 2544,
      "August": 2545,
      "De": 2546,
      "Hen": 2547,
      "Ju": 2548,
      "Jour": 2549,
      "emotion": 2550,
      "fif": 2551,
      "gli": 2552,
      "oper": 2553,
      "pan": 2554,
      "wro": 2555,
      "wave": 2556,
      "health": 2557,
      "ines": 2558,
      "antic": 2559,
      "below": 2560,
      "hide": 2561,
      "rod": 2562,
      "rolled": 2563,
      "ching": 2564,
      "ury": 2565,
      "arer": 2566,
      "ague": 2567,
      "fool": 2568,
      "pair": 2569,
      "paused": 2570,
      "singular": 2571,
      "telling": 2572,
      "moments": 2573,
      "breast": 2574,
      "names": 2575,
      "However": 2576,
      "surround": 2577,
      "amongst": 2578,
      "dropped": 2579,
      "imagine": 2580,
      "imagination": 2581,
      "soft": 2582,
      "considerable": 2583,
      "Carthy": 2584,
      "public": 2585,
      "probably": 2586,
      "McCarthy": 2587,
      "circumstances": 2588,
      "conclusion": 2589,
      "sufficient": 2590,
      "Journal": 2591,
      "wrote": 2592,
      "Lest": 2593,
      "Ni": 2594,
      "Thus": 2595,
      "York": 2596,
      "avo": 2597,
      "mut": 2598,
      "vid": 2599,
      "inn": 2600,
      "repe": 2601,
      "offe": 2602,
      "merely": 2603,
      "former": 2604,
      "onel": 2605,
      "dozen": 2606,
      "tel": 2607,
      "test": 2608,
      "fail": 2609,
      "knowing": 2610,
      "anyone": 2611,
      "distin": 2612,
      "opin": 2613,
      "likely": 2614,
      "glanced": 2615,
      "miss": 2616,
      "gras": 2617,
      "offic": 2618,
      "ignor": 2619,
      "nerv": 2620,
      "putting": 2621,
      "stepped": 2622,
      "Star": 2623,
      "leaves": 2624,
      "interested": 2625,
      "running": 2626,
      "circle": 2627,
      "suffer": 2628,
      "drawing": 2629,
      "flew": 2630,
      "number": 2631,
      "noticed": 2632,
      "escape": 2633,
      "cheeks": 2634,
      "particular": 2635,
      "impression": 2636,
      "sympathy": 2637,
      "Ch": 2638,
      "Dead": 2639,
      "awake": 2640,
      "cross": 2641,
      "ker": 2642,
      "ots": 2643,
      "phi": 2644,
      "tall": 2645,
      "inv": 2646,
      "inten": 2647,
      "ater": 2648,
      "belief": 2649,
      "ceased": 2650,
      "admir": 2651,
      "unless": 2652,
      "hopes": 2653,
      "suit": 2654,
      "indi": 2655,
      "ext": 2656,
      "lair": 2657,
      "prepa": 2658,
      "bless": 2659,
      "stor": 2660,
      "proof": 2661,
      "apart": 2662,
      "rent": 2663,
      "ishing": 2664,
      "faces": 2665,
      "trave": 2666,
      "following": 2667,
      "hurry": 2668,
      "interrup": 2669,
      "sorry": 2670,
      "crowd": 2671,
      "piece": 2672,
      "suffered": 2673,
      "Henry": 2674,
      "Lestrade": 2675,
      "Nibs": 2676,
      "prepared": 2677,
      "Genev": 2678,
      "Sud": 2679,
      "ale": 2680,
      "bla": 2681,
      "dam": 2682,
      "ell": 2683,
      "fli": 2684,
      "fled": 2685,
      "main": 2686,
      "osity": 2687,
      "pho": 2688,
      "rad": 2689,
      "vir": 2690,
      "inform": 2691,
      "isn": 2692,
      "istr": 2693,
      "ening": 2694,
      "dearest": 2695,
      "ession": 2696,
      "allowed": 2697,
      "tight": 2698,
      "pool": 2699,
      "cking": 2700,
      "shine": 2701,
      "agony": 2702,
      "quare": 2703,
      "yours": 2704,
      "shape": 2705,
      "handed": 2706,
      "mbling": 2707,
      "glance": 2708,
      "mission": 2709,
      "denly": 2710,
      "opening": 2711,
      "carefully": 2712,
      "Before": 2713,
      "excite": 2714,
      "signs": 2715,
      "crimin": 2716,
      "condition": 2717,
      "build": 2718,
      "service": 2719,
      "explain": 2720,
      "summer": 2721,
      "endeavoured": 2722,
      "resolved": 2723,
      "wishes": 2724,
      "inquired": 2725,
      "communic": 2726,
      "Rucastle": 2727,
      "opportunity": 2728,
      "Suddenly": 2729,
      "bat": 2730,
      "bor": 2731,
      "cous": 2732,
      "dared": 2733,
      "ease": 2734,
      "hast": 2735,
      "meas": 2736,
      "rope": 2737,
      "uni": 2738,
      "using": 2739,
      "makes": 2740,
      "fierce": 2741,
      "impossible": 2742,
      "rist": 2743,
      "rested": 2744,
      "grass": 2745,
      "Nothing": 2746,
      "flu": 2747,
      "attack": 2748,
      "believed": 2749,
      "grim": 2750,
      "experi": 2751,
      "smoke": 2752,
      "wedding": 2753,
      "disturb": 2754,
      "extraordinary": 2755,
      "school": 2756,
      "opinion": 2757,
      "Geneva": 2758,
      "photo": 2759,
      "IN": 2760,
      "Vic": 2761,
      "bid": 2762,
      "fra": 2763,
      "envelo": 2764,
      "itation": 2765,
      "depart": 2766,
      "une": 2767,
      "feature": 2768,
      "hers": 2769,
      "odd": 2770,
      "hate": 2771,
      "raise": 2772,
      "seeming": 2773,
      "someone": 2774,
      "selfish": 2775,
      "longed": 2776,
      "strain": 2777,
      "rising": 2778,
      "tress": 2779,
      "hyp": 2780,
      "company": 2781,
      "horse": 2782,
      "chamber": 2783,
      "fears": 2784,
      "swept": 2785,
      "surely": 2786,
      "girls": 2787,
      "threat": 2788,
      "accord": 2789,
      "crying": 2790,
      "grown": 2791,
      "examined": 2792,
      "servants": 2793,
      "marked": 2794,
      "thrown": 2795,
      "nurse": 2796,
      "content": 2797,
      "curious": 2798,
      "visitor": 2799,
      "Poor": 2800,
      "cases": 2801,
      "attempt": 2802,
      "devil": 2803,
      "Later": 2804,
      "Tur": 2805,
      "bene": 2806,
      "ee": 2807,
      "ife": 2808,
      "ired": 2809,
      "kill": 2810,
      "lu": 2811,
      "mort": 2812,
      "rat": 2813,
      "sca": 2814,
      "tw": 2815,
      "inhabit": 2816,
      "third": 2817,
      "ener": 2818,
      "ory": 2819,
      "west": 2820,
      "charge": 2821,
      "ric": 2822,
      "alley": 2823,
      "cop": 2824,
      "uncle": 2825,
      "kets": 2826,
      "sic": 2827,
      "shown": 2828,
      "expressed": 2829,
      "prevent": 2830,
      "wore": 2831,
      "clue": 2832,
      "speed": 2833,
      "court": 2834,
      "introd": 2835,
      "clever": 2836,
      "lower": 2837,
      "Pray": 2838,
      "apparen": 2839,
      "stretched": 2840,
      "Once": 2841,
      "murde": 2842,
      "accident": 2843,
      "deeply": 2844,
      "cott": 2845,
      "safety": 2846,
      "client": 2847,
      "destroyed": 2848,
      "general": 2849,
      "reflection": 2850,
      "visible": 2851,
      "language": 2852,
      "sensations": 2853,
      "demanded": 2854,
      "degree": 2855,
      "nervous": 2856,
      "30": 2857,
      "Cather": 2858,
      "Or": 2859,
      "Tell": 2860,
      "ben": 2861,
      "bility": 2862,
      "dying": 2863,
      "emer": 2864,
      "furn": 2865,
      "gently": 2866,
      "jest": 2867,
      "mate": 2868,
      "sand": 2869,
      "sought": 2870,
      "vain": 2871,
      "inqu": 2872,
      "sel": 2873,
      "beloved": 2874,
      "wear": 2875,
      "advert": 2876,
      "redsk": 2877,
      "ampi": 2878,
      "conve": 2879,
      "agon": 2880,
      "trans": 2881,
      "persu": 2882,
      "lap": 2883,
      "laughter": 2884,
      "worse": 2885,
      "aked": 2886,
      "ille": 2887,
      "struction": 2888,
      "spec": 2889,
      "grat": 2890,
      "event": 2891,
      "watched": 2892,
      "impro": 2893,
      "working": 2894,
      "supper": 2895,
      "Dracul": 2896,
      "sounds": 2897,
      "presently": 2898,
      "keeping": 2899,
      "stream": 2900,
      "powers": 2901,
      "native": 2902,
      "played": 2903,
      "ference": 2904,
      "growing": 2905,
      "softly": 2906,
      "pirate": 2907,
      "Alas": 2908,
      "faint": 2909,
      "cabin": 2910,
      "claim": 2911,
      "funny": 2912,
      "occupied": 2913,
      "lunch": 2914,
      "result": 2915,
      "adventure": 2916,
      "details": 2917,
      "perfectly": 2918,
      "Wolf": 2919,
      "shudder": 2920,
      "About": 2921,
      "James": 2922,
      "beneath": 2923,
      "murderer": 2924,
      "Catherine": 2925,
      "Again": 2926,
      "Bes": 2927,
      "Egg": 2928,
      "Ger": 2929,
      "bran": 2930,
      "ix": 2931,
      "lor": 2932,
      "sal": 2933,
      "tender": 2934,
      "zing": 2935,
      "invest": 2936,
      "attered": 2937,
      "erial": 2938,
      "ism": 2939,
      "armed": 2940,
      "hig": 2941,
      "wet": 2942,
      "deck": 2943,
      "delic": 2944,
      "history": 2945,
      "hadn": 2946,
      "nel": 2947,
      "goes": 2948,
      "fog": 2949,
      "track": 2950,
      "pread": 2951,
      "shoulders": 2952,
      "proble": 2953,
      "angry": 2954,
      "trem": 2955,
      "older": 2956,
      "Indeed": 2957,
      "calling": 2958,
      "cial": 2959,
      "shiem": 2960,
      "join": 2961,
      "arrive": 2962,
      "gathered": 2963,
      "possibly": 2964,
      "south": 2965,
      "phone": 2966,
      "accus": 2967,
      "miles": 2968,
      "heavily": 2969,
      "picture": 2970,
      "succeed": 2971,
      "attendant": 2972,
      "curiosity": 2973,
      "portion": 2974,
      "kissed": 2975,
      "profession": 2976,
      "suggested": 2977,
      "eagerly": 2978,
      "society": 2979,
      "arrange": 2980,
      "recogn": 2981,
      "cousin": 2982,
      "Dracula": 2983,
      "Wolfshiem": 2984,
      "Beside": 2985,
      "Con": 2986,
      "Fri": 2987,
      "Mar": 2988,
      "Slo": 2989,
      "Tho": 2990,
      "bled": 2991,
      "cru": 2992,
      "fy": 2993,
      "fro": 2994,
      "iable": 2995,
      "tong": 2996,
      "ues": 2997,
      "iny": 2998,
      "reed": 2999,
      "requi": 3000,
      "attr": 3001,
      "astic": 3002,
      "ors": 3003,
      "ley": 3004,
      "besto": 3005,
      "beheld": 3006,
      "weight": 3007,
      "chin": 3008,
      "lifted": 3009,
      "loso": 3010,
      "tily": 3011,
      "unable": 3012,
      "hoped": 3013,
      "aret": 3014,
      "race": 3015,
      "shri": 3016,
      "perceived": 3017,
      "lago": 3018,
      "wolf": 3019,
      "disap": 3020,
      "mighty": 3021,
      "umn": 3022,
      "please": 3023,
      "double": 3024,
      "reply": 3025,
      "stein": 3026,
      "north": 3027,
      "triump": 3028,
      "falling": 3029,
      "points": 3030,
      "movement": 3031,
      "warning": 3032,
      "difficult": 3033,
      "puzz": 3034,
      "violent": 3035,
      "narr": 3036,
      "narrow": 3037,
      "describe": 3038,
      "churchyard": 3039,
      "proceeded": 3040,
      "distinct": 3041,
      "storm": 3042,
      ".,": 3043,
      "Bl": 3044,
      "Mary": 3045,
      "Pan": 3046,
      "Par": 3047,
      "Turn": 3048,
      "aver": 3049,
      "bas": 3050,
      "bbed": 3051,
      "gay": 3052,
      "iam": 3053,
      "kit": 3054,
      "lts": 3055,
      "rit": 3056,
      "sink": 3057,
      "vague": 3058,
      "”--": 3059,
      "ordered": 3060,
      "stars": 3061,
      "stick": 3062,
      "leap": 3063,
      "sequ": 3064,
      "secure": 3065,
      "ghast": 3066,
      "solit": 3067,
      "log": 3068,
      "tide": 3069,
      "unknown": 3070,
      "teen": 3071,
      "endured": 3072,
      "const": 3073,
      "lake": 3074,
      "spl": 3075,
      "rance": 3076,
      "prove": 3077,
      "doors": 3078,
      "serve": 3079,
      "spector": 3080,
      "begun": 3081,
      "bedroom": 3082,
      "mense": 3083,
      "solation": 3084,
      "prin": 3085,
      "trace": 3086,
      "voices": 3087,
      "careful": 3088,
      "game": 3089,
      "doesn": 3090,
      "commence": 3091,
      "priv": 3092,
      "advanced": 3093,
      "crack": 3094,
      "ridge": 3095,
      "desired": 3096,
      "approach": 3097,
      "approached": 3098,
      "maids": 3099,
      "groan": 3100,
      "endeavour": 3101,
      "swift": 3102,
      "leaned": 3103,
      "William": 3104,
      "scarce": 3105,
      "vinced": 3106,
      "jumped": 3107,
      "twice": 3108,
      "situation": 3109,
      "philoso": 3110,
      "information": 3111,
      "photograph": 3112,
      "Besides": 3113,
      "Had": 3114,
      "Jane": 3115,
      "cup": 3116,
      "gate": 3117,
      "iod": 3118,
      "killed": 3119,
      "paren": 3120,
      "rug": 3121,
      "spread": 3122,
      "uries": 3123,
      "reve": 3124,
      "resent": 3125,
      "revol": 3126,
      "atz": 3127,
      "asses": 3128,
      "enthu": 3129,
      "itive": 3130,
      "destruction": 3131,
      "som": 3132,
      "soo": 3133,
      "rich": 3134,
      "limb": 3135,
      "liked": 3136,
      "tied": 3137,
      "cool": 3138,
      "saved": 3139,
      "aming": 3140,
      "sheet": 3141,
      "convinced": 3142,
      "shining": 3143,
      "agree": 3144,
      "exp": 3145,
      "illy": 3146,
      "disco": 3147,
      "medic": 3148,
      "reading": 3149,
      "Ange": 3150,
      "music": 3151,
      "posses": 3152,
      "served": 3153,
      "grate": 3154,
      "tical": 3155,
      "actually": 3156,
      "swear": 3157,
      "insisted": 3158,
      "Bell": 3159,
      "busy": 3160,
      "dressing": 3161,
      "promised": 3162,
      "coloured": 3163,
      "startled": 3164,
      "harbour": 3165,
      "Tinker": 3166,
      "victim": 3167,
      "gravely": 3168,
      "brown": 3169,
      "disturbed": 3170,
      "concerning": 3171,
      "physi": 3172,
      "precious": 3173,
      "Starkey": 3174,
      "Victor": 3175,
      "ampire": 3176,
      "lagoon": 3177,
      "triumph": 3178,
      "enthusi": 3179,
      "Ay": 3180,
      "EN": 3181,
      "Pic": 3182,
      "Such": 3183,
      "Two": 3184,
      "UR": 3185,
      "bul": 3186,
      "bought": 3187,
      "cul": 3188,
      "ech": 3189,
      "east": 3190,
      "fou": 3191,
      "flies": 3192,
      "lar": 3193,
      "tled": 3194,
      "heat": 3195,
      "influ": 3196,
      "request": 3197,
      "recovered": 3198,
      "revenge": 3199,
      "thod": 3200,
      "asy": 3201,
      "ens": 3202,
      "enced": 3203,
      "method": 3204,
      "argu": 3205,
      "alter": 3206,
      "loss": 3207,
      "ama": 3208,
      "amid": 3209,
      "ardon": 3210,
      "ified": 3211,
      "caused": 3212,
      "period": 3213,
      "preci": 3214,
      "urely": 3215,
      "distingu": 3216,
      "nights": 3217,
      "immense": 3218,
      "horrid": 3219,
      "flung": 3220,
      "appears": 3221,
      "worked": 3222,
      "cleared": 3223,
      "cially": 3224,
      "finding": 3225,
      "silver": 3226,
      "grace": 3227,
      "driving": 3228,
      "gather": 3229,
      "continually": 3230,
      "choly": 3231,
      "pointment": 3232,
      "capable": 3233,
      "advant": 3234,
      "Letter": 3235,
      "wretch": 3236,
      "sofa": 3237,
      "author": 3238,
      "garage": 3239,
      "creatures": 3240,
      "anguish": 3241,
      "anxiety": 3242,
      "birds": 3243,
      "village": 3244,
      "innoc": 3245,
      "burning": 3246,
      "tranqu": 3247,
      "heavens": 3248,
      "accept": 3249,
      "shouted": 3250,
      "July": 3251,
      "fifty": 3252,
      "waves": 3253,
      "surrounded": 3254,
      "repeated": 3255,
      "excitement": 3256,
      "advertise": 3257,
      "discovery": 3258,
      "Am": 3259,
      "Cer": 3260,
      "Cur": 3261,
      "Clair": 3262,
      "Hor": 3263,
      "Ma": 3264,
      "_Dr": 3265,
      "bal": 3266,
      "ball": 3267,
      "bowed": 3268,
      "card": 3269,
      "cart": 3270,
      "fil": 3271,
      "fond": 3272,
      "gged": 3273,
      "iles": 3274,
      "lam": 3275,
      "mour": 3276,
      "nes": 3277,
      "pun": 3278,
      "pushed": 3279,
      "sin": 3280,
      "relie": 3281,
      "melan": 3282,
      "arse": 3283,
      "arrow": 3284,
      "stir": 3285,
      "veins": 3286,
      "weap": 3287,
      "forced": 3288,
      "aled": 3289,
      "espe": 3290,
      "lover": 3291,
      "codi": 3292,
      "fever": 3293,
      "onet": 3294,
      "nearer": 3295,
      "goose": 3296,
      "consent": 3297,
      "indic": 3298,
      "agers": 3299,
      "agreed": 3300,
      "blew": 3301,
      "scen": 3302,
      "glancing": 3303,
      "justice": 3304,
      "chest": 3305,
      "impat": 3306,
      "intention": 3307,
      "sunrise": 3308,
      "bloom": 3309,
      "kindly": 3310,
      "ideas": 3311,
      "presented": 3312,
      "gazed": 3313,
      "kenstein": 3314,
      "visited": 3315,
      "centre": 3316,
      "refuse": 3317,
      "trick": 3318,
      "needed": 3319,
      "aware": 3320,
      "whisper": 3321,
      "frequ": 3322,
      "playing": 3323,
      "personal": 3324,
      "meeting": 3325,
      "directed": 3326,
      "middle": 3327,
      "contro": 3328,
      "violence": 3329,
      "Frankenstein": 3330,
      "catch": 3331,
      "slip": 3332,
      "vanished": 3333,
      "crocodi": 3334,
      "decided": 3335,
      "telegram": 3336,
      "affairs": 3337,
      "respon": 3338,
      "acquainted": 3339,
      "criminal": 3340,
      "private": 3341,
      "parents": 3342,
      "possession": 3343,
      "Certain": 3344,
      "melancholy": 3345,
      "Ag": 3346,
      "During": 3347,
      "Still": 3348,
      "apo": 3349,
      "awoke": 3350,
      "ban": 3351,
      "cand": 3352,
      "cad": 3353,
      "dry": 3354,
      "drun": 3355,
      "ere": 3356,
      "fill": 3357,
      "gained": 3358,
      "iently": 3359,
      "kni": 3360,
      "sna": 3361,
      "retired": 3362,
      "tomed": 3363,
      "asted": 3364,
      "ashes": 3365,
      "haust": 3366,
      "wicked": 3367,
      "charm": 3368,
      "sold": 3369,
      "forms": 3370,
      "tie": 3371,
      "notes": 3372,
      "tering": 3373,
      "unfortunate": 3374,
      "hook": 3375,
      "abhor": 3376,
      "usually": 3377,
      "pot": 3378,
      "manners": 3379,
      "manife": 3380,
      "ends": 3381,
      "convic": 3382,
      "fai": 3383,
      "bore": 3384,
      "anyhow": 3385,
      "shaw": 3386,
      "spa": 3387,
      "progre": 3388,
      "strained": 3389,
      "atha": 3390,
      "treat": 3391,
      "trembling": 3392,
      "material": 3393,
      "impre": 3394,
      "travel": 3395,
      "meaning": 3396,
      "meantime": 3397,
      "pleased": 3398,
      "remarkable": 3399,
      "pride": 3400,
      "remains": 3401,
      "figures": 3402,
      "difference": 3403,
      "III": 3404,
      "streets": 3405,
      "lunatic": 3406,
      "brows": 3407,
      "thirty": 3408,
      "neighbourhood": 3409,
      "hanging": 3410,
      "Americ": 3411,
      "avoid": 3412,
      "seemingly": 3413,
      "redskins": 3414,
      "German": 3415,
      "investig": 3416,
      "scarcely": 3417,
      "foul": 3418,
      "influence": 3419,
      "Certainly": 3420,
      "Agatha": 3421,
      "knife": 3422,
      "manifest": 3423,
      "Buch": 3424,
      "Haw": 3425,
      "Le": 3426,
      "Nor": 3427,
      "Sto": 3428,
      "Saf": 3429,
      "Var": 3430,
      "_Later": 3431,
      "bare": 3432,
      "bath": 3433,
      "chim": 3434,
      "gled": 3435,
      "ield": 3436,
      "lk": 3437,
      "lone": 3438,
      "ore": 3439,
      "pack": 3440,
      "pill": 3441,
      "vac": 3442,
      "wra": 3443,
      "yer": 3444,
      "zy": 3445,
      "inde": 3446,
      "intell": 3447,
      "rene": 3448,
      "recolle": 3449,
      "asc": 3450,
      "aside": 3451,
      "ller": 3452,
      "stones": 3453,
      "beast": 3454,
      "beings": 3455,
      "hither": 3456,
      "cep": 3457,
      "cell": 3458,
      "alled": 3459,
      "--“": 3460,
      "sav": 3461,
      "hollow": 3462,
      "pel": 3463,
      "pect": 3464,
      "shone": 3465,
      "mach": 3466,
      "mental": 3467,
      "willing": 3468,
      "disposition": 3469,
      "div": 3470,
      "paid": 3471,
      "missing": 3472,
      "howling": 3473,
      "risk": 3474,
      "grad": 3475,
      "torn": 3476,
      "impul": 3477,
      "hearts": 3478,
      "shir": 3479,
      "correct": 3480,
      "coronet": 3481,
      "driven": 3482,
      "doubted": 3483,
      "report": 3484,
      "prison": 3485,
      "deadly": 3486,
      "showing": 3487,
      "hurt": 3488,
      "murdered": 3489,
      "drop": 3490,
      "temper": 3491,
      "confidence": 3492,
      "freed": 3493,
      "returning": 3494,
      "pointing": 3495,
      "companions": 3496,
      "explan": 3497,
      "flying": 3498,
      "midnight": 3499,
      "observe": 3500,
      "Roy": 3501,
      "naturally": 3502,
      "pursued": 3503,
      "----------------------------------------": 3504,
      "------------------------------------------------------------------------": 3505,
      "solemnly": 3506,
      "fatal": 3507,
      "lantern": 3508,
      "tuous": 3509,
      "thirst": 3510,
      "struggle": 3511,
      "produced": 3512,
      "devoted": 3513,
      "mentioned": 3514,
      "increased": 3515,
      "interrupted": 3516,
      "building": 3517,
      "experienced": 3518,
      "envelope": 3519,
      "problem": 3520,
      "accustomed": 3521,
      "ghastly": 3522,
      "Angel": 3523,
      "crocodile": 3524,
      "progress": 3525,
      "Buchan": 3526,
      "Hawkins": 3527,
      "Safie": 3528,
      ",--": 3529,
      "18": 3530,
      "Ad": 3531,
      "Ber": 3532,
      "Chi": 3533,
      "Dan": 3534,
      "Great": 3535,
      "Ha": 3536,
      "Hun": 3537,
      "Nick": 3538,
      "ail": 3539,
      "ica": 3540,
      "ible": 3541,
      "lted": 3542,
      "lord": 3543,
      "sla": 3544,
      "tone": 3545,
      "inct": 3546,
      "inspector": 3547,
      "ann": 3548,
      "rejo": 3549,
      "removed": 3550,
      "assure": 3551,
      "eness": 3552,
      "mere": 3553,
      "arily": 3554,
      "stake": 3555,
      "hills": 3556,
      "roof": 3557,
      "ghost": 3558,
      "lip": 3559,
      "loving": 3560,
      "addressed": 3561,
      "cock": 3562,
      "acy": 3563,
      "acing": 3564,
      "moder": 3565,
      "upstairs": 3566,
      "whel": 3567,
      "peas": 3568,
      "raw": 3569,
      "exhaust": 3570,
      "somehow": 3571,
      "tray": 3572,
      "fax": 3573,
      "failed": 3574,
      "iced": 3575,
      "eping": 3576,
      "proved": 3577,
      "newspa": 3578,
      "plans": 3579,
      "rench": 3580,
      "sides": 3581,
      "posite": 3582,
      "speech": 3583,
      "smiling": 3584,
      "vessel": 3585,
      "voy": 3586,
      "waters": 3587,
      "proud": 3588,
      "guil": 3589,
      "Art": 3590,
      "gives": 3591,
      "helpless": 3592,
      "ladies": 3593,
      "arrival": 3594,
      "fined": 3595,
      "exceed": 3596,
      "giving": 3597,
      "cured": 3598,
      "signed": 3599,
      "reality": 3600,
      "distant": 3601,
      "breaking": 3602,
      "evident": 3603,
      "painful": 3604,
      "advice": 3605,
      "examination": 3606,
      "servant": 3607,
      "gesture": 3608,
      "walls": 3609,
      "direct": 3610,
      "dangerous": 3611,
      "frightful": 3612,
      "Carfax": 3613,
      "marks": 3614,
      "strike": 3615,
      "statement": 3616,
      "laughing": 3617,
      "Neverland": 3618,
      "carrying": 3619,
      "animal": 3620,
      "wandered": 3621,
      "regular": 3622,
      "instru": 3623,
      "restored": 3624,
      "astonishment": 3625,
      "guest": 3626,
      "admiration": 3627,
      "features": 3628,
      "Turk": 3629,
      "benef": 3630,
      "limbs": 3631,
      "medicine": 3632,
      "grateful": 3633,
      "advertisement": 3634,
      "especially": 3635,
      "conviction": 3636,
      "Varna": 3637,
      "lonely": 3638,
      "Hill": 3639,
      "Having": 3640,
      "Jack": 3641,
      "June": 3642,
      "Last": 3643,
      "ON": 3644,
      "Ox": 3645,
      "Present": 3646,
      "Sir": 3647,
      "ame": 3648,
      "ba": 3649,
      "bod": 3650,
      "benev": 3651,
      "due": 3652,
      "dwell": 3653,
      "fu": 3654,
      "hun": 3655,
      "mitted": 3656,
      "pardon": 3657,
      "rous": 3658,
      "rtle": 3659,
      "vast": 3660,
      "wings": 3661,
      "yield": 3662,
      "relief": 3663,
      "eral": 3664,
      "andy": 3665,
      "tol": 3666,
      "orted": 3667,
      "itz": 3668,
      "stared": 3669,
      "season": 3670,
      "noise": 3671,
      "chase": 3672,
      "uttered": 3673,
      "alarm": 3674,
      "tip": 3675,
      "comb": 3676,
      "unning": 3677,
      "unconscious": 3678,
      "Their": 3679,
      "acqui": 3680,
      "accur": 3681,
      "amount": 3682,
      "ounced": 3683,
      "pois": 3684,
      "endure": 3685,
      "quit": 3686,
      "quitted": 3687,
      "preced": 3688,
      "previous": 3689,
      "otherwise": 3690,
      "overwhel": 3691,
      "spid": 3692,
      "opposite": 3693,
      "dies": 3694,
      "useful": 3695,
      "glasses": 3696,
      "missed": 3697,
      "morse": 3698,
      "treated": 3699,
      "series": 3700,
      "special": 3701,
      "iously": 3702,
      "smer": 3703,
      "headed": 3704,
      "Myrtle": 3705,
      "intent": 3706,
      "sunshine": 3707,
      "chain": 3708,
      "fearful": 3709,
      "supp": 3710,
      "Hosmer": 3711,
      "pier": 3712,
      "doubtless": 3713,
      "steep": 3714,
      "excuse": 3715,
      "conduct": 3716,
      "buy": 3717,
      "souls": 3718,
      "woods": 3719,
      "fastened": 3720,
      "incident": 3721,
      "policeman": 3722,
      "flesh": 3723,
      "Frank": 3724,
      "resolution": 3725,
      "importance": 3726,
      "crossed": 3727,
      "scream": 3728,
      "concerned": 3729,
      "couple": 3730,
      "leaning": 3731,
      "arranged": 3732,
      "desper": 3733,
      "vengeance": 3734,
      "rapidly": 3735,
      "leness": 3736,
      "milk": 3737,
      "knock": 3738,
      "quarter": 3739,
      "connection": 3740,
      "polite": 3741,
      "apparently": 3742,
      "cottagers": 3743,
      "inquir": 3744,
      "Piccad": 3745,
      "innocence": 3746,
      "American": 3747,
      "savage": 3748,
      "Roylot": 3749,
      "Oxford": 3750,
      "benevol": 3751,
      "Piccadilly": 3752,
      ".--": 3753,
      "Nay": 3754,
      "SE": 3755,
      "Scot": 3756,
      "bac": 3757,
      "bab": 3758,
      "cher": 3759,
      "cunning": 3760,
      "ese": 3761,
      "equal": 3762,
      "fant": 3763,
      "fting": 3764,
      "faced": 3765,
      "ire": 3766,
      "lines": 3767,
      "song": 3768,
      "slightly": 3769,
      "tures": 3770,
      "vul": 3771,
      "valley": 3772,
      "anci": 3773,
      "regre": 3774,
      "reward": 3775,
      "remorse": 3776,
      "thunder": 3777,
      "asm": 3778,
      "ists": 3779,
      "orm": 3780,
      "orig": 3781,
      "belong": 3782,
      "beating": 3783,
      "bearing": 3784,
      "vere": 3785,
      "weary": 3786,
      "wire": 3787,
      "forgive": 3788,
      "altogether": 3789,
      "entering": 3790,
      "verse": 3791,
      "libr": 3792,
      "ows": 3793,
      "lod": 3794,
      "coach": 3795,
      "urged": 3796,
      "keeper": 3797,
      "butler": 3798,
      "abs": 3799,
      "doom": 3800,
      "tear": 3801,
      "ically": 3802,
      "overcome": 3803,
      "shaking": 3804,
      "dign": 3805,
      "thinks": 3806,
      "ully": 3807,
      "misfortune": 3808,
      "positive": 3809,
      "sleepy": 3810,
      "support": 3811,
      "vile": 3812,
      "joined": 3813,
      "instinct": 3814,
      "pipe": 3815,
      "centr": 3816,
      "committed": 3817,
      "keys": 3818,
      "Michaelis": 3819,
      "wooden": 3820,
      "freely": 3821,
      "drug": 3822,
      "tively": 3823,
      "shadows": 3824,
      "uctions": 3825,
      "pursue": 3826,
      "reflect": 3827,
      "described": 3828,
      "labour": 3829,
      "labours": 3830,
      "favourite": 3831,
      "welve": 3832,
      "flame": 3833,
      "magn": 3834,
      "protect": 3835,
      "bbing": 3836,
      "regarding": 3837,
      "enjoyed": 3838,
      "judge": 3839,
      "rushing": 3840,
      "suspicion": 3841,
      "hesitated": 3842,
      "official": 3843,
      "departure": 3844,
      "mortal": 3845,
      "Turner": 3846,
      "princi": 3847,
      "Curly": 3848,
      "hitherto": 3849,
      "machine": 3850,
      "Buchanan": 3851,
      "Presently": 3852,
      "origin": 3853,
      "Bri": 3854,
      "Cor": 3855,
      "ME": 3856,
      "None": 3857,
      "Sh": 3858,
      "Str": 3859,
      "Take": 3860,
      "chen": 3861,
      "damp": 3862,
      "eve": 3863,
      "gall": 3864,
      "gown": 3865,
      "iant": 3866,
      "mass": 3867,
      "pin": 3868,
      "ram": 3869,
      "sw": 3870,
      "swell": 3871,
      "vak": 3872,
      "vice": 3873,
      "vig": 3874,
      "winter": 3875,
      "invent": 3876,
      "infinite": 3877,
      "relat": 3878,
      "thri": 3879,
      "enorm": 3880,
      "stro": 3881,
      "stain": 3882,
      "stable": 3883,
      "stained": 3884,
      "wept": 3885,
      "dee": 3886,
      "decl": 3887,
      "departed": 3888,
      "loose": 3889,
      "logy": 3890,
      "admi": 3891,
      "host": 3892,
      "upset": 3893,
      "ource": 3894,
      "pest": 3895,
      "conside": 3896,
      "conject": 3897,
      "consequ": 3898,
      "consolation": 3899,
      "indign": 3900,
      "agitation": 3901,
      "akened": 3902,
      "anywhere": 3903,
      "spark": 3904,
      "discus": 3905,
      "downstairs": 3906,
      "ucted": 3907,
      "tail": 3908,
      "ives": 3909,
      "asking": 3910,
      "closing": 3911,
      "cler": 3912,
      "clas": 3913,
      "clut": 3914,
      "grand": 3915,
      "torture": 3916,
      "creation": 3917,
      "greatly": 3918,
      "obsc": 3919,
      "tically": 3920,
      "sunk": 3921,
      "traces": 3922,
      "stepfather": 3923,
      "Because": 3924,
      "Only": 3925,
      "lately": 3926,
      "confused": 3927,
      "fairy": 3928,
      "marry": 3929,
      "dreaming": 3930,
      "fortunes": 3931,
      "advance": 3932,
      "cruc": 3933,
      "starting": 3934,
      "troubled": 3935,
      "shortly": 3936,
      "listening": 3937,
      "garlic": 3938,
      "ashing": 3939,
      "stayed": 3940,
      "midst": 3941,
      "barred": 3942,
      "harsh": 3943,
      "bride": 3944,
      "generally": 3945,
      "sympa": 3946,
      "funeral": 3947,
      "fatig": 3948,
      "utterly": 3949,
      "escaped": 3950,
      "swim": 3951,
      "While": 3952,
      "sensation": 3953,
      "thorough": 3954,
      "connected": 3955,
      "obliged": 3956,
      "smell": 3957,
      "glimp": 3958,
      "grasp": 3959,
      "apartment": 3960,
      "Slovak": 3961,
      "puzzled": 3962,
      "narrative": 3963,
      "kitchen": 3964,
      "impressed": 3965,
      "chimney": 3966,
      "Roylott": 3967,
      "regret": 3968,
      "library": 3969,
      "considered": 3970,
      "Col": 3971,
      "Eu": 3972,
      "Open": 3973,
      "Sat": 3974,
      "Would": 3975,
      "Windi": 3976,
      "XV": 3977,
      "_Letter": 3978,
      "ax": 3979,
      "az": 3980,
      "bree": 3981,
      "egg": 3982,
      "fal": 3983,
      "gment": 3984,
      "ograph": 3985,
      "pall": 3986,
      "psi": 3987,
      "rum": 3988,
      "sses": 3989,
      "snat": 3990,
      "square": 3991,
      "tance": 3992,
      "ub": 3993,
      "va": 3994,
      "wri": 3995,
      "æmon": 3996,
      "renew": 3997,
      "ert": 3998,
      "educ": 3999,
      "toms": 4000,
      "stif": 4001,
      "stag": 4002,
      "separ": 4003,
      "desol": 4004,
      "definite": 4005,
      "idents": 4006,
      "local": 4007,
      "unusual": 4008,
      "uneasy": 4009,
      "whir": 4010,
      "sigh": 4011,
      "sible": 4012,
      "simil": 4013,
      "amiable": 4014,
      "shed": 4015,
      "shel": 4016,
      "gover": 4017,
      "ifix": 4018,
      "cago": 4019,
      "shor": 4020,
      "agent": 4021,
      "excl": 4022,
      "extingu": 4023,
      "presu": 4024,
      "afford": 4025,
      "forever": 4026,
      "illness": 4027,
      "space": 4028,
      "handker": 4029,
      "stock": 4030,
      "prov": 4031,
      "rendered": 4032,
      "gling": 4033,
      "mistake": 4034,
      "grou": 4035,
      "waist": 4036,
      "tells": 4037,
      "remind": 4038,
      "horri": 4039,
      "match": 4040,
      "nerves": 4041,
      "flat": 4042,
      "supposed": 4043,
      "settled": 4044,
      "attended": 4045,
      "jected": 4046,
      "picked": 4047,
      "younger": 4048,
      "prisoner": 4049,
      "ruin": 4050,
      "murmur": 4051,
      "continue": 4052,
      "built": 4053,
      "huge": 4054,
      "madman": 4055,
      "Quite": 4056,
      "staring": 4057,
      "example": 4058,
      "clearly": 4059,
      "fields": 4060,
      "elev": 4061,
      "throwing": 4062,
      "fury": 4063,
      "fasc": 4064,
      "reflected": 4065,
      "slipped": 4066,
      "profound": 4067,
      "deserted": 4068,
      "quality": 4069,
      "couch": 4070,
      "pieces": 4071,
      "telephone": 4072,
      "detail": 4073,
      "respond": 4074,
      "thumb": 4075,
      "employed": 4076,
      "practice": 4077,
      "terribly": 4078,
      "operation": 4079,
      "offered": 4080,
      "ignorant": 4081,
      "intense": 4082,
      "energy": 4083,
      "copy": 4084,
      "jesty": 4085,
      "Friend": 4086,
      "basket": 4087,
      "advantage": 4088,
      "scenes": 4089,
      "drunk": 4090,
      "fairies": 4091,
      "explanation": 4092,
      "Chicago": 4093,
      "Windibank": 4094,
      "handkerchief": 4095,
      "17": 4096,
      "AN": 4097,
      "French": 4098,
      "Man": 4099,
      "Mur": 4100,
      "Nev": 4101,
      "Out": 4102,
      "Pass": 4103,
      "RK": 4104,
      "Wa": 4105,
      "bark": 4106,
      "bits": 4107,
      "coffe": 4108,
      "drow": 4109,
      "darling": 4110,
      "dining": 4111,
      "dæmon": 4112,
      "gun": 4113,
      "ium": 4114,
      "kn": 4115,
      "list": 4116,
      "lvan": 4117,
      "phe": 4118,
      "pis": 4119,
      "sn": 4120,
      "twelve": 4121,
      "uous": 4122,
      "height": 4123,
      "intim": 4124,
      "thrust": 4125,
      "tori": 4126,
      "asing": 4127,
      "associ": 4128,
      "issu": 4129,
      "ency": 4130,
      "member": 4131,
      "artic": 4132,
      "iter": 4133,
      "stup": 4134,
      "haun": 4135,
      "lect": 4136,
      "hid": 4137,
      "chan": 4138,
      "chat": 4139,
      "forbid": 4140,
      "lici": 4141,
      "liber": 4142,
      "ads": 4143,
      "unch": 4144,
      "acle": 4145,
      "mood": 4146,
      "absor": 4147,
      "romantic": 4148,
      "oked": 4149,
      "hated": 4150,
      "raising": 4151,
      "ette": 4152,
      "folk": 4153,
      "trous": 4154,
      "ilator": 4155,
      "prepar": 4156,
      "boots": 4157,
      "overhead": 4158,
      "liter": 4159,
      "stories": 4160,
      "prospect": 4161,
      "mbers": 4162,
      "render": 4163,
      "cloak": 4164,
      "mistaken": 4165,
      "trembled": 4166,
      "goodness": 4167,
      "chill": 4168,
      "beds": 4169,
      "torted": 4170,
      "creator": 4171,
      "isely": 4172,
      "minds": 4173,
      "tiny": 4174,
      "trap": 4175,
      "Arab": 4176,
      "curtain": 4177,
      "Stoner": 4178,
      "kennel": 4179,
      "tribut": 4180,
      "skin": 4181,
      "value": 4182,
      "buried": 4183,
      "sylvan": 4184,
      "chosen": 4185,
      "strongly": 4186,
      "metal": 4187,
      "reasoning": 4188,
      "examining": 4189,
      "incred": 4190,
      "journal": 4191,
      "crowded": 4192,
      "satisfac": 4193,
      "duties": 4194,
      "fainted": 4195,
      "yards": 4196,
      "France": 4197,
      "porch": 4198,
      "mysterious": 4199,
      "results": 4200,
      "golden": 4201,
      "adventures": 4202,
      "consult": 4203,
      "accep": 4204,
      "complain": 4205,
      "cigar": 4206,
      "contrary": 4207,
      "keenly": 4208,
      "travelled": 4209,
      "frame": 4210,
      "hypnot": 4211,
      "branches": 4212,
      "Those": 4213,
      "cruel": 4214,
      "shriek": 4215,
      "philosophy": 4216,
      "physical": 4217,
      "control": 4218,
      "cellar": 4219,
      "freedom": 4220,
      "Hunter": 4221,
      "voyage": 4222,
      "inquiry": 4223,
      "absence": 4224,
      "crucifix": 4225,
      "glimpse": 4226,
      "Europe": 4227,
      "psies": 4228,
      "coffee": 4229,
      "19": 4230,
      "AT": 4231,
      "Bistr": 4232,
      "City": 4233,
      "Cap": 4234,
      "Fir": 4235,
      "Gal": 4236,
      "Hather": 4237,
      "Holder": 4238,
      "Long": 4239,
      "Me": 4240,
      "Mer": 4241,
      "Mother": 4242,
      "cow": 4243,
      "cord": 4244,
      "date": 4245,
      "dull": 4246,
      "dashed": 4247,
      "equ": 4248,
      "echo": 4249,
      "fare": 4250,
      "flight": 4251,
      "frow": 4252,
      "gust": 4253,
      "gers": 4254,
      "hone": 4255,
      "lum": 4256,
      "lane": 4257,
      "mult": 4258,
      "named": 4259,
      "omy": 4260,
      "poured": 4261,
      "push": 4262,
      "tro": 4263,
      "waking": 4264,
      "wrist": 4265,
      "xi": 4266,
      "hel": 4267,
      "rese": 4268,
      "resolute": 4269,
      "receive": 4270,
      "assion": 4271,
      "meal": 4272,
      "iture": 4273,
      "lease": 4274,
      "seated": 4275,
      "bewild": 4276,
      "betray": 4277,
      "waste": 4278,
      "rob": 4279,
      "deci": 4280,
      "utmost": 4281,
      "alas": 4282,
      "lig": 4283,
      "lier": 4284,
      "tible": 4285,
      "coast": 4286,
      "union": 4287,
      "sacred": 4288,
      "hole": 4289,
      "fee": 4290,
      "active": 4291,
      "button": 4292,
      "size": 4293,
      "silly": 4294,
      "thern": 4295,
      "aband": 4296,
      "ability": 4297,
      "pelled": 4298,
      "quis": 4299,
      "ulous": 4300,
      "worst": 4301,
      "share": 4302,
      "blessed": 4303,
      "spend": 4304,
      "scri": 4305,
      "stole": 4306,
      "plank": 4307,
      "rence": 4308,
      "miser": 4309,
      "restless": 4310,
      "brandy": 4311,
      "eternal": 4312,
      "waved": 4313,
      "compre": 4314,
      "smiles": 4315,
      "Indi": 4316,
      "heads": 4317,
      "imper": 4318,
      "implo": 4319,
      "chapel": 4320,
      "Hotel": 4321,
      "guide": 4322,
      "instance": 4323,
      "dragged": 4324,
      "careless": 4325,
      "walks": 4326,
      "rule": 4327,
      "rude": 4328,
      "centuries": 4329,
      "crimes": 4330,
      "choose": 4331,
      "grounds": 4332,
      "Something": 4333,
      "destiny": 4334,
      "madness": 4335,
      "reasons": 4336,
      "descended": 4337,
      "besides": 4338,
      "sively": 4339,
      "shutters": 4340,
      "eague": 4341,
      "motioned": 4342,
      "bringing": 4343,
      "delighted": 4344,
      "pursuit": 4345,
      "sharply": 4346,
      "completely": 4347,
      "warmth": 4348,
      "comfortable": 4349,
      "desert": 4350,
      "McK": 4351,
      "decis": 4352,
      "successful": 4353,
      "Whilst": 4354,
      "superior": 4355,
      "employ": 4356,
      "restore": 4357,
      "America": 4358,
      "exerc": 4359,
      "practical": 4360,
      "bottom": 4361,
      "property": 4362,
      "hideous": 4363,
      "succeeded": 4364,
      "tongue": 4365,
      "disappointment": 4366,
      "enthusiasm": 4367,
      "Majesty": 4368,
      "sinister": 4369,
      "gradually": 4370,
      "Scotland": 4371,
      "breeze": 4372,
      "similar": 4373,
      "Neville": 4374,
      "licitor": 4375,
      "sylvania": 4376,
      "First": 4377,
      "Galatz": 4378,
      "Hatherley": 4379,
      "AL": 4380,
      "Cz": 4381,
      "DR": 4382,
      "Dear": 4383,
      "HO": 4384,
      "IV": 4385,
      "LE": 4386,
      "Tran": 4387,
      "Win": 4388,
      "_Cz": 4389,
      "bill": 4390,
      "bond": 4391,
      "bones": 4392,
      "cing": 4393,
      "dar": 4394,
      "dance": 4395,
      "fitted": 4396,
      "frank": 4397,
      "ians": 4398,
      "lin": 4399,
      "luck": 4400,
      "mwood": 4401,
      "sco": 4402,
      "sane": 4403,
      "swall": 4404,
      "tes": 4405,
      "uk": 4406,
      "vital": 4407,
      "—“": 4408,
      "heap": 4409,
      "informed": 4410,
      "reput": 4411,
      "recent": 4412,
      "recei": 4413,
      "aster": 4414,
      "ises": 4415,
      "arina": 4416,
      "llen": 4417,
      "sty": 4418,
      "level": 4419,
      "sell": 4420,
      "becoming": 4421,
      "vember": 4422,
      "hidden": 4423,
      "hiding": 4424,
      "cease": 4425,
      "chant": 4426,
      "def": 4427,
      "dete": 4428,
      "depri": 4429,
      "deeper": 4430,
      "entreat": 4431,
      "vering": 4432,
      "owing": 4433,
      "loves": 4434,
      "adt": 4435,
      "hosp": 4436,
      "hotel": 4437,
      "geese": 4438,
      "ounce": 4439,
      "managed": 4440,
      "caution": 4441,
      "shr": 4442,
      "exe": 4443,
      "exhi": 4444,
      "ulate": 4445,
      "trance": 4446,
      "bosom": 4447,
      "shame": 4448,
      "inkled": 4449,
      "scand": 4450,
      "scattered": 4451,
      "proportion": 4452,
      "useless": 4453,
      "Any": 4454,
      "plun": 4455,
      "mured": 4456,
      "closer": 4457,
      "gets": 4458,
      "misfortunes": 4459,
      "clad": 4460,
      "clung": 4461,
      "angle": 4462,
      "Holmwood": 4463,
      "estate": 4464,
      "November": 4465,
      "armchair": 4466,
      "fling": 4467,
      "shoes": 4468,
      "solved": 4469,
      "mercy": 4470,
      "guilt": 4471,
      "corrid": 4472,
      "jection": 4473,
      ".’”": 4474,
      "helped": 4475,
      "parties": 4476,
      "drawer": 4477,
      "mothers": 4478,
      "possibility": 4479,
      "refused": 4480,
      "autumn": 4481,
      "shows": 4482,
      "understanding": 4483,
      "fairly": 4484,
      "writer": 4485,
      "syste": 4486,
      "whistle": 4487,
      "Without": 4488,
      "fortunately": 4489,
      "descend": 4490,
      "pense": 4491,
      "wreath": 4492,
      "questioning": 4493,
      "ctors": 4494,
      "orders": 4495,
      "inctively": 4496,
      "truly": 4497,
      "Island": 4498,
      "knee": 4499,
      "HARK": 4500,
      "climb": 4501,
      "cliff": 4502,
      "Road": 4503,
      "brill": 4504,
      "smoo": 4505,
      "iece": 4506,
      "bitterly": 4507,
      "thanks": 4508,
      "probable": 4509,
      "objects": 4510,
      "custom": 4511,
      "pockets": 4512,
      "weakness": 4513,
      "touching": 4514,
      "welcome": 4515,
      "pressing": 4516,
      "Which": 4517,
      "Mont": 4518,
      "suspicious": 4519,
      "rapid": 4520,
      "earnestly": 4521,
      "depend": 4522,
      "Exeter": 4523,
      "credit": 4524,
      "bottle": 4525,
      "assistant": 4526,
      "ignorance": 4527,
      "borne": 4528,
      "measure": 4529,
      "emerged": 4530,
      "furniture": 4531,
      "conveyed": 4532,
      "Catherine_": 4533,
      "professional": 4534,
      "required": 4535,
      "Black": 4536,
      "solitude": 4537,
      "swiftly": 4538,
      "asylum": 4539,
      "charming": 4540,
      "guilty": 4541,
      "enormous": 4542,
      "desolate": 4543,
      "_Czarina": 4544,
      "HARKER": 4545,
      "Ano": 4546,
      "Bet": 4547,
      "Bill": 4548,
      "Dun": 4549,
      "Fin": 4550,
      "Father": 4551,
      "Irene": 4552,
      "Listen": 4553,
      "Men": 4554,
      "More": 4555,
      "Read": 4556,
      "Ser": 4557,
      "Shall": 4558,
      "Square": 4559,
      "Wal": 4560,
      "_Mina": 4561,
      "bir": 4562,
      "ctive": 4563,
      "dy": 4564,
      "gic": 4565,
      "hing": 4566,
      "mill": 4567,
      "pound": 4568,
      "pink": 4569,
      "rout": 4570,
      "sne": 4571,
      "swing": 4572,
      "tur": 4573,
      "uff": 4574,
      "”—": 4575,
      "hest": 4576,
      "hero": 4577,
      "theory": 4578,
      "anno": 4579,
      "thou": 4580,
      "tore": 4581,
      "tomorrow": 4582,
      "asha": 4583,
      "arched": 4584,
      "leth": 4585,
      "vement": 4586,
      "wearing": 4587,
      "cean": 4588,
      "forts": 4589,
      "forces": 4590,
      "tial": 4591,
      "adding": 4592,
      "terms": 4593,
      "sacri": 4594,
      "urday": 4595,
      "accompan": 4596,
      "accompl": 4597,
      "sill": 4598,
      "ament": 4599,
      "golst": 4600,
      "hatred": 4601,
      "confined": 4602,
      "express": 4603,
      "somebody": 4604,
      "laps": 4605,
      "prep": 4606,
      "forest": 4607,
      "shade": 4608,
      "scorn": 4609,
      "store": 4610,
      "eyed": 4611,
      "assed": 4612,
      "glor": 4613,
      "moral": 4614,
      "treas": 4615,
      "spell": 4616,
      "everyone": 4617,
      "blan": 4618,
      "tort": 4619,
      "Ingolst": 4620,
      "senti": 4621,
      "obst": 4622,
      "horiz": 4623,
      "intended": 4624,
      "counter": 4625,
      "landed": 4626,
      "sunlight": 4627,
      "takes": 4628,
      "hearing": 4629,
      "corp": 4630,
      "blot": 4631,
      "laying": 4632,
      "farther": 4633,
      "draught": 4634,
      "...": 4635,
      "purchase": 4636,
      "itions": 4637,
      "reported": 4638,
      "residence": 4639,
      "drops": 4640,
      "phon": 4641,
      "interview": 4642,
      "runs": 4643,
      "realiz": 4644,
      "stronger": 4645,
      "floating": 4646,
      "cution": 4647,
      "pictures": 4648,
      "trusted": 4649,
      "straw": 4650,
      "pulling": 4651,
      "affected": 4652,
      "seconds": 4653,
      "claw": 4654,
      "villain": 4655,
      "description": 4656,
      "thanked": 4657,
      "qualities": 4658,
      "screamed": 4659,
      "witness": 4660,
      "firmly": 4661,
      "burned": 4662,
      "inquiries": 4663,
      "calmly": 4664,
      "magistr": 4665,
      "studies": 4666,
      "Monday": 4667,
      "legs": 4668,
      "sternly": 4669,
      "ecst": 4670,
      "malign": 4671,
      "cigaret": 4672,
      "exertion": 4673,
      "concealed": 4674,
      "inclined": 4675,
      "conclusions": 4676,
      "particularly": 4677,
      "Christ": 4678,
      "hypnotic": 4679,
      "lux": 4680,
      "reflections": 4681,
      "higher": 4682,
      "highest": 4683,
      "rugged": 4684,
      "explo": 4685,
      "tranquill": 4686,
      "lamps": 4687,
      "nesses": 4688,
      "frequently": 4689,
      "investigation": 4690,
      "impulse": 4691,
      "exhausted": 4692,
      "bodies": 4693,
      "poison": 4694,
      "spiders": 4695,
      "desperate": 4696,
      "dignity": 4697,
      "sympathis": 4698,
      "Openshaw": 4699,
      "Saturday": 4700,
      "false": 4701,
      "group": 4702,
      "Murray": 4703,
      "pistol": 4704,
      "trousers": 4705,
      "decide": 4706,
      "McKee": 4707,
      "scandal": 4708,
      "Another": 4709,
      "ashamed": 4710,
      "lapsed": 4711,
      "Ingolstadt": 4712,
      "horizon": 4713,
      "AD": 4714,
      "Brad": 4715,
      "Cody": 4716,
      "Cross": 4717,
      "Hull": 4718,
      "Pa": 4719,
      "Park": 4720,
      "South": 4721,
      "aunt": 4722,
      "bund": 4723,
      "born": 4724,
      "bridge": 4725,
      "dir": 4726,
      "een": 4727,
      "ip": 4728,
      "ike": 4729,
      "ius": 4730,
      "kick": 4731,
      "link": 4732,
      "lance": 4733,
      "mou": 4734,
      "mic": 4735,
      "mies": 4736,
      "ns": 4737,
      "nay": 4738,
      "owe": 4739,
      "obed": 4740,
      "pher": 4741,
      "pice": 4742,
      "rare": 4743,
      "s_": 4744,
      "scom": 4745,
      "tones": 4746,
      "vampire": 4747,
      "wink": 4748,
      "hemi": 4749,
      "aste": 4750,
      "ascertain": 4751,
      "itated": 4752,
      "leather": 4753,
      "beach": 4754,
      "weep": 4755,
      "wealth": 4756,
      "chor": 4757,
      "solicitor": 4758,
      "alarmed": 4759,
      "entry": 4760,
      "lim": 4761,
      "liest": 4762,
      "limit": 4763,
      "tire": 4764,
      "uncertain": 4765,
      "hovel": 4766,
      "hoarse": 4767,
      "Heaven": 4768,
      "rail": 4769,
      "teach": 4770,
      "endless": 4771,
      "conven": 4772,
      "cks": 4773,
      "cken": 4774,
      "etr": 4775,
      "whence": 4776,
      "ational": 4777,
      "afer": 4778,
      "foreign": 4779,
      "shake": 4780,
      "----”": 4781,
      "spare": 4782,
      "spite": 4783,
      "composed": 4784,
      "commission": 4785,
      "plent": 4786,
      "tails": 4787,
      "singing": 4788,
      "lesson": 4789,
      "brute": 4790,
      "crew": 4791,
      "created": 4792,
      "sentence": 4793,
      "nerve": 4794,
      "sleeps": 4795,
      "flag": 4796,
      "Soon": 4797,
      "intently": 4798,
      "champ": 4799,
      "solution": 4800,
      "professor": 4801,
      "corners": 4802,
      "correspond": 4803,
      "avail": 4804,
      "sweep": 4805,
      "Toller": 4806,
      "drifted": 4807,
      "repul": 4808,
      "senses": 4809,
      "steel": 4810,
      "rememb": 4811,
      "enemies": 4812,
      "ventilator": 4813,
      "refre": 4814,
      "refer": 4815,
      "awfully": 4816,
      "signal": 4817,
      "murmured": 4818,
      "phr": 4819,
      "closely": 4820,
      "sweetly": 4821,
      "mile": 4822,
      "pretend": 4823,
      "examine": 4824,
      "summon": 4825,
      "horrors": 4826,
      "elect": 4827,
      "satisfy": 4828,
      "ancies": 4829,
      "faintly": 4830,
      "atory": 4831,
      "effects": 4832,
      "searching": 4833,
      "occupation": 4834,
      "Boscom": 4835,
      "Bohemi": 4836,
      "hunger": 4837,
      "attempted": 4838,
      "immediate": 4839,
      "wounds": 4840,
      "studied": 4841,
      "instructions": 4842,
      "beaten": 4843,
      "guessed": 4844,
      "craw": 4845,
      "degrees": 4846,
      "shuddered": 4847,
      "knocked": 4848,
      "acquaintance": 4849,
      "000": 4850,
      "plainly": 4851,
      "injured": 4852,
      "muttered": 4853,
      "twins": 4854,
      "persuade": 4855,
      "gratitude": 4856,
      "delicate": 4857,
      "tremble": 4858,
      "attracted": 4859,
      "bestow": 4860,
      "sinking": 4861,
      "constant": 4862,
      "splend": 4863,
      "endeavouring": 4864,
      "soothing": 4865,
      "wrapped": 4866,
      "recollection": 4867,
      "divine": 4868,
      "shirt": 4869,
      "doubtedly": 4870,
      "Adler": 4871,
      "modern": 4872,
      "benevolent": 4873,
      "baby": 4874,
      "magnific": 4875,
      "Colonel": 4876,
      "waistcoat": 4877,
      "Arabian": 4878,
      "Captain": 4879,
      "Transylvania": 4880,
      "corridor": 4881,
      "birth": 4882,
      "accompanied": 4883,
      "corpse": 4884,
      "phonograph": 4885,
      "magistrate": 4886,
      "Christmas": 4887,
      "Boscombe": 4888,
      "12": 4889,
      "Bar": 4890,
      "Brit": 4891,
      "Could": 4892,
      "Cour": 4893,
      "Castle": 4894,
      "Cec": 4895,
      "Des": 4896,
      "ED": 4897,
      "Ed": 4898,
      "Er": 4899,
      "Fortun": 4900,
      "Gre": 4901,
      "Get": 4902,
      "JO": 4903,
      "Most": 4904,
      "OF": 4905,
      "Please": 4906,
      "Rob": 4907,
      "Su": 4908,
      "Sever": 4909,
      "Surely": 4910,
      "Vampire": 4911,
      "WAR": 4912,
      "ah": 4913,
      "aly": 4914,
      "bay": 4915,
      "bull": 4916,
      "base": 4917,
      "dic": 4918,
      "dried": 4919,
      "fish": 4920,
      "faded": 4921,
      "fishing": 4922,
      "gs": 4923,
      "gany": 4924,
      "gig": 4925,
      "ju": 4926,
      "lust": 4927,
      "ocean": 4928,
      "pul": 4929,
      "slo": 4930,
      "sledge": 4931,
      "tut": 4932,
      "tue": 4933,
      "tum": 4934,
      "twis": 4935,
      "uable": 4936,
      "zer": 4937,
      "zes": 4938,
      "reck": 4939,
      "recall": 4940,
      "ata": 4941,
      "edges": 4942,
      "istic": 4943,
      "ittle": 4944,
      "stout": 4945,
      "stare": 4946,
      "hag": 4947,
      "haven": 4948,
      "habits": 4949,
      "seas": 4950,
      "secur": 4951,
      "beard": 4952,
      "veil": 4953,
      "ceiling": 4954,
      "ldom": 4955,
      "demon": 4956,
      "aling": 4957,
      "aloud": 4958,
      "rious": 4959,
      "loa": 4960,
      "tiv": 4961,
      "ading": 4962,
      "unexpected": 4963,
      "ache": 4964,
      "achi": 4965,
      "acity": 4966,
      "accent": 4967,
      "acket": 4968,
      "whither": 4969,
      "upper": 4970,
      "negle": 4971,
      "absent": 4972,
      "amuse": 4973,
      "ambit": 4974,
      "peep": 4975,
      "posing": 4976,
      "poses": 4977,
      "sul": 4978,
      "mankind": 4979,
      "ardour": 4980,
      "endous": 4981,
      "conceived": 4982,
      "contained": 4983,
      "concentr": 4984,
      "indul": 4985,
      "ifully": 4986,
      "cared": 4987,
      "exped": 4988,
      "trad": 4989,
      "Its": 4990,
      "perpet": 4991,
      "mage": 4992,
      "prey": 4993,
      "veness": 4994,
      "bold": 4995,
      "boats": 4996,
      "worthy": 4997,
      "woe": 4998,
      "affect": 4999,
      "discre": 5000,
      "disease": 5001,
      "distress": 5002,
      "ables": 5003,
      "fix": 5004,
      "eling": 5005,
      "elbow": 5006,
      "oppres": 5007,
      "hastily": 5008,
      "scent": 5009,
      "lighted": 5010,
      "rowing": 5011,
      "comfor": 5012,
      "page": 5013,
      "asser": 5014,
      "message": 5015,
      "fulfil": 5016,
      "mistress": 5017,
      "household": 5018,
      "angled": 5019,
      "winds": 5020,
      "winding": 5021,
      "grin": 5022,
      "undertaking": 5023,
      "blown": 5024,
      "compli": 5025,
      "compassion": 5026,
      "crept": 5027,
      "efforts": 5028,
      "chester": 5029,
      "uding": 5030,
      "cars": 5031,
      "flushed": 5032,
      "shocked": 5033,
      "vial": 5034,
      "parts": 5035,
      "setting": 5036,
      "wondered": 5037,
      "trade": 5038,
      "traged": 5039,
      "silently": 5040,
      "pick": 5041,
      "sounded": 5042,
      "Sea": 5043,
      "sensit": 5044,
      "certainty": 5045,
      "gaiety": 5046,
      "deduce": 5047,
      "keeps": 5048,
      "exception": 5049,
      "apply": 5050,
      "resis": 5051,
      "prise": 5052,
      "rub": 5053,
      "ucked": 5054,
      "valuable": 5055,
      "sorts": 5056,
      "daily": 5057,
      "sweetness": 5058,
      "accused": 5059,
      "mixed": 5060,
      "madam": 5061,
      "colonel": 5062,
      "aboard": 5063,
      "servation": 5064,
      "imagined": 5065,
      "auto": 5066,
      "remaining": 5067,
      "eyebrows": 5068,
      "eleven": 5069,
      "volu": 5070,
      "gleam": 5071,
      "attendants": 5072,
      "banks": 5073,
      "queer": 5074,
      "passions": 5075,
      "eagerness": 5076,
      "thousands": 5077,
      "assumed": 5078,
      "bbery": 5079,
      "stuff": 5080,
      "laws": 5081,
      "superst": 5082,
      "folded": 5083,
      "faithful": 5084,
      "typewriter": 5085,
      "wretchedness": 5086,
      "Remember": 5087,
      "sailors": 5088,
      "sufferings": 5089,
      "crossing": 5090,
      "invited": 5091,
      "virtue": 5092,
      "scared": 5093,
      "convey": 5094,
      "recognised": 5095,
      "Marg": 5096,
      "distinctly": 5097,
      "groaned": 5098,
      "URN": 5099,
      "precipice": 5100,
      "distinguish": 5101,
      "mourn": 5102,
      "relieved": 5103,
      "weapon": 5104,
      "pillow": 5105,
      "fantastic": 5106,
      "positively": 5107,
      "consequence": 5108,
      "thoroughly": 5109,
      "Slovaks": 5110,
      "shelter": 5111,
      "provided": 5112,
      "fascin": 5113,
      "accepted": 5114,
      "bewildered": 5115,
      "exhibit": 5116,
      "tranquillity": 5117,
      "Hullo": 5118,
      "remembrance": 5119,
      "Ernest": 5120,
      "gigantic": 5121,
      ".)": 5122,
      "Kir": 5123,
      "Lily": 5124,
      "League": 5125,
      "Prec": 5126,
      "Red": 5127,
      "ST": 5128,
      "Sz": 5129,
      "Sup": 5130,
      "Tig": 5131,
      "UN": 5132,
      "Won": 5133,
      "bending": 5134,
      "dus": 5135,
      "dang": 5136,
      "ect": 5137,
      "groom": 5138,
      "ks": 5139,
      "lined": 5140,
      "mus": 5141,
      "non": 5142,
      "oak": 5143,
      "pure": 5144,
      "ral": 5145,
      "rings": 5146,
      "ratt": 5147,
      "shat": 5148,
      "squ": 5149,
      "sper": 5150,
      "sque": 5151,
      "heel": 5152,
      "thetic": 5153,
      "anity": 5154,
      "remo": 5155,
      "repro": 5156,
      "repose": 5157,
      "reaction": 5158,
      "eding": 5159,
      "tot": 5160,
      "tossed": 5161,
      "mest": 5162,
      "arr": 5163,
      "arose": 5164,
      "iting": 5165,
      "itable": 5166,
      "leaf": 5167,
      "seldom": 5168,
      "hill": 5169,
      "develo": 5170,
      "solid": 5171,
      "lime": 5172,
      "iding": 5173,
      "loo": 5174,
      "tick": 5175,
      "admit": 5176,
      "unlike": 5177,
      "undoubtedly": 5178,
      "sails": 5179,
      "holy": 5180,
      "acting": 5181,
      "actor": 5182,
      "acles": 5183,
      "mock": 5184,
      "geon": 5185,
      "gems": 5186,
      "whip": 5187,
      "sig": 5188,
      "sip": 5189,
      "neat": 5190,
      "abor": 5191,
      "abrup": 5192,
      "whenever": 5193,
      "pear": 5194,
      "pole": 5195,
      "mante": 5196,
      "contain": 5197,
      "ics": 5198,
      "map": 5199,
      "male": 5200,
      "Were": 5201,
      "bles": 5202,
      "disgust": 5203,
      "medical": 5204,
      "fide": 5205,
      "mbre": 5206,
      "earn": 5207,
      "appre": 5208,
      "backward": 5209,
      "plac": 5210,
      "taught": 5211,
      "mischief": 5212,
      "risen": 5213,
      "friendship": 5214,
      "offer": 5215,
      "blank": 5216,
      "hyster": 5217,
      "flash": 5218,
      "incess": 5219,
      "partly": 5220,
      "ships": 5221,
      "settle": 5222,
      "sterdam": 5223,
      "pron": 5224,
      "instinctively": 5225,
      "coroner": 5226,
      "surmis": 5227,
      "attent": 5228,
      "curse": 5229,
      "Jones": 5230,
      "gazing": 5231,
      "steam": 5232,
      "resist": 5233,
      "rubbed": 5234,
      "venture": 5235,
      "trial": 5236,
      "signific": 5237,
      "Does": 5238,
      "falls": 5239,
      "engine": 5240,
      "engage": 5241,
      "confident": 5242,
      "confusion": 5243,
      "realise": 5244,
      "grip": 5245,
      "gentlemen": 5246,
      "mild": 5247,
      "column": 5248,
      "powerful": 5249,
      "Quick": 5250,
      "dreaded": 5251,
      "fourth": 5252,
      "Moran": 5253,
      "wreck": 5254,
      "suffering": 5255,
      "suspect": 5256,
      "warn": 5257,
      "becomes": 5258,
      "versity": 5259,
      "Under": 5260,
      "knelt": 5261,
      "Ross": 5262,
      "gloomy": 5263,
      "actions": 5264,
      "brains": 5265,
      "cheerfully": 5266,
      "conceive": 5267,
      "banker": 5268,
      "reluct": 5269,
      "determination": 5270,
      "memories": 5271,
      "enterprise": 5272,
      "occupations": 5273,
      "hurriedly": 5274,
      "changing": 5275,
      "screw": 5276,
      "occasionally": 5277,
      "protectors": 5278,
      "wander": 5279,
      "consciousness": 5280,
      "suspicions": 5281,
      "crazy": 5282,
      "struggled": 5283,
      "gasped": 5284,
      "rays": 5285,
      "twilight": 5286,
      "hellish": 5287,
      "delayed": 5288,
      "contrast": 5289,
      "contempl": 5290,
      "loudly": 5291,
      "confessed": 5292,
      "embarr": 5293,
      "humour": 5294,
      "assistance": 5295,
      "emotions": 5296,
      "intensity": 5297,
      "individ": 5298,
      "hasten": 5299,
      "hastened": 5300,
      "introduced": 5301,
      "branch": 5302,
      "bestowed": 5303,
      "Paris": 5304,
      "solitary": 5305,
      "distinguished": 5306,
      "Amsterdam": 5307,
      "Horner": 5308,
      "weapons": 5309,
      "impatiently": 5310,
      "apology": 5311,
      "snapped": 5312,
      "abhorred": 5313,
      "intellect": 5314,
      "rejoiced": 5315,
      "ghostly": 5316,
      "newspaper": 5317,
      "exceedingly": 5318,
      "instruments": 5319,
      "roused": 5320,
      "politely": 5321,
      "SEWAR": 5322,
      "ancient": 5323,
      "intimate": 5324,
      "shrieked": 5325,
      "coward": 5326,
      "equally": 5327,
      "honest": 5328,
      "abandoned": 5329,
      "quisite": 5330,
      "comprehen": 5331,
      "exercise": 5332,
      "Winchester": 5333,
      "deprived": 5334,
      "brilliant": 5335,
      "Finally": 5336,
      "prepare": 5337,
      "bundle": 5338,
      "magnificent": 5339,
      "Court": 5340,
      "Fortunately": 5341,
      "Several": 5342,
      "tumult": 5343,
      "tragedy": 5344,
      "Margaret": 5345,
      "Kirwin": 5346,
      "Precisely": 5347,
      "Szgany": 5348,
      "Tiger": 5349,
      "shattered": 5350,
      "SEWARD": 5351,
      "),": 5352,
      "10": 5353,
      "11": 5354,
      "15": 5355,
      "Alice": 5356,
      "Bor": 5357,
      "CO": 5358,
      "DI": 5359,
      "Dor": 5360,
      "Fo": 5361,
      "Flor": 5362,
      "Him": 5363,
      "Jay": 5364,
      "Lou": 5365,
      "Las": 5366,
      "MIN": 5367,
      "Night": 5368,
      "Nature": 5369,
      "Next": 5370,
      "Ry": 5371,
      "Rus": 5372,
      "Sound": 5373,
      "Swit": 5374,
      "Skins": 5375,
      "Tele": 5376,
      "Up": 5377,
      "_3": 5378,
      "ahead": 5379,
      "bure": 5380,
      "baf": 5381,
      "brisk": 5382,
      "elapsed": 5383,
      "fis": 5384,
      "fran": 5385,
      "frock": 5386,
      "gor": 5387,
      "hint": 5388,
      "hunt": 5389,
      "obey": 5390,
      "pent": 5391,
      "rud": 5392,
      "raced": 5393,
      "swo": 5394,
      "swore": 5395,
      "scep": 5396,
      "tit": 5397,
      "tid": 5398,
      "taste": 5399,
      "uge": 5400,
      "vil": 5401,
      "waked": 5402,
      "zard": 5403,
      "inquest": 5404,
      "ress": 5405,
      "remove": 5406,
      "recover": 5407,
      "ths": 5408,
      "thand": 5409,
      "err": 5410,
      "tobac": 5411,
      "aspect": 5412,
      "arrested": 5413,
      "lla": 5414,
      "itate": 5415,
      "strolled": 5416,
      "sey": 5417,
      "behold": 5418,
      "roar": 5419,
      "cerem": 5420,
      "wid": 5421,
      "deb": 5422,
      "sovere": 5423,
      "ential": 5424,
      "entrance": 5425,
      "alling": 5426,
      "loy": 5427,
      "ady": 5428,
      "unlocked": 5429,
      "unpleasant": 5430,
      "sailed": 5431,
      "moan": 5432,
      "gered": 5433,
      "sian": 5434,
      "uptuous": 5435,
      "net": 5436,
      "abroad": 5437,
      "peak": 5438,
      "odge": 5439,
      "odour": 5440,
      "tem": 5441,
      "confir": 5442,
      "condem": 5443,
      "agitated": 5444,
      "exult": 5445,
      "exquisite": 5446,
      "etc": 5447,
      "ulated": 5448,
      "perform": 5449,
      "perceive": 5450,
      "permission": 5451,
      "fault": 5452,
      "preserve": 5453,
      "spared": 5454,
      "spired": 5455,
      "disgu": 5456,
      "handsome": 5457,
      "daylight": 5458,
      "oping": 5459,
      "opium": 5460,
      "mblance": 5461,
      "earlier": 5462,
      "ryweather": 5463,
      "fulness": 5464,
      "ively": 5465,
      "cling": 5466,
      "clay": 5467,
      "brushed": 5468,
      "everybody": 5469,
      "begins": 5470,
      "torment": 5471,
      "create": 5472,
      "creaking": 5473,
      "obtain": 5474,
      "observation": 5475,
      "denied": 5476,
      "courte": 5477,
      "ums": 5478,
      "passeng": 5479,
      "hearty": 5480,
      "lieve": 5481,
      "causes": 5482,
      "wanting": 5483,
      "chains": 5484,
      "brood": 5485,
      "mermaids": 5486,
      "heartless": 5487,
      "attached": 5488,
      "silk": 5489,
      "pile": 5490,
      "soundly": 5491,
      "sooner": 5492,
      "diff": 5493,
      "lication": 5494,
      "vision": 5495,
      "century": 5496,
      "awakened": 5497,
      "wondering": 5498,
      "interval": 5499,
      "calcul": 5500,
      "realised": 5501,
      "xton": 5502,
      "fellows": 5503,
      "masses": 5504,
      "massive": 5505,
      "elder": 5506,
      "patience": 5507,
      "roads": 5508,
      "genial": 5509,
      "pretended": 5510,
      "gladness": 5511,
      "summit": 5512,
      "Through": 5513,
      "Three": 5514,
      "Yours": 5515,
      "suspense": 5516,
      "burgh": 5517,
      "mounted": 5518,
      "completed": 5519,
      "incidents": 5520,
      "snowy": 5521,
      "secrets": 5522,
      "collar": 5523,
      "Already": 5524,
      "volunt": 5525,
      "voluptuous": 5526,
      "rocks": 5527,
      "conception": 5528,
      "footsteps": 5529,
      "related": 5530,
      "ville": 5531,
      "conscience": 5532,
      "atively": 5533,
      "expressive": 5534,
      "mirror": 5535,
      "favourable": 5536,
      "eaten": 5537,
      "sorrowful": 5538,
      "coupe": 5539,
      "flames": 5540,
      "blinds": 5541,
      "circumstance": 5542,
      "lens": 5543,
      "hammer": 5544,
      "astonishing": 5545,
      "ARY": 5546,
      "contempt": 5547,
      "extremely": 5548,
      "delivered": 5549,
      "foolish": 5550,
      "grasped": 5551,
      "hurrying": 5552,
      "threatened": 5553,
      "accordingly": 5554,
      "inhabited": 5555,
      "inhabitants": 5556,
      "species": 5557,
      "improved": 5558,
      "logical": 5559,
      "larger": 5560,
      "relieve": 5561,
      "wickedness": 5562,
      "intellig": 5563,
      "announced": 5564,
      "dwelling": 5565,
      "hunting": 5566,
      "original": 5567,
      "swung": 5568,
      "fatigue": 5569,
      "pallor": 5570,
      "stiff": 5571,
      "staggered": 5572,
      "govern": 5573,
      "shorthand": 5574,
      "exclam": 5575,
      "presume": 5576,
      "reminded": 5577,
      "curtains": 5578,
      "satisfaction": 5579,
      "hypnotise": 5580,
      "Bistritz": 5581,
      "Merryweather": 5582,
      "darted": 5583,
      "hospital": 5584,
      "shrink": 5585,
      "lethar": 5586,
      "treasure": 5587,
      "Bradstreet": 5588,
      "dirty": 5589,
      "phrase": 5590,
      "Cecco": 5591,
      "Green": 5592,
      "JOURN": 5593,
      "twisted": 5594,
      "zerland": 5595,
      "expedition": 5596,
      "dangers": 5597,
      "Doran": 5598,
      "Lascar": 5599,
      "MINA": 5600,
      "Ryder": 5601,
      "Switzerland": 5602,
      "Skinsky": 5603,
      "bureau": 5604,
      "sovereign": 5605,
      "condemned": 5606,
      "JOURNAL": 5607,
      "Alp": 5608,
      "Cre": 5609,
      "Cli": 5610,
      "Fif": 5611,
      "Gatz": 5612,
      "Gaz": 5613,
      "IL": 5614,
      "Little": 5615,
      "Lodge": 5616,
      "Mag": 5617,
      "RE": 5618,
      "Sun": 5619,
      "Sax": 5620,
      "Yard": 5621,
      "_30": 5622,
      "avi": 5623,
      "bing": 5624,
      "bread": 5625,
      "bade": 5626,
      "cris": 5627,
      "camp": 5628,
      "crushed": 5629,
      "du": 5630,
      "dates": 5631,
      "data": 5632,
      "eved": 5633,
      "eches": 5634,
      "fought": 5635,
      "farm": 5636,
      "fancies": 5637,
      "glit": 5638,
      "gap": 5639,
      "jor": 5640,
      "kin": 5641,
      "loun": 5642,
      "liness": 5643,
      "mical": 5644,
      "nut": 5645,
      "pour": 5646,
      "park": 5647,
      "rue": 5648,
      "rats": 5649,
      "soften": 5650,
      "source": 5651,
      "tar": 5652,
      "tun": 5653,
      "uary": 5654,
      "ulic": 5655,
      "uously": 5656,
      "vive": 5657,
      "ware": 5658,
      "wag": 5659,
      "wine": 5660,
      "inch": 5661,
      "infli": 5662,
      "invisible": 5663,
      "thee": 5664,
      "rever": 5665,
      "relate": 5666,
      "reference": 5667,
      "toil": 5668,
      "tool": 5669,
      "tops": 5670,
      "ases": 5671,
      "orange": 5672,
      "aries": 5673,
      "argue": 5674,
      "stage": 5675,
      "sealed": 5676,
      "belonged": 5677,
      "nostri": 5678,
      "hired": 5679,
      "roll": 5680,
      "roared": 5681,
      "deceived": 5682,
      "deceive": 5683,
      "alous": 5684,
      "entre": 5685,
      "owl": 5686,
      "tier": 5687,
      "tives": 5688,
      "tific": 5689,
      "admitted": 5690,
      "urg": 5691,
      "motor": 5692,
      "sibility": 5693,
      "therland": 5694,
      "abl": 5695,
      "absur": 5696,
      "oking": 5697,
      "ardent": 5698,
      "ardently": 5699,
      "rapt": 5700,
      "convul": 5701,
      "indif": 5702,
      "cake": 5703,
      "agger": 5704,
      "quant": 5705,
      "mption": 5706,
      "ulation": 5707,
      "owner": 5708,
      "peril": 5709,
      "perish": 5710,
      "perple": 5711,
      "performed": 5712,
      "ilities": 5713,
      "affor": 5714,
      "cting": 5715,
      "disappearance": 5716,
      "distorted": 5717,
      "oped": 5718,
      "greet": 5719,
      "protr": 5720,
      "propri": 5721,
      "lightning": 5722,
      "dig": 5723,
      "diabo": 5724,
      "turns": 5725,
      "commen": 5726,
      "pavement": 5727,
      "tene": 5728,
      "whereupon": 5729,
      "tapped": 5730,
      "fulfilled": 5731,
      "glory": 5732,
      "howl": 5733,
      "posal": 5734,
      "tyard": 5735,
      "class": 5736,
      "clang": 5737,
      "friendly": 5738,
      "dresses": 5739,
      "hence": 5740,
      "establ": 5741,
      "bling": 5742,
      "wax": 5743,
      "wail": 5744,
      "hydra": 5745,
      "founded": 5746,
      "beggar": 5747,
      "Peterson": 5748,
      "happily": 5749,
      "chemical": 5750,
      "lifeless": 5751,
      "courtyard": 5752,
      "intend": 5753,
      "shire": 5754,
      "merchant": 5755,
      "strangers": 5756,
      "survi": 5757,
      "kinds": 5758,
      "whit": 5759,
      "cursed": 5760,
      "drifting": 5761,
      "doubts": 5762,
      "purposes": 5763,
      "strangely": 5764,
      "final": 5765,
      "excess": 5766,
      "visits": 5767,
      "visions": 5768,
      "stretch": 5769,
      "refuge": 5770,
      "mingled": 5771,
      "tries": 5772,
      "formal": 5773,
      "Believe": 5774,
      "interfe": 5775,
      "beautifully": 5776,
      "gentleness": 5777,
      "easier": 5778,
      "subtle": 5779,
      "market": 5780,
      "privile": 5781,
      "xture": 5782,
      "floated": 5783,
      "chairs": 5784,
      "aneously": 5785,
      "persons": 5786,
      "startling": 5787,
      "facul": 5788,
      "summ": 5789,
      "movements": 5790,
      "warned": 5791,
      "burden": 5792,
      "Carra": 5793,
      "Carpath": 5794,
      "brightly": 5795,
      "Water": 5796,
      "motionless": 5797,
      "ranging": 5798,
      "puff": 5799,
      "despairing": 5800,
      "delightful": 5801,
      "violently": 5802,
      "relations": 5803,
      "subjects": 5804,
      "slid": 5805,
      "bitterness": 5806,
      "labor": 5807,
      "crop": 5808,
      "leader": 5809,
      "breathe": 5810,
      "affectionate": 5811,
      "hungry": 5812,
      "seize": 5813,
      "decay": 5814,
      "collected": 5815,
      "flapping": 5816,
      "anxiously": 5817,
      "protest": 5818,
      "guarded": 5819,
      "difficulties": 5820,
      "tues": 5821,
      "consideration": 5822,
      "considerably": 5823,
      "bells": 5824,
      "possess": 5825,
      "fashioned": 5826,
      "records": 5827,
      "neighbours": 5828,
      "brothers": 5829,
      "peculiarly": 5830,
      "Everything": 5831,
      "fighting": 5832,
      "addition": 5833,
      "dimly": 5834,
      "injury": 5835,
      "lids": 5836,
      "steady": 5837,
      "humble": 5838,
      "panic": 5839,
      "avoided": 5840,
      "officers": 5841,
      "blame": 5842,
      "virtues": 5843,
      "conditions": 5844,
      "communication": 5845,
      "attacked": 5846,
      "according": 5847,
      "contented": 5848,
      "apparent": 5849,
      "tenderly": 5850,
      "arrangements": 5851,
      "Friday": 5852,
      "Thomas": 5853,
      "frost": 5854,
      "disappointed": 5855,
      "cracked": 5856,
      "revolver": 5857,
      "enthusiastic": 5858,
      "methods": 5859,
      "argument": 5860,
      "arguments": 5861,
      "amazed": 5862,
      "punishment": 5863,
      "frequent": 5864,
      "candle": 5865,
      "Stoke": 5866,
      "ascend": 5867,
      "ascended": 5868,
      "beasts": 5869,
      "peasant": 5870,
      "peasants": 5871,
      "newspapers": 5872,
      "instrument": 5873,
      "acquies": 5874,
      "overwhelmed": 5875,
      "supply": 5876,
      "Briony": 5877,
      "Strange": 5878,
      "clutched": 5879,
      "obscure": 5880,
      "swimming": 5881,
      "eggs": 5882,
      "snatched": 5883,
      "renewed": 5884,
      "education": 5885,
      "separated": 5886,
      "whirl": 5887,
      "extinguished": 5888,
      "horribly": 5889,
      "issue": 5890,
      "stupid": 5891,
      "liberty": 5892,
      "swallowed": 5893,
      "Reading": 5894,
      "glorious": 5895,
      "moust": 5896,
      "obedience": 5897,
      "hoarsely": 5898,
      "Bohemia": 5899,
      "Sutherland": 5900,
      "peeped": 5901,
      "sensitive": 5902,
      "apprehen": 5903,
      "surmise": 5904,
      "Borgo": 5905,
      "DIARY": 5906,
      "Louis": 5907,
      "tobacco": 5908,
      "confirmed": 5909,
      "Cliff": 5910,
      "Gazette": 5911,
      "absurd": 5912,
      "diabolic": 5913,
      "hydraulic": 5914,
      ";”": 5915,
      "Aust": 5916,
      "Back": 5917,
      "Bel": 5918,
      "Cop": 5919,
      "Cob": 5920,
      "Each": 5921,
      "Far": 5922,
      "Four": 5923,
      "Fare": 5924,
      "Has": 5925,
      "IS": 5926,
      "IX": 5927,
      "Ly": 5928,
      "Liz": 5929,
      "OR": 5930,
      "Padding": 5931,
      "TH": 5932,
      "Ti": 5933,
      "Twi": 5934,
      "Taking": 5935,
      "VI": 5936,
      "XX": 5937,
      "_5": 5938,
      "bon": 5939,
      "barri": 5940,
      "ds": 5941,
      "dain": 5942,
      "danced": 5943,
      "flit": 5944,
      "fusion": 5945,
      "gan": 5946,
      "gif": 5947,
      "gang": 5948,
      "gage": 5949,
      "io": 5950,
      "ilo": 5951,
      "iac": 5952,
      "iated": 5953,
      "kers": 5954,
      "lind": 5955,
      "mare": 5956,
      "oon": 5957,
      "obe": 5958,
      "pence": 5959,
      "sway": 5960,
      "sang": 5961,
      "sworn": 5962,
      "tour": 5963,
      "tread": 5964,
      "ube": 5965,
      "uld": 5966,
      "umber": 5967,
      "uffe": 5968,
      "vable": 5969,
      "yr": 5970,
      "init": 5971,
      "infer": 5972,
      "theor": 5973,
      "anchor": 5974,
      "recalled": 5975,
      "tower": 5976,
      "asse": 5977,
      "enab": 5978,
      "mered": 5979,
      "mechan": 5980,
      "arre": 5981,
      "arranging": 5982,
      "stature": 5983,
      "sevent": 5984,
      "secured": 5985,
      "severe": 5986,
      "beha": 5987,
      "washed": 5988,
      "weig": 5989,
      "weigh": 5990,
      "lys": 5991,
      "cele": 5992,
      "chuck": 5993,
      "althy": 5994,
      "verty": 5995,
      "versed": 5996,
      "ride": 5997,
      "lift": 5998,
      "idable": 5999,
      "allel": 6000,
      "irre": 6001,
      "irresis": 6002,
      "cohe": 6003,
      "coarse": 6004,
      "unk": 6005,
      "unction": 6006,
      "urance": 6007,
      "feed": 6008,
      "herry": 6009,
      "kest": 6010,
      "motive": 6011,
      "motives": 6012,
      "pected": 6013,
      "dom": 6014,
      "sheer": 6015,
      "pop": 6016,
      "poverty": 6017,
      "suic": 6018,
      "confirm": 6019,
      "indis": 6020,
      "caut": 6021,
      "shrugged": 6022,
      "quive": 6023,
      "expen": 6024,
      "exposed": 6025,
      "ultim": 6026,
      "lapping": 6027,
      "omin": 6028,
      "prefer": 6029,
      "bolt": 6030,
      "worried": 6031,
      "worry": 6032,
      "willingly": 6033,
      "anybody": 6034,
      "sham": 6035,
      "fired": 6036,
      "haste": 6037,
      "sche": 6038,
      "process": 6039,
      "procure": 6040,
      "prolonged": 6041,
      "procured": 6042,
      "comin": 6043,
      "compelled": 6044,
      "pace": 6045,
      "appointment": 6046,
      "uses": 6047,
      "asks": 6048,
      "cloth": 6049,
      "resting": 6050,
      "brush": 6051,
      "minister": 6052,
      "check": 6053,
      "dening": 6054,
      "implic": 6055,
      "flush": 6056,
      "flashed": 6057,
      "appeal": 6058,
      "wrought": 6059,
      "wrinkled": 6060,
      "umerable": 6061,
      "works": 6062,
      "shop": 6063,
      "chauffe": 6064,
      "vivid": 6065,
      "solve": 6066,
      "joke": 6067,
      "lpiece": 6068,
      "hearted": 6069,
      "heartily": 6070,
      "attitude": 6071,
      "jealous": 6072,
      "pips": 6073,
      "ffled": 6074,
      "parallel": 6075,
      "graves": 6076,
      "gravel": 6077,
      "drift": 6078,
      "Station": 6079,
      "finish": 6080,
      "Forgive": 6081,
      "appar": 6082,
      "appalling": 6083,
      "hush": 6084,
      "resource": 6085,
      "trivial": 6086,
      "formidable": 6087,
      "angel": 6088,
      "awk": 6089,
      "cries": 6090,
      "conducted": 6091,
      "phan": 6092,
      "skir": 6093,
      "skill": 6094,
      "cylind": 6095,
      "peoples": 6096,
      "sublime": 6097,
      "choice": 6098,
      "spiration": 6099,
      "prompt": 6100,
      "price": 6101,
      "fireplace": 6102,
      "cession": 6103,
      "flood": 6104,
      "accum": 6105,
      "pains": 6106,
      "roadway": 6107,
      "advise": 6108,
      "lively": 6109,
      "audi": 6110,
      "frighten": 6111,
      "frightfully": 6112,
      "burg": 6113,
      "complex": 6114,
      "drawers": 6115,
      "towns": 6116,
      "sharper": 6117,
      "element": 6118,
      "secrecy": 6119,
      "striking": 6120,
      "collap": 6121,
      "nigh": 6122,
      "gypsies": 6123,
      "ators": 6124,
      "catching": 6125,
      "bounded": 6126,
      "peaceful": 6127,
      "vanish": 6128,
      "spiritual": 6129,
      "suggestion": 6130,
      "witnesses": 6131,
      "animals": 6132,
      "commonplace": 6133,
      "Pool": 6134,
      "casual": 6135,
      "uttering": 6136,
      "hundreds": 6137,
      "college": 6138,
      "_25": 6139,
      "occasional": 6140,
      "nicely": 6141,
      "regarded": 6142,
      "enjoyment": 6143,
      "fitting": 6144,
      "judgment": 6145,
      "concluded": 6146,
      "_17": 6147,
      "doctors": 6148,
      "expectation": 6149,
      "rusty": 6150,
      "produce": 6151,
      "malice": 6152,
      "devotion": 6153,
      "typewritten": 6154,
      "Really": 6155,
      "persist": 6156,
      "obviously": 6157,
      "excitedly": 6158,
      "cleaning": 6159,
      "included": 6160,
      "terrified": 6161,
      "glim": 6162,
      "innumerable": 6163,
      "formerly": 6164,
      "extent": 6165,
      "flick": 6166,
      "mainland": 6167,
      "communicate": 6168,
      "battle": 6169,
      "selfishness": 6170,
      "speedily": 6171,
      "introduction": 6172,
      "furnished": 6173,
      "tremendous": 6174,
      "Sloane": 6175,
      "tongues": 6176,
      "agreeable": 6177,
      "gathering": 6178,
      "Horsham": 6179,
      "indicated": 6180,
      "snake": 6181,
      "potent": 6182,
      "manifestly": 6183,
      "North": 6184,
      "shirts": 6185,
      "Danube": 6186,
      "tipto": 6187,
      "preceding": 6188,
      "intentions": 6189,
      "principle": 6190,
      "admire": 6191,
      "conjecture": 6192,
      "conjectured": 6193,
      "indignation": 6194,
      "discuss": 6195,
      "drowned": 6196,
      "haunted": 6197,
      "absorbed": 6198,
      "coastguard": 6199,
      "miseries": 6200,
      "Indian": 6201,
      "implored": 6202,
      "decision": 6203,
      "bonds": 6204,
      "frankly": 6205,
      "reputation": 6206,
      "system": 6207,
      "smooth": 6208,
      "Between": 6209,
      "swinging": 6210,
      "cigarette": 6211,
      "convenience": 6212,
      "plenty": 6213,
      "referred": 6214,
      "security": 6215,
      "ambition": 6216,
      "dusk": 6217,
      "muscle": 6218,
      "reproach": 6219,
      "abruptly": 6220,
      "mantelpiece": 6221,
      "ceremony": 6222,
      "exclamation": 6223,
      "quantity": 6224,
      "interfere": 6225,
      "privilege": 6226,
      "Carraway": 6227,
      "Liza": 6228,
      "Paddington": 6229,
      "Twice": 6230,
      "enabled": 6231,
      "weighed": 6232,
      "suicide": 6233,
      "quivered": 6234,
      "chauffeur": 6235,
      "22": 6236,
      "27": 6237,
      "Bilo": 6238,
      "Cal": 6239,
      "Chur": 6240,
      "Char": 6241,
      "Du": 6242,
      "Ey": 6243,
      "Fer": 6244,
      "Gri": 6245,
      "Gard": 6246,
      "Give": 6247,
      "Gree": 6248,
      "Ham": 6249,
      "Hold": 6250,
      "Ke": 6251,
      "Krem": 6252,
      "LA": 6253,
      "Lane": 6254,
      "Lace": 6255,
      "Lady": 6256,
      "Mid": 6257,
      "March": 6258,
      "Pl": 6259,
      "Pat": 6260,
      "Pier": 6261,
      "RO": 6262,
      "Sav": 6263,
      "VEN": 6264,
      "Wed": 6265,
      "War": 6266,
      "Wit": 6267,
      "Ye": 6268,
      "_4": 6269,
      "_S": 6270,
      "_Jonathan": 6271,
      "_s_": 6272,
      "aur": 6273,
      "aper": 6274,
      "awhile": 6275,
      "bone": 6276,
      "bunch": 6277,
      "cil": 6278,
      "cket": 6279,
      "dun": 6280,
      "dated": 6281,
      "dashing": 6282,
      "dagger": 6283,
      "ej": 6284,
      "ece": 6285,
      "eves": 6286,
      "erect": 6287,
      "fan": 6288,
      "fits": 6289,
      "fru": 6290,
      "gul": 6291,
      "gates": 6292,
      "han": 6293,
      "honey": 6294,
      "iate": 6295,
      "iest": 6296,
      "ires": 6297,
      "image": 6298,
      "job": 6299,
      "jug": 6300,
      "jaw": 6301,
      "knot": 6302,
      "lis": 6303,
      "lass": 6304,
      "lting": 6305,
      "mmed": 6306,
      "mount": 6307,
      "national": 6308,
      "sword": 6309,
      "snar": 6310,
      "tal": 6311,
      "tite": 6312,
      "tap": 6313,
      "twin": 6314,
      "vag": 6315,
      "wagon": 6316,
      "wakened": 6317,
      "’,": 6318,
      "”;": 6319,
      "heed": 6320,
      "hered": 6321,
      "inted": 6322,
      "insur": 6323,
      "theless": 6324,
      "ano": 6325,
      "represent": 6326,
      "replaced": 6327,
      "repair": 6328,
      "relap": 6329,
      "restrained": 6330,
      "retreat": 6331,
      "relig": 6332,
      "retire": 6333,
      "thouse": 6334,
      "atta": 6335,
      "today": 6336,
      "toils": 6337,
      "enc": 6338,
      "encour": 6339,
      "ington": 6340,
      "ingham": 6341,
      "offi": 6342,
      "melted": 6343,
      "itting": 6344,
      "leis": 6345,
      "sele": 6346,
      "serene": 6347,
      "searched": 6348,
      "beam": 6349,
      "bears": 6350,
      "novel": 6351,
      "wash": 6352,
      "wasted": 6353,
      "roses": 6354,
      "rolling": 6355,
      "weaker": 6356,
      "wels": 6357,
      "wiped": 6358,
      "ldman": 6359,
      "chink": 6360,
      "choked": 6361,
      "defi": 6362,
      "depos": 6363,
      "design": 6364,
      "decla": 6365,
      "detest": 6366,
      "desolation": 6367,
      "uted": 6368,
      "sob": 6369,
      "sobs": 6370,
      "alo": 6371,
      "alight": 6372,
      "altered": 6373,
      "alian": 6374,
      "esy": 6375,
      "rig": 6376,
      "rium": 6377,
      "loath": 6378,
      "irk": 6379,
      "irrit": 6380,
      "adop": 6381,
      "noted": 6382,
      "united": 6383,
      "unnatural": 6384,
      "unfamiliar": 6385,
      "sales": 6386,
      "sailing": 6387,
      "holi": 6388,
      "feather": 6389,
      "accompany": 6390,
      "whim": 6391,
      "sized": 6392,
      "simult": 6393,
      "sizes": 6394,
      "nearest": 6395,
      "abstr": 6396,
      "amped": 6397,
      "peeping": 6398,
      "doll": 6399,
      "sheep": 6400,
      "posure": 6401,
      "sugar": 6402,
      "gos": 6403,
      "Hell": 6404,
      "hats": 6405,
      "rav": 6406,
      "raving": 6407,
      "tearing": 6408,
      "conj": 6409,
      "conv": 6410,
      "ify": 6411,
      "ager": 6412,
      "aging": 6413,
      "quet": 6414,
      "ulars": 6415,
      "ulously": 6416,
      "traced": 6417,
      "permit": 6418,
      "launch": 6419,
      "precaution": 6420,
      "pple": 6421,
      "illust": 6422,
      "shaken": 6423,
      "shapes": 6424,
      "sphere": 6425,
      "disappear": 6426,
      "displayed": 6427,
      "elabor": 6428,
      "range": 6429,
      "greed": 6430,
      "scree": 6431,
      "scient": 6432,
      "scrat": 6433,
      "maybe": 6434,
      "prosper": 6435,
      "dizz": 6436,
      "readily": 6437,
      "apt": 6438,
      "plat": 6439,
      "tax": 6440,
      "taxi": 6441,
      "erson": 6442,
      "mud": 6443,
      "hereafter": 6444,
      "mostly": 6445,
      "aves": 6446,
      "Therefore": 6447,
      "roughly": 6448,
      "struct": 6449,
      "club": 6450,
      "brut": 6451,
      "brass": 6452,
      "offen": 6453,
      "throughout": 6454,
      "goods": 6455,
      "everywhere": 6456,
      "blast": 6457,
      "sleeper": 6458,
      "begged": 6459,
      "Nobody": 6460,
      "compar": 6461,
      "comply": 6462,
      "smen": 6463,
      "Instead": 6464,
      "happier": 6465,
      "obtained": 6466,
      "obliter": 6467,
      "objection": 6468,
      "voc": 6469,
      "fuller": 6470,
      "momentary": 6471,
      "flour": 6472,
      "appetite": 6473,
      "wrung": 6474,
      "count": 6475,
      "shold": 6476,
      "nails": 6477,
      "stands": 6478,
      "shiver": 6479,
      "fortnight": 6480,
      "stertor": 6481,
      "wondr": 6482,
      "merry": 6483,
      "tragic": 6484,
      "surface": 6485,
      "jewel": 6486,
      "parce": 6487,
      "follows": 6488,
      "carelessly": 6489,
      "deeds": 6490,
      "Stark": 6491,
      "strangest": 6492,
      "smaller": 6493,
      "appalled": 6494,
      "ruined": 6495,
      "rubbing": 6496,
      "ventured": 6497,
      "interests": 6498,
      "normal": 6499,
      "gipsies": 6500,
      "sincerely": 6501,
      "needs": 6502,
      "wonderfully": 6503,
      "cript": 6504,
      "hurled": 6505,
      "pressure": 6506,
      "remarks": 6507,
      "buzz": 6508,
      "passes": 6509,
      "whisky": 6510,
      "dazed": 6511,
      "threshold": 6512,
      "ringing": 6513,
      "Comp": 6514,
      "mixture": 6515,
      "capital": 6516,
      "capacity": 6517,
      "crash": 6518,
      "wildly": 6519,
      "genius": 6520,
      "highly": 6521,
      "hairs": 6522,
      "humanity": 6523,
      "suspected": 6524,
      "garments": 6525,
      "strict": 6526,
      "stricken": 6527,
      "trains": 6528,
      "desires": 6529,
      "fleet": 6530,
      "kneeling": 6531,
      "troubles": 6532,
      "niece": 6533,
      "sadness": 6534,
      "observing": 6535,
      "HEL": 6536,
      "faster": 6537,
      "brief": 6538,
      "student": 6539,
      "views": 6540,
      "varied": 6541,
      "relation": 6542,
      "grotes": 6543,
      "necessity": 6544,
      "warmly": 6545,
      "experiences": 6546,
      "occasions": 6547,
      "changes": 6548,
      "suggestive": 6549,
      "dusty": 6550,
      "customs": 6551,
      "animation": 6552,
      "animated": 6553,
      "breathless": 6554,
      "colours": 6555,
      "affections": 6556,
      "resumed": 6557,
      "rers": 6558,
      "attempts": 6559,
      "numbers": 6560,
      "sicker": 6561,
      "_29": 6562,
      "magaz": 6563,
      "nineteen": 6564,
      "transa": 6565,
      "transp": 6566,
      "wandering": 6567,
      "chiefly": 6568,
      "slam": 6569,
      "consulted": 6570,
      "pitch": 6571,
      "devils": 6572,
      "legal": 6573,
      "countenances": 6574,
      "particulars": 6575,
      "palm": 6576,
      "blowing": 6577,
      "jumping": 6578,
      "happening": 6579,
      "wheels": 6580,
      "astonished": 6581,
      "cheerfulness": 6582,
      "cigars": 6583,
      "hesitation": 6584,
      "slightest": 6585,
      "discoveries": 6586,
      "situated": 6587,
      "delirium": 6588,
      "terrific": 6589,
      "properly": 6590,
      "Death": 6591,
      "Jukes": 6592,
      "fifteen": 6593,
      "extended": 6594,
      "communicated": 6595,
      "ING": 6596,
      "threaten": 6597,
      "courtesy": 6598,
      "transfusion": 6599,
      "persuaded": 6600,
      "specim": 6601,
      "tenderness": 6602,
      "require": 6603,
      "kitten": 6604,
      "leapt": 6605,
      "approaching": 6606,
      "amaze": 6607,
      "amidst": 6608,
      "precipit": 6609,
      "tranquil": 6610,
      "mourning": 6611,
      "stirring": 6612,
      "consented": 6613,
      "impatient": 6614,
      "treatment": 6615,
      "materials": 6616,
      "vacancy": 6617,
      "Bersicker": 6618,
      "slave": 6619,
      "Hillingham": 6620,
      "accurate": 6621,
      "pierced": 6622,
      "doomed": 6623,
      "Should": 6624,
      "gallant": 6625,
      "relatives": 6626,
      "stroke": 6627,
      "deepest": 6628,
      "admired": 6629,
      "elevated": 6630,
      "Wait": 6631,
      "Waldman": 6632,
      "associated": 6633,
      "forbidden": 6634,
      "ATHA": 6635,
      "frowning": 6636,
      "multitude": 6637,
      "resemblance": 6638,
      "feeble": 6639,
      "employment": 6640,
      "linen": 6641,
      "scope": 6642,
      "execution": 6643,
      "plunged": 6644,
      "ecstasy": 6645,
      "electric": 6646,
      "dict": 6647,
      "haggard": 6648,
      "neglected": 6649,
      "amusement": 6650,
      "discreet": 6651,
      "compliment": 6652,
      "volume": 6653,
      "superstition": 6654,
      "fascinating": 6655,
      "exhibited": 6656,
      "nonsense": 6657,
      "rattled": 6658,
      "placid": 6659,
      "contemplated": 6660,
      "individual": 6661,
      "Telegram": 6662,
      "baffled": 6663,
      "pentine": 6664,
      "title": 6665,
      "exultation": 6666,
      "disguise": 6667,
      "voluntarily": 6668,
      "Sunday": 6669,
      "softened": 6670,
      "nostrils": 6671,
      "entreated": 6672,
      "commenced": 6673,
      "Carpathians": 6674,
      "Waterloo": 6675,
      "moustache": 6676,
      "Coburg": 6677,
      "Farewell": 6678,
      "theories": 6679,
      "celebr": 6680,
      "awkward": 6681,
      "Biloxi": 6682,
      "Church": 6683,
      "Eyford": 6684,
      "Krempe": 6685,
      "Lacey": 6686,
      "Witness": 6687,
      "ejacul": 6688,
      "attach": 6689,
      "offices": 6690,
      "declared": 6691,
      "salesman": 6692,
      "simultaneously": 6693,
      "grotesque": 6694,
      "14": 6695,
      "1000": 6696,
      "AY": 6697,
      "Aven": 6698,
      "Agri": 6699,
      "Blo": 6700,
      "Buk": 6701,
      "Che": 6702,
      "Crow": 6703,
      "Clay": 6704,
      "DE": 6705,
      "ES": 6706,
      "Eas": 6707,
      "Ear": 6708,
      "Ever": 6709,
      "Eck": 6710,
      "Fe": 6711,
      "Finn": 6712,
      "Hum": 6713,
      "Haven": 6714,
      "Im": 6715,
      "JON": 6716,
      "LI": 6717,
      "Lee": 6718,
      "Life": 6719,
      "Mate": 6720,
      "Many": 6721,
      "Master": 6722,
      "Neither": 6723,
      "Old": 6724,
      "Pe": 6725,
      "Pro": 6726,
      "Pur": 6727,
      "Say": 6728,
      "Sur": 6729,
      "Sam": 6730,
      "Spa": 6731,
      "Save": 6732,
      "Since": 6733,
      "Swand": 6734,
      "Thur": 6735,
      "Ve": 6736,
      "Vin": 6737,
      "VII": 6738,
      "VIII": 6739,
      "Wafer": 6740,
      "_L": 6741,
      "_Telegram": 6742,
      "awe": 6743,
      "afore": 6744,
      "awn": 6745,
      "await": 6746,
      "bend": 6747,
      "bust": 6748,
      "bble": 6749,
      "bite": 6750,
      "bars": 6751,
      "biz": 6752,
      "bilities": 6753,
      "dined": 6754,
      "dash": 6755,
      "daring": 6756,
      "dancing": 6757,
      "drank": 6758,
      "elo": 6759,
      "fed": 6760,
      "fren": 6761,
      "gla": 6762,
      "gran": 6763,
      "gings": 6764,
      "hut": 6765,
      "iance": 6766,
      "ially": 6767,
      "jer": 6768,
      "jury": 6769,
      "jacket": 6770,
      "kis": 6771,
      "lof": 6772,
      "lur": 6773,
      "lac": 6774,
      "mmy": 6775,
      "mould": 6776,
      "mast": 6777,
      "nant": 6778,
      "oo": 6779,
      "ov": 6780,
      "ole": 6781,
      "ote": 6782,
      "oil": 6783,
      "oting": 6784,
      "oath": 6785,
      "pon": 6786,
      "phas": 6787,
      "pig": 6788,
      "paced": 6789,
      "snu": 6790,
      "uri": 6791,
      "umin": 6792,
      "ws": 6793,
      "yach": 6794,
      "yawn": 6795,
      "—.": 6796,
      "inate": 6797,
      "inations": 6798,
      "intru": 6799,
      "infant": 6800,
      "ret": 6801,
      "rece": 6802,
      "reli": 6803,
      "retained": 6804,
      "restrain": 6805,
      "reserved": 6806,
      "retorted": 6807,
      "atter": 6808,
      "atmo": 6809,
      "ongest": 6810,
      "error": 6811,
      "toler": 6812,
      "isation": 6813,
      "isting": 6814,
      "ofer": 6815,
      "orous": 6816,
      "orche": 6817,
      "mess": 6818,
      "arous": 6819,
      "arrest": 6820,
      "stuck": 6821,
      "stamp": 6822,
      "states": 6823,
      "hable": 6824,
      "haught": 6825,
      "seal": 6826,
      "sees": 6827,
      "bec": 6828,
      "bez": 6829,
      "beck": 6830,
      "beads": 6831,
      "nomin": 6832,
      "nobody": 6833,
      "robe": 6834,
      "roots": 6835,
      "weed": 6836,
      "wives": 6837,
      "deform": 6838,
      "desk": 6839,
      "depressed": 6840,
      "devour": 6841,
      "deem": 6842,
      "sombre": 6843,
      "forty": 6844,
      "forgetting": 6845,
      "alert": 6846,
      "altar": 6847,
      "verge": 6848,
      "rily": 6849,
      "ligh": 6850,
      "idle": 6851,
      "idance": 6852,
      "allic": 6853,
      "allusion": 6854,
      "withstanding": 6855,
      "losing": 6856,
      "tips": 6857,
      "ado": 6858,
      "unfortunately": 6859,
      "acher": 6860,
      "acts": 6861,
      "aches": 6862,
      "mob": 6863,
      "modest": 6864,
      "reduced": 6865,
      "sibly": 6866,
      "ources": 6867,
      "abbey": 6868,
      "amused": 6869,
      "aments": 6870,
      "peering": 6871,
      "doings": 6872,
      "poet": 6873,
      "sustain": 6874,
      "sullen": 6875,
      "mansion": 6876,
      "confide": 6877,
      "inding": 6878,
      "induce": 6879,
      "weren": 6880,
      "agne": 6881,
      "agged": 6882,
      "exchanged": 6883,
      "ults": 6884,
      "tramp": 6885,
      "trunk": 6886,
      "Italian": 6887,
      "permitted": 6888,
      "lav": 6889,
      "essential": 6890,
      "maps": 6891,
      "preju": 6892,
      "boast": 6893,
      "ppa": 6894,
      "overcame": 6895,
      "inkle": 6896,
      "thence": 6897,
      "dishonour": 6898,
      "dissip": 6899,
      "handle": 6900,
      "ople": 6901,
      "nightmare": 6902,
      "scound": 6903,
      "prolong": 6904,
      "propose": 6905,
      "dia": 6906,
      "dial": 6907,
      "dilig": 6908,
      "diaries": 6909,
      "newly": 6910,
      "backed": 6911,
      "mesby": 6912,
      "placing": 6913,
      "tapping": 6914,
      "rently": 6915,
      "muffled": 6916,
      "mummy": 6917,
      "sideboard": 6918,
      "glow": 6919,
      "glac": 6920,
      "glisten": 6921,
      "glowing": 6922,
      "doorway": 6923,
      "clump": 6924,
      "clues": 6925,
      "justified": 6926,
      "brings": 6927,
      "speck": 6928,
      "undertak": 6929,
      "blush": 6930,
      "blasted": 6931,
      "sions": 6932,
      "sleeve": 6933,
      "sleeves": 6934,
      "compared": 6935,
      "chemis": 6936,
      "checked": 6937,
      "udy": 6938,
      "feels": 6939,
      "Whatever": 6940,
      "lasting": 6941,
      "matic": 6942,
      "impris": 6943,
      "stillness": 6944,
      "sleepless": 6945,
      "flowed": 6946,
      "shores": 6947,
      "chained": 6948,
      "suppor": 6949,
      "actual": 6950,
      "tinted": 6951,
      "guine": 6952,
      "guidance": 6953,
      "waiter": 6954,
      "corre": 6955,
      "corrup": 6956,
      "bloody": 6957,
      "pipes": 6958,
      "curled": 6959,
      "stepping": 6960,
      "graphy": 6961,
      "cares": 6962,
      "career": 6963,
      "Countess": 6964,
      "gaily": 6965,
      "application": 6966,
      "northern": 6967,
      "trifling": 6968,
      "Begone": 6969,
      "Beeches": 6970,
      "exciting": 6971,
      "bushy": 6972,
      "tempted": 6973,
      "easiness": 6974,
      "buffe": 6975,
      "Somehow": 6976,
      "marve": 6977,
      "marble": 6978,
      "famous": 6979,
      "promises": 6980,
      "dazz": 6981,
      "threats": 6982,
      "metallic": 6983,
      "wishing": 6984,
      "ceiving": 6985,
      "paint": 6986,
      "painted": 6987,
      "End": 6988,
      "earthly": 6989,
      "advancing": 6990,
      "despond": 6991,
      "crit": 6992,
      "bert": 6993,
      "pretending": 6994,
      "dreadfully": 6995,
      "consisted": 6996,
      "answering": 6997,
      "clearing": 6998,
      "augh": 6999,
      "Madame": 7000,
      "Think": 7001,
      "Things": 7002,
      "warmed": 7003,
      "remainder": 7004,
      "mouths": 7005,
      "staying": 7006,
      "strait": 7007,
      "chances": 7008,
      "barbar": 7009,
      "gyman": 7010,
      "contents": 7011,
      "sadly": 7012,
      "brick": 7013,
      "victory": 7014,
      "accounts": 7015,
      "smoking": 7016,
      "smoked": 7017,
      "clapped": 7018,
      "gleaming": 7019,
      "relent": 7020,
      "bounds": 7021,
      "charged": 7022,
      "paths": 7023,
      "mysteries": 7024,
      "flower": 7025,
      "comfortably": 7026,
      "Boy": 7027,
      "Both": 7028,
      "Boone": 7029,
      "deserve": 7030,
      "deserts": 7031,
      "patients": 7032,
      "senseless": 7033,
      "witch": 7034,
      "leaden": 7035,
      "breathed": 7036,
      "breathlessly": 7037,
      "casually": 7038,
      "noticing": 7039,
      "sickness": 7040,
      "sorrows": 7041,
      "entire": 7042,
      "languid": 7043,
      "slender": 7044,
      "lawyer": 7045,
      "Montene": 7046,
      "Whitney": 7047,
      "recorded": 7048,
      "neighbouring": 7049,
      "craft": 7050,
      "respectable": 7051,
      "respectful": 7052,
      "blows": 7053,
      "struggling": 7054,
      "characteristic": 7055,
      "daresay": 7056,
      "complained": 7057,
      "harmless": 7058,
      "knocking": 7059,
      "quarters": 7060,
      "Absolute": 7061,
      "hangs": 7062,
      "drinking": 7063,
      "Jabez": 7064,
      "injuries": 7065,
      "steadily": 7066,
      "increase": 7067,
      "increasing": 7068,
      "operations": 7069,
      "oneliness": 7070,
      "interrupt": 7071,
      "blazing": 7072,
      "radiant": 7073,
      "services": 7074,
      "borrow": 7075,
      "uniform": 7076,
      "disturbance": 7077,
      "hateful": 7078,
      "Turkey": 7079,
      "scale": 7080,
      "emerge": 7081,
      "agonised": 7082,
      "eventually": 7083,
      "delicacy": 7084,
      "recognise": 7085,
      "shrill": 7086,
      "Blanc": 7087,
      "leaped": 7088,
      "revolved": 7089,
      "soothed": 7090,
      "END": 7091,
      "cultiv": 7092,
      "immensely": 7093,
      "graceful": 7094,
      "advantages": 7095,
      "balls": 7096,
      "punct": 7097,
      "stirred": 7098,
      "bloomin": 7099,
      "apolo": 7100,
      "travels": 7101,
      "announce": 7102,
      "rejoice": 7103,
      "directly": 7104,
      "guests": 7105,
      "benefactor": 7106,
      "yielded": 7107,
      "preceded": 7108,
      "overwhelming": 7109,
      "vulgar": 7110,
      "belonging": 7111,
      "lodge": 7112,
      "lodgings": 7113,
      "central": 7114,
      "principal": 7115,
      "Coroner": 7116,
      "infinitely": 7117,
      "thrill": 7118,
      "thrilling": 7119,
      "decline": 7120,
      "clergyman": 7121,
      "vault": 7122,
      "educated": 7123,
      "Outside": 7124,
      "moods": 7125,
      "farewell": 7126,
      "pushing": 7127,
      "helm": 7128,
      "lucky": 7129,
      "detective": 7130,
      "plunge": 7131,
      "Billington": 7132,
      "Duncan": 7133,
      "Serpentine": 7134,
      "Walton": 7135,
      "pounds": 7136,
      "routine": 7137,
      "sneer": 7138,
      "annoyed": 7139,
      "sacrifice": 7140,
      "tortured": 7141,
      "realized": 7142,
      "picturesque": 7143,
      "malignity": 7144,
      "limited": 7145,
      "correspondent": 7146,
      "repulsive": 7147,
      "refresh": 7148,
      "crawled": 7149,
      "splendid": 7150,
      "British": 7151,
      "loathing": 7152,
      "achieve": 7153,
      "perpetual": 7154,
      "precipices": 7155,
      "squee": 7156,
      "remote": 7157,
      "hysterical": 7158,
      "incessantly": 7159,
      "intellectual": 7160,
      "Flora": 7161,
      "Russian": 7162,
      "tempest": 7163,
      "courteous": 7164,
      "passengers": 7165,
      "brooding": 7166,
      "elderly": 7167,
      "government": 7168,
      "hospitality": 7169,
      "Alpha": 7170,
      "indifferen": 7171,
      "faculties": 7172,
      "diabolical": 7173,
      "Copper": 7174,
      "ulding": 7175,
      "seventeen": 7176,
      "chuckled": 7177,
      "irresistible": 7178,
      "coherent": 7179,
      "popular": 7180,
      "Grimesby": 7181,
      "aperture": 7182,
      "dollars": 7183,
      "ravings": 7184,
      "elaborate": 7185,
      "dizzy": 7186,
      "obliterated": 7187,
      "wondrous": 7188,
      "transaction": 7189,
      "specimen": 7190,
      "amazement": 7191,
      "ATHAN": 7192,
      "Avenue": 7193,
      "Agrippa": 7194,
      "Bukov": 7195,
      "JONATHAN": 7196,
      "Spaulding": 7197,
      "Swandam": 7198,
      "Thurs": 7199,
      "Vincent": 7200,
      "bizarre": 7201,
      "atmosphere": 7202,
      "aroused": 7203,
      "deformity": 7204,
      "devouring": 7205,
      "prejudi": 7206,
      "diligence": 7207,
      "undertaker": 7208,
      "Bukovina": 7209,
      "!--": 7210,
      ",—": 7211,
      "24": 7212,
      "Burn": 7213,
      "Bey": 7214,
      "Bring": 7215,
      "Breck": 7216,
      "Day": 7217,
      "Evid": 7218,
      "Fl": 7219,
      "Five": 7220,
      "Farm": 7221,
      "Gu": 7222,
      "Gra": 7223,
      "Hon": 7224,
      "Hal": 7225,
      "Hamp": 7226,
      "IR": 7227,
      "Kind": 7228,
      "Klip": 7229,
      "Lead": 7230,
      "Like": 7231,
      "MY": 7232,
      "Mit": 7233,
      "Main": 7234,
      "Mill": 7235,
      "Mey": 7236,
      "Oo": 7237,
      "Oak": 7238,
      "Rh": 7239,
      "Smo": 7240,
      "Ste": 7241,
      "Sister": 7242,
      "Ter": 7243,
      "Ten": 7244,
      "TUR": 7245,
      "True": 7246,
      "UE": 7247,
      "Whe": 7248,
      "Wor": 7249,
      "Wind": 7250,
      "_The": 7251,
      "_continued": 7252,
      "aun": 7253,
      "aqu": 7254,
      "aired": 7255,
      "aire": 7256,
      "bred": 7257,
      "bud": 7258,
      "buck": 7259,
      "bery": 7260,
      "cis": 7261,
      "cam": 7262,
      "cuse": 7263,
      "dad": 7264,
      "dank": 7265,
      "dued": 7266,
      "e_": 7267,
      "equi": 7268,
      "etor": 7269,
      "fr": 7270,
      "fts": 7271,
      "fring": 7272,
      "falter": 7273,
      "fists": 7274,
      "gin": 7275,
      "gno": 7276,
      "gus": 7277,
      "gam": 7278,
      "gums": 7279,
      "iv": 7280,
      "imb": 7281,
      "iers": 7282,
      "lou": 7283,
      "lull": 7284,
      "lug": 7285,
      "lashed": 7286,
      "lasted": 7287,
      "loneliness": 7288,
      "mask": 7289,
      "nin": 7290,
      "nies": 7291,
      "ome": 7292,
      "oted": 7293,
      "oee": 7294,
      "pite": 7295,
      "pine": 7296,
      "pled": 7297,
      "phers": 7298,
      "rut": 7299,
      "ske": 7300,
      "slit": 7301,
      "ssive": 7302,
      "sanity": 7303,
      "tent": 7304,
      "tend": 7305,
      "tation": 7306,
      "tucked": 7307,
      "uth": 7308,
      "uno": 7309,
      "usa": 7310,
      "vas": 7311,
      "vion": 7312,
      "vation": 7313,
      "wart": 7314,
      "wers": 7315,
      "wits": 7316,
      "xy": 7317,
      "…”": 7318,
      "helor": 7319,
      "heavi": 7320,
      "inher": 7321,
      "insol": 7322,
      "inridge": 7323,
      "incapable": 7324,
      "injustice": 7325,
      "inspired": 7326,
      "incoherent": 7327,
      "antial": 7328,
      "retain": 7329,
      "replace": 7330,
      "outer": 7331,
      "ouded": 7332,
      "thi": 7333,
      "thom": 7334,
      "thread": 7335,
      "thim": 7336,
      "attain": 7337,
      "anda": 7338,
      "ashen": 7339,
      "isol": 7340,
      "ense": 7341,
      "ensu": 7342,
      "enable": 7343,
      "encomp": 7344,
      "enched": 7345,
      "enchan": 7346,
      "encounter": 7347,
      "organ": 7348,
      "army": 7349,
      "arter": 7350,
      "arise": 7351,
      "arian": 7352,
      "lle": 7353,
      "llet": 7354,
      "llable": 7355,
      "llers": 7356,
      "sten": 7357,
      "sting": 7358,
      "stall": 7359,
      "sters": 7360,
      "stim": 7361,
      "stately": 7362,
      "hailed": 7363,
      "haired": 7364,
      "hazard": 7365,
      "leag": 7366,
      "leche": 7367,
      "leburg": 7368,
      "sex": 7369,
      "sels": 7370,
      "belt": 7371,
      "hire": 7372,
      "rosy": 7373,
      "rophe": 7374,
      "robbery": 7375,
      "weeping": 7376,
      "wich": 7377,
      "wiping": 7378,
      "ghorn": 7379,
      "chron": 7380,
      "yous": 7381,
      "desir": 7382,
      "sore": 7383,
      "sober": 7384,
      "sobbed": 7385,
      "forci": 7386,
      "ented": 7387,
      "entran": 7388,
      "rive": 7389,
      "ribut": 7390,
      "riding": 7391,
      "rivers": 7392,
      "limp": 7393,
      "loaf": 7394,
      "tiger": 7395,
      "timid": 7396,
      "adic": 7397,
      "advers": 7398,
      "notwithstanding": 7399,
      "comed": 7400,
      "cowered": 7401,
      "costu": 7402,
      "unutter": 7403,
      "unnecessary": 7404,
      "unfold": 7405,
      "uncontro": 7406,
      "uneasiness": 7407,
      "safer": 7408,
      "holes": 7409,
      "hoping": 7410,
      "ural": 7411,
      "female": 7412,
      "acute": 7413,
      "kered": 7414,
      "mode": 7415,
      "moist": 7416,
      "getically": 7417,
      "sical": 7418,
      "uss": 7419,
      "pew": 7420,
      "pets": 7421,
      "dock": 7422,
      "domin": 7423,
      "shelf": 7424,
      "poly": 7425,
      "golf": 7426,
      "manage": 7427,
      "manhood": 7428,
      "manager": 7429,
      "ragged": 7430,
      "endic": 7431,
      "conqu": 7432,
      "console": 7433,
      "congrat": 7434,
      "cade": 7435,
      "cage": 7436,
      "caves": 7437,
      "caleche": 7438,
      "seeking": 7439,
      "exas": 7440,
      "extin": 7441,
      "etro": 7442,
      "etrate": 7443,
      "foe": 7444,
      "folly": 7445,
      "ulating": 7446,
      "trained": 7447,
      "Italy": 7448,
      "astrophe": 7449,
      "failing": 7450,
      "fathom": 7451,
      "epis": 7452,
      "yourselves": 7453,
      "majest": 7454,
      "ilise": 7455,
      "premis": 7456,
      "prejud": 7457,
      "bolts": 7458,
      "foreseen": 7459,
      "foresight": 7460,
      "overpower": 7461,
      "overboard": 7462,
      "illumin": 7463,
      "bleak": 7464,
      "spur": 7465,
      "sparrow": 7466,
      "distr": 7467,
      "dismay": 7468,
      "disci": 7469,
      "distribut": 7470,
      "disposal": 7471,
      "disdain": 7472,
      "eluded": 7473,
      "oppressed": 7474,
      "scrut": 7475,
      "stool": 7476,
      "stopping": 7477,
      "stolen": 7478,
      "project": 7479,
      "dipped": 7480,
      "comment": 7481,
      "pathetic": 7482,
      "apiece": 7483,
      "assurance": 7484,
      "tension": 7485,
      "wherever": 7486,
      "ucer": 7487,
      "ucing": 7488,
      "tales": 7489,
      "tingling": 7490,
      "imitate": 7491,
      "glare": 7492,
      "thoughtful": 7493,
      "string": 7494,
      "strate": 7495,
      "strous": 7496,
      "structed": 7497,
      "lessons": 7498,
      "clust": 7499,
      "dreary": 7500,
      "quiver": 7501,
      "quivering": 7502,
      "grant": 7503,
      "undertake": 7504,
      "goodbye": 7505,
      "blur": 7506,
      "blunt": 7507,
      "chilled": 7508,
      "tors": 7509,
      "Inst": 7510,
      "rights": 7511,
      "remon": 7512,
      "evils": 7513,
      "objected": 7514,
      "cheering": 7515,
      "cheque": 7516,
      "udd": 7517,
      "cargo": 7518,
      "carpet": 7519,
      "calls": 7520,
      "mates": 7521,
      "matically": 7522,
      "dense": 7523,
      "flan": 7524,
      "flamed": 7525,
      "flattered": 7526,
      "fluttered": 7527,
      "county": 7528,
      "Assizes": 7529,
      "mono": 7530,
      "monot": 7531,
      "monstrous": 7532,
      "minded": 7533,
      "landlord": 7534,
      "naught": 7535,
      "civil": 7536,
      "partner": 7537,
      "openly": 7538,
      "merged": 7539,
      "jolly": 7540,
      "joyous": 7541,
      "tinent": 7542,
      "traversed": 7543,
      "corn": 7544,
      "surgeon": 7545,
      "survive": 7546,
      "attribut": 7547,
      "block": 7548,
      "bloofer": 7549,
      "jewels": 7550,
      "swee": 7551,
      "whiter": 7552,
      "helping": 7553,
      "curve": 7554,
      "current": 7555,
      "parti": 7556,
      "paraly": 7557,
      "laden": 7558,
      "believes": 7559,
      "whitewashed": 7560,
      "arrives": 7561,
      "smallest": 7562,
      "applied": 7563,
      "licity": 7564,
      "wholesome": 7565,
      "rules": 7566,
      "streamed": 7567,
      "southern": 7568,
      "trifle": 7569,
      "giant": 7570,
      "hopeless": 7571,
      "Beau": 7572,
      "needless": 7573,
      "bushes": 7574,
      "dropping": 7575,
      "tempor": 7576,
      "commit": 7577,
      "confine": 7578,
      "subst": 7579,
      "subdued": 7580,
      "bump": 7581,
      "sym": 7582,
      "promising": 7583,
      "whiskers": 7584,
      "grizz": 7585,
      "holder": 7586,
      "fret": 7587,
      "doubtfully": 7588,
      "ized": 7589,
      "cesses": 7590,
      "Cooee": 7591,
      "returns": 7592,
      "sights": 7593,
      "plays": 7594,
      "destined": 7595,
      "accidents": 7596,
      "madmen": 7597,
      "simplest": 7598,
      "frontier": 7599,
      "remembering": 7600,
      "crate": 7601,
      "personally": 7602,
      "gency": 7603,
      "berries": 7604,
      "abode": 7605,
      "penetr": 7606,
      "pencil": 7607,
      "penetrate": 7608,
      "ials": 7609,
      "learning": 7610,
      "Morning": 7611,
      "Moritz": 7612,
      "Herr": 7613,
      "safely": 7614,
      "Though": 7615,
      "brace": 7616,
      "largest": 7617,
      "avenue": 7618,
      "spectacles": 7619,
      "crown": 7620,
      "Until": 7621,
      "barren": 7622,
      "destroying": 7623,
      "contact": 7624,
      "harrowing": 7625,
      "sisters": 7626,
      "Almost": 7627,
      "habitation": 7628,
      "fainting": 7629,
      "rocky": 7630,
      "strengthen": 7631,
      "generous": 7632,
      "Francis": 7633,
      "variety": 7634,
      "symptoms": 7635,
      "catastrophe": 7636,
      "endeavours": 7637,
      "medium": 7638,
      "ggled": 7639,
      "passionate": 7640,
      "flowing": 7641,
      "probability": 7642,
      "solemnity": 7643,
      "thesis": 7644,
      "animate": 7645,
      "leading": 7646,
      "dealing": 7647,
      "concern": 7648,
      "firmness": 7649,
      "Maybe": 7650,
      "calmness": 7651,
      "postp": 7652,
      "honoured": 7653,
      "social": 7654,
      "collecting": 7655,
      "_24": 7656,
      "magic": 7657,
      "languages": 7658,
      "protection": 7659,
      "wounded": 7660,
      "region": 7661,
      "slang": 7662,
      "consumed": 7663,
      "consulting": 7664,
      "springer": 7665,
      "nodding": 7666,
      "winning": 7667,
      "families": 7668,
      "vines": 7669,
      "shott": 7670,
      "employer": 7671,
      "Everybody": 7672,
      "addy": 7673,
      "quarrel": 7674,
      "Seeing": 7675,
      "depended": 7676,
      "folds": 7677,
      "typewriting": 7678,
      "oblivion": 7679,
      "concealment": 7680,
      "Exce": 7681,
      "Excuse": 7682,
      "paying": 7683,
      "contemptuous": 7684,
      "seriously": 7685,
      "discovering": 7686,
      "commanded": 7687,
      "embark": 7688,
      "deliber": 7689,
      "operate": 7690,
      "distinction": 7691,
      "Star_": 7692,
      "China": 7693,
      "admirable": 7694,
      "lairs": 7695,
      "blessing": 7696,
      "blessings": 7697,
      "travelling": 7698,
      "traveller": 7699,
      "measures": 7700,
      "university": 7701,
      "fiercely": 7702,
      "cottages": 7703,
      "sander": 7704,
      "redskin": 7705,
      "shuddering": 7706,
      "problems": 7707,
      "Consul": 7708,
      "attract": 7709,
      "averse": 7710,
      "average": 7711,
      "logic": 7712,
      "constantly": 7713,
      "splash": 7714,
      "printed": 7715,
      "commencement": 7716,
      "reveal": 7717,
      "sheets": 7718,
      "balance": 7719,
      "balancing": 7720,
      "filthy": 7721,
      "feverish": 7722,
      "response": 7723,
      "manifested": 7724,
      "packed": 7725,
      "recollect": 7726,
      "ceptible": 7727,
      "dispositions": 7728,
      "roofs": 7729,
      "rawled": 7730,
      "benefit": 7731,
      "benefic": 7732,
      "acquire": 7733,
      "savagely": 7734,
      "benevolence": 7735,
      "bachelor": 7736,
      "belongs": 7737,
      "pinch": 7738,
      "swelled": 7739,
      "vigil": 7740,
      "invented": 7741,
      "stains": 7742,
      "clerk": 7743,
      "clasped": 7744,
      "marrying": 7745,
      "bridegroom": 7746,
      "regretted": 7747,
      "rumours": 7748,
      "writhing": 7749,
      "definitely": 7750,
      "extinguish": 7751,
      "AND": 7752,
      "knives": 7753,
      "toria": 7754,
      "articles": 7755,
      "preparing": 7756,
      "preparations": 7757,
      "echoed": 7758,
      "miserably": 7759,
      "India": 7760,
      "implore": 7761,
      "vitality": 7762,
      "style": 7763,
      "defence": 7764,
      "wreaths": 7765,
      "hinges": 7766,
      "million": 7767,
      "millions": 7768,
      "accomplish": 7769,
      "accomplished": 7770,
      "sentimental": 7771,
      "obstacle": 7772,
      "exertions": 7773,
      "sympathised": 7774,
      "ADVEN": 7775,
      "kicked": 7776,
      "champagne": 7777,
      "available": 7778,
      "refreshed": 7779,
      "summoned": 7780,
      "Barbec": 7781,
      "Robert": 7782,
      "concentrated": 7783,
      "traditions": 7784,
      "oppressive": 7785,
      "automob": 7786,
      "mournful": 7787,
      "heels": 7788,
      "developed": 7789,
      "mockery": 7790,
      "sighed": 7791,
      "pearls": 7792,
      "pronounced": 7793,
      "attentions": 7794,
      "engineer": 7795,
      "reluctant": 7796,
      "embarrass": 7797,
      "comprehend": 7798,
      "sceptic": 7799,
      "widow": 7800,
      "lethargy": 7801,
      "Saxe": 7802,
      "crisp": 7803,
      "glittering": 7804,
      "pouring": 7805,
      "tools": 7806,
      "rapture": 7807,
      "perplex": 7808,
      "afforded": 7809,
      "greeting": 7810,
      "proprietor": 7811,
      "laboratory": 7812,
      "Louisville": 7813,
      "Lysander": 7814,
      "gift": 7815,
      "initials": 7816,
      "behaved": 7817,
      "scheme": 7818,
      "apparition": 7819,
      "cylinders": 7820,
      "collapse": 7821,
      "Duke": 7822,
      "hansom": 7823,
      "encies": 7824,
      "loathsome": 7825,
      "irksome": 7826,
      "holiday": 7827,
      "platform": 7828,
      "stertorous": 7829,
      "parcel": 7830,
      "Company": 7831,
      "Eastern": 7832,
      "Eckleburg": 7833,
      "eloqu": 7834,
      "lofty": 7835,
      "orchestra": 7836,
      "scoundrel": 7837,
      "supported": 7838,
      "Montenegro": 7839,
      "Absolutely": 7840,
      "indifferent": 7841,
      "Thursday": 7842,
      "Burnwell": 7843,
      "Beyond": 7844,
      "Breckinridge": 7845,
      "Evidently": 7846,
      "Klipspringer": 7847,
      "Meyer": 7848,
      "Oakshott": 7849,
      "Rhine": 7850,
      "Smollet": 7851,
      "TURE": 7852,
      "World": 7853,
      "_continued_": 7854,
      "louder": 7855,
      "luggage": 7856,
      "heavier": 7857,
      "enchanted": 7858,
      "adversary": 7859,
      "costume": 7860,
      "majestic": 7861,
      "prejudiced": 7862,
      "Beaufort": 7863,
      "ADVENTURE": 7864,
      "Barbecue": 7865,
      ".—": 7866,
      "16": 7867,
      "BE": 7868,
      "Bris": 7869,
      "Bud": 7870,
      "Bank": 7871,
      "Bild": 7872,
      "Bridge": 7873,
      "Dark": 7874,
      "Got": 7875,
      "Hall": 7876,
      "Hung": 7877,
      "Jo": 7878,
      "Jur": 7879,
      "Jud": 7880,
      "Ken": 7881,
      "Lake": 7882,
      "Mo": 7883,
      "Must": 7884,
      "Mile": 7885,
      "Mem": 7886,
      "NE": 7887,
      "Nort": 7888,
      "Over": 7889,
      "Put": 7890,
      "Pes": 7891,
      "Right": 7892,
      "Round": 7893,
      "Sw": 7894,
      "Son": 7895,
      "Sac": 7896,
      "Sne": 7897,
      "Swa": 7898,
      "Sons": 7899,
      "Six": 7900,
      "SING": 7901,
      "Tate": 7902,
      "Vice": 7903,
      "Valley": 7904,
      "VAN": 7905,
      "Wh": 7906,
      "XI": 7907,
      "XII": 7908,
      "XXV": 7909,
      "Yesterday": 7910,
      "_a": 7911,
      "_d": 7912,
      "_Mem": 7913,
      "ais": 7914,
      "ald": 7915,
      "aug": 7916,
      "aught": 7917,
      "aces": 7918,
      "bou": 7919,
      "bby": 7920,
      "buncle": 7921,
      "cate": 7922,
      "crush": 7923,
      "gant": 7924,
      "itor": 7925,
      "iably": 7926,
      "iantly": 7927,
      "iveness": 7928,
      "jut": 7929,
      "jagged": 7930,
      "kily": 7931,
      "lain": 7932,
      "lack": 7933,
      "lcome": 7934,
      "lerable": 7935,
      "mul": 7936,
      "mson": 7937,
      "mush": 7938,
      "nour": 7939,
      "nic": 7940,
      "nical": 7941,
      "oct": 7942,
      "oop": 7943,
      "oars": 7944,
      "ology": 7945,
      "oxy": 7946,
      "pæ": 7947,
      "pup": 7948,
      "pment": 7949,
      "pang": 7950,
      "pained": 7951,
      "pane": 7952,
      "pledge": 7953,
      "purely": 7954,
      "rung": 7955,
      "rash": 7956,
      "sits": 7957,
      "tten": 7958,
      "tang": 7959,
      "tint": 7960,
      "tug": 7961,
      "tune": 7962,
      "tleness": 7963,
      "tangled": 7964,
      "vy": 7965,
      "vity": 7966,
      "xim": 7967,
      "yew": 7968,
      "heim": 7969,
      "inal": 7970,
      "inex": 7971,
      "income": 7972,
      "inches": 7973,
      "invar": 7974,
      "inconvenience": 7975,
      "involuntarily": 7976,
      "thest": 7977,
      "anon": 7978,
      "antry": 7979,
      "anni": 7980,
      "rey": 7981,
      "reth": 7982,
      "rear": 7983,
      "rela": 7984,
      "recl": 7985,
      "recomp": 7986,
      "reserve": 7987,
      "oug": 7988,
      "ouched": 7989,
      "thud": 7990,
      "thither": 7991,
      "attic": 7992,
      "onto": 7993,
      "anded": 7994,
      "andum": 7995,
      "toss": 7996,
      "towel": 7997,
      "encourage": 7998,
      "enchant": 7999,
      "orable": 8000,
      "orphan": 8001,
      "meter": 8002,
      "aris": 8003,
      "array": 8004,
      "llous": 8005,
      "itary": 8006,
      "itza": 8007,
      "hap": 8008,
      "hallow": 8009,
      "lemon": 8010,
      "league": 8011,
      "leiter": 8012,
      "seve": 8013,
      "beer": 8014,
      "beset": 8015,
      "veiled": 8016,
      "velled": 8017,
      "hilar": 8018,
      "ros": 8019,
      "ropes": 8020,
      "weird": 8021,
      "ceasing": 8022,
      "wipe": 8023,
      "chord": 8024,
      "defe": 8025,
      "decre": 8026,
      "demean": 8027,
      "demn": 8028,
      "uten": 8029,
      "utions": 8030,
      "forming": 8031,
      "alan": 8032,
      "alted": 8033,
      "altern": 8034,
      "escap": 8035,
      "ripp": 8036,
      "riot": 8037,
      "ricity": 8038,
      "lion": 8039,
      "lius": 8040,
      "liqu": 8041,
      "likes": 8042,
      "livid": 8043,
      "lifting": 8044,
      "idal": 8045,
      "idently": 8046,
      "allied": 8047,
      "withdrew": 8048,
      "load": 8049,
      "loop": 8050,
      "lowered": 8051,
      "lowest": 8052,
      "ticking": 8053,
      "tify": 8054,
      "adjust": 8055,
      "cod": 8056,
      "cost": 8057,
      "coal": 8058,
      "coats": 8059,
      "coinc": 8060,
      "untrue": 8061,
      "uneasily": 8062,
      "unselfish": 8063,
      "unwilling": 8064,
      "uncomfortably": 8065,
      "unhallow": 8066,
      "sale": 8067,
      "saucer": 8068,
      "homic": 8069,
      "femin": 8070,
      "fetch": 8071,
      "mole": 8072,
      "mocking": 8073,
      "getic": 8074,
      "whips": 8075,
      "sia": 8076,
      "siveness": 8077,
      "neg": 8078,
      "neath": 8079,
      "nelius": 8080,
      "outward": 8081,
      "amond": 8082,
      "ambul": 8083,
      "doo": 8084,
      "domest": 8085,
      "poster": 8086,
      "poign": 8087,
      "suf": 8088,
      "suite": 8089,
      "suited": 8090,
      "sustained": 8091,
      "area": 8092,
      "manus": 8093,
      "Heath": 8094,
      "ards": 8095,
      "raved": 8096,
      "conso": 8097,
      "convent": 8098,
      "contri": 8099,
      "concei": 8100,
      "condemn": 8101,
      "induced": 8102,
      "capt": 8103,
      "causing": 8104,
      "shan": 8105,
      "shru": 8106,
      "agency": 8107,
      "expan": 8108,
      "exalted": 8109,
      "etah": 8110,
      "foli": 8111,
      "foam": 8112,
      "whoever": 8113,
      "wholly": 8114,
      "ulster": 8115,
      "owners": 8116,
      "perman": 8117,
      "pertur": 8118,
      "perceiving": 8119,
      "astound": 8120,
      "laz": 8121,
      "laud": 8122,
      "icy": 8123,
      "iction": 8124,
      "oming": 8125,
      "major": 8126,
      "iline": 8127,
      "boo": 8128,
      "bored": 8129,
      "boot": 8130,
      "cane": 8131,
      "canvas": 8132,
      "woven": 8133,
      "akin": 8134,
      "aken": 8135,
      "akes": 8136,
      "affli": 8137,
      "intolerable": 8138,
      "overcoat": 8139,
      "Welcome": 8140,
      "oline": 8141,
      "spurn": 8142,
      "dish": 8143,
      "distre": 8144,
      "distri": 8145,
      "disclose": 8146,
      "disquiet": 8147,
      "discoloured": 8148,
      "handful": 8149,
      "theirs": 8150,
      "downward": 8151,
      "scra": 8152,
      "prose": 8153,
      "proposed": 8154,
      "procession": 8155,
      "lightened": 8156,
      "diver": 8157,
      "diamond": 8158,
      "pawn": 8159,
      "backs": 8160,
      "tened": 8161,
      "tense": 8162,
      "plane": 8163,
      "plucked": 8164,
      "evenings": 8165,
      "renched": 8166,
      "rences": 8167,
      "ishly": 8168,
      "clopæ": 8169,
      "imitation": 8170,
      "glances": 8171,
      "thoughtfully": 8172,
      "everlasting": 8173,
      "stray": 8174,
      "rists": 8175,
      "leton": 8176,
      "letting": 8177,
      "clam": 8178,
      "clouded": 8179,
      "treacher": 8180,
      "serves": 8181,
      "restaur": 8182,
      "psy": 8183,
      "spected": 8184,
      "spells": 8185,
      "gruff": 8186,
      "underneath": 8187,
      "answers": 8188,
      "blink": 8189,
      "bliss": 8190,
      "waving": 8191,
      "chicken": 8192,
      "bedside": 8193,
      "bedrooms": 8194,
      "tortures": 8195,
      "smart": 8196,
      "smith": 8197,
      "cream": 8198,
      "creep": 8199,
      "creak": 8200,
      "Inspector": 8201,
      "mint": 8202,
      "pton": 8203,
      "cheetah": 8204,
      "momentarily": 8205,
      "carn": 8206,
      "carries": 8207,
      "matches": 8208,
      "flaming": 8209,
      "flashing": 8210,
      "intu": 8211,
      "counsel": 8212,
      "childish": 8213,
      "childhood": 8214,
      "Lucille": 8215,
      "lingering": 8216,
      "shoe": 8217,
      "landing": 8218,
      "landlady": 8219,
      "cile": 8220,
      "chap": 8221,
      "chambers": 8222,
      "fearfully": 8223,
      "vili": 8224,
      "parting": 8225,
      "shill": 8226,
      "shivered": 8227,
      "loveliness": 8228,
      "sett": 8229,
      "fortitude": 8230,
      "sterilise": 8231,
      "broker": 8232,
      "merc": 8233,
      "joint": 8234,
      "print": 8235,
      "pract": 8236,
      "Hot": 8237,
      "Hood": 8238,
      "tiness": 8239,
      "guv": 8240,
      "guided": 8241,
      "hears": 8242,
      "ugly": 8243,
      "harder": 8244,
      "hardened": 8245,
      "blos": 8246,
      "avalan": 8247,
      "piers": 8248,
      "picking": 8249,
      "piano": 8250,
      "helplessly": 8251,
      "parched": 8252,
      "paroxy": 8253,
      "insen": 8254,
      "insist": 8255,
      "homely": 8256,
      "doubled": 8257,
      "halfway": 8258,
      "Study": 8259,
      "purch": 8260,
      "purity": 8261,
      "purple": 8262,
      "Sereth": 8263,
      "gait": 8264,
      "gale": 8265,
      "gaze": 8266,
      "steal": 8267,
      "steans": 8268,
      "deduction": 8269,
      "deduced": 8270,
      "licable": 8271,
      "resided": 8272,
      "streak": 8273,
      "refus": 8274,
      "trim": 8275,
      "tribe": 8276,
      "gible": 8277,
      "cuff": 8278,
      "needle": 8279,
      "powder": 8280,
      "wonders": 8281,
      "signature": 8282,
      "signalled": 8283,
      "crimson": 8284,
      "drooping": 8285,
      "temptation": 8286,
      "intercourse": 8287,
      "interference": 8288,
      "engro": 8289,
      "engaging": 8290,
      "confided": 8291,
      "continual": 8292,
      "pleasantly": 8293,
      "remarkably": 8294,
      "eastern": 8295,
      "writers": 8296,
      "calmed": 8297,
      "calmer": 8298,
      "watchful": 8299,
      "submit": 8300,
      "busi": 8301,
      "Someone": 8302,
      "promin": 8303,
      "grieved": 8304,
      "prize": 8305,
      "doubtful": 8306,
      "izing": 8307,
      "Cook": 8308,
      "dogged": 8309,
      "coldly": 8310,
      "surprising": 8311,
      "cuted": 8312,
      "cutting": 8313,
      "reasoner": 8314,
      "simplicity": 8315,
      "patron": 8316,
      "descent": 8317,
      "descending": 8318,
      "despise": 8319,
      "despised": 8320,
      "crue": 8321,
      "aboon": 8322,
      "fourteen": 8323,
      "ridic": 8324,
      "moons": 8325,
      "umps": 8326,
      "Thing": 8327,
      "undu": 8328,
      "burgl": 8329,
      "considering": 8330,
      "completion": 8331,
      "velve": 8332,
      "elements": 8333,
      "Unless": 8334,
      "bigger": 8335,
      "clients": 8336,
      "harness": 8337,
      "Rock": 8338,
      "Albert": 8339,
      "bricks": 8340,
      "glot": 8341,
      "cloudless": 8342,
      "cabman": 8343,
      "cheerily": 8344,
      "claimed": 8345,
      "analys": 8346,
      "occurrences": 8347,
      "attending": 8348,
      "appearances": 8349,
      "Love": 8350,
      "banking": 8351,
      "boards": 8352,
      "searchlight": 8353,
      "entertain": 8354,
      "boundary": 8355,
      "sixty": 8356,
      "minutely": 8357,
      "passionately": 8358,
      "wiser": 8359,
      "wisdom": 8360,
      "Nevertheless": 8361,
      "deserved": 8362,
      "screaming": 8363,
      "weakened": 8364,
      "gardens": 8365,
      "gardener": 8366,
      "burnt": 8367,
      "inquire": 8368,
      "sickened": 8369,
      "welcomed": 8370,
      "swir": 8371,
      "sends": 8372,
      "sending": 8373,
      "successfully": 8374,
      "bravely": 8375,
      "fervour": 8376,
      "regions": 8377,
      "slack": 8378,
      "instruction": 8379,
      "judges": 8380,
      "pitiable": 8381,
      "_18": 8382,
      "bowl": 8383,
      "tombstones": 8384,
      "palpit": 8385,
      "addressing": 8386,
      "respects": 8387,
      "Woman": 8388,
      "sufficiently": 8389,
      "islands": 8390,
      "Englishman": 8391,
      "castles": 8392,
      "eccent": 8393,
      "destroyer": 8394,
      "devote": 8395,
      "hesitate": 8396,
      "shouting": 8397,
      "fiendish": 8398,
      "oblig": 8399,
      "contemplate": 8400,
      "bursts": 8401,
      "eighteen": 8402,
      "schooner": 8403,
      "embraced": 8404,
      "softness": 8405,
      "mutual": 8406,
      "impressions": 8407,
      "invitation": 8408,
      "blazed": 8409,
      "damned": 8410,
      "hasty": 8411,
      "unique": 8412,
      "experiment": 8413,
      "bidding": 8414,
      "fragment": 8415,
      "killing": 8416,
      "rattle": 8417,
      "twinkled": 8418,
      "copper": 8419,
      "introduce": 8420,
      "inquis": 8421,
      "agonising": 8422,
      "persuas": 8423,
      "spective": 8424,
      "Germany": 8425,
      "salary": 8426,
      "tracks": 8427,
      "narration": 8428,
      "Turning": 8429,
      "sticks": 8430,
      "groaning": 8431,
      "cupboard": 8432,
      "revealed": 8433,
      "reverently": 8434,
      "agreement": 8435,
      "bulky": 8436,
      "authors": 8437,
      "authority": 8438,
      "Among": 8439,
      "balanced": 8440,
      "nesday": 8441,
      "scenery": 8442,
      "slippers": 8443,
      "responsibility": 8444,
      "banished": 8445,
      "candles": 8446,
      "drunken": 8447,
      "fills": 8448,
      "abhorrence": 8449,
      "Leghorn": 8450,
      "Stoper": 8451,
      "bathroom": 8452,
      "Adventure": 8453,
      "moderate": 8454,
      "guiltless": 8455,
      "Turkish": 8456,
      "bald": 8457,
      "bathed": 8458,
      "furi": 8459,
      "hunted": 8460,
      "combined": 8461,
      "combination": 8462,
      "unconsciously": 8463,
      "poisoned": 8464,
      "spider": 8465,
      "supplied": 8466,
      "coachman": 8467,
      "dignified": 8468,
      "Brixton": 8469,
      "Cornelius": 8470,
      "deemed": 8471,
      "declined": 8472,
      "sparkled": 8473,
      "clerks": 8474,
      "clasp": 8475,
      "clutching": 8476,
      "writhed": 8477,
      "separate": 8478,
      "presumption": 8479,
      "horrified": 8480,
      "fascination": 8481,
      "profoundly": 8482,
      "barking": 8483,
      "knuck": 8484,
      "snap": 8485,
      "associate": 8486,
      "article": 8487,
      "lecture": 8488,
      "lectures": 8489,
      "absorbing": 8490,
      "cruelty": 8491,
      "Bistritza": 8492,
      "betrayed": 8493,
      "buttons": 8494,
      "buttoned": 8495,
      "decisively": 8496,
      "HOME": 8497,
      "heaps": 8498,
      "receiver": 8499,
      "entreaties": 8500,
      "rapidity": 8501,
      "dependent": 8502,
      "Walworth": 8503,
      "annoy": 8504,
      "blanket": 8505,
      "blankets": 8506,
      "blotted": 8507,
      "ecstatic": 8508,
      "malignant": 8509,
      "cigarettes": 8510,
      "sympathise": 8511,
      "railway": 8512,
      "accents": 8513,
      "concentration": 8514,
      "tradition": 8515,
      "perpetually": 8516,
      "asserted": 8517,
      "fulfilment": 8518,
      "exceptional": 8519,
      "consequences": 8520,
      "Super": 8521,
      "Suppose": 8522,
      "blankly": 8523,
      "significance": 8524,
      "engagement": 8525,
      "embarrassed": 8526,
      "tumultuous": 8527,
      "COME": 8528,
      "briskly": 8529,
      "fisher": 8530,
      "frantic": 8531,
      "gorge": 8532,
      "swollen": 8533,
      "moaned": 8534,
      "tormented": 8535,
      "intervals": 8536,
      "intelligence": 8537,
      "Crescent": 8538,
      "Magy": 8539,
      "henceforth": 8540,
      "additional": 8541,
      "apprehension": 8542,
      "Austral": 8543,
      "Time": 8544,
      "bonnet": 8545,
      "barrier": 8546,
      "obeyed": 8547,
      "ultimately": 8548,
      "glimmer": 8549,
      "Gardens": 8550,
      "Keep": 8551,
      "Middle": 8552,
      "Wednesday": 8553,
      "fruit": 8554,
      "talent": 8555,
      "relapse": 8556,
      "encouraged": 8557,
      "leisure": 8558,
      "adopted": 8559,
      "abstracted": 8560,
      "screech": 8561,
      "scientific": 8562,
      "brutal": 8563,
      "offensive": 8564,
      "buzzing": 8565,
      "HELSING": 8566,
      "briefly": 8567,
      "threateningly": 8568,
      "celebrated": 8569,
      "DEAR": 8570,
      "Early": 8571,
      "Purfleet": 8572,
      "_Lone": 8573,
      "frenzy": 8574,
      "granted": 8575,
      "phase": 8576,
      "snuff": 8577,
      "lighthouse": 8578,
      "lavender": 8579,
      "dissipate": 8580,
      "corrected": 8581,
      "corruption": 8582,
      "marvellous": 8583,
      "borrowed": 8584,
      "prejudice": 8585,
      "Hampstead": 8586,
      "Kindly": 8587,
      "aquiline": 8588,
      "skeleton": 8589,
      "thief": 8590,
      "thimble": 8591,
      "encompassed": 8592,
      "leagues": 8593,
      "forcibly": 8594,
      "uncontrollable": 8595,
      "polyglot": 8596,
      "premises": 8597,
      "overpowering": 8598,
      "monoton": 8599,
      "attributed": 8600,
      "partially": 8601,
      "symbo": 8602,
      "grizzled": 8603,
      "Excellent": 8604,
      "embarrassment": 8605,
      "Bristol": 8606,
      "Buda": 8607,
      "Bilder": 8608,
      "Norton": 8609,
      "Pesth": 8610,
      "Sacred": 8611,
      "Swales": 8612,
      "White": 8613,
      "tangible": 8614,
      "relaxed": 8615,
      "severely": 8616,
      "demeanour": 8617,
      "coincidence": 8618,
      "unhallowed": 8619,
      "homicidal": 8620,
      "domestic": 8621,
      "shrubbery": 8622,
      "expanse": 8623,
      "distressed": 8624,
      "district": 8625,
      "pawnbroker": 8626,
      "paroxysm": 8627,
      "analysis": 8628,
      "13": 8629,
      "25": 8630,
      "7th": 8631,
      "AC": 8632,
      "Ac": 8633,
      "Aha": 8634,
      "Aloy": 8635,
      "Ba": 8636,
      "Bal": 8637,
      "Bay": 8638,
      "Ball": 8639,
      "Cas": 8640,
      "DO": 8641,
      "Dou": 8642,
      "Dut": 8643,
      "Dard": 8644,
      "Down": 8645,
      "Devil": 8646,
      "Fow": 8647,
      "Fris": 8648,
      "Fundu": 8649,
      "Ga": 8650,
      "Har": 8651,
      "Hence": 8652,
      "House": 8653,
      "Hush": 8654,
      "Hild": 8655,
      "IT": 8656,
      "Ir": 8657,
      "Isa": 8658,
      "Jer": 8659,
      "Jim": 8660,
      "Jose": 8661,
      "Know": 8662,
      "Ket": 8663,
      "Kuk": 8664,
      "Li": 8665,
      "Lef": 8666,
      "Lloy": 8667,
      "Mat": 8668,
      "Med": 8669,
      "Might": 8670,
      "Mil": 8671,
      "Mull": 8672,
      "Make": 8673,
      "Om": 8674,
      "PE": 8675,
      "Pop": 8676,
      "Pond": 8677,
      "Prob": 8678,
      "RA": 8679,
      "Ru": 8680,
      "Sm": 8681,
      "Sit": 8682,
      "Sha": 8683,
      "Sil": 8684,
      "Sure": 8685,
      "Stra": 8686,
      "Span": 8687,
      "Sale": 8688,
      "Tow": 8689,
      "Town": 8690,
      "Till": 8691,
      "Twin": 8692,
      "Usu": 8693,
      "Vi": 8694,
      "Wer": 8695,
      "Want": 8696,
      "Wake": 8697,
      "WAY": 8698,
      "WEND": 8699,
      "Youn": 8700,
      "_6": 8701,
      "_I": 8702,
      "_en": 8703,
      "_him": 8704,
      "_know": 8705,
      "aj": 8706,
      "amy": 8707,
      "awaiting": 8708,
      "avert": 8709,
      "bis": 8710,
      "bats": 8711,
      "brid": 8712,
      "btless": 8713,
      "cort": 8714,
      "din": 8715,
      "dan": 8716,
      "dart": 8717,
      "dened": 8718,
      "dances": 8719,
      "ean": 8720,
      "eem": 8721,
      "fund": 8722,
      "fanci": 8723,
      "fading": 8724,
      "gon": 8725,
      "gence": 8726,
      "glove": 8727,
      "ggy": 8728,
      "ggling": 8729,
      "hudd": 8730,
      "ifor": 8731,
      "ili": 8732,
      "ico": 8733,
      "iment": 8734,
      "ilet": 8735,
      "iency": 8736,
      "jet": 8737,
      "jaun": 8738,
      "kite": 8739,
      "lation": 8740,
      "lung": 8741,
      "mally": 8742,
      "mason": 8743,
      "muttering": 8744,
      "nance": 8745,
      "num": 8746,
      "naked": 8747,
      "pred": 8748,
      "pened": 8749,
      "pended": 8750,
      "pages": 8751,
      "rd": 8752,
      "rs": 8753,
      "rand": 8754,
      "ras": 8755,
      "rab": 8756,
      "ration": 8757,
      "rack": 8758,
      "rouse": 8759,
      "rhy": 8760,
      "san": 8761,
      "sno": 8762,
      "shave": 8763,
      "swords": 8764,
      "scold": 8765,
      "sash": 8766,
      "swarm": 8767,
      "slab": 8768,
      "squal": 8769,
      "sallow": 8770,
      "sherry": 8771,
      "tat": 8772,
      "tack": 8773,
      "tents": 8774,
      "uate": 8775,
      "uated": 8776,
      "uating": 8777,
      "usive": 8778,
      "umbre": 8779,
      "vor": 8780,
      "vies": 8781,
      "voured": 8782,
      "wl": 8783,
      "wha": 8784,
      "waf": 8785,
      "wark": 8786,
      "wrists": 8787,
      "xam": 8788,
      "yo": 8789,
      "yal": 8790,
      "zek": 8791,
      "zoop": 8792,
      "’--": 8793,
      "’?”": 8794,
      "“’": 8795,
      "inth": 8796,
      "inac": 8797,
      "inity": 8798,
      "ints": 8799,
      "theart": 8800,
      "anna": 8801,
      "rele": 8802,
      "recon": 8803,
      "resc": 8804,
      "reap": 8805,
      "reared": 8806,
      "recur": 8807,
      "reins": 8808,
      "recomm": 8809,
      "recess": 8810,
      "rels": 8811,
      "represented": 8812,
      "reverse": 8813,
      "recesses": 8814,
      "respected": 8815,
      "tho": 8816,
      "thless": 8817,
      "atus": 8818,
      "oning": 8819,
      "era": 8820,
      "erate": 8821,
      "erous": 8822,
      "ernal": 8823,
      "edek": 8824,
      "toe": 8825,
      "toilet": 8826,
      "aspi": 8827,
      "ision": 8828,
      "isself": 8829,
      "enn": 8830,
      "enig": 8831,
      "encoun": 8832,
      "ensure": 8833,
      "enhall": 8834,
      "envir": 8835,
      "ingen": 8836,
      "ingale": 8837,
      "ingrat": 8838,
      "orously": 8839,
      "mead": 8840,
      "melt": 8841,
      "mews": 8842,
      "arf": 8843,
      "arat": 8844,
      "artific": 8845,
      "lles": 8846,
      "ites": 8847,
      "itably": 8848,
      "stab": 8849,
      "stated": 8850,
      "haw": 8851,
      "seam": 8852,
      "sect": 8853,
      "secl": 8854,
      "seats": 8855,
      "sewing": 8856,
      "select": 8857,
      "beef": 8858,
      "beamed": 8859,
      "befallen": 8860,
      "nosed": 8861,
      "hip": 8862,
      "washing": 8863,
      "robor": 8864,
      "royal": 8865,
      "western": 8866,
      "wealthy": 8867,
      "cere": 8868,
      "celest": 8869,
      "wig": 8870,
      "del": 8871,
      "deter": 8872,
      "deco": 8873,
      "decan": 8874,
      "deft": 8875,
      "delive": 8876,
      "dearer": 8877,
      "deference": 8878,
      "utral": 8879,
      "soil": 8880,
      "soap": 8881,
      "soever": 8882,
      "solic": 8883,
      "sobbing": 8884,
      "myri": 8885,
      "forgiven": 8886,
      "hissed": 8887,
      "alike": 8888,
      "esheim": 8889,
      "escort": 8890,
      "rier": 8891,
      "ribb": 8892,
      "liable": 8893,
      "withdraw": 8894,
      "lots": 8895,
      "tile": 8896,
      "tims": 8897,
      "irregular": 8898,
      "adise": 8899,
      "coo": 8900,
      "cope": 8901,
      "cotic": 8902,
      "cosy": 8903,
      "cocked": 8904,
      "coloss": 8905,
      "unmis": 8906,
      "unjust": 8907,
      "unfair": 8908,
      "unned": 8909,
      "unhappiness": 8910,
      "uncommon": 8911,
      "unfinished": 8912,
      "unior": 8913,
      "unacquainted": 8914,
      "ungrateful": 8915,
      "unparallel": 8916,
      "unforeseen": 8917,
      "sages": 8918,
      "hol": 8919,
      "urable": 8920,
      "fection": 8921,
      "herb": 8922,
      "acious": 8923,
      "activ": 8924,
      "ackest": 8925,
      "keley": 8926,
      "movies": 8927,
      "butcher": 8928,
      "sius": 8929,
      "sified": 8930,
      "sitory": 8931,
      "upward": 8932,
      "nels": 8933,
      "negro": 8934,
      "neutral": 8935,
      "outra": 8936,
      "outstretched": 8937,
      "ampton": 8938,
      "shelves": 8939,
      "polo": 8940,
      "pomp": 8941,
      "pooh": 8942,
      "suck": 8943,
      "suits": 8944,
      "suave": 8945,
      "god": 8946,
      "manif": 8947,
      "mania": 8948,
      "rak": 8949,
      "raph": 8950,
      "endued": 8951,
      "conver": 8952,
      "constern": 8953,
      "converse": 8954,
      "contribut": 8955,
      "condescend": 8956,
      "consumm": 8957,
      "ifying": 8958,
      "agraph": 8959,
      "exile": 8960,
      "expense": 8961,
      "exposure": 8962,
      "existing": 8963,
      "fox": 8964,
      "tedious": 8965,
      "uled": 8966,
      "ulity": 8967,
      "ulations": 8968,
      "owned": 8969,
      "perv": 8970,
      "perspiration": 8971,
      "perceptible": 8972,
      "fade": 8973,
      "lakes": 8974,
      "icle": 8975,
      "icherry": 8976,
      "essence": 8977,
      "omni": 8978,
      "machin": 8979,
      "preyed": 8980,
      "preserved": 8981,
      "boon": 8982,
      "bother": 8983,
      "worm": 8984,
      "ppy": 8985,
      "aff": 8986,
      "afar": 8987,
      "affright": 8988,
      "forefinger": 8989,
      "overtook": 8990,
      "illes": 8991,
      "shared": 8992,
      "shaven": 8993,
      "shaving": 8994,
      "shades": 8995,
      "bleeding": 8996,
      "spin": 8997,
      "spon": 8998,
      "sped": 8999,
      "spire": 9000,
      "springs": 9001,
      "dislike": 9002,
      "distrust": 9003,
      "disposed": 9004,
      "disgrace": 9005,
      "elastic": 9006,
      "ranged": 9007,
      "nightingale": 9008,
      "gres": 9009,
      "tions": 9010,
      "scrup": 9011,
      "scrawled": 9012,
      "inev": 9013,
      "stores": 9014,
      "shouldn": 9015,
      "provi": 9016,
      "prodig": 9017,
      "proxim": 9018,
      "lighting": 9019,
      "rows": 9020,
      "dimin": 9021,
      "division": 9022,
      "earliest": 9023,
      "paign": 9024,
      "wardrobe": 9025,
      "newcom": 9026,
      "appreci": 9027,
      "assuring": 9028,
      "assisted": 9029,
      "useum": 9030,
      "plant": 9031,
      "plum": 9032,
      "pluck": 9033,
      "plumber": 9034,
      "wherein": 9035,
      "whereon": 9036,
      "uctive": 9037,
      "ortly": 9038,
      "afterward": 9039,
      "rents": 9040,
      "tingle": 9041,
      "mumbled": 9042,
      "longing": 9043,
      "closes": 9044,
      "immortal": 9045,
      "sington": 9046,
      "getables": 9047,
      "risti": 9048,
      "clum": 9049,
      "anged": 9050,
      "angrily": 9051,
      "serving": 9052,
      "resti": 9053,
      "rests": 9054,
      "bru": 9055,
      "offering": 9056,
      "ignomin": 9057,
      "esteem": 9058,
      "bler": 9059,
      "bland": 9060,
      "blackest": 9061,
      "hypo": 9062,
      "hydro": 9063,
      "chival": 9064,
      "begging": 9065,
      "Peters": 9066,
      "sons": 9067,
      "comprom": 9068,
      "crevice": 9069,
      "Inn": 9070,
      "minster": 9071,
      "rightly": 9072,
      "vesend": 9073,
      "effe": 9074,
      "efully": 9075,
      "cheon": 9076,
      "chell": 9077,
      "cheap": 9078,
      "cheery": 9079,
      "cheese": 9080,
      "dearly": 9081,
      "carbuncle": 9082,
      "mattress": 9083,
      "deny": 9084,
      "dency": 9085,
      "impas": 9086,
      "imply": 9087,
      "implor": 9088,
      "imprud": 9089,
      "ticket": 9090,
      "tickets": 9091,
      "airs": 9092,
      "courtly": 9093,
      "Godfre": 9094,
      "flur": 9095,
      "flown": 9096,
      "fluct": 9097,
      "flinch": 9098,
      "breeding": 9099,
      "workmen": 9100,
      "countries": 9101,
      "mond": 9102,
      "monsters": 9103,
      "lingered": 9104,
      "shooting": 9105,
      "landsca": 9106,
      "nail": 9107,
      "sung": 9108,
      "sundial": 9109,
      "cian": 9110,
      "chaff": 9111,
      "fearing": 9112,
      "supreme": 9113,
      "finds": 9114,
      "viour": 9115,
      "vivac": 9116,
      "shifting": 9117,
      "shivering": 9118,
      "wont": 9119,
      "opens": 9120,
      "mermaid": 9121,
      "darker": 9122,
      "darkly": 9123,
      "darkened": 9124,
      "guiding": 9125,
      "instig": 9126,
      "trail": 9127,
      "traff": 9128,
      "fewer": 9129,
      "corrobor": 9130,
      "hardships": 9131,
      "blocked": 9132,
      "jewell": 9133,
      "avy": 9134,
      "sweat": 9135,
      "bitten": 9136,
      "Johnny": 9137,
      "curling": 9138,
      "cursor": 9139,
      "paragraph": 9140,
      "insanity": 9141,
      "homeward": 9142,
      "gnashed": 9143,
      "gravity": 9144,
      "ladder": 9145,
      "believing": 9146,
      "deaths": 9147,
      "deathly": 9148,
      "sounding": 9149,
      "Stand": 9150,
      "Stay": 9151,
      "presents": 9152,
      "repent": 9153,
      "repug": 9154,
      "sensibly": 9155,
      "gaol": 9156,
      "games": 9157,
      "stealing": 9158,
      "Daily": 9159,
      "excessive": 9160,
      "hushed": 9161,
      "husky": 9162,
      "huskily": 9163,
      "ruff": 9164,
      "trip": 9165,
      "speaks": 9166,
      "Being": 9167,
      "needn": 9168,
      "angelic": 9169,
      "awed": 9170,
      "excused": 9171,
      "cribe": 9172,
      "cripple": 9173,
      "conduc": 9174,
      "phant": 9175,
      "phoned": 9176,
      "interpre": 9177,
      "beauties": 9178,
      "closest": 9179,
      "confession": 9180,
      "cypher": 9181,
      "cyclopæ": 9182,
      "valued": 9183,
      "subs": 9184,
      "bub": 9185,
      "spirited": 9186,
      "humb": 9187,
      "whistles": 9188,
      "gripped": 9189,
      "truest": 9190,
      "holds": 9191,
      "ize": 9192,
      "cessible": 9193,
      "Colle": 9194,
      "quieted": 9195,
      "sighted": 9196,
      "playfully": 9197,
      "joys": 9198,
      "ferences": 9199,
      "dreamt": 9200,
      "mix": 9201,
      "alongside": 9202,
      "madly": 9203,
      "maddening": 9204,
      "Encyclopæ": 9205,
      "reasonable": 9206,
      "simpler": 9207,
      "patent": 9208,
      "patches": 9209,
      "otter": 9210,
      "fasten": 9211,
      "anelles": 9212,
      "blackness": 9213,
      "changel": 9214,
      "Lordship": 9215,
      "crust": 9216,
      "crouched": 9217,
      "wildest": 9218,
      "pretence": 9219,
      "pennies": 9220,
      "wrecked": 9221,
      "gestures": 9222,
      "imagin": 9223,
      "imaginary": 9224,
      "director": 9225,
      "circling": 9226,
      "moonshine": 9227,
      "gladly": 9228,
      "dangerously": 9229,
      "authen": 9230,
      "braves": 9231,
      "suspended": 9232,
      "Westminster": 9233,
      "bury": 9234,
      "mounix": 9235,
      "eyelids": 9236,
      "yelled": 9237,
      "incing": 9238,
      "sharing": 9239,
      "elemental": 9240,
      "elephant": 9241,
      "throws": 9242,
      "crowing": 9243,
      "zeal": 9244,
      "striving": 9245,
      "strikes": 9246,
      "colleague": 9247,
      "shutting": 9248,
      "eagle": 9249,
      "Chamounix": 9250,
      "furs": 9251,
      "identified": 9252,
      "nia": 9253,
      "nursed": 9254,
      "despairingly": 9255,
      "observer": 9256,
      "Alps": 9257,
      "Almighty": 9258,
      "brig": 9259,
      "viewed": 9260,
      "approved": 9261,
      "victims": 9262,
      "elsewhere": 9263,
      "delights": 9264,
      "emac": 9265,
      "maiden": 9266,
      "pursuing": 9267,
      "generation": 9268,
      "generations": 9269,
      "narcotic": 9270,
      "zzle": 9271,
      "groans": 9272,
      "villages": 9273,
      "curiously": 9274,
      "function": 9275,
      "tonight": 9276,
      "resolve": 9277,
      "pathway": 9278,
      "gging": 9279,
      "ieth": 9280,
      "porter": 9281,
      "wisp": 9282,
      "occupy": 9283,
      "luncheon": 9284,
      "Boots": 9285,
      "masters": 9286,
      "throats": 9287,
      "forgetfulness": 9288,
      "custo": 9289,
      "Post": 9290,
      "attempting": 9291,
[...]
