{
  "version": "1.0",
  "truncation": null,
  "padding": null,
  "added_tokens": [
    {
      "id": 0,
      "content": "[UNK]",
      "single_word": false,
      "lstrip": false,
      "rstrip": false,
      "normalized": false,
      "special": true
    },
    {
      "id": 1,
      "content": "[PAD]",
      "single_word": false,
      "lstrip": false,
      "rstrip": false,
      "normalized": false,
      "special": true
    },
    {
      "id": 2,
      "content": "[CLS]",
      "single_word": false,
      "lstrip": false,
      "rstrip": false,
      "normalized": false,
      "special": true
    },
    {
      "id": 3,
      "content": "[SEP]",
      "single_word": false,
      "lstrip": false,
      "rstrip": false,
      "normalized": false,
      "special": true
    },
    {
      "id": 4,
      "content": "[MASK]",
      "single_word": false,
      "lstrip": false,
      "rstrip": false,
      "normalized": false,
      "special": true
    }
  ],
  "normalizer": {
    "type": "Sequence",
    "normalizers": [
      {
        "type": "NFD"
      },
      {
        "type": "StripAccents"
      }
    ]
  },
  "pre_tokenizer": {
    "type": "Whitespace"
  },
  "post_processor": null,
  "decoder": null,
  "model": {
    "type": "BPE",
    "dropout": null,
    "unk_token": "[UNK]",
    "continuing_subword_prefix": null,
    "end_of_word_suffix": null,
    "fuse_unk": false,
    "byte_fallback": false,
    "ignore_merges": false,
    "vocab": {
      "[UNK]": 0,
      "[PAD]": 1,
      "[CLS]": 2,
      "[SEP]": 3,
      "[MASK]": 4,
      "!": 5,
      "&": 6,
      "(": 7,
      ")": 8,
      "*": 9,
      ",": 10,
      "-": 11,
      ".": 12,
      "/": 13,
      "0": 14,
      "1": 15,
      "2": 16,
      "3": 17,
      "4": 18,
      "5": 19,
      "6": 20,
      "7": 21,
      "8": 22,
      "9": 23,
      ":": 24,
      ";": 25,
      "?": 26,
      "A": 27,
      "B": 28,
      "C": 29,
      "D": 30,
      "E": 31,
      "F": 32,
      "G": 33,
      "H": 34,
      "I": 35,
      "J": 36,
      "K": 37,
      "L": 38,
      "M": 39,
      "N": 40,
      "O": 41,
      "P": 42,
      "Q": 43,
      "R": 44,
      "S": 45,
      "T": 46,
      "U": 47,
      "V": 48,
      "W": 49,
      "X": 50,
      "Y": 51,
      "Z": 52,
      "[": 53,
      "]": 54,
      "_": 55,
      "a": 56,
      "b": 57,
      "c": 58,
      "d": 59,
      "e": 60,
      "f": 61,
      "g": 62,
      "h": 63,
      "i": 64,
      "j": 65,
      "k": 66,
      "l": 67,
      "m": 68,
      "n": 69,
      "o": 70,
      "p": 71,
      "q": 72,
      "r": 73,
      "s": 74,
      "t": 75,
      "u": 76,
      "v": 77,
      "w": 78,
      "x": 79,
      "y": 80,
      "z": 81,
      "æ": 82,
      "—": 83,
      "‘": 84,
      "’": 85,
      "“": 86,
      "”": 87,
      "he": 88,
      "in": 89,
      "an": 90,
      "the": 91,
      "re": 92,
      "ou": 93,
      "th": 94,
      "er": 95,
      "on": 96,
      "at": 97,
      "and": 98,
      "to": 99,
      "ed": 100,
      "is": 101,
      "as": 102,
      "en": 103,
      "ing": 104,
      "of": 105,
      "ar": 106,
      "it": 107,
      "or": 108,
      "me": 109,
      "le": 110,
      "ll": 111,
      "ha": 112,
      "st": 113,
      "se": 114,
      "be": 115,
      "ow": 116,
      "hi": 117,
      "ld": 118,
      "ce": 119,
      "id": 120,
      "that": 121,
      "ve": 122,
      "wi": 123,
      "was": 124,
      "you": 125,
      "ch": 126,
      "ly": 127,
      "sa": 128,
      "gh": 129,
      "his": 130,
      "no": 131,
      "es": 132,
      "ro": 133,
      "my": 134,
      "ver": 135,
      "ad": 136,
      "ent": 137,
      "li": 138,
      "with": 139,
      "ut": 140,
      "we": 141,
      "for": 142,
      "so": 143,
      "ion": 144,
      "ir": 145,
      "al": 146,
      "had": 147,
      "her": 148,
      "ght": 149,
      "ay": 150,
      "oo": 151,
      "all": 152,
      "un": 153,
      "ur": 154,
      "co": 155,
      "Mr": 156,
      "ould": 157,
      "de": 158,
      "ri": 159,
      "ter": 160,
      "ho": 161,
      "up": 162,
      "ke": 163,
      "him": 164,
      "ne": 165,
      "said": 166,
      "ther": 167,
      "not": 168,
      "ag": 169,
      "ac": 170,
      "mo": 171,
      "fe": 172,
      "out": 173,
      "ti": 174,
      "ab": 175,
      "have": 176,
      "one": 177,
      "pe": 178,
      "ain": 179,
      "su": 180,
      "po": 181,
      "whe": 182,
      "red": 183,
      "she": 184,
      "man": 185,
      "our": 186,
      "am": 187,
      "The": 188,
      "ss": 189,
      "now": 190,
      ",”": 191,
      "con": 192,
      "by": 193,
      "nd": 194,
      "ct": 195,
      "but": 196,
      "hat": 197,
      "ge": 198,
      ".”": 199,
      "whi": 200,
      "do": 201,
      "sh": 202,
      "if": 203,
      "ard": 204,
      "ook": 205,
      "lo": 206,
      "ic": 207,
      "qu": 208,
      "te": 209,
      "ind": 210,
      "lf": 211,
      "are": 212,
      "per": 213,
      "go": 214,
      "us": 215,
      "which": 216,
      "this": 217,
      "very": 218,
      "ex": 219,
      "were": 220,
      "pre": 221,
      "rom": 222,
      "ul": 223,
      "own": 224,
      "who": 225,
      "thing": 226,
      "way": 227,
      "itt": 228,
      "when": 229,
      "bo": 230,
      "ight": 231,
      "from": 232,
      "end": 233,
      "ap": 234,
      "et": 235,
      "self": 236,
      "look": 237,
      "ation": 238,
      "rou": 239,
      "com": 240,
      "ak": 241,
      "know": 242,
      "some": 243,
      "?”": 244,
      "been": 245,
      "ate": 246,
      "fo": 247,
      "He": 248,
      "would": 249,
      "ra": 250,
      "there": 251,
      "ment": 252,
      "ong": 253,
      "any": 254,
      "!”": 255,
      "mu": 256,
      "fi": 257,
      "ant": 258,
      "ous": 259,
      "fa": 260,
      "what": 261,
      "time": 262,
      "ast": 263,
      "ry": 264,
      "ittle": 265,
      "wor": 266,
      "too": 267,
      "say": 268,
      "art": 269,
      "see": 270,
      "im": 271,
      "they": 272,
      "ood": 273,
      "pl": 274,
      "able": 275,
      "ca": 276,
      "little": 277,
      "urn": 278,
      "ess": 279,
      "hand": 280,
      "your": 281,
      "op": 282,
      "um": 283,
      "il": 284,
      "dis": 285,
      "--": 286,
      "could": 287,
      "them": 288,
      "af": 289,
      "other": 290,
      "into": 291,
      "It": 292,
      "wo": 293,
      "der": 294,
      "fore": 295,
      "ck": 296,
      "thou": 297,
      "ink": 298,
      "ance": 299,
      "ru": 300,
      "turn": 301,
      "upon": 302,
      "pro": 303,
      "ble": 304,
      "more": 305,
      "gre": 306,
      "ven": 307,
      "ill": 308,
      "ved": 309,
      "ure": 310,
      ",’": 311,
      "iss": 312,
      "ite": 313,
      "ep": 314,
      "old": 315,
      "again": 316,
      "ber": 317,
      "ty": 318,
      "come": 319,
      "ack": 320,
      "should": 321,
      "ake": 322,
      "like": 323,
      "day": 324,
      "ide": 325,
      "than": 326,
      "ence": 327,
      "will": 328,
      "down": 329,
      "bl": 330,
      "ound": 331,
      "can": 332,
      "ted": 333,
      "el": 334,
      "ers": 335,
      "ass": 336,
      "You": 337,
      "about": 338,
      "ive": 339,
      "never": 340,
      "has": 341,
      "med": 342,
      "ever": 343,
      "ade": 344,
      "pr": 345,
      "ity": 346,
      "over": 347,
      "pp": 348,
      "ice": 349,
      "ady": 350,
      "before": 351,
      "om": 352,
      "We": 353,
      "pa": 354,
      "hed": 355,
      "ving": 356,
      "think": 357,
      "much": 358,
      "But": 359,
      "la": 360,
      "ine": 361,
      "got": 362,
      "oun": 363,
      "head": 364,
      "don": 365,
      "ful": 366,
      "spe": 367,
      "light": 368,
      "ally": 369,
      "their": 370,
      "ey": 371,
      "did": 372,
      "dear": 373,
      "No": 374,
      "good": 375,
      "ear": 376,
      "how": 377,
      "here": 378,
      "ort": 379,
      "then": 380,
      "gl": 381,
      "ouse": 382,
      "Mrs": 383,
      "ked": 384,
      ".’": 385,
      "made": 386,
      "orn": 387,
      "ious": 388,
      "its": 389,
      "after": 390,
      "les": 391,
      "And": 392,
      "sha": 393,
      "great": 394,
      "ob": 395,
      "being": 396,
      "came": 397,
      "night": 398,
      "Miss": 399,
      "ser": 400,
      "thought": 401,
      "well": 402,
      "dy": 403,
      "such": 404,
      "di": 405,
      "under": 406,
      "went": 407,
      "where": 408,
      "long": 409,
      "oc": 410,
      "ten": 411,
      "house": 412,
      "tor": 413,
      "ple": 414,
      "sp": 415,
      "ick": 416,
      "ried": 417,
      "bet": 418,
      "age": 419,
      "ang": 420,
      "ish": 421,
      "face": 422,
      "turned": 423,
      "ated": 424,
      "fir": 425,
      "fri": 426,
      "!’": 427,
      "use": 428,
      "back": 429,
      "ark": 430,
      "new": 431,
      "ig": 432,
      "pos": 433,
      "chi": 434,
      "ness": 435,
      "ward": 436,
      "ull": 437,
      "ting": 438,
      "ng": 439,
      "room": 440,
      "low": 441,
      "sc": 442,
      "rem": 443,
      "ust": 444,
      "might": 445,
      "She": 446,
      "rep": 447,
      "most": 448,
      "off": 449,
      "gr": 450,
      "sent": 451,
      "est": 452,
      "dre": 453,
      "gent": 454,
      "aw": 455,
      "cl": 456,
      "even": 457,
      "arm": 458,
      "ef": 459,
      "put": 460,
      "ave": 461,
      "two": 462,
      "clo": 463,
      "only": 464,
      "himself": 465,
      "ace": 466,
      "str": 467,
      "king": 468,
      "des": 469,
      "av": 470,
      "round": 471,
      "tain": 472,
      "sir": 473,
      "less": 474,
      "cour": 475,
      "ts": 476,
      "ction": 477,
      "may": 478,
      "every": 479,
      "ren": 480,
      "looked": 481,
      "ame": 482,
      "boy": 483,
      "away": 484,
      "myself": 485,
      "side": 486,
      "?’": 487,
      "Jo": 488,
      "eyes": 489,
      "My": 490,
      "young": 491,
      "ree": 492,
      "first": 493,
      "sto": 494,
      "em": 495,
      "friend": 496,
      "door": 497,
      "must": 498,
      "What": 499,
      "pt": 500,
      "ner": 501,
      "vo": 502,
      "Pe": 503,
      "bre": 504,
      "ily": 505,
      "tr": 506,
      "coun": 507,
      "ie": 508,
      "part": 509,
      "looking": 510,
      "let": 511,
      "tak": 512,
      "br": 513,
      "air": 514,
      "press": 515,
      "beg": 516,
      "par": 517,
      "right": 518,
      "led": 519,
      "ps": 520,
      "mind": 521,
      "ise": 522,
      "ways": 523,
      "gentle": 524,
      "pass": 525,
      "saw": 526,
      "hen": 527,
      "rough": 528,
      "word": 529,
      "quite": 530,
      "child": 531,
      "happ": 532,
      "these": 533,
      "gu": 534,
      "There": 535,
      "cas": 536,
      "hy": 537,
      "ary": 538,
      "appe": 539,
      "ket": 540,
      "ans": 541,
      "ach": 542,
      "place": 543,
      "men": 544,
      "In": 545,
      "ci": 546,
      "last": 547,
      "going": 548,
      "sm": 549,
      "sup": 550,
      "llow": 551,
      "take": 552,
      "though": 553,
      "tell": 554,
      "life": 555,
      "took": 556,
      "call": 557,
      "wind": 558,
      "rest": 559,
      "je": 560,
      "full": 561,
      "says": 562,
      "row": 563,
      "bed": 564,
      "act": 565,
      "int": 566,
      "sat": 567,
      "ose": 568,
      "son": 569,
      "get": 570,
      "another": 571,
      "through": 572,
      "If": 573,
      "nothing": 574,
      "without": 575,
      "lie": 576,
      "mother": 577,
      "stand": 578,
      "unt": 579,
      "qui": 580,
      "hair": 581,
      "cre": 582,
      "make": 583,
      "always": 584,
      "wards": 585,
      "still": 586,
      "heart": 587,
      "che": 588,
      "So": 589,
      "mis": 590,
      "att": 591,
      "ft": 592,
      "ened": 593,
      "lied": 594,
      "eld": 595,
      "mon": 596,
      "while": 597,
      "cted": 598,
      "found": 599,
      "returned": 600,
      "present": 601,
      "lt": 602,
      "wr": 603,
      "cer": 604,
      "comp": 605,
      "many": 606,
      "Mic": 607,
      "same": 608,
      "stre": 609,
      "ves": 610,
      "ions": 611,
      "uc": 612,
      "ies": 613,
      "want": 614,
      "sure": 615,
      "done": 616,
      "home": 617,
      "sid": 618,
      "iness": 619,
      "times": 620,
      "shall": 621,
      "pleas": 622,
      "wal": 623,
      "Ch": 624,
      "lady": 625,
      "ste": 626,
      "better": 627,
      "tre": 628,
      "tru": 629,
      "As": 630,
      "jo": 631,
      "hands": 632,
      "aunt": 633,
      "When": 634,
      "name": 635,
      "liver": 636,
      "body": 637,
      "replied": 638,
      "ster": 639,
      "mer": 640,
      "add": 641,
      "mem": 642,
      "tic": 643,
      "ange": 644,
      "wat": 645,
      "fort": 646,
      "conf": 647,
      "moment": 648,
      "pose": 649,
      "That": 650,
      "ling": 651,
      "gentleman": 652,
      "arge": 653,
      "field": 654,
      "knew": 655,
      "cause": 656,
      "bro": 657,
      "ough": 658,
      "Oh": 659,
      "ings": 660,
      "left": 661,
      "won": 662,
      "ath": 663,
      "awber": 664,
      "Micawber": 665,
      "hear": 666,
      "ged": 667,
      "yet": 668,
      "cur": 669,
      "Oliver": 670,
      "dd": 671,
      "min": 672,
      "pur": 673,
      "once": 674,
      "father": 675,
      "anc": 676,
      "feel": 677,
      "da": 678,
      "stoo": 679,
      "ject": 680,
      "nat": 681,
      "woman": 682,
      "those": 683,
      "seen": 684,
      "something": 685,
      "just": 686,
      "seemed": 687,
      "aking": 688,
      "half": 689,
      "This": 690,
      "kind": 691,
      "til": 692,
      "fl": 693,
      "ggot": 694,
      "Peggot": 695,
      "Peggotty": 696,
      "ses": 697,
      "told": 698,
      "hope": 699,
      "heard": 700,
      "set": 701,
      "fire": 702,
      "give": 703,
      "ord": 704,
      "mean": 705,
      "gir": 706,
      "love": 707,
      "They": 708,
      "asked": 709,
      "shi": 710,
      "sho": 711,
      "Joe": 712,
      "girl": 713,
      "try": 714,
      "having": 715,
      "mat": 716,
      "anything": 717,
      "year": 718,
      "ished": 719,
      "ist": 720,
      "until": 721,
      "manner": 722,
      "ars": 723,
      "ition": 724,
      "Now": 725,
      "ks": 726,
      "soon": 727,
      "felt": 728,
      "ign": 729,
      "wa": 730,
      "cried": 731,
      "eng": 732,
      "bus": 733,
      "hour": 734,
      "mar": 735,
      "used": 736,
      "car": 737,
      "Yes": 738,
      "gn": 739,
      "sur": 740,
      "ped": 741,
      "belie": 742,
      "voice": 743,
      "ible": 744,
      "vis": 745,
      "spo": 746,
      "lay": 747,
      "obser": 748,
      "dark": 749,
      "ma": 750,
      "umble": 751,
      "window": 752,
      "deed": 753,
      "sub": 754,
      "cle": 755,
      "orning": 756,
      "stood": 757,
      "lic": 758,
      "port": 759,
      "ched": 760,
      "ople": 761,
      "ff": 762,
      "fully": 763,
      "sen": 764,
      "find": 765,
      "morning": 766,
      "ared": 767,
      "spect": 768,
      "table": 769,
      "raw": 770,
      "ince": 771,
      "hard": 772,
      "fam": 773,
      "ud": 774,
      "ham": 775,
      "express": 776,
      "gone": 777,
      "ning": 778,
      "whom": 779,
      ",—": 780,
      "course": 781,
      "poor": 782,
      "ney": 783,
      "people": 784,
      "both": 785,
      "ev": 786,
      "pris": 787,
      "ross": 788,
      "dress": 789,
      "ween": 790,
      "dou": 791,
      "keep": 792,
      "Do": 793,
      "toge": 794,
      "quest": 795,
      "together": 796,
      "sle": 797,
      "far": 798,
      "ian": 799,
      "pped": 800,
      "words": 801,
      "inter": 802,
      "remem": 803,
      "pen": 804,
      "between": 805,
      "towards": 806,
      "ref": 807,
      "dr": 808,
      "ined": 809,
      "comm": 810,
      "dist": 811,
      "stair": 812,
      "read": 813,
      "posed": 814,
      "ip": 815,
      "near": 816,
      "fect": 817,
      "forth": 818,
      "ations": 819,
      "rought": 820,
      "ith": 821,
      "sol": 822,
      "ery": 823,
      "col": 824,
      "work": 825,
      "ught": 826,
      "taken": 827,
      "cess": 828,
      "pret": 829,
      "ently": 830,
      "guard": 831,
      "ener": 832,
      "ular": 833,
      "ank": 834,
      "dif": 835,
      "How": 836,
      "lock": 837,
      "care": 838,
      "stone": 839,
      "open": 840,
      "brought": 841,
      "ating": 842,
      "ue": 843,
      "hold": 844,
      "stru": 845,
      "tal": 846,
      "three": 847,
      "),": 848,
      "Why": 849,
      "few": 850,
      "ready": 851,
      "certain": 852,
      "often": 853,
      "orry": 854,
      "Well": 855,
      "street": 856,
      "vi": 857,
      "consid": 858,
      "Tr": 859,
      "ol": 860,
      "chair": 861,
      "eas": 862,
      "enough": 863,
      "doub": 864,
      "happy": 865,
      "gi": 866,
      "ins": 867,
      "cond": 868,
      "leave": 869,
      "ich": 870,
      "Then": 871,
      "person": 872,
      "against": 873,
      "whole": 874,
      "rather": 875,
      "consider": 876,
      "At": 877,
      "Rich": 878,
      "feren": 879,
      "because": 880,
      "gave": 881,
      "ER": 882,
      "aster": 883,
      "business": 884,
      "form": 885,
      "letter": 886,
      "ley": 887,
      "show": 888,
      "case": 889,
      "ond": 890,
      "among": 891,
      "coming": 892,
      "cri": 893,
      "ately": 894,
      "bit": 895,
      "pi": 896,
      "Richard": 897,
      "ken": 898,
      "opper": 899,
      "pat": 900,
      "Copper": 901,
      "Char": 902,
      "cont": 903,
      "sil": 904,
      "Not": 905,
      "Her": 906,
      "Je": 907,
      "hor": 908,
      "Doc": 909,
      "Doctor": 910,
      "hel": 911,
      "speak": 912,
      "Sir": 913,
      "believe": 914,
      "draw": 915,
      "indeed": 916,
      "dro": 917,
      "began": 918,
      "best": 919,
      "xt": 920,
      "haps": 921,
      "short": 922,
      "years": 923,
      "tem": 924,
      "world": 925,
      "Copperfield": 926,
      "Le": 927,
      "cap": 928,
      "ons": 929,
      "ister": 930,
      "Ge": 931,
      "Th": 932,
      "gra": 933,
      "run": 934,
      "ora": 935,
      "return": 936,
      "Geor": 937,
      "kes": 938,
      "addles": 939,
      "miss": 940,
      "arn": 941,
      "Dora": 942,
      "Traddles": 943,
      "called": 944,
      "lau": 945,
      "appear": 946,
      "since": 947,
      "George": 948,
      "live": 949,
      "exc": 950,
      "For": 951,
      "ained": 952,
      "inte": 953,
      "Jar": 954,
      "whether": 955,
      "ited": 956,
      "rel": 957,
      "expe": 958,
      "passed": 959,
      "py": 960,
      "state": 961,
      "dire": 962,
      "occas": 963,
      "ering": 964,
      "exce": 965,
      "things": 966,
      "paper": 967,
      "eye": 968,
      "To": 969,
      "really": 970,
      "poss": 971,
      "adv": 972,
      "herself": 973,
      "itting": 974,
      "follow": 975,
      "Lady": 976,
      "ah": 977,
      "stairs": 978,
      "guardian": 979,
      "tri": 980,
      "matter": 981,
      "ool": 982,
      "quiet": 983,
      "gener": 984,
      "Jarnd": 985,
      "yce": 986,
      "Jarndyce": 987,
      "else": 988,
      "hind": 989,
      "oney": 990,
      "sel": 991,
      "ments": 992,
      "sed": 993,
      "icester": 994,
      "Leicester": 995,
      "ied": 996,
      "acc": 997,
      "doubt": 998,
      "ature": 999,
      "fall": 1000,
      "ask": 1001,
      "leg": 1002,
      "fast": 1003,
      "known": 1004,
      "ances": 1005,
      "si": 1006,
      "gard": 1007,
      "Agn": 1008,
      "high": 1009,
      "tered": 1010,
      "Agnes": 1011,
      "fellow": 1012,
      "band": 1013,
      "char": 1014,
      "ger": 1015,
      "behind": 1016,
      "cir": 1017,
      "ended": 1018,
      "hes": 1019,
      "rece": 1020,
      "play": 1021,
      "interest": 1022,
      "reas": 1023,
      "step": 1024,
      "next": 1025,
      "ucket": 1026,
      "On": 1027,
      "strong": 1028,
      "appeared": 1029,
      "Be": 1030,
      "mention": 1031,
      "close": 1032,
      "Bucket": 1033,
      "wonder": 1034,
      "aut": 1035,
      "sing": 1036,
      "usu": 1037,
      "ags": 1038,
      "family": 1039,
      "rown": 1040,
      "lly": 1041,
      "almost": 1042,
      "sound": 1043,
      "money": 1044,
      "und": 1045,
      "mi": 1046,
      "days": 1047,
      "wish": 1048,
      "ching": 1049,
      "od": 1050,
      "All": 1051,
      "orrow": 1052,
      "corn": 1053,
      "ms": 1054,
      "wall": 1055,
      "point": 1056,
      "alone": 1057,
      "whis": 1058,
      "ered": 1059,
      "ower": 1060,
      "umm": 1061,
      "serv": 1062,
      "mine": 1063,
      "black": 1064,
      "spir": 1065,
      "val": 1066,
      "iting": 1067,
      "agin": 1068,
      "prof": 1069,
      "question": 1070,
      "evening": 1071,
      "prison": 1072,
      "tra": 1073,
      "taking": 1074,
      "avy": 1075,
      "wood": 1076,
      "ised": 1077,
      "Ste": 1078,
      "dead": 1079,
      "ub": 1080,
      "ute": 1081,
      "dden": 1082,
      "fic": 1083,
      "ither": 1084,
      "repe": 1085,
      "Ada": 1086,
      "making": 1087,
      "within": 1088,
      "understand": 1089,
      "ground": 1090,
      "fortun": 1091,
      "road": 1092,
      "perhaps": 1093,
      "Peter": 1094,
      "occasion": 1095,
      "ced": 1096,
      "vers": 1097,
      "pretty": 1098,
      "shad": 1099,
      "ought": 1100,
      "oot": 1101,
      "confid": 1102,
      "help": 1103,
      "mur": 1104,
      "held": 1105,
      "sister": 1106,
      "erforth": 1107,
      "Steerforth": 1108,
      "urd": 1109,
      "ship": 1110,
      "HA": 1111,
      "Is": 1112,
      "subject": 1113,
      "pursu": 1114,
      "Bumble": 1115,
      "trou": 1116,
      "uppy": 1117,
      "court": 1118,
      "Guppy": 1119,
      "yourself": 1120,
      "plain": 1121,
      "why": 1122,
      "ention": 1123,
      "suppose": 1124,
      "book": 1125,
      "law": 1126,
      "With": 1127,
      "large": 1128,
      "sun": 1129,
      "res": 1130,
      "roo": 1131,
      "answ": 1132,
      "cum": 1133,
      "tou": 1134,
      "accoun": 1135,
      "joy": 1136,
      "His": 1137,
      "din": 1138,
      "beaut": 1139,
      "small": 1140,
      "edlock": 1141,
      "poc": 1142,
      "does": 1143,
      "Dedlock": 1144,
      "water": 1145,
      "bright": 1146,
      "respect": 1147,
      "ates": 1148,
      "tow": 1149,
      "arr": 1150,
      "emp": 1151,
      "Si": 1152,
      "along": 1153,
      "Don": 1154,
      "ron": 1155,
      "isten": 1156,
      "break": 1157,
      "aring": 1158,
      "ces": 1159,
      "land": 1160,
      "mm": 1161,
      "pri": 1162,
      "Lorry": 1163,
      "hur": 1164,
      "sk": 1165,
      "wife": 1166,
      "ably": 1167,
      "fin": 1168,
      "ived": 1169,
      "outh": 1170,
      "net": 1171,
      "poin": 1172,
      "anger": 1173,
      "ceed": 1174,
      "partic": 1175,
      "Sn": 1176,
      "ret": 1177,
      "agsby": 1178,
      "Snagsby": 1179,
      "fur": 1180,
      "natur": 1181,
      "remember": 1182,
      "children": 1183,
      "corner": 1184,
      "ping": 1185,
      "arms": 1186,
      "reason": 1187,
      "Wend": 1188,
      "aint": 1189,
      "fell": 1190,
      "country": 1191,
      "Wendy": 1192,
      "Co": 1193,
      "walked": 1194,
      "An": 1195,
      "cry": 1196,
      "ris": 1197,
      "affe": 1198,
      "Charley": 1199,
      "usual": 1200,
      "fing": 1201,
      "cor": 1202,
      "Sikes": 1203,
      "whose": 1204,
      "fig": 1205,
      "object": 1206,
      "observed": 1207,
      "fact": 1208,
      "cho": 1209,
      "itu": 1210,
      "ung": 1211,
      "Lon": 1212,
      "hon": 1213,
      "sort": 1214,
      "wh": 1215,
      "cold": 1216,
      "dered": 1217,
      "shut": 1218,
      "sometimes": 1219,
      "glad": 1220,
      "London": 1221,
      "hu": 1222,
      "least": 1223,
      "need": 1224,
      "anged": 1225,
      "cup": 1226,
      "vour": 1227,
      "lled": 1228,
      "stant": 1229,
      "coach": 1230,
      "laim": 1231,
      "cal": 1232,
      "cannot": 1233,
      "pain": 1234,
      "stopped": 1235,
      "ile": 1236,
      "sleep": 1237,
      "Pip": 1238,
      "deal": 1239,
      "possible": 1240,
      "circum": 1241,
      "figure": 1242,
      "swe": 1243,
      "rot": 1244,
      "aged": 1245,
      "selves": 1246,
      "fair": 1247,
      "friends": 1248,
      "ancy": 1249,
      "laugh": 1250,
      "II": 1251,
      "ene": 1252,
      "death": 1253,
      "each": 1254,
      "agg": 1255,
      "compan": 1256,
      "ek": 1257,
      "became": 1258,
      "cent": 1259,
      "sof": 1260,
      "vered": 1261,
      "change": 1262,
      "cked": 1263,
      "bir": 1264,
      "bur": 1265,
      "sitting": 1266,
      "spoke": 1267,
      "ail": 1268,
      "ety": 1269,
      "particular": 1270,
      "circumst": 1271,
      "TER": 1272,
      "slow": 1273,
      "tt": 1274,
      "creature": 1275,
      "Jew": 1276,
      "Murd": 1277,
      "cu": 1278,
      "ience": 1279,
      "ingly": 1280,
      "secre": 1281,
      "Af": 1282,
      "quired": 1283,
      "nor": 1284,
      "tion": 1285,
      "au": 1286,
      "sudden": 1287,
      "worth": 1288,
      "bert": 1289,
      "standing": 1290,
      "Murdstone": 1291,
      "oud": 1292,
      "dest": 1293,
      "Here": 1294,
      "fice": 1295,
      "avis": 1296,
      "rely": 1297,
      "kept": 1298,
      "dinner": 1299,
      "avisham": 1300,
      "Havisham": 1301,
      "aven": 1302,
      "lost": 1303,
      "company": 1304,
      "iz": 1305,
      "sy": 1306,
      "comes": 1307,
      "igh": 1308,
      "till": 1309,
      "cut": 1310,
      "comfort": 1311,
      "bad": 1312,
      "wered": 1313,
      "tears": 1314,
      "ony": 1315,
      "Herbert": 1316,
      "pie": 1317,
      "ficul": 1318,
      "Def": 1319,
      "perfect": 1320,
      "answered": 1321,
      "stead": 1322,
      "difficul": 1323,
      "lying": 1324,
      "brother": 1325,
      "oured": 1326,
      "arri": 1327,
      "key": 1328,
      "town": 1329,
      "vent": 1330,
      "sever": 1331,
      "necess": 1332,
      "bring": 1333,
      "After": 1334,
      "cher": 1335,
      "dread": 1336,
      "deep": 1337,
      "shed": 1338,
      "ches": 1339,
      "foot": 1340,
      "lect": 1341,
      "looks": 1342,
      "four": 1343,
      "reco": 1344,
      "raid": 1345,
      "however": 1346,
      "strange": 1347,
      "ference": 1348,
      "account": 1349,
      "Fagin": 1350,
      "horn": 1351,
      "ial": 1352,
      "afterwards": 1353,
      "hus": 1354,
      "tom": 1355,
      "acqu": 1356,
      "iously": 1357,
      "everything": 1358,
      "Defarge": 1359,
      "Mon": 1360,
      "lla": 1361,
      "gate": 1362,
      "sum": 1363,
      "Some": 1364,
      "walk": 1365,
      "white": 1366,
      "ient": 1367,
      "stri": 1368,
      "start": 1369,
      "already": 1370,
      "ulking": 1371,
      "appro": 1372,
      "nature": 1373,
      "delight": 1374,
      "fear": 1375,
      "quick": 1376,
      "knowled": 1377,
      "idea": 1378,
      "answer": 1379,
      "tly": 1380,
      "iling": 1381,
      "flo": 1382,
      "sess": 1383,
      "honour": 1384,
      "Tulking": 1385,
      "mid": 1386,
      "—”": 1387,
      "trust": 1388,
      "purpose": 1389,
      "Tulkinghorn": 1390,
      "CHA": 1391,
      "bow": 1392,
      "rup": 1393,
      "top": 1394,
      "glass": 1395,
      "listen": 1396,
      "erable": 1397,
      "coat": 1398,
      "Let": 1399,
      "power": 1400,
      "soci": 1401,
      "ility": 1402,
      "grow": 1403,
      "bu": 1404,
      "cha": 1405,
      "ga": 1406,
      "sight": 1407,
      "weed": 1408,
      "possess": 1409,
      "five": 1410,
      "afraid": 1411,
      "late": 1412,
      "itted": 1413,
      "satis": 1414,
      "fer": 1415,
      "doing": 1416,
      "laid": 1417,
      "sense": 1418,
      "ls": 1419,
      "ane": 1420,
      "dog": 1421,
      "husband": 1422,
      "En": 1423,
      "ually": 1424,
      "proceed": 1425,
      "boys": 1426,
      "true": 1427,
      "trem": 1428,
      "Wemm": 1429,
      "ughter": 1430,
      "affection": 1431,
      "Wemmick": 1432,
      "Em": 1433,
      "adm": 1434,
      "saying": 1435,
      "shop": 1436,
      "fre": 1437,
      "ring": 1438,
      "rid": 1439,
      "iful": 1440,
      "bled": 1441,
      "bling": 1442,
      "Of": 1443,
      "abo": 1444,
      "suff": 1445,
      "favour": 1446,
      "pleasure": 1447,
      "ker": 1448,
      "ender": 1449,
      "knows": 1450,
      "ging": 1451,
      "also": 1452,
      "pole": 1453,
      "hours": 1454,
      "pocket": 1455,
      "PTER": 1456,
      "master": 1457,
      "position": 1458,
      "appearance": 1459,
      "CHAPTER": 1460,
      "arling": 1461,
      "turning": 1462,
      "Sm": 1463,
      "cand": 1464,
      "given": 1465,
      "shadow": 1466,
      "ory": 1467,
      "nest": 1468,
      "ents": 1469,
      "ending": 1470,
      "vol": 1471,
      "means": 1472,
      "begin": 1473,
      "ib": 1474,
      "ph": 1475,
      "post": 1476,
      "bless": 1477,
      "medi": 1478,
      "remain": 1479,
      "except": 1480,
      "xed": 1481,
      "chief": 1482,
      "ative": 1483,
      "Este": 1484,
      "wise": 1485,
      "disco": 1486,
      "Estella": 1487,
      "prom": 1488,
      "vie": 1489,
      "order": 1490,
      "gest": 1491,
      "clock": 1492,
      "HE": 1493,
      "aced": 1494,
      "view": 1495,
      "anx": 1496,
      "lim": 1497,
      "uring": 1498,
      "didn": 1499,
      "pleasant": 1500,
      "Small": 1501,
      "gri": 1502,
      "pair": 1503,
      "Dick": 1504,
      "leng": 1505,
      "agree": 1506,
      "wanted": 1507,
      "ton": 1508,
      "var": 1509,
      "wine": 1510,
      "inion": 1511,
      "resol": 1512,
      "wild": 1513,
      "expected": 1514,
      "sch": 1515,
      "riage": 1516,
      "loved": 1517,
      "opened": 1518,
      "general": 1519,
      "six": 1520,
      "sign": 1521,
      "bear": 1522,
      "acter": 1523,
      "obli": 1524,
      "lad": 1525,
      "app": 1526,
      "remark": 1527,
      "character": 1528,
      "Man": 1529,
      "past": 1530,
      "tried": 1531,
      "Sk": 1532,
      "jud": 1533,
      "addy": 1534,
      "moved": 1535,
      "thus": 1536,
      "shook": 1537,
      "trouble": 1538,
      "urch": 1539,
      "tive": 1540,
      "consc": 1541,
      "Al": 1542,
      "Caddy": 1543,
      "ided": 1544,
      "lips": 1545,
      "office": 1546,
      "address": 1547,
      "feet": 1548,
      "iled": 1549,
      "feeling": 1550,
      "flu": 1551,
      "sens": 1552,
      "cr": 1553,
      "ze": 1554,
      "ased": 1555,
      "wenty": 1556,
      "passion": 1557,
      "bri": 1558,
      "kne": 1559,
      "ror": 1560,
      "ured": 1561,
      "yard": 1562,
      "smile": 1563,
      "natural": 1564,
      "mouth": 1565,
      "itself": 1566,
      "thoughts": 1567,
      "drink": 1568,
      "ublic": 1569,
      "Come": 1570,
      "Trot": 1571,
      "bar": 1572,
      "across": 1573,
      "Smallweed": 1574,
      "iddy": 1575,
      "thinking": 1576,
      "streets": 1577,
      "knowledge": 1578,
      "length": 1579,
      "dut": 1580,
      "ago": 1581,
      "couldn": 1582,
      "circumstances": 1583,
      "ell": 1584,
      "pound": 1585,
      "smo": 1586,
      "reg": 1587,
      "dec": 1588,
      "aggers": 1589,
      "undred": 1590,
      "confidence": 1591,
      "yes": 1592,
      "ities": 1593,
      "iron": 1594,
      "common": 1595,
      "repeated": 1596,
      "aving": 1597,
      "dri": 1598,
      "ached": 1599,
      "contin": 1600,
      "Jaggers": 1601,
      "ctor": 1602,
      "kn": 1603,
      "rap": 1604,
      "bey": 1605,
      "attention": 1606,
      "ather": 1607,
      "wouldn": 1608,
      "immedi": 1609,
      "occup": 1610,
      "daughter": 1611,
      "Good": 1612,
      "cast": 1613,
      "ier": 1614,
      "allow": 1615,
      "thank": 1616,
      "expression": 1617,
      "Bag": 1618,
      "flow": 1619,
      "ctions": 1620,
      "sett": 1621,
      "several": 1622,
      "Ro": 1623,
      "itude": 1624,
      "human": 1625,
      "Engl": 1626,
      "either": 1627,
      "comple": 1628,
      "impress": 1629,
      "grave": 1630,
      "slowly": 1631,
      "floor": 1632,
      "formed": 1633,
      "ages": 1634,
      "Bagnet": 1635,
      "Master": 1636,
      "Uri": 1637,
      "meet": 1638,
      "convers": 1639,
      "shaking": 1640,
      "One": 1641,
      "uff": 1642,
      "month": 1643,
      "married": 1644,
      "Uriah": 1645,
      "putting": 1646,
      "silence": 1647,
      "necessary": 1648,
      "fine": 1649,
      "ual": 1650,
      "lling": 1651,
      "sea": 1652,
      "pping": 1653,
      "garden": 1654,
      "profess": 1655,
      "Biddy": 1656,
      "crow": 1657,
      "den": 1658,
      "ran": 1659,
      "sim": 1660,
      "changed": 1661,
      "utter": 1662,
      "test": 1663,
      "proper": 1664,
      "drew": 1665,
      "clear": 1666,
      "expect": 1667,
      "mad": 1668,
      "heavy": 1669,
      "oul": 1670,
      "ase": 1671,
      "themselves": 1672,
      "Bar": 1673,
      "Es": 1674,
      "anced": 1675,
      "talk": 1676,
      "easy": 1677,
      "beautiful": 1678,
      "hn": 1679,
      "kiss": 1680,
      "inquired": 1681,
      "real": 1682,
      "lies": 1683,
      "ical": 1684,
      "others": 1685,
      "earth": 1686,
      "John": 1687,
      "hundred": 1688,
      "pas": 1689,
      "lived": 1690,
      "Ah": 1691,
      "tea": 1692,
      "exclaim": 1693,
      "ident": 1694,
      "wel": 1695,
      "secret": 1696,
      "school": 1697,
      "XX": 1698,
      "pter": 1699,
      "thre": 1700,
      "box": 1701,
      "opinion": 1702,
      "received": 1703,
      "breakfast": 1704,
      "St": 1705,
      "wret": 1706,
      "second": 1707,
      "vey": 1708,
      "akes": 1709,
      "died": 1710,
      "cheer": 1711,
      "conversation": 1712,
      "sence": 1713,
      "church": 1714,
      "liar": 1715,
      "ancing": 1716,
      "Cl": 1717,
      "ia": 1718,
      "tory": 1719,
      "joined": 1720,
      "carried": 1721,
      "followed": 1722,
      "above": 1723,
      "hum": 1724,
      "num": 1725,
      "ued": 1726,
      "seeing": 1727,
      "shoulder": 1728,
      "watch": 1729,
      "hardly": 1730,
      "termin": 1731,
      "usion": 1732,
      "pray": 1733,
      "wrong": 1734,
      "sl": 1735,
      "sorry": 1736,
      "weak": 1737,
      "fright": 1738,
      "remained": 1739,
      "breast": 1740,
      "IN": 1741,
      "forward": 1742,
      "suc": 1743,
      "sage": 1744,
      "impole": 1745,
      "rust": 1746,
      "breath": 1747,
      "Skimpole": 1748,
      "Who": 1749,
      "instant": 1750,
      "scar": 1751,
      "effect": 1752,
      "cy": 1753,
      "resu": 1754,
      "pet": 1755,
      "ants": 1756,
      "getting": 1757,
      "commun": 1758,
      "Esther": 1759,
      "Lord": 1760,
      "please": 1761,
      "truth": 1762,
      "public": 1763,
      "wit": 1764,
      "sole": 1765,
      "story": 1766,
      "ferent": 1767,
      "ption": 1768,
      "bird": 1769,
      "Cha": 1770,
      "cous": 1771,
      "free": 1772,
      "none": 1773,
      "safe": 1774,
      "utes": 1775,
      "raised": 1776,
      "deser": 1777,
      "struck": 1778,
      "God": 1779,
      "gle": 1780,
      "ctly": 1781,
      "hood": 1782,
      "twenty": 1783,
      "warm": 1784,
      "yer": 1785,
      "bell": 1786,
      "erson": 1787,
      "surpris": 1788,
      "Jelly": 1789,
      "mentioned": 1790,
      "Jellyby": 1791,
      "OU": 1792,
      "bour": 1793,
      "tone": 1794,
      "ining": 1795,
      "sequ": 1796,
      "rub": 1797,
      "finger": 1798,
      "cross": 1799,
      "lead": 1800,
      "enter": 1801,
      "conce": 1802,
      "cip": 1803,
      "feelings": 1804,
      "wait": 1805,
      "drawing": 1806,
      "returns": 1807,
      "sit": 1808,
      "ta": 1809,
      "amp": 1810,
      "board": 1811,
      "fold": 1812,
      "early": 1813,
      "earnest": 1814,
      "dream": 1815,
      "By": 1816,
      "become": 1817,
      "noon": 1818,
      "service": 1819,
      "Summ": 1820,
      "por": 1821,
      "arp": 1822,
      "arer": 1823,
      "happened": 1824,
      "pointed": 1825,
      "immediately": 1826,
      "Chapter": 1827,
      "idge": 1828,
      "week": 1829,
      "contr": 1830,
      "desi": 1831,
      "minutes": 1832,
      "papers": 1833,
      "Summerson": 1834,
      "Bo": 1835,
      "eper": 1836,
      "atter": 1837,
      "neck": 1838,
      "agreeable": 1839,
      "holes": 1840,
      "susp": 1841,
      "die": 1842,
      "gentlemen": 1843,
      "added": 1844,
      "giving": 1845,
      "whisper": 1846,
      "Wick": 1847,
      "burn": 1848,
      "wis": 1849,
      "ens": 1850,
      "enge": 1851,
      "goes": 1852,
      "sides": 1853,
      "steps": 1854,
      "Wickfield": 1855,
      "lod": 1856,
      "boat": 1857,
      "blood": 1858,
      "miserable": 1859,
      "write": 1860,
      "Will": 1861,
      "Where": 1862,
      "jour": 1863,
      "conside": 1864,
      "cture": 1865,
      "happiness": 1866,
      "considered": 1867,
      "ghed": 1868,
      "ned": 1869,
      "soul": 1870,
      "outside": 1871,
      "aren": 1872,
      "speaking": 1873,
      "Whi": 1874,
      "ray": 1875,
      "learn": 1876,
      "tired": 1877,
      "ously": 1878,
      "supposed": 1879,
      "exclaimed": 1880,
      "ash": 1881,
      "rose": 1882,
      "exper": 1883,
      "women": 1884,
      "firm": 1885,
      "portun": 1886,
      "habit": 1887,
      "neigh": 1888,
      "action": 1889,
      "uced": 1890,
      "suddenly": 1891,
      "IS": 1892,
      "bound": 1893,
      "vill": 1894,
      "inno": 1895,
      "inqu": 1896,
      "thous": 1897,
      "ones": 1898,
      "lean": 1899,
      "ution": 1900,
      "anybody": 1901,
      "path": 1902,
      "ounce": 1903,
      "conscious": 1904,
      "devo": 1905,
      "acted": 1906,
      "candle": 1907,
      "communic": 1908,
      "sn": 1909,
      "recol": 1910,
      "ext": 1911,
      "broken": 1912,
      "distance": 1913,
      "danger": 1914,
      "equ": 1915,
      "cely": 1916,
      "closed": 1917,
      "engaged": 1918,
      "windows": 1919,
      "spirits": 1920,
      "thousand": 1921,
      "cat": 1922,
      "kno": 1923,
      "concer": 1924,
      "appre": 1925,
      "seem": 1926,
      "viol": 1927,
      "pursued": 1928,
      "entered": 1929,
      "knowing": 1930,
      "opportun": 1931,
      "ishment": 1932,
      "walking": 1933,
      "AN": 1934,
      "slight": 1935,
      "uck": 1936,
      "blow": 1937,
      "ges": 1938,
      "hill": 1939,
      "anging": 1940,
      "descri": 1941,
      "tress": 1942,
      "refle": 1943,
      "certainly": 1944,
      "ee": 1945,
      "depart": 1946,
      "upstairs": 1947,
      "neighbour": 1948,
      "thes": 1949,
      "regard": 1950,
      "enjoy": 1951,
      "likely": 1952,
      "beyond": 1953,
      "Mar": 1954,
      "aris": 1955,
      "exact": 1956,
      "contem": 1957,
      "angu": 1958,
      "keeping": 1959,
      "dust": 1960,
      "makes": 1961,
      "nie": 1962,
      "ye": 1963,
      "influ": 1964,
      "reply": 1965,
      "profession": 1966,
      "Vholes": 1967,
      "mes": 1968,
      "liber": 1969,
      "tily": 1970,
      "sweet": 1971,
      "piece": 1972,
      "perfectly": 1973,
      "Com": 1974,
      "Davy": 1975,
      "Never": 1976,
      "Re": 1977,
      "itation": 1978,
      "nobody": 1979,
      "former": 1980,
      "suit": 1981,
      "conne": 1982,
      "sharp": 1983,
      "roud": 1984,
      "pared": 1985,
      "prisoner": 1986,
      "duty": 1987,
      "dare": 1988,
      "ny": 1989,
      "nodd": 1990,
      "motion": 1991,
      "faces": 1992,
      "journey": 1993,
      "cus": 1994,
      "kit": 1995,
      "lan": 1996,
      "pu": 1997,
      "squ": 1998,
      "forgot": 1999,
      "fee": 2000,
      "imp": 2001,
      "grat": 2002,
      "letters": 2003,
      "crowd": 2004,
      "surprised": 2005,
      "ON": 2006,
      "Qu": 2007,
      "fat": 2008,
      "meant": 2009,
      "cott": 2010,
      "tern": 2011,
      "sug": 2012,
      "quar": 2013,
      "worse": 2014,
      "prise": 2015,
      "cler": 2016,
      "condition": 2017,
      "legs": 2018,
      "Ham": 2019,
      "May": 2020,
      "although": 2021,
      "prob": 2022,
      "presented": 2023,
      "minute": 2024,
      "rooper": 2025,
      "mus": 2026,
      "moun": 2027,
      "trooper": 2028,
      "thor": 2029,
      "seems": 2030,
      "lighted": 2031,
      "during": 2032,
      "ug": 2033,
      "throw": 2034,
      "alth": 2035,
      "dem": 2036,
      "pol": 2037,
      "ette": 2038,
      "fied": 2039,
      "clothes": 2040,
      "counten": 2041,
      "silent": 2042,
      "Brown": 2043,
      "Per": 2044,
      "ben": 2045,
      "cred": 2046,
      "ult": 2047,
      "evid": 2048,
      "picture": 2049,
      "laughed": 2050,
      "hurried": 2051,
      "Brownlow": 2052,
      "Very": 2053,
      "resp": 2054,
      "seat": 2055,
      "aded": 2056,
      "doctor": 2057,
      "exam": 2058,
      "carry": 2059,
      "comfortable": 2060,
      "cul": 2061,
      "fancy": 2062,
      "consequ": 2063,
      "prod": 2064,
      "greater": 2065,
      "tran": 2066,
      "showed": 2067,
      "Wood": 2068,
      "chook": 2069,
      "rob": 2070,
      "ties": 2071,
      "arest": 2072,
      "pale": 2073,
      "longer": 2074,
      "writing": 2075,
      "Pumble": 2076,
      "Rose": 2077,
      "fas": 2078,
      "pes": 2079,
      "pull": 2080,
      "rag": 2081,
      "sorrow": 2082,
      "tender": 2083,
      "sake": 2084,
      "als": 2085,
      "terri": 2086,
      "takes": 2087,
      "companion": 2088,
      "cousin": 2089,
      "Pumblechook": 2090,
      "Or": 2091,
      "eight": 2092,
      "itor": 2093,
      "iety": 2094,
      "zed": 2095,
      "instead": 2096,
      "youth": 2097,
      "sal": 2098,
      "forget": 2099,
      "Bark": 2100,
      "lief": 2101,
      "determin": 2102,
      "gloo": 2103,
      "Manette": 2104,
      "De": 2105,
      "Pross": 2106,
      "cham": 2107,
      "fro": 2108,
      "rer": 2109,
      "stra": 2110,
      "fixed": 2111,
      "nearly": 2112,
      "dropped": 2113,
      "chen": 2114,
      "inform": 2115,
      "ende": 2116,
      "ama": 2117,
      "consideration": 2118,
      "emplo": 2119,
      "burst": 2120,
      "months": 2121,
      "scarcely": 2122,
      "kitchen": 2123,
      "Have": 2124,
      "Mad": 2125,
      "bing": 2126,
      "bly": 2127,
      "gain": 2128,
      "nur": 2129,
      "incl": 2130,
      "degre": 2131,
      "peace": 2132,
      "tained": 2133,
      "different": 2134,
      "obliged": 2135,
      "instru": 2136,
      "These": 2137,
      "itten": 2138,
      "handker": 2139,
      "attend": 2140,
      "opportunity": 2141,
      "endeav": 2142,
      "Tell": 2143,
      "iles": 2144,
      "notice": 2145,
      "tim": 2146,
      "lot": 2147,
      "prin": 2148,
      "Nothing": 2149,
      "offic": 2150,
      "ordin": 2151,
      "waiting": 2152,
      "surprise": 2153,
      "visit": 2154,
      "fami": 2155,
      "easily": 2156,
      "Cart": 2157,
      "cru": 2158,
      "wished": 2159,
      "eness": 2160,
      "irt": 2161,
      "move": 2162,
      "Heaven": 2163,
      "understood": 2164,
      "scre": 2165,
      "holding": 2166,
      "Barkis": 2167,
      "Carton": 2168,
      "dep": 2169,
      "ours": 2170,
      "bers": 2171,
      "pressed": 2172,
      "passing": 2173,
      "influence": 2174,
      "House": 2175,
      "met": 2176,
      "myster": 2177,
      "ively": 2178,
      "afternoon": 2179,
      "trees": 2180,
      "remembr": 2181,
      "direction": 2182,
      "Are": 2183,
      "Bet": 2184,
      "Hook": 2185,
      "bs": 2186,
      "ife": 2187,
      "thir": 2188,
      "station": 2189,
      "stick": 2190,
      "vel": 2191,
      "delic": 2192,
      "streng": 2193,
      "os": 2194,
      "ination": 2195,
      "rejoined": 2196,
      "oned": 2197,
      "ury": 2198,
      "therefore": 2199,
      "spot": 2200,
      "drop": 2201,
      "softly": 2202,
      "Trotwood": 2203,
      "Poc": 2204,
      "mag": 2205,
      "ot": 2206,
      "fered": 2207,
      "abl": 2208,
      "whatever": 2209,
      "Woodcourt": 2210,
      "handkerchief": 2211,
      "Kenge": 2212,
      "Look": 2213,
      "THE": 2214,
      "udy": 2215,
      "uttered": 2216,
      "hot": 2217,
      "impro": 2218,
      "oppos": 2219,
      "paid": 2220,
      "presently": 2221,
      "believed": 2222,
      "fortunate": 2223,
      "suffic": 2224,
      "countenance": 2225,
      "straight": 2226,
      "darling": 2227,
      "fit": 2228,
      "gy": 2229,
      "ening": 2230,
      "perce": 2231,
      "blue": 2232,
      "ears": 2233,
      "pipe": 2234,
      "particularly": 2235,
      "Darn": 2236,
      "Spen": 2237,
      "mn": 2238,
      "stay": 2239,
      "separ": 2240,
      "nose": 2241,
      "extre": 2242,
      "presence": 2243,
      "houses": 2244,
      "parl": 2245,
      "written": 2246,
      "curious": 2247,
      "carriage": 2248,
      "refer": 2249,
      "fresh": 2250,
      "property": 2251,
      "suspic": 2252,
      "suggest": 2253,
      "Pocket": 2254,
      "Spenlow": 2255,
      "RE": 2256,
      "proud": 2257,
      "leep": 2258,
      "pered": 2259,
      "handsome": 2260,
      "super": 2261,
      "accord": 2262,
      "spirit": 2263,
      "fortune": 2264,
      "admir": 2265,
      "Darnay": 2266,
      "Old": 2267,
      "born": 2268,
      "eks": 2269,
      "charge": 2270,
      "tingu": 2271,
      "distur": 2272,
      "rising": 2273,
      "laughing": 2274,
      "wretched": 2275,
      "Every": 2276,
      "fron": 2277,
      "hung": 2278,
      "lab": 2279,
      "spr": 2280,
      "ats": 2281,
      "around": 2282,
      "wig": 2283,
      "decl": 2284,
      "kets": 2285,
      "expl": 2286,
      "pace": 2287,
      "ishing": 2288,
      "possib": 2289,
      "sym": 2290,
      "Tom": 2291,
      "rain": 2292,
      "wand": 2293,
      "isted": 2294,
      "asleep": 2295,
      "neither": 2296,
      "prec": 2297,
      "glance": 2298,
      "rooms": 2299,
      "courage": 2300,
      "horse": 2301,
      "further": 2302,
      "crying": 2303,
      "beginning": 2304,
      "ladies": 2305,
      "employ": 2306,
      "extreme": 2307,
      "itary": 2308,
      "sad": 2309,
      "otherwise": 2310,
      "ills": 2311,
      "establ": 2312,
      "touch": 2313,
      "opposite": 2314,
      "kins": 2315,
      "pay": 2316,
      "uch": 2317,
      "ising": 2318,
      "hall": 2319,
      "river": 2320,
      "concl": 2321,
      "gold": 2322,
      "running": 2323,
      "quickly": 2324,
      "anxious": 2325,
      "parlour": 2326,
      "Cre": 2327,
      "ding": 2328,
      "bered": 2329,
      "noise": 2330,
      "keeper": 2331,
      "green": 2332,
      "served": 2333,
      "stranger": 2334,
      "solemn": 2335,
      "exactly": 2336,
      "iently": 2337,
      "ost": 2338,
      "war": 2339,
      "hael": 2340,
      "grand": 2341,
      "grad": 2342,
      "cloud": 2343,
      "bread": 2344,
      "Br": 2345,
      "Can": 2346,
      "fond": 2347,
      "morrow": 2348,
      "wed": 2349,
      "ented": 2350,
      "bott": 2351,
      "difficulty": 2352,
      "dreadful": 2353,
      "innocent": 2354,
      "Cour": 2355,
      "lest": 2356,
      "living": 2357,
      "sold": 2358,
      "aston": 2359,
      "stop": 2360,
      "calling": 2361,
      "talking": 2362,
      "books": 2363,
      "arrived": 2364,
      "various": 2365,
      "cheerful": 2366,
      "Dear": 2367,
      "bab": 2368,
      "chim": 2369,
      "mark": 2370,
      "arrow": 2371,
      "adle": 2372,
      "enti": 2373,
      "ager": 2374,
      "extra": 2375,
      "fingers": 2376,
      "complete": 2377,
      "inquir": 2378,
      "Ar": 2379,
      "pit": 2380,
      "pun": 2381,
      "pity": 2382,
      "beside": 2383,
      "somebody": 2384,
      "calm": 2385,
      "resolved": 2386,
      "Bl": 2387,
      "LI": 2388,
      "gall": 2389,
      "pir": 2390,
      "anim": 2391,
      "som": 2392,
      "ific": 2393,
      "worn": 2394,
      "placed": 2395,
      "eping": 2396,
      "Noah": 2397,
      "occur": 2398,
      "grace": 2399,
      "settled": 2400,
      "Did": 2401,
      "Ma": 2402,
      "Your": 2403,
      "vering": 2404,
      "prepar": 2405,
      "remon": 2406,
      "faction": 2407,
      "Luc": 2408,
      "abe": 2409,
      "vil": 2410,
      "expressed": 2411,
      "Nor": 2412,
      "bra": 2413,
      "loo": 2414,
      "rance": 2415,
      "ying": 2416,
      "mere": 2417,
      "save": 2418,
      "exer": 2419,
      "antly": 2420,
      "tellig": 2421,
      "pleased": 2422,
      "spoken": 2423,
      "Monks": 2424,
      "satisfaction": 2425,
      "success": 2426,
      "village": 2427,
      "Madame": 2428,
      "ordinary": 2429,
      "intellig": 2430,
      "dece": 2431,
      "moon": 2432,
      "pot": 2433,
      "pride": 2434,
      "desc": 2435,
      "places": 2436,
      "dressed": 2437,
      "leaves": 2438,
      "touched": 2439,
      "passage": 2440,
      "bas": 2441,
      "tw": 2442,
      "liked": 2443,
      "ardon": 2444,
      "apped": 2445,
      "blind": 2446,
      "maid": 2447,
      "distin": 2448,
      "quietly": 2449,
      "Rounce": 2450,
      "lif": 2451,
      "quis": 2452,
      "sky": 2453,
      "Rouncewell": 2454,
      "sme": 2455,
      "tum": 2456,
      "ann": 2457,
      "anci": 2458,
      "ows": 2459,
      "ield": 2460,
      "justice": 2461,
      "Charles": 2462,
      "priv": 2463,
      "society": 2464,
      "pounds": 2465,
      "Lucie": 2466,
      "boo": 2467,
      "bene": 2468,
      "assu": 2469,
      "associ": 2470,
      "exist": 2471,
      "wore": 2472,
      "cking": 2473,
      "grate": 2474,
      "front": 2475,
      "chimney": 2476,
      "Con": 2477,
      "bent": 2478,
      "ele": 2479,
      "gen": 2480,
      "merely": 2481,
      "atest": 2482,
      "regular": 2483,
      "England": 2484,
      "fle": 2485,
      "fal": 2486,
      "fif": 2487,
      "seven": 2488,
      "beat": 2489,
      "weather": 2490,
      "note": 2491,
      "akle": 2492,
      "import": 2493,
      "umn": 2494,
      "affair": 2495,
      "greatest": 2496,
      "remind": 2497,
      "doors": 2498,
      "ieur": 2499,
      "waist": 2500,
      "mission": 2501,
      "servant": 2502,
      "remembrance": 2503,
      "Creakle": 2504,
      "assure": 2505,
      "chance": 2506,
      "acious": 2507,
      "prepared": 2508,
      "apart": 2509,
      "faith": 2510,
      "--’": 2511,
      "party": 2512,
      "fallen": 2513,
      "continued": 2514,
      "familiar": 2515,
      "Crun": 2516,
      "gar": 2517,
      "arch": 2518,
      "entre": 2519,
      "onest": 2520,
      "plac": 2521,
      "news": 2522,
      "strug": 2523,
      "directly": 2524,
      "difficult": 2525,
      "forgotten": 2526,
      "fashi": 2527,
      "Court": 2528,
      "Str": 2529,
      "bon": 2530,
      "ler": 2531,
      "pow": 2532,
      "vid": 2533,
      "unhappy": 2534,
      "ters": 2535,
      "convi": 2536,
      "ified": 2537,
      "meaning": 2538,
      "horses": 2539,
      "advant": 2540,
      "beauty": 2541,
      "desire": 2542,
      "Go": 2543,
      "Just": 2544,
      "nine": 2545,
      "scene": 2546,
      "everybody": 2547,
      "quire": 2548,
      "ladyship": 2549,
      "reading": 2550,
      "Thank": 2551,
      "promise": 2552,
      "impression": 2553,
      "number": 2554,
      "Perhaps": 2555,
      "Cruncher": 2556,
      "YOU": 2557,
      "echo": 2558,
      "health": 2559,
      "artic": 2560,
      "besides": 2561,
      "ality": 2562,
      "nearer": 2563,
      "acce": 2564,
      "downstairs": 2565,
      "broad": 2566,
      "broke": 2567,
      "busy": 2568,
      "talked": 2569,
      "finished": 2570,
      "demand": 2571,
      "From": 2572,
      "Giles": 2573,
      "Mas": 2574,
      "eat": 2575,
      "thrown": 2576,
      "sey": 2577,
      "roof": 2578,
      "altogether": 2579,
      "ainted": 2580,
      "amed": 2581,
      "Heep": 2582,
      "grey": 2583,
      "ures": 2584,
      "compli": 2585,
      "Dod": 2586,
      "Darling": 2587,
      "Po": 2588,
      "Wop": 2589,
      "ild": 2590,
      "ming": 2591,
      "inst": 2592,
      "rend": 2593,
      "belong": 2594,
      "constant": 2595,
      "iff": 2596,
      "consequence": 2597,
      "baby": 2598,
      "Wopsle": 2599,
      "dry": 2600,
      "dim": 2601,
      "ancer": 2602,
      "ends": 2603,
      "caught": 2604,
      "disap": 2605,
      "whispered": 2606,
      "trave": 2607,
      "murder": 2608,
      "birth": 2609,
      "sensible": 2610,
      "strength": 2611,
      "Dodger": 2612,
      "cou": 2613,
      "claim": 2614,
      "fac": 2615,
      "pon": 2616,
      "twi": 2617,
      "uce": 2618,
      "ines": 2619,
      "attr": 2620,
      "ford": 2621,
      "covered": 2622,
      "acy": 2623,
      "heads": 2624,
      "Michael": 2625,
      "evil": 2626,
      "distant": 2627,
      "receive": 2628,
      "zen": 2629,
      "inc": 2630,
      "inj": 2631,
      "thed": 2632,
      "beadle": 2633,
      "brea": 2634,
      "observ": 2635,
      "uded": 2636,
      "staircase": 2637,
      "interested": 2638,
      "possessed": 2639,
      "judge": 2640,
      "experience": 2641,
      "cottage": 2642,
      "sli": 2643,
      "reference": 2644,
      "attem": 2645,
      "chin": 2646,
      "hoped": 2647,
      "ester": 2648,
      "Indeed": 2649,
      "remembered": 2650,
      "accus": 2651,
      "arrange": 2652,
      "worthy": 2653,
      "dull": 2654,
      "eager": 2655,
      "harm": 2656,
      "sw": 2657,
      "zing": 2658,
      "besto": 2659,
      "rote": 2660,
      "unless": 2661,
      "iced": 2662,
      "pause": 2663,
      "trying": 2664,
      "darkness": 2665,
      "horror": 2666,
      "occupied": 2667,
      "nodded": 2668,
      "esterday": 2669,
      "Bill": 2670,
      "Gumm": 2671,
      "Nancy": 2672,
      "Omer": 2673,
      "ale": 2674,
      "cord": 2675,
      "furn": 2676,
      "faint": 2677,
      "odd": 2678,
      "pardon": 2679,
      "uct": 2680,
      "heaven": 2681,
      "shing": 2682,
      "prev": 2683,
      "impat": 2684,
      "umph": 2685,
      "glancing": 2686,
      "intention": 2687,
      "watching": 2688,
      "cries": 2689,
      "drawn": 2690,
      "Gummidge": 2691,
      ",--": 2692,
      "Yet": 2693,
      "lord": 2694,
      "langu": 2695,
      "tail": 2696,
      "wrote": 2697,
      "yesterday": 2698,
      "lives": 2699,
      "shake": 2700,
      "grown": 2701,
      "hearing": 2702,
      "excuse": 2703,
      "played": 2704,
      "build": 2705,
      "resumed": 2706,
      "gradually": 2707,
      "ancery": 2708,
      "Tur": 2709,
      "bare": 2710,
      "ior": 2711,
      "erry": 2712,
      "hil": 2713,
      "hopes": 2714,
      "lose": 2715,
      "forehead": 2716,
      "lights": 2717,
      "misery": 2718,
      "Chancery": 2719,
      "memory": 2720,
      "marriage": 2721,
      "devoted": 2722,
      "contempl": 2723,
      "determined": 2724,
      "ES": 2725,
      "cart": 2726,
      "gro": 2727,
      "line": 2728,
      "sick": 2729,
      "retor": 2730,
      "seig": 2731,
      "neur": 2732,
      "ouring": 2733,
      "worked": 2734,
      "yours": 2735,
      "inking": 2736,
      "assist": 2737,
      "Inn": 2738,
      "smiling": 2739,
      "interrup": 2740,
      "III": 2741,
      "English": 2742,
      "private": 2743,
      "seigneur": 2744,
      "Sun": 2745,
      "loud": 2746,
      "wide": 2747,
      "request": 2748,
      "leaving": 2749,
      "noble": 2750,
      "rod": 2751,
      "shes": 2752,
      "shining": 2753,
      "persu": 2754,
      "prote": 2755,
      "rench": 2756,
      "Monseigneur": 2757,
      "existence": 2758,
      "Jerry": 2759,
      "Stry": 2760,
      "inv": 2761,
      "relie": 2762,
      "unfortunate": 2763,
      "deb": 2764,
      "rich": 2765,
      "ament": 2766,
      "distress": 2767,
      "aff": 2768,
      "clas": 2769,
      "attent": 2770,
      "moments": 2771,
      "observe": 2772,
      "clean": 2773,
      "falling": 2774,
      "empty": 2775,
      "boots": 2776,
      "Stryver": 2777,
      "Chad": 2778,
      "bid": 2779,
      "dle": 2780,
      "honest": 2781,
      "iod": 2782,
      "aside": 2783,
      "indign": 2784,
      "composed": 2785,
      "aware": 2786,
      "laying": 2787,
      "smoke": 2788,
      "threw": 2789,
      "Chadband": 2790,
      "EN": 2791,
      "Even": 2792,
      "Wold": 2793,
      "phe": 2794,
      "sses": 2795,
      "vain": 2796,
      "vic": 2797,
      "moving": 2798,
      "offer": 2799,
      "stopping": 2800,
      "counter": 2801,
      "hens": 2802,
      "interval": 2803,
      "opening": 2804,
      "bitter": 2805,
      "rook": 2806,
      "addressed": 2807,
      "knees": 2808,
      "frightened": 2809,
      "Ches": 2810,
      "Gr": 2811,
      "Would": 2812,
      "city": 2813,
      "game": 2814,
      "mor": 2815,
      "virt": 2816,
      "xion": 2817,
      "heav": 2818,
      "meas": 2819,
      "llor": 2820,
      "stir": 2821,
      "sem": 2822,
      "liz": 2823,
      "period": 2824,
      "spee": 2825,
      "solitary": 2826,
      "Thus": 2827,
      "excell": 2828,
      "generally": 2829,
      "naturally": 2830,
      "recogn": 2831,
      "drinking": 2832,
      "Boy": 2833,
      "Chesney": 2834,
      "Me": 2835,
      "fun": 2836,
      "warn": 2837,
      "“‘": 2838,
      "hig": 2839,
      "dearest": 2840,
      "tight": 2841,
      "prevent": 2842,
      "prospect": 2843,
      "spare": 2844,
      "angry": 2845,
      "walls": 2846,
      "possession": 2847,
      "Car": 2848,
      "Our": 2849,
      "Pro": 2850,
      "Whe": 2851,
      "afore": 2852,
      "ired": 2853,
      "informed": 2854,
      "thro": 2855,
      "itated": 2856,
      "ides": 2857,
      "imagin": 2858,
      "berry": 2859,
      "confess": 2860,
      "kindness": 2861,
      "temper": 2862,
      "Dr": 2863,
      "Fl": 2864,
      "Mons": 2865,
      "Pr": 2866,
      "Un": 2867,
      "fool": 2868,
      "narrow": 2869,
      "pted": 2870,
      "thick": 2871,
      "orig": 2872,
      "wet": 2873,
      "suf": 2874,
      "names": 2875,
      "proceeded": 2876,
      "recollect": 2877,
      "terrible": 2878,
      "Monsieur": 2879,
      "origin": 2880,
      "Jip": 2881,
      "Mills": 2882,
      "ners": 2883,
      "arse": 2884,
      "ability": 2885,
      "conven": 2886,
      "tains": 2887,
      "visitor": 2888,
      "following": 2889,
      "pointing": 2890,
      "acquainted": 2891,
      "started": 2892,
      "clerk": 2893,
      "bottle": 2894,
      "French": 2895,
      "Ha": 2896,
      "Vol": 2897,
      "dir": 2898,
      "hanging": 2899,
      "latter": 2900,
      "paren": 2901,
      "prac": 2902,
      "despair": 2903,
      "mons": 2904,
      "hurry": 2905,
      "ized": 2906,
      "liberty": 2907,
      "quarter": 2908,
      "information": 2909,
      "wound": 2910,
      "terms": 2911,
      "loss": 2912,
      "tee": 2913,
      "using": 2914,
      "filled": 2915,
      "working": 2916,
      "distingu": 2917,
      "cks": 2918,
      "gently": 2919,
      "stret": 2920,
      "stern": 2921,
      "listened": 2922,
      "Such": 2923,
      "bund": 2924,
      "fra": 2925,
      "win": 2926,
      "staring": 2927,
      "admi": 2928,
      "coll": 2929,
      "tice": 2930,
      "consu": 2931,
      "exe": 2932,
      "compassion": 2933,
      "cape": 2934,
      "desk": 2935,
      "locked": 2936,
      "triumph": 2937,
      "discovered": 2938,
      "admiration": 2939,
      "Volumn": 2940,
      "Still": 2941,
      "Take": 2942,
      "mour": 2943,
      "rank": 2944,
      "snow": 2945,
      "send": 2946,
      "ues": 2947,
      "vag": 2948,
      "terror": 2949,
      "conv": 2950,
      "impossible": 2951,
      "smoo": 2952,
      "telling": 2953,
      "Chance": 2954,
      "flowers": 2955,
      "Rosa": 2956,
      "birds": 2957,
      "folded": 2958,
      "While": 2959,
      "leaning": 2960,
      "Maylie": 2961,
      "Volumnia": 2962,
      "Phil": 2963,
      "Sy": 2964,
      "cli": 2965,
      "fly": 2966,
      "har": 2967,
      "phi": 2968,
      "pick": 2969,
      "tree": 2970,
      "uous": 2971,
      "anti": 2972,
      "ater": 2973,
      "tomed": 2974,
      "ors": 2975,
      "history": 2976,
      "ulous": 2977,
      "lightly": 2978,
      "desper": 2979,
      "highly": 2980,
      "burning": 2981,
      "neighbourhood": 2982,
      "entirely": 2983,
      "advantage": 2984,
      "Crup": 2985,
      "Jack": 2986,
      "Krook": 2987,
      "ME": 2988,
      "alive": 2989,
      "iable": 2990,
      "pal": 2991,
      "heap": 2992,
      "regre": 2993,
      "retired": 2994,
      "utmost": 2995,
      "uncle": 2996,
      "ically": 2997,
      "worst": 2998,
      "breaking": 2999,
      "parted": 3000,
      "parting": 3001,
      "intent": 3002,
      "stands": 3003,
      "matters": 3004,
      "decided": 3005,
      "conceal": 3006,
      "speech": 3007,
      "Chancellor": 3008,
      "Crupp": 3009,
      "Bates": 3010,
      "Ex": 3011,
      "Eliz": 3012,
      "Little": 3013,
      "OR": 3014,
      "Stre": 3015,
      "fut": 3016,
      "soften": 3017,
      "vac": 3018,
      "incre": 3019,
      "relief": 3020,
      "below": 3021,
      "ghost": 3022,
      "hers": 3023,
      "bosom": 3024,
      "willing": 3025,
      "dign": 3026,
      "sooner": 3027,
      "directed": 3028,
      "wonderful": 3029,
      "miles": 3030,
      "author": 3031,
      "grief": 3032,
      "welcome": 3033,
      "Which": 3034,
      "AND": 3035,
      "degree": 3036,
      "osity": 3037,
      "bonnet": 3038,
      "accustomed": 3039,
      "Elizabe": 3040,
      "!--": 3041,
      "main": 3042,
      "pence": 3043,
      "thered": 3044,
      "repro": 3045,
      "hide": 3046,
      "cell": 3047,
      "tied": 3048,
      "ards": 3049,
      "exp": 3050,
      "bold": 3051,
      "apa": 3052,
      "elbow": 3053,
      "div": 3054,
      "confused": 3055,
      "single": 3056,
      "summer": 3057,
      "trembling": 3058,
      "knife": 3059,
      "grateful": 3060,
      "excellent": 3061,
      "Flite": 3062,
      "Elizabeth": 3063,
      "Bad": 3064,
      "Having": 3065,
      "Paris": 3066,
      "thorn": 3067,
      "roy": 3068,
      "forgive": 3069,
      "def": 3070,
      "shri": 3071,
      "mud": 3072,
      "fail": 3073,
      "shoulders": 3074,
      "avo": 3075,
      "gives": 3076,
      "male": 3077,
      "satisfied": 3078,
      "rapid": 3079,
      "Tellson": 3080,
      "extraordinary": 3081,
      "Strong": 3082,
      "Lin": 3083,
      "mal": 3084,
      "reached": 3085,
      "seated": 3086,
      "wear": 3087,
      "weeks": 3088,
      "uni": 3089,
      "whenever": 3090,
      "woke": 3091,
      "obje": 3092,
      "begun": 3093,
      "waited": 3094,
      "troubled": 3095,
      "choly": 3096,
      "deeply": 3097,
      "delighted": 3098,
      "discovery": 3099,
      "cruel": 3100,
      "affairs": 3101,
      "Street": 3102,
      "Say": 3103,
      "lone": 3104,
      "mut": 3105,
      "nes": 3106,
      "yield": 3107,
      "offee": 3108,
      "iter": 3109,
      "stro": 3110,
      "stem": 3111,
      "ries": 3112,
      "loves": 3113,
      "somewhere": 3114,
      "els": 3115,
      "greatly": 3116,
      "avin": 3117,
      "wants": 3118,
      "However": 3119,
      "usually": 3120,
      "wooden": 3121,
      "objects": 3122,
      "fifty": 3123,
      "twice": 3124,
      "Sunday": 3125,
      "dirty": 3126,
      "mil": 3127,
      "inf": 3128,
      "asks": 3129,
      "mest": 3130,
      "melan": 3131,
      "stit": 3132,
      "lice": 3133,
      "devil": 3134,
      "indif": 3135,
      "race": 3136,
      "coln": 3137,
      "colour": 3138,
      "bringing": 3139,
      "explained": 3140,
      "extremely": 3141,
      "Lincoln": 3142,
      "melancholy": 3143,
      "Am": 3144,
      "OF": 3145,
      "bru": 3146,
      "coffee": 3147,
      "iment": 3148,
      "pin": 3149,
      "situ": 3150,
      "ush": 3151,
      "posit": 3152,
      "cially": 3153,
      "events": 3154,
      "command": 3155,
      "ease": 3156,
      "grav": 3157,
      "ummle": 3158,
      "touching": 3159,
      "acquaint": 3160,
      "listening": 3161,
      "affectionate": 3162,
      "kissed": 3163,
      "witness": 3164,
      "princip": 3165,
      "Betsey": 3166,
      "according": 3167,
      "sympath": 3168,
      "retorted": 3169,
      "Drummle": 3170,
      "AT": 3171,
      "rum": 3172,
      "wasn": 3173,
      "neat": 3174,
      "accom": 3175,
      "complain": 3176,
      "hastily": 3177,
      "serve": 3178,
      "posing": 3179,
      "desp": 3180,
      "rendered": 3181,
      "watched": 3182,
      "surround": 3183,
      "playing": 3184,
      "tonight": 3185,
      "evidently": 3186,
      "intelligence": 3187,
      "teeth": 3188,
      "future": 3189,
      "Sower": 3190,
      "cra": 3191,
      "cough": 3192,
      "mort": 3193,
      "non": 3194,
      "pill": 3195,
      "tide": 3196,
      "vement": 3197,
      "loving": 3198,
      "turns": 3199,
      "gress": 3200,
      "stock": 3201,
      "friendly": 3202,
      "appears": 3203,
      "finding": 3204,
      "questions": 3205,
      "considerable": 3206,
      "exceed": 3207,
      "remarkable": 3208,
      "recolle": 3209,
      "Sowerberry": 3210,
      "cro": 3211,
      "zz": 3212,
      "resid": 3213,
      "enced": 3214,
      "accompan": 3215,
      "artle": 3216,
      "glanced": 3217,
      "housekeeper": 3218,
      "awful": 3219,
      "aching": 3220,
      "support": 3221,
      "shoes": 3222,
      "Allan": 3223,
      "roads": 3224,
      "favourite": 3225,
      "probably": 3226,
      "produced": 3227,
      "gloomy": 3228,
      "chamber": 3229,
      "disturbed": 3230,
      "Turvey": 3231,
      "regret": 3232,
      "Dartle": 3233,
      "Har": 3234,
      "Mo": 3235,
      "Tink": 3236,
      "VER": 3237,
      "Wal": 3238,
      "ban": 3239,
      "fanci": 3240,
      "mas": 3241,
      "cost": 3242,
      "ourselves": 3243,
      "apping": 3244,
      "proposed": 3245,
      "supper": 3246,
      "capable": 3247,
      "occasions": 3248,
      "strongly": 3249,
      "pointment": 3250,
      "pockets": 3251,
      "audi": 3252,
      "Sometimes": 3253,
      "possibly": 3254,
      "waistcoat": 3255,
      "Poor": 3256,
      "Boythorn": 3257,
      "throat": 3258,
      "Jor": 3259,
      "bank": 3260,
      "phy": 3261,
      "papa": 3262,
      "rele": 3263,
      "ashes": 3264,
      "armed": 3265,
      "stable": 3266,
      "espe": 3267,
      "ades": 3268,
      "sob": 3269,
      "onet": 3270,
      "pecu": 3271,
      "consent": 3272,
      "ilt": 3273,
      "ilar": 3274,
      "disposed": 3275,
      "lawyer": 3276,
      "Annie": 3277,
      "pieces": 3278,
      "keys": 3279,
      "growing": 3280,
      "welve": 3281,
      "violent": 3282,
      "custom": 3283,
      "spring": 3284,
      "Turveydrop": 3285,
      "peculiar": 3286,
      "Pray": 3287,
      "Sh": 3288,
      "inside": 3289,
      "invol": 3290,
      "ency": 3291,
      "itiz": 3292,
      "alarm": 3293,
      "unable": 3294,
      "aming": 3295,
      "consol": 3296,
      "teen": 3297,
      "expen": 3298,
      "aker": 3299,
      "raise": 3300,
      "prov": 3301,
      "venge": 3302,
      "gras": 3303,
      "steady": 3304,
      "accident": 3305,
      "respectable": 3306,
      "recovered": 3307,
      "waiter": 3308,
      "communication": 3309,
      "extent": 3310,
      "evidence": 3311,
      "Cor": 3312,
      "Cap": 3313,
      "Saint": 3314,
      "TH": 3315,
      "aid": 3316,
      "eh": 3317,
      "rage": 3318,
      "ratt": 3319,
      "tur": 3320,
      "hend": 3321,
      "resto": 3322,
      "tering": 3323,
      "comb": 3324,
      "seek": 3325,
      "ils": 3326,
      "rud": 3327,
      "grew": 3328,
      "serious": 3329,
      "lower": 3330,
      "spectac": 3331,
      "understanding": 3332,
      "occasionally": 3333,
      "soft": 3334,
      "system": 3335,
      "midst": 3336,
      "crossed": 3337,
      "apprehens": 3338,
      "benef": 3339,
      "Badger": 3340,
      "Again": 3341,
      "Ne": 3342,
      "apo": 3343,
      "cool": 3344,
      "ctive": 3345,
      "gment": 3346,
      "rate": 3347,
      "twelve": 3348,
      "ital": 3349,
      "star": 3350,
      "stones": 3351,
      "nod": 3352,
      "force": 3353,
      "dozen": 3354,
      "ittles": 3355,
      "lessly": 3356,
      "treat": 3357,
      "confusion": 3358,
      "shore": 3359,
      "personal": 3360,
      "companions": 3361,
      "sofa": 3362,
      "frequ": 3363,
      "allowed": 3364,
      "threat": 3365,
      "rubbing": 3366,
      "learned": 3367,
      "occurred": 3368,
      "Cer": 3369,
      "France": 3370,
      "Two": 3371,
      "Was": 3372,
      "nice": 3373,
      "rise": 3374,
      "—“": 3375,
      "weight": 3376,
      "amoun": 3377,
      "pers": 3378,
      "anted": 3379,
      "imag": 3380,
      "wot": 3381,
      "cloth": 3382,
      "cheek": 3383,
      "finite": 3384,
      "dogs": 3385,
      "precious": 3386,
      "Prince": 3387,
      "acquaintance": 3388,
      "Certain": 3389,
      "Jane": 3390,
      "Se": 3391,
      "See": 3392,
      "XV": 3393,
      "fla": 3394,
      "thin": 3395,
      "argu": 3396,
      "stars": 3397,
      "owed": 3398,
      "ential": 3399,
      "aging": 3400,
      "bot": 3401,
      "compre": 3402,
      "handed": 3403,
      "avid": 3404,
      "rested": 3405,
      "surely": 3406,
      "mild": 3407,
      "suffer": 3408,
      "knee": 3409,
      "reflection": 3410,
      "professional": 3411,
      "fashion": 3412,
      "hast": 3413,
      "lam": 3414,
      "tong": 3415,
      "represent": 3416,
      "removed": 3417,
      "modest": 3418,
      "tire": 3419,
      "convey": 3420,
      "fier": 3421,
      "brown": 3422,
      "brows": 3423,
      "lovely": 3424,
      "carefully": 3425,
      "Because": 3426,
      "plainly": 3427,
      "enemy": 3428,
      "destroy": 3429,
      "tomorrow": 3430,
      "delightful": 3431,
      "credit": 3432,
      "respond": 3433,
      "gloom": 3434,
      "third": 3435,
      "loose": 3436,
      "beneath": 3437,
      "demanded": 3438,
      "bundle": 3439,
      "Syd": 3440,
      "iving": 3441,
      "lted": 3442,
      "oh": 3443,
      "spl": 3444,
      "sought": 3445,
      "tions": 3446,
      "ana": 3447,
      "recomm": 3448,
      "asha": 3449,
      "ashed": 3450,
      "stain": 3451,
      "noticed": 3452,
      "raising": 3453,
      "ounced": 3454,
      "fulness": 3455,
      "goodness": 3456,
      "hearted": 3457,
      "chest": 3458,
      "interposed": 3459,
      "creatures": 3460,
      "concerning": 3461,
      "Marquis": 3462,
      "Sydney": 3463,
      "ashamed": 3464,
      "Gre": 3465,
      "Upon": 3466,
      "_I": 3467,
      "bor": 3468,
      "cing": 3469,
      "lamp": 3470,
      "sits": 3471,
      "tall": 3472,
      "remo": 3473,
      "ceiling": 3474,
      "delay": 3475,
      "shel": 3476,
      "caused": 3477,
      "awak": 3478,
      "native": 3479,
      "voices": 3480,
      "advice": 3481,
      "advanced": 3482,
      "succeed": 3483,
      "suspicion": 3484,
      "lifted": 3485,
      "sympathy": 3486,
      "David": 3487,
      "Jacqu": 3488,
      "reve": 3489,
      "hadn": 3490,
      "butter": 3491,
      "ify": 3492,
      "anywhere": 3493,
      "shouldn": 3494,
      "scr": 3495,
      "Jobling": 3496,
      "mist": 3497,
      "grim": 3498,
      "similar": 3499,
      "thorough": 3500,
      "suffered": 3501,
      "accompanied": 3502,
      ".)": 3503,
      "Hall": 3504,
      "Judy": 3505,
      "bag": 3506,
      "ec": 3507,
      "ordered": 3508,
      "seas": 3509,
      "agony": 3510,
      "acity": 3511,
      "feature": 3512,
      "amiable": 3513,
      "exha": 3514,
      "ulated": 3515,
      "shape": 3516,
      "effort": 3517,
      "introd": 3518,
      "Three": 3519,
      "wondering": 3520,
      "profound": 3521,
      "middle": 3522,
      "Cler": 3523,
      "knocked": 3524,
      "sufficiently": 3525,
      "heavily": 3526,
      "Whether": 3527,
      "especially": 3528,
      "Jacques": 3529,
      "Bes": 3530,
      "Tony": 3531,
      "bits": 3532,
      "cook": 3533,
      "gay": 3534,
      "iam": 3535,
      "stor": 3536,
      "space": 3537,
      "arose": 3538,
      "ceased": 3539,
      "rim": 3540,
      "nel": 3541,
      "active": 3542,
      "fever": 3543,
      "timid": 3544,
      "wholly": 3545,
      "bore": 3546,
      "process": 3547,
      "progress": 3548,
      "thinks": 3549,
      "speed": 3550,
      "tort": 3551,
      "begged": 3552,
      "passeng": 3553,
      "appeal": 3554,
      "flat": 3555,
      "shir": 3556,
      "ignor": 3557,
      "visible": 3558,
      "drag": 3559,
      "colle": 3560,
      "sigh": 3561,
      "anxiety": 3562,
      "entertain": 3563,
      "William": 3564,
      "Commons": 3565,
      "respons": 3566,
      "pulled": 3567,
      "nurse": 3568,
      "depend": 3569,
      "sufficient": 3570,
      "inquiry": 3571,
      "dignity": 3572,
      "Certainly": 3573,
      "_I_": 3574,
      "bac": 3575,
      "spre": 3576,
      "wery": 3577,
      "isel": 3578,
      "aste": 3579,
      "ara": 3580,
      "soo": 3581,
      "dismal": 3582,
      "shame": 3583,
      "dying": 3584,
      "rence": 3585,
      "marry": 3586,
      "portion": 3587,
      "slept": 3588,
      "trial": 3589,
      "hurt": 3590,
      "painful": 3591,
      "bury": 3592,
      "circumstance": 3593,
      "equal": 3594,
      "carrying": 3595,
      "officer": 3596,
      "assured": 3597,
      "avoid": 3598,
      "exhaust": 3599,
      "Chill": 3600,
      "Fe": 3601,
      "Tho": 3602,
      "jest": 3603,
      "height": 3604,
      "inn": 3605,
      "resent": 3606,
      "atory": 3607,
      "istr": 3608,
      "asking": 3609,
      "ense": 3610,
      "stage": 3611,
      "rolled": 3612,
      "ading": 3613,
      "delive": 3614,
      "notes": 3615,
      "mode": 3616,
      "fet": 3617,
      "loso": 3618,
      "forefinger": 3619,
      "replies": 3620,
      "design": 3621,
      "rent": 3622,
      "Therefore": 3623,
      "bedroom": 3624,
      "hearts": 3625,
      "attended": 3626,
      "truly": 3627,
      "girls": 3628,
      "refre": 3629,
      "difference": 3630,
      "conduct": 3631,
      "considering": 3632,
      "drove": 3633,
      "smoking": 3634,
      "meeting": 3635,
      "remonstr": 3636,
      "accept": 3637,
      "higher": 3638,
      "Provis": 3639,
      "mestic": 3640,
      "Captain": 3641,
      "Chillip": 3642,
      "Ho": 3643,
      "High": 3644,
      "crown": 3645,
      "gas": 3646,
      "pan": 3647,
      "sca": 3648,
      "heer": 3649,
      "iture": 3650,
      "study": 3651,
      "stiff": 3652,
      "belief": 3653,
      "charm": 3654,
      "escape": 3655,
      "utation": 3656,
      "altered": 3657,
      "agitation": 3658,
      "aband": 3659,
      "absence": 3660,
      "cons": 3661,
      "geon": 3662,
      "excl": 3663,
      "pled": 3664,
      "afford": 3665,
      "thanked": 3666,
      "eyed": 3667,
      "grass": 3668,
      "trade": 3669,
      "pressing": 3670,
      "heartily": 3671,
      "Though": 3672,
      "reasons": 3673,
      "Any": 3674,
      "calcul": 3675,
      "striking": 3676,
      "settle": 3677,
      "simple": 3678,
      "Baronet": 3679,
      "desired": 3680,
      "equally": 3681,
      "connexion": 3682,
      "polite": 3683,
      "chambers": 3684,
      "referred": 3685,
      "exerc": 3686,
      "basket": 3687,
      "bottom": 3688,
      "Li": 3689,
      "WI": 3690,
      "bal": 3691,
      "bought": 3692,
      "cab": 3693,
      "ky": 3694,
      "mill": 3695,
      "ration": 3696,
      "recall": 3697,
      "required": 3698,
      "vest": 3699,
      "wash": 3700,
      "aloud": 3701,
      "unknown": 3702,
      "host": 3703,
      "moisel": 3704,
      "gets": 3705,
      "shown": 3706,
      "que": 3707,
      "urely": 3708,
      "older": 3709,
      "anges": 3710,
      "useful": 3711,
      "younger": 3712,
      "happen": 3713,
      "smiled": 3714,
      "elder": 3715,
      "wondered": 3716,
      "patron": 3717,
      "missed": 3718,
      "sounds": 3719,
      "affected": 3720,
      "cuss": 3721,
      "contrary": 3722,
      "music": 3723,
      "delicate": 3724,
      "establishment": 3725,
      "Brit": 3726,
      "desperate": 3727,
      "amount": 3728,
      "Besides": 3729,
      "shirt": 3730,
      "moiselle": 3731,
      "AR": 3732,
      "Pa": 3733,
      "awoke": 3734,
      "frown": 3735,
      "jac": 3736,
      "tle": 3737,
      "wre": 3738,
      "wing": 3739,
      "reli": 3740,
      "arked": 3741,
      "search": 3742,
      "beer": 3743,
      "roll": 3744,
      "adi": 3745,
      "alous": 3746,
      "pop": 3747,
      "cting": 3748,
      "domestic": 3749,
      "quant": 3750,
      "umb": 3751,
      "spected": 3752,
      "gled": 3753,
      "remarked": 3754,
      "bridge": 3755,
      "shot": 3756,
      "reflect": 3757,
      "drun": 3758,
      "drank": 3759,
      "appearing": 3760,
      "charged": 3761,
      "pursuit": 3762,
      "steadily": 3763,
      "variety": 3764,
      "connected": 3765,
      "philoso": 3766,
      "apolo": 3767,
      "!—": 3768,
      "Bank": 3769,
      "ali": 3770,
      "bill": 3771,
      "gun": 3772,
      "lid": 3773,
      "tin": 3774,
      "van": 3775,
      "wid": 3776,
      "wist": 3777,
      "educ": 3778,
      "ench": 3779,
      "arily": 3780,
      "wicked": 3781,
      "lick": 3782,
      "uncomfortable": 3783,
      "female": 3784,
      "tear": 3785,
      "indic": 3786,
      "--‘": 3787,
      "illness": 3788,
      "blank": 3789,
      "assur": 3790,
      "speci": 3791,
      "desol": 3792,
      "emple": 3793,
      "mense": 3794,
      "restless": 3795,
      "committed": 3796,
      "horri": 3797,
      "Before": 3798,
      "arranged": 3799,
      "lodging": 3800,
      "degrees": 3801,
      "mysterious": 3802,
      "couple": 3803,
      "distinguished": 3804,
      "execut": 3805,
      "reproach": 3806,
      "Sop": 3807,
      "eve": 3808,
      "fish": 3809,
      "itable": 3810,
      "stup": 3811,
      "cerem": 3812,
      "uneasy": 3813,
      "pect": 3814,
      "roused": 3815,
      "anyone": 3816,
      "discuss": 3817,
      "scri": 3818,
      "cloak": 3819,
      "attached": 3820,
      "kindly": 3821,
      "shire": 3822,
      "observing": 3823,
      "event": 3824,
      "showing": 3825,
      "singular": 3826,
      "remains": 3827,
      "madame": 3828,
      "regarded": 3829,
      "employed": 3830,
      "smell": 3831,
      "false": 3832,
      "important": 3833,
      "reminded": 3834,
      "constantly": 3835,
      "relieved": 3836,
      "nesses": 3837,
      "Corney": 3838,
      "delivered": 3839,
      "ceremony": 3840,
      "Grim": 3841,
      "LE": 3842,
      "Nana": 3843,
      "Temple": 3844,
      "fate": 3845,
      "flight": 3846,
      "sor": 3847,
      "inging": 3848,
      "leis": 3849,
      "haven": 3850,
      "becoming": 3851,
      "sail": 3852,
      "advis": 3853,
      "bye": 3854,
      "shout": 3855,
      "exped": 3856,
      "explain": 3857,
      "oodle": 3858,
      "plan": 3859,
      "rug": 3860,
      "tens": 3861,
      "childish": 3862,
      "tical": 3863,
      "setting": 3864,
      "expressive": 3865,
      "patient": 3866,
      "urden": 3867,
      "points": 3868,
      "arrival": 3869,
      "blessed": 3870,
      "apparen": 3871,
      "knitting": 3872,
      "uttering": 3873,
      "Clara": 3874,
      "humour": 3875,
      "instantly": 3876,
      "contempt": 3877,
      "superior": 3878,
      "wandering": 3879,
      "convict": 3880,
      "attempt": 3881,
      "objection": 3882,
      "Grimwig": 3883,
      "AS": 3884,
      "Hand": 3885,
      "IC": 3886,
      "Mell": 3887,
      "Rick": 3888,
      "food": 3889,
      "luck": 3890,
      "winter": 3891,
      "’,": 3892,
      "toast": 3893,
      "isn": 3894,
      "aspect": 3895,
      "encour": 3896,
      "leak": 3897,
      "forced": 3898,
      "unconscious": 3899,
      "upper": 3900,
      "indi": 3901,
      "fault": 3902,
      "caution": 3903,
      "proof": 3904,
      "dies": 3905,
      "parti": 3906,
      "mistress": 3907,
      "matron": 3908,
      "returning": 3909,
      "fortunes": 3910,
      "arrative": 3911,
      "corre": 3912,
      "strike": 3913,
      "shadows": 3914,
      "wretch": 3915,
      "departed": 3916,
      "observation": 3917,
      "Grand": 3918,
      "lonely": 3919,
      "surrounded": 3920,
      "itizen": 3921,
      "Sophy": 3922,
      "Gu": 3923,
      "IV": 3924,
      "King": 3925,
      "NO": 3926,
      "Wa": 3927,
      "dwell": 3928,
      "foun": 3929,
      "frag": 3930,
      "hin": 3931,
      "kill": 3932,
      "rang": 3933,
      "swi": 3934,
      "sco": 3935,
      "swall": 3936,
      "taste": 3937,
      "wave": 3938,
      "intim": 3939,
      "ists": 3940,
      "seized": 3941,
      "agre": 3942,
      "abroad": 3943,
      "prefer": 3944,
      "ump": 3945,
      "Young": 3946,
      "Weev": 3947,
      "spark": 3948,
      "treated": 3949,
      "join": 3950,
      "excited": 3951,
      "relation": 3952,
      "relations": 3953,
      "eyebrows": 3954,
      "Toby": 3955,
      "murmur": 3956,
      "addressing": 3957,
      "Star": 3958,
      "ING": 3959,
      "burnt": 3960,
      "lantern": 3961,
      "fatig": 3962,
      "suggested": 3963,
      "entreat": 3964,
      "collar": 3965,
      "softened": 3966,
      "Weevle": 3967,
      "ba": 3968,
      "damp": 3969,
      "song": 3970,
      "inhabit": 3971,
      "outer": 3972,
      "toss": 3973,
      "seve": 3974,
      "weary": 3975,
      "alarmed": 3976,
      "unexpected": 3977,
      "coarse": 3978,
      "hole": 3979,
      "tel": 3980,
      "immense": 3981,
      "gling": 3982,
      "obst": 3983,
      "thoughtfully": 3984,
      "spent": 3985,
      "ully": 3986,
      "partly": 3987,
      "bran": 3988,
      "supp": 3989,
      "curi": 3990,
      "vision": 3991,
      "struction": 3992,
      "Once": 3993,
      "Only": 3994,
      "chain": 3995,
      "churchyard": 3996,
      "weakness": 3997,
      "departure": 3998,
      "polit": 3999,
      "building": 4000,
      "situation": 4001,
      "New": 4002,
      "Aged": 4003,
      "Ind": 4004,
      "Mow": 4005,
      "TO": 4006,
      "hun": 4007,
      "lu": 4008,
      "pic": 4009,
      "swell": 4010,
      "zy": 4011,
      "rever": 4012,
      "itive": 4013,
      "orted": 4014,
      "stare": 4015,
      "idle": 4016,
      "saved": 4017,
      "roar": 4018,
      "derer": 4019,
      "pey": 4020,
      "doen": 4021,
      "god": 4022,
      "rous": 4023,
      "disposition": 4024,
      "disgrace": 4025,
      "ruin": 4026,
      "likewise": 4027,
      "dial": 4028,
      "gracious": 4029,
      "emer": 4030,
      "mistake": 4031,
      "dressing": 4032,
      "Mann": 4033,
      "thankful": 4034,
      "wishes": 4035,
      "nodding": 4036,
      "throwing": 4037,
      "tranqu": 4038,
      "faithful": 4039,
      "exceedingly": 4040,
      "Mowcher": 4041,
      "BE": 4042,
      "Fir": 4043,
      "Give": 4044,
      "Mer": 4045,
      "Sat": 4046,
      "pher": 4047,
      "”—": 4048,
      "inced": 4049,
      "reach": 4050,
      "thri": 4051,
      "encourage": 4052,
      "ites": 4053,
      "mee": 4054,
      "sty": 4055,
      "straw": 4056,
      "stained": 4057,
      "ldon": 4058,
      "sacri": 4059,
      "lix": 4060,
      "forty": 4061,
      "acing": 4062,
      "condesc": 4063,
      "pavement": 4064,
      "headed": 4065,
      "share": 4066,
      "nights": 4067,
      "happily": 4068,
      "resting": 4069,
      "attitude": 4070,
      "marshes": 4071,
      "doubted": 4072,
      "content": 4073,
      "excite": 4074,
      "advance": 4075,
      "interests": 4076,
      "price": 4077,
      "admit": 4078,
      "flower": 4079,
      "ashing": 4080,
      "leaned": 4081,
      "snuff": 4082,
      "described": 4083,
      "enjoyment": 4084,
      "Quite": 4085,
      "transp": 4086,
      "Orlick": 4087,
      "magn": 4088,
      "Maldon": 4089,
      "compliment": 4090,
      "intervals": 4091,
      "fancied": 4092,
      "tongue": 4093,
      "Clerval": 4094,
      "spread": 4095,
      "quantity": 4096,
      "Bleak": 4097,
      "Shall": 4098,
      "eating": 4099,
      "fare": 4100,
      "grou": 4101,
      "gloves": 4102,
      "task": 4103,
      "restr": 4104,
      "thy": 4105,
      "attered": 4106,
      "ises": 4107,
      "asses": 4108,
      "orse": 4109,
      "beating": 4110,
      "beheld": 4111,
      "detail": 4112,
      "aches": 4113,
      "geant": 4114,
      "dom": 4115,
      "appointed": 4116,
      "caut": 4117,
      "rushed": 4118,
      "undertak": 4119,
      "tors": 4120,
      "puts": 4121,
      "mistaken": 4122,
      "wrapped": 4123,
      "landlord": 4124,
      "approached": 4125,
      "occupation": 4126,
      "description": 4127,
      "Compey": 4128,
      "mystery": 4129,
      "golden": 4130,
      "astonishment": 4131,
      "struggle": 4132,
      "articles": 4133,
      "assistance": 4134,
      "smooth": 4135,
      "borne": 4136,
      "Compeyson": 4137,
      "Put": 4138,
      "dart": 4139,
      "fu": 4140,
      "iers": 4141,
      "ride": 4142,
      "sper": 4143,
      "upright": 4144,
      "posure": 4145,
      "police": 4146,
      "shine": 4147,
      "shud": 4148,
      "perple": 4149,
      "endous": 4150,
      "ilty": 4151,
      "ilities": 4152,
      "spy": 4153,
      "mighty": 4154,
      "train": 4155,
      "merry": 4156,
      "penny": 4157,
      "careful": 4158,
      "circle": 4159,
      "servants": 4160,
      "candles": 4161,
      "discover": 4162,
      "leading": 4163,
      "taught": 4164,
      "completely": 4165,
      "furniture": 4166,
      "stretched": 4167,
      "accompl": 4168,
      "Harry": 4169,
      "individ": 4170,
      "Yarm": 4171,
      "bending": 4172,
      "gs": 4173,
      "tun": 4174,
      "vice": 4175,
      "infer": 4176,
      "rejo": 4177,
      "haun": 4178,
      "sees": 4179,
      "velo": 4180,
      "uncertain": 4181,
      "ric": 4182,
      "peep": 4183,
      "posal": 4184,
      "gover": 4185,
      "paused": 4186,
      "member": 4187,
      "coloured": 4188,
      "chairs": 4189,
      "patri": 4190,
      "closely": 4191,
      "figures": 4192,
      "blessing": 4193,
      "limbs": 4194,
      "rusty": 4195,
      "yellow": 4196,
      "custo": 4197,
      "robber": 4198,
      "explan": 4199,
      "render": 4200,
      "frame": 4201,
      "convinced": 4202,
      "Grandfather": 4203,
      "curiosity": 4204,
      "Yarmouth": 4205,
      "Ay": 4206,
      "Smee": 4207,
      "ais": 4208,
      "emotion": 4209,
      "lately": 4210,
      "mir": 4211,
      "vig": 4212,
      "tol": 4213,
      "hip": 4214,
      "ldom": 4215,
      "you_": 4216,
      "chan": 4217,
      "changes": 4218,
      "forge": 4219,
      "hollow": 4220,
      "docu": 4221,
      "shone": 4222,
      "selfish": 4223,
      "somehow": 4224,
      "umber": 4225,
      "distr": 4226,
      "affect": 4227,
      "illy": 4228,
      "tyard": 4229,
      "reputation": 4230,
      "nerv": 4231,
      "lasted": 4232,
      "memor": 4233,
      "hearth": 4234,
      "stool": 4235,
      "double": 4236,
      "farther": 4237,
      "advent": 4238,
      "legal": 4239,
      "shade": 4240,
      "Without": 4241,
      "reasonable": 4242,
      "promised": 4243,
      "brief": 4244,
      "folding": 4245,
      "experi": 4246,
      "dangerous": 4247,
      "reflected": 4248,
      "squee": 4249,
      "gratitude": 4250,
      "lotte": 4251,
      "perceived": 4252,
      "established": 4253,
      "conclusion": 4254,
      "Brittles": 4255,
      "distinctly": 4256,
      "Justine": 4257,
      "disappointed": 4258,
      "birthday": 4259,
      "bestowed": 4260,
      "interrupted": 4261,
      "attentive": 4262,
      "milk": 4263,
      "First": 4264,
      "individual": 4265,
      "Has": 4266,
      "HIS": 4267,
      "LL": 4268,
      "Slightly": 4269,
      "_you_": 4270,
      "dancing": 4271,
      "glim": 4272,
      "wake": 4273,
      "renew": 4274,
      "island": 4275,
      "seldom": 4276,
      "ooting": 4277,
      "rib": 4278,
      "neg": 4279,
      "conver": 4280,
      "disappeared": 4281,
      "disagreeable": 4282,
      "scrap": 4283,
      "sentence": 4284,
      "desir": 4285,
      "courtyard": 4286,
      "minds": 4287,
      "guine": 4288,
      "treas": 4289,
      "dding": 4290,
      "dared": 4291,
      "ships": 4292,
      "survey": 4293,
      "observes": 4294,
      "lication": 4295,
      "senses": 4296,
      "famous": 4297,
      "Charlotte": 4298,
      "contented": 4299,
      "stronger": 4300,
      "suming": 4301,
      "chap": 4302,
      "remaining": 4303,
      "result": 4304,
      "knock": 4305,
      "describe": 4306,
      "pushed": 4307,
      "bench": 4308,
      "instrument": 4309,
      "improved": 4310,
      "clouds": 4311,
      "pirates": 4312,
      "apartment": 4313,
      "instance": 4314,
      "attracted": 4315,
      "arrangements": 4316,
      "increased": 4317,
      "spectacles": 4318,
      "horrible": 4319,
      "Cur": 4320,
      "ED": 4321,
      "Hush": 4322,
      "Lavin": 4323,
      "OLI": 4324,
      "Twist": 4325,
      "Und": 4326,
      "ball": 4327,
      "coo": 4328,
      "due": 4329,
      "fight": 4330,
      "mama": 4331,
      "muttered": 4332,
      "obey": 4333,
      "sin": 4334,
      "sand": 4335,
      "infinite": 4336,
      "record": 4337,
      "beast": 4338,
      "behold": 4339,
      "sages": 4340,
      "rope": 4341,
      "rock": 4342,
      "rily": 4343,
      "motions": 4344,
      "pest": 4345,
      "plate": 4346,
      "prove": 4347,
      "epy": 4348,
      "shaken": 4349,
      "obsc": 4350,
      "pless": 4351,
      "awake": 4352,
      "partner": 4353,
      "attach": 4354,
      "tically": 4355,
      "engage": 4356,
      "carri": 4357,
      "hammer": 4358,
      "solute": 4359,
      "wholesome": 4360,
      "contents": 4361,
      "growled": 4362,
      "proceedings": 4363,
      "ringing": 4364,
      "phan": 4365,
      "sensation": 4366,
      "desert": 4367,
      "mountains": 4368,
      "ragged": 4369,
      "endeavoured": 4370,
      "importance": 4371,
      "indignation": 4372,
      "foolish": 4373,
      "client": 4374,
      "fierce": 4375,
      "exercise": 4376,
      "Handel": 4377,
      "Lavinia": 4378,
      "Cook": 4379,
      "EP": 4380,
      "barr": 4381,
      "flying": 4382,
      "gin": 4383,
      "gown": 4384,
      "jury": 4385,
      "lat": 4386,
      "lap": 4387,
      "ress": 4388,
      "toine": 4389,
      "isting": 4390,
      "llen": 4391,
      "forts": 4392,
      "rious": 4393,
      "feared": 4394,
      "abb": 4395,
      "ams": 4396,
      "ulation": 4397,
      "wos": 4398,
      "prosper": 4399,
      "bloo": 4400,
      "torn": 4401,
      "offence": 4402,
      "grin": 4403,
      "friendship": 4404,
      "Peepy": 4405,
      "quires": 4406,
      "walks": 4407,
      "shock": 4408,
      "persons": 4409,
      "singing": 4410,
      "repeat": 4411,
      "murderer": 4412,
      "Antoine": 4413,
      "chaise": 4414,
      "duties": 4415,
      "gravely": 4416,
      "tale": 4417,
      "inclined": 4418,
      "warning": 4419,
      "language": 4420,
      "anticip": 4421,
      "consolation": 4422,
      "comprehend": 4423,
      "Felix": 4424,
      "agreed": 4425,
      "undertaker": 4426,
      "Clay": 4427,
      "LV": 4428,
      "Mat": 4429,
      "ax": 4430,
      "cards": 4431,
      "gery": 4432,
      "nail": 4433,
      "pian": 4434,
      "inquire": 4435,
      "reserved": 4436,
      "thunder": 4437,
      "thrust": 4438,
      "mess": 4439,
      "stam": 4440,
      "stared": 4441,
      "beloved": 4442,
      "changing": 4443,
      "lip": 4444,
      "dee": 4445,
      "accompany": 4446,
      "acknowled": 4447,
      "moder": 4448,
      "tiv": 4449,
      "suspect": 4450,
      "manners": 4451,
      "foreign": 4452,
      "thanks": 4453,
      "earli": 4454,
      "glasses": 4455,
      "shaw": 4456,
      "sergeant": 4457,
      "thoughtful": 4458,
      "uster": 4459,
      "market": 4460,
      "pens": 4461,
      "pretence": 4462,
      "drops": 4463,
      "footsteps": 4464,
      "crack": 4465,
      "simp": 4466,
      "dreams": 4467,
      "firmly": 4468,
      "catch": 4469,
      "endeavour": 4470,
      "disturb": 4471,
      "possibility": 4472,
      "soldier": 4473,
      "benevol": 4474,
      "awakened": 4475,
      "exhausted": 4476,
      "assurance": 4477,
      "fountain": 4478,
      "Claypole": 4479,
      "Ac": 4480,
      "Bol": 4481,
      "Dover": 4482,
      "Mark": 4483,
      "coff": 4484,
      "een": 4485,
      "ias": 4486,
      "leness": 4487,
      "pant": 4488,
      "vable": 4489,
      "recalled": 4490,
      "revenge": 4491,
      "onder": 4492,
      "today": 4493,
      "offered": 4494,
      "llings": 4495,
      "waste": 4496,
      "oose": 4497,
      "rig": 4498,
      "term": 4499,
      "keen": 4500,
      "confir": 4501,
      "protest": 4502,
      "report": 4503,
      "closer": 4504,
      "guilty": 4505,
      "cases": 4506,
      "smith": 4507,
      "jealous": 4508,
      "miser": 4509,
      "clever": 4510,
      "cleared": 4511,
      "finds": 4512,
      "workhouse": 4513,
      "helped": 4514,
      "capital": 4515,
      "lively": 4516,
      "Being": 4517,
      "prisoners": 4518,
      "repeats": 4519,
      "pains": 4520,
      "sleeping": 4521,
      "tremble": 4522,
      "ridic": 4523,
      "favourable": 4524,
      "brick": 4525,
      "drive": 4526,
      "deserted": 4527,
      "rubbed": 4528,
      "earnestness": 4529,
      "innoc": 4530,
      "enjoyed": 4531,
      "niece": 4532,
      "hurriedly": 4533,
      "ification": 4534,
      "preparation": 4535,
      "imagination": 4536,
      "nonsense": 4537,
      "Jorkins": 4538,
      "thoroughly": 4539,
      "Ano": 4540,
      "Aye": 4541,
      "Ev": 4542,
      "HO": 4543,
      "ere": 4544,
      "lin": 4545,
      "lar": 4546,
      "liness": 4547,
      "rare": 4548,
      "rack": 4549,
      "sank": 4550,
      "ude": 4551,
      "ator": 4552,
      "assem": 4553,
      "itating": 4554,
      "leaf": 4555,
      "sex": 4556,
      "bearing": 4557,
      "sacred": 4558,
      "liken": 4559,
      "alter": 4560,
      "demon": 4561,
      "deliver": 4562,
      "perm": 4563,
      "permission": 4564,
      "preced": 4565,
      "mured": 4566,
      "failed": 4567,
      "blame": 4568,
      "counting": 4569,
      "counsel": 4570,
      "happier": 4571,
      "gue": 4572,
      "intended": 4573,
      "vessel": 4574,
      "wanting": 4575,
      "mercy": 4576,
      "energy": 4577,
      "forms": 4578,
      "helpless": 4579,
      "mile": 4580,
      "honoured": 4581,
      "admitted": 4582,
      "impressed": 4583,
      "earnestly": 4584,
      "violently": 4585,
      "Really": 4586,
      "square": 4587,
      "feeble": 4588,
      "probable": 4589,
      "tenderness": 4590,
      "determination": 4591,
      "Death": 4592,
      "distinct": 4593,
      "compliments": 4594,
      "mingled": 4595,
      "breathing": 4596,
      "eagerly": 4597,
      "affli": 4598,
      "measure": 4599,
      "authority": 4600,
      "infant": 4601,
      "recollection": 4602,
      "restored": 4603,
      "recommend": 4604,
      "leisure": 4605,
      "excitement": 4606,
      "experienced": 4607,
      "Another": 4608,
      "Bless": 4609,
      "big": 4610,
      "crep": 4611,
      "eel": 4612,
      "jail": 4613,
      "lting": 4614,
      "mender": 4615,
      "ision": 4616,
      "asc": 4617,
      "asy": 4618,
      "meat": 4619,
      "meal": 4620,
      "owing": 4621,
      "vert": 4622,
      "withstanding": 4623,
      "wept": 4624,
      "fork": 4625,
      "unusual": 4626,
      "deport": 4627,
      "nearest": 4628,
      "nephe": 4629,
      "absolute": 4630,
      "fol": 4631,
      "fill": 4632,
      "ruff": 4633,
      "betray": 4634,
      "remorse": 4635,
      "taining": 4636,
      "actually": 4637,
      "monster": 4638,
      "fields": 4639,
      "daily": 4640,
      "shillings": 4641,
      "penet": 4642,
      "holds": 4643,
      "falls": 4644,
      "mentioning": 4645,
      "sounded": 4646,
      "emphas": 4647,
      "correspond": 4648,
      "approach": 4649,
      "resolution": 4650,
      "clearly": 4651,
      "consciousness": 4652,
      "slightly": 4653,
      "ugly": 4654,
      "tenderly": 4655,
      "youthful": 4656,
      "amaze": 4657,
      "concluded": 4658,
      "gallery": 4659,
      "brave": 4660,
      "previous": 4661,
      "persuaded": 4662,
      "victim": 4663,
      "intentions": 4664,
      "frequently": 4665,
      "features": 4666,
      "storm": 4667,
      "OLIVER": 4668,
      "piano": 4669,
      "nephew": 4670,
      ");": 4671,
      "Ab": 4672,
      "Gen": 4673,
      "Min": 4674,
      "Rep": 4675,
      "cil": 4676,
      "pse": 4677,
      "inconven": 4678,
      "err": 4679,
      "atic": 4680,
      "hidden": 4681,
      "alities": 4682,
      "ribut": 4683,
      "mod": 4684,
      "shell": 4685,
      "shr": 4686,
      "extingu": 4687,
      "apron": 4688,
      "composure": 4689,
      "fiend": 4690,
      "overcome": 4691,
      "sentiment": 4692,
      "trans": 4693,
      "childhood": 4694,
      "hopeless": 4695,
      "shops": 4696,
      "mater": 4697,
      "pretended": 4698,
      "Trabb": 4699,
      "capacity": 4700,
      "generous": 4701,
      "doubtful": 4702,
      "confidential": 4703,
      "murmured": 4704,
      "HAT": 4705,
      "choice": 4706,
      "sorts": 4707,
      "swear": 4708,
      "difficulties": 4709,
      "necessity": 4710,
      "starting": 4711,
      "powerful": 4712,
      "trembled": 4713,
      "tremendous": 4714,
      "Emily": 4715,
      "gallant": 4716,
      "deceased": 4717,
      "clasped": 4718,
      "indifferent": 4719,
      "mortal": 4720,
      "imagine": 4721,
      "destroyed": 4722,
      "apparently": 4723,
      "ridiculous": 4724,
      "amazement": 4725,
      "Dan": 4726,
      "Los": 4727,
      "RO": 4728,
      "bark": 4729,
      "cure": 4730,
      "fru": 4731,
      "mass": 4732,
      "nal": 4733,
      "pup": 4734,
      "poured": 4735,
      "vast": 4736,
      "iny": 4737,
      "ison": 4738,
      "itions": 4739,
      "weeping": 4740,
      "urged": 4741,
      "deliber": 4742,
      "terbury": 4743,
      "fears": 4744,
      "butcher": 4745,
      "hate": 4746,
      "teach": 4747,
      "aps": 4748,
      "fog": 4749,
      "imper": 4750,
      "plent": 4751,
      "propose": 4752,
      "proposal": 4753,
      "berne": 4754,
      "Nobody": 4755,
      "scen": 4756,
      "scorn": 4757,
      "closing": 4758,
      "everywhere": 4759,
      "track": 4760,
      "begins": 4761,
      "guess": 4762,
      "appet": 4763,
      "tells": 4764,
      "creet": 4765,
      "lingering": 4766,
      "igned": 4767,
      "portra": 4768,
      "pursue": 4769,
      "answers": 4770,
      "summon": 4771,
      "fearful": 4772,
      "honourable": 4773,
      "trusted": 4774,
      "buy": 4775,
      "suffering": 4776,
      "ibility": 4777,
      "orders": 4778,
      "cheerfully": 4779,
      "appren": 4780,
      "attendance": 4781,
      "stationer": 4782,
      "improve": 4783,
      "Canterbury": 4784,
      "soldiers": 4785,
      "astonished": 4786,
      "marks": 4787,
      "punch": 4788,
      "remonde": 4789,
      "conviction": 4790,
      "admired": 4791,
      "phys": 4792,
      "released": 4793,
      "provided": 4794,
      "Hallo": 4795,
      "season": 4796,
      "Mercur": 4797,
      "Evremonde": 4798,
      "crept": 4799,
      "Losberne": 4800,
      "Bla": 4801,
      "Much": 4802,
      "Stop": 4803,
      "Toot": 4804,
      "Twenty": 4805,
      "doo": 4806,
      "dain": 4807,
      "dam": 4808,
      "gation": 4809,
      "sne": 4810,
      "inde": 4811,
      "reward": 4812,
      "resem": 4813,
      "ingen": 4814,
      "arter": 4815,
      "idly": 4816,
      "washed": 4817,
      "aled": 4818,
      "unwilling": 4819,
      "hosp": 4820,
      "kee": 4821,
      "thers": 4822,
      "suspected": 4823,
      "mankind": 4824,
      "button": 4825,
      "ulate": 4826,
      "laughter": 4827,
      "spite": 4828,
      "iggle": 4829,
      "stray": 4830,
      "steep": 4831,
      "marked": 4832,
      "surgeon": 4833,
      "visited": 4834,
      "subd": 4835,
      "interview": 4836,
      "readily": 4837,
      "crime": 4838,
      "silver": 4839,
      "captain": 4840,
      "interesting": 4841,
      "risen": 4842,
      "bowed": 4843,
      "judgment": 4844,
      "Although": 4845,
      "driven": 4846,
      "frightful": 4847,
      "lodger": 4848,
      "violence": 4849,
      "blowing": 4850,
      "message": 4851,
      "magistr": 4852,
      "newspaper": 4853,
      "powers": 4854,
      "disappointment": 4855,
      "virtue": 4856,
      "parents": 4857,
      "vague": 4858,
      "gravity": 4859,
      "principal": 4860,
      "pillow": 4861,
      "audible": 4862,
      "abandoned": 4863,
      "Like": 4864,
      "hinted": 4865,
      "Satur": 4866,
      "explanation": 4867,
      "Bolter": 4868,
      "Tootles": 4869,
      "AC": 4870,
      "MY": 4871,
      "Pard": 4872,
      "Tru": 4873,
      "hang": 4874,
      "lines": 4875,
      "insp": 4876,
      "theer": 4877,
      "issu": 4878,
      "rolling": 4879,
      "destruction": 4880,
      "develo": 4881,
      "summ": 4882,
      "ulse": 4883,
      "image": 4884,
      "inks": 4885,
      "bla": 4886,
      "pract": 4887,
      "dig": 4888,
      "useless": 4889,
      "science": 4890,
      "voy": 4891,
      "jected": 4892,
      "Sol": 4893,
      "misfortune": 4894,
      "addition": 4895,
      "angel": 4896,
      "Does": 4897,
      "careless": 4898,
      "silently": 4899,
      "shortly": 4900,
      "direct": 4901,
      "directions": 4902,
      "painted": 4903,
      "buried": 4904,
      "HEEP": 4905,
      "signed": 4906,
      "kneel": 4907,
      "Barsad": 4908,
      "reality": 4909,
      "reflections": 4910,
      "separate": 4911,
      "preparations": 4912,
      "brace": 4913,
      "tumbled": 4914,
      "article": 4915,
      "Lincolnshire": 4916,
      "Among": 4917,
      "More": 4918,
      "apprehension": 4919,
      "drunk": 4920,
      "desolate": 4921,
      "Under": 4922,
      "deportment": 4923,
      "Chi": 4924,
      "Dame": 4925,
      "Get": 4926,
      "Ju": 4927,
      "LD": 4928,
      "Mother": 4929,
      "ST": 4930,
      "cow": 4931,
      "fling": 4932,
      "job": 4933,
      "pis": 4934,
      "pack": 4935,
      "page": 4936,
      "rant": 4937,
      "silly": 4938,
      "heat": 4939,
      "require": 4940,
      "retire": 4941,
      "oner": 4942,
      "mechan": 4943,
      "bewild": 4944,
      "iding": 4945,
      "uneas": 4946,
      "uncommon": 4947,
      "moan": 4948,
      "sheet": 4949,
      "Their": 4950,
      "loqu": 4951,
      "compar": 4952,
      "asted": 4953,
      "--”": 4954,
      "dering": 4955,
      "ission": 4956,
      "blu": 4957,
      "tense": 4958,
      "stole": 4959,
      "embr": 4960,
      "brain": 4961,
      "parish": 4962,
      "hence": 4963,
      "mail": 4964,
      "finally": 4965,
      "limited": 4966,
      "XXX": 4967,
      "cousins": 4968,
      "concerned": 4969,
      "example": 4970,
      "examined": 4971,
      "sorrowful": 4972,
      "hungry": 4973,
      "wandered": 4974,
      "solemnly": 4975,
      "elev": 4976,
      "injury": 4977,
      "faintly": 4978,
      "funer": 4979,
      "mourn": 4980,
      "lamps": 4981,
      "succeeded": 4982,
      "cabin": 4983,
      "group": 4984,
      "tune": 4985,
      "appetite": 4986,
      "subdued": 4987,
      "Saturday": 4988,
      "Pardiggle": 4989,
      "uneasiness": 4990,
      "**": 4991,
      "Grid": 4992,
      "Lark": 4993,
      "bul": 4994,
      "bree": 4995,
      "dance": 4996,
      "kers": 4997,
      "lof": 4998,
      "tend": 4999,
      "ucted": 5000,
      "xing": 5001,
      "inct": 5002,
      "theless": 5003,
      "lli": 5004,
      "owl": 5005,
      "hid": 5006,
      "hiding": 5007,
      "sav": 5008,
      "adjust": 5009,
      "unch": 5010,
      "cover": 5011,
      "tian": 5012,
      "exhi": 5013,
      "prey": 5014,
      "aked": 5015,
      "blown": 5016,
      "assisted": 5017,
      "medic": 5018,
      "pausing": 5019,
      "specul": 5020,
      "awa": 5021,
      "trades": 5022,
      "meantime": 5023,
      "licit": 5024,
      "ughty": 5025,
      "murdered": 5026,
      "needle": 5027,
      "gathered": 5028,
      "continually": 5029,
      "casting": 5030,
      "wisdom": 5031,
      "fatal": 5032,
      "transa": 5033,
      "pulling": 5034,
      "nurser": 5035,
      "regularly": 5036,
      "entreated": 5037,
      "fashioned": 5038,
      "echoed": 5039,
      "belonging": 5040,
      "consequences": 5041,
      "travelling": 5042,
      "arrangement": 5043,
      "furnished": 5044,
      "practical": 5045,
      "sacrifice": 5046,
      "emphasis": 5047,
      "Gridley": 5048,
      "Jen": 5049,
      "Lo": 5050,
      "Mag": 5051,
      "Next": 5052,
      "bull": 5053,
      "citizen": 5054,
      "dine": 5055,
      "daw": 5056,
      "fain": 5057,
      "faced": 5058,
      "lorn": 5059,
      "nut": 5060,
      "pare": 5061,
      "twis": 5062,
      "invest": 5063,
      "intense": 5064,
      "represented": 5065,
      "erous": 5066,
      "ascertain": 5067,
      "ller": 5068,
      "beha": 5069,
      "beach": 5070,
      "wiping": 5071,
      "ghast": 5072,
      "unlike": 5073,
      "unning": 5074,
      "codi": 5075,
      "timer": 5076,
      "absent": 5077,
      "constr": 5078,
      "los": 5079,
      "quality": 5080,
      "qualities": 5081,
      "haste": 5082,
      "genteel": 5083,
      "class": 5084,
      "parties": 5085,
      "guest": 5086,
      "chee": 5087,
      "founded": 5088,
      "kinds": 5089,
      "hopeful": 5090,
      "lays": 5091,
      "subst": 5092,
      "commission": 5093,
      "vile": 5094,
      "worldly": 5095,
      "stepped": 5096,
      "woods": 5097,
      "respecting": 5098,
      "coachman": 5099,
      "Something": 5100,
      "gesture": 5101,
      "resolute": 5102,
      "brilli": 5103,
      "yards": 5104,
      "utterly": 5105,
      "passages": 5106,
      "safety": 5107,
      "crossing": 5108,
      "whispers": 5109,
      "communicated": 5110,
      "regarding": 5111,
      "instructions": 5112,
      "ancient": 5113,
      "factory": 5114,
      "bestow": 5115,
      "impatiently": 5116,
      "invited": 5117,
      "residence": 5118,
      "expense": 5119,
      "passengers": 5120,
      "ignorant": 5121,
      "Those": 5122,
      "execution": 5123,
      "shawl": 5124,
      "coffin": 5125,
      "confirmed": 5126,
      "likeness": 5127,
      "Mercury": 5128,
      "funeral": 5129,
      "nursery": 5130,
      "AD": 5131,
      "Gar": 5132,
      "None": 5133,
      "Sar": 5134,
      "bust": 5135,
      "clim": 5136,
      "dra": 5137,
      "dined": 5138,
      "hook": 5139,
      "ili": 5140,
      "iest": 5141,
      "list": 5142,
      "later": 5143,
      "ok": 5144,
      "oath": 5145,
      "’--": 5146,
      "heed": 5147,
      "itch": 5148,
      "itate": 5149,
      "stu": 5150,
      "sear": 5151,
      "beck": 5152,
      "owe": 5153,
      "entrance": 5154,
      "iring": 5155,
      "copy": 5156,
      "wheel": 5157,
      "condem": 5158,
      "bles": 5159,
      "ives": 5160,
      "spective": 5161,
      "longed": 5162,
      "spend": 5163,
      "avail": 5164,
      "ames": 5165,
      "brand": 5166,
      "airy": 5167,
      "stream": 5168,
      "Chris": 5169,
      "purse": 5170,
      "conducted": 5171,
      "patience": 5172,
      "Think": 5173,
      "follows": 5174,
      "accounts": 5175,
      "recover": 5176,
      "expectations": 5177,
      "breathless": 5178,
      "glected": 5179,
      "engeance": 5180,
      "learnt": 5181,
      "clerks": 5182,
      "inclination": 5183,
      "labour": 5184,
      "moonlight": 5185,
      "associated": 5186,
      "impatient": 5187,
      "attentively": 5188,
      "original": 5189,
      "practice": 5190,
      "sternly": 5191,
      "remote": 5192,
      "dragged": 5193,
      "popular": 5194,
      "obstin": 5195,
      "nervous": 5196,
      "attachment": 5197,
      "Minnie": 5198,
      "fruit": 5199,
      "scenes": 5200,
      "Larkins": 5201,
      "Jenny": 5202,
      "Gargery": 5203,
      "Cam": 5204,
      "During": 5205,
      "Gener": 5206,
      "Hold": 5207,
      "ION": 5208,
      "Jan": 5209,
      "Lit": 5210,
      "Out": 5211,
      "Par": 5212,
      "Vengeance": 5213,
      "card": 5214,
      "gained": 5215,
      "gates": 5216,
      "jack": 5217,
      "named": 5218,
      "narrative": 5219,
      "oy": 5220,
      "oper": 5221,
      "ogue": 5222,
      "pting": 5223,
      "rul": 5224,
      "tid": 5225,
      "voured": 5226,
      "heels": 5227,
      "inions": 5228,
      "tha": 5229,
      "isk": 5230,
      "asing": 5231,
      "aries": 5232,
      "orious": 5233,
      "orphan": 5234,
      "lear": 5235,
      "leham": 5236,
      "adop": 5237,
      "weep": 5238,
      "forman": 5239,
      "forbid": 5240,
      "soever": 5241,
      "neglected": 5242,
      "notion": 5243,
      "load": 5244,
      "inding": 5245,
      "appointment": 5246,
      "opinions": 5247,
      "illust": 5248,
      "ideas": 5249,
      "cane": 5250,
      "paup": 5251,
      "angle": 5252,
      "angrily": 5253,
      "dreary": 5254,
      "doorway": 5255,
      "Whatever": 5256,
      "parts": 5257,
      "calls": 5258,
      "winds": 5259,
      "intend": 5260,
      "eldest": 5261,
      "flung": 5262,
      "darkened": 5263,
      "majest": 5264,
      ",—“": 5265,
      "keeps": 5266,
      "doubts": 5267,
      "crimin": 5268,
      "droop": 5269,
      "receiving": 5270,
      "subjects": 5271,
      "skin": 5272,
      "shutting": 5273,
      "needn": 5274,
      "fairy": 5275,
      "cutting": 5276,
      "proceeds": 5277,
      "proceeding": 5278,
      "ibs": 5279,
      "immediate": 5280,
      "witch": 5281,
      "villain": 5282,
      "knocking": 5283,
      "Martha": 5284,
      "fasc": 5285,
      "scream": 5286,
      "separation": 5287,
      "declare": 5288,
      "employment": 5289,
      "animal": 5290,
      "association": 5291,
      "powder": 5292,
      "echoes": 5293,
      "visitors": 5294,
      "mourning": 5295,
      "fashionable": 5296,
      "refresh": 5297,
      "charming": 5298,
      "NOT": 5299,
      "dwelling": 5300,
      "politeness": 5301,
      "lux": 5302,
      "fulf": 5303,
      "Markleham": 5304,
      "Genev": 5305,
      "material": 5306,
      "Sarah": 5307,
      "Christian": 5308,
      "Littimer": 5309,
      "Crack": 5310,
      "Had": 5311,
      "IM": 5312,
      "IT": 5313,
      "James": 5314,
      "Lane": 5315,
      "Made": 5316,
      "Nibs": 5317,
      "Su": 5318,
      "Ti": 5319,
      "THAT": 5320,
      "aver": 5321,
      "dirt": 5322,
      "hint": 5323,
      "humble": 5324,
      "ras": 5325,
      "hest": 5326,
      "inher": 5327,
      "thread": 5328,
      "orous": 5329,
      "leap": 5330,
      "stag": 5331,
      "stuff": 5332,
      "esc": 5333,
      "hoarse": 5334,
      "absor": 5335,
      "peak": 5336,
      "congrat": 5337,
      "constit": 5338,
      "ifying": 5339,
      "inder": 5340,
      "indul": 5341,
      "premis": 5342,
      "file": 5343,
      "proved": 5344,
      "shakes": 5345,
      "ochi": 5346,
      "ighed": 5347,
      "embarr": 5348,
      "brings": 5349,
      "cheeks": 5350,
      "mond": 5351,
      "ucing": 5352,
      "steam": 5353,
      "purch": 5354,
      "shoe": 5355,
      "subm": 5356,
      "sleeve": 5357,
      "pretend": 5358,
      "resour": 5359,
      "answering": 5360,
      "skins": 5361,
      "cured": 5362,
      "secrets": 5363,
      "anxiously": 5364,
      "thusias": 5365,
      "deny": 5366,
      "numerous": 5367,
      "freely": 5368,
      "porter": 5369,
      "whispering": 5370,
      "officers": 5371,
      "depth": 5372,
      "suspicious": 5373,
      "bottles": 5374,
      "Arms": 5375,
      "quisite": 5376,
      "incident": 5377,
      "groan": 5378,
      "requested": 5379,
      "protection": 5380,
      "moral": 5381,
      "Carstone": 5382,
      "rapidly": 5383,
      "yielded": 5384,
      "positively": 5385,
      "despond": 5386,
      "washing": 5387,
      "godmother": 5388,
      "plenty": 5389,
      "Geneva": 5390,
      "Crackit": 5391,
      "embarrass": 5392,
      "CON": 5393,
      "Guster": 5394,
      "IX": 5395,
      "Jud": 5396,
      "La": 5397,
      "Present": 5398,
      "Since": 5399,
      "WH": 5400,
      "borrow": 5401,
      "cles": 5402,
      "date": 5403,
      "dumb": 5404,
      "fy": 5405,
      "flies": 5406,
      "gal": 5407,
      "jer": 5408,
      "lane": 5409,
      "nation": 5410,
      "pti": 5411,
      "pper": 5412,
      "park": 5413,
      "sers": 5414,
      "sive": 5415,
      "tink": 5416,
      "’;": 5417,
      "“—": 5418,
      "insensible": 5419,
      "repose": 5420,
      "encoun": 5421,
      "enthusias": 5422,
      "habits": 5423,
      "stout": 5424,
      "stately": 5425,
      "seiz": 5426,
      "sevent": 5427,
      "hither": 5428,
      "choose": 5429,
      "aling": 5430,
      "allusion": 5431,
      "coal": 5432,
      "cocked": 5433,
      "detest": 5434,
      "notwithstanding": 5435,
      "accur": 5436,
      "pover": 5437,
      "sheep": 5438,
      "induced": 5439,
      "perpet": 5440,
      "prepare": 5441,
      "handle": 5442,
      "disput": 5443,
      "disgu": 5444,
      "rush": 5445,
      "blew": 5446,
      "assented": 5447,
      "mademoiselle": 5448,
      "obtained": 5449,
      "dict": 5450,
      "housekeeping": 5451,
      "torment": 5452,
      "sche": 5453,
      "grap": 5454,
      "efforts": 5455,
      "beds": 5456,
      "curtain": 5457,
      "meanwhile": 5458,
      "refu": 5459,
      "collect": 5460,
      "biting": 5461,
      "related": 5462,
      "corners": 5463,
      "lands": 5464,
      "Coavin": 5465,
      "rises": 5466,
      "brothers": 5467,
      "sixpence": 5468,
      "applied": 5469,
      "agoon": 5470,
      "expectation": 5471,
      "kissing": 5472,
      "firmness": 5473,
      "catching": 5474,
      "neighbouring": 5475,
      "formerly": 5476,
      "sharply": 5477,
      "crowded": 5478,
      "movement": 5479,
      "pirate": 5480,
      "flew": 5481,
      "accepted": 5482,
      "bitterly": 5483,
      "parent": 5484,
      "admire": 5485,
      "indifference": 5486,
      "grasp": 5487,
      "heerd": 5488,
      "exclam": 5489,
      "encouraged": 5490,
      "picked": 5491,
      "distracted": 5492,
      "messeng": 5493,
      "voyage": 5494,
      "ochial": 5495,
      "Coavinses": 5496,
      "Day": 5497,
      "Many": 5498,
      "alike": 5499,
      "bars": 5500,
      "emotions": 5501,
      "fitted": 5502,
      "ief": 5503,
      "pig": 5504,
      "ram": 5505,
      "sla": 5506,
      "ture": 5507,
      "wagg": 5508,
      "theme": 5509,
      "rec": 5510,
      "revi": 5511,
      "thief": 5512,
      "ism": 5513,
      "itling": 5514,
      "stip": 5515,
      "seph": 5516,
      "wich": 5517,
      "entering": 5518,
      "lia": 5519,
      "likes": 5520,
      "liament": 5521,
      "unto": 5522,
      "holid": 5523,
      "agitated": 5524,
      "abilities": 5525,
      "wheels": 5526,
      "doll": 5527,
      "shy": 5528,
      "preserved": 5529,
      "endure": 5530,
      "comr": 5531,
      "somewhat": 5532,
      "blance": 5533,
      "asser": 5534,
      "lace": 5535,
      "sphere": 5536,
      "angers": 5537,
      "Joseph": 5538,
      "Chitling": 5539,
      "waters": 5540,
      "fortnight": 5541,
      "confined": 5542,
      "engaging": 5543,
      "expressing": 5544,
      "refuse": 5545,
      "drown": 5546,
      "dropping": 5547,
      "reluct": 5548,
      "trace": 5549,
      "sunk": 5550,
      "respects": 5551,
      "shutters": 5552,
      "startled": 5553,
      "midnight": 5554,
      "built": 5555,
      "gather": 5556,
      "application": 5557,
      "Alone": 5558,
      "sensations": 5559,
      "passes": 5560,
      "boxes": 5561,
      "Claris": 5562,
      "bells": 5563,
      "conceived": 5564,
      "anguish": 5565,
      "dusty": 5566,
      "pictures": 5567,
      "bursting": 5568,
      "endeavouring": 5569,
      "official": 5570,
      "strengthen": 5571,
      "Everything": 5572,
      "assumed": 5573,
      "beaten": 5574,
      "belonged": 5575,
      "incid": 5576,
      "prevail": 5577,
      "Carboy": 5578,
      "concealed": 5579,
      "hideous": 5580,
      "mutton": 5581,
      "crocodi": 5582,
      "Great": 5583,
      "scrat": 5584,
      "education": 5585,
      "swift": 5586,
      "pherd": 5587,
      "darted": 5588,
      "haunted": 5589,
      "Blathers": 5590,
      "premises": 5591,
      "holiday": 5592,
      "Clarissa": 5593,
      "Bed": 5594,
      "Di": 5595,
      "IR": 5596,
      "Im": 5597,
      "Long": 5598,
      "bition": 5599,
      "base": 5600,
      "bones": 5601,
      "eleg": 5602,
      "eloqu": 5603,
      "fled": 5604,
      "na": 5605,
      "pac": 5606,
      "praise": 5607,
      "sour": 5608,
      "sang": 5609,
      "inent": 5610,
      "inner": 5611,
      "thedr": 5612,
      "enched": 5613,
      "meek": 5614,
      "stated": 5615,
      "veil": 5616,
      "roman": 5617,
      "weap": 5618,
      "feather": 5619,
      "abstr": 5620,
      "abhor": 5621,
      "poet": 5622,
      "conference": 5623,
      "hatred": 5624,
      "indust": 5625,
      "complac": 5626,
      "disorder": 5627,
      "illa": 5628,
      "scattered": 5629,
      "repent": 5630,
      "ciple": 5631,
      "smiles": 5632,
      "checked": 5633,
      "merc": 5634,
      "brood": 5635,
      "surface": 5636,
      "harder": 5637,
      "career": 5638,
      "viour": 5639,
      "easier": 5640,
      "advise": 5641,
      "Bell": 5642,
      "whist": 5643,
      "value": 5644,
      "skir": 5645,
      "destination": 5646,
      "ventured": 5647,
      "dreadfully": 5648,
      "Monday": 5649,
      "freed": 5650,
      "ridge": 5651,
      "pleasantly": 5652,
      "remarks": 5653,
      "conscience": 5654,
      "brim": 5655,
      "complexion": 5656,
      "prayed": 5657,
      "attering": 5658,
      "devotion": 5659,
      "seeming": 5660,
      "ternal": 5661,
      "mounted": 5662,
      "consequently": 5663,
      "thirty": 5664,
      "accordingly": 5665,
      "relieve": 5666,
      "benefac": 5667,
      "hasty": 5668,
      "shelter": 5669,
      "fetch": 5670,
      "calculated": 5671,
      "jacket": 5672,
      "lucky": 5673,
      "encouragement": 5674,
      "magnific": 5675,
      "accomplished": 5676,
      "demonstr": 5677,
      "absolutely": 5678,
      "magistrate": 5679,
      "savage": 5680,
      "medicine": 5681,
      "Janet": 5682,
      "encountered": 5683,
      ".,": 5684,
      "?—": 5685,
      "Durden": 5686,
      "Father": 5687,
      "Field": 5688,
      "Gent": 5689,
      "Hen": 5690,
      "Ke": 5691,
      "Pan": 5692,
      "blot": 5693,
      "eved": 5694,
      "fan": 5695,
      "loun": 5696,
      "ns": 5697,
      "pto": 5698,
      "pure": 5699,
      "rings": 5700,
      "radi": 5701,
      "tu": 5702,
      "theat": 5703,
      "rew": 5704,
      "recon": 5705,
      "repair": 5706,
      "escap": 5707,
      "lift": 5708,
      "withdrew": 5709,
      "dete": 5710,
      "deeper": 5711,
      "agger": 5712,
      "achi": 5713,
      "shelf": 5714,
      "constable": 5715,
      "performan": 5716,
      "excess": 5717,
      "mental": 5718,
      "fil": 5719,
      "plun": 5720,
      "plans": 5721,
      "cared": 5722,
      "dispar": 5723,
      "disdain": 5724,
      "derived": 5725,
      "paired": 5726,
      "lared": 5727,
      "dearly": 5728,
      ".’”": 5729,
      "ctionary": 5730,
      "count": 5731,
      "actions": 5732,
      "creeping": 5733,
      "mono": 5734,
      "curls": 5735,
      "waved": 5736,
      "solitude": 5737,
      "certainty": 5738,
      "relative": 5739,
      "advancing": 5740,
      "elsewhere": 5741,
      "mixed": 5742,
      "whiskers": 5743,
      "trousers": 5744,
      "laws": 5745,
      "sunshine": 5746,
      "emphat": 5747,
      "chosen": 5748,
      "approaching": 5749,
      "topic": 5750,
      "gazed": 5751,
      "passionate": 5752,
      "decision": 5753,
      "completed": 5754,
      "pudding": 5755,
      "wedding": 5756,
      "genial": 5757,
      "placid": 5758,
      "stirred": 5759,
      "wounded": 5760,
      "univer": 5761,
      "zzled": 5762,
      "collected": 5763,
      "responsibility": 5764,
      "soothing": 5765,
      "special": 5766,
      "stupid": 5767,
      "correct": 5768,
      "severe": 5769,
      "branches": 5770,
      "Republic": 5771,
      "errand": 5772,
      "inspired": 5773,
      "exhibit": 5774,
      "cheese": 5775,
      "poverty": 5776,
      "Henry": 5777,
      "Ba": 5778,
      "Fang": 5779,
      "Gard": 5780,
      "Make": 5781,
      "Que": 5782,
      "Sale": 5783,
      "Surely": 5784,
      "awe": 5785,
      "aim": 5786,
      "eg": 5787,
      "faded": 5788,
      "iments": 5789,
      "knot": 5790,
      "lle": 5791,
      "llect": 5792,
      "mach": 5793,
      "pint": 5794,
      "yonder": 5795,
      "inch": 5796,
      "inated": 5797,
      "sere": 5798,
      "vehe": 5799,
      "liqu": 5800,
      "wearing": 5801,
      "soli": 5802,
      "defi": 5803,
      "hotel": 5804,
      "kest": 5805,
      "acher": 5806,
      "acting": 5807,
      "sul": 5808,
      "gered": 5809,
      "whir": 5810,
      "indis": 5811,
      "usive": 5812,
      "boast": 5813,
      "comfor": 5814,
      "fices": 5815,
      "favoured": 5816,
      "plor": 5817,
      "rude": 5818,
      "beings": 5819,
      "gentleness": 5820,
      "emig": 5821,
      "embrace": 5822,
      "smart": 5823,
      "mothers": 5824,
      "comprom": 5825,
      "expressly": 5826,
      "intellect": 5827,
      "relinqu": 5828,
      "size": 5829,
      "fellows": 5830,
      "Beaut": 5831,
      "repeating": 5832,
      "occasioned": 5833,
      "restor": 5834,
      "venture": 5835,
      "gaily": 5836,
      "schol": 5837,
      "signs": 5838,
      "Skiff": 5839,
      "uffy": 5840,
      "Barney": 5841,
      "prayers": 5842,
      "Both": 5843,
      "cushi": 5844,
      "impulse": 5845,
      "suspicions": 5846,
      "punishment": 5847,
      "eleven": 5848,
      "breathed": 5849,
      "highest": 5850,
      "prevented": 5851,
      "divided": 5852,
      "mutual": 5853,
      "sobbed": 5854,
      "threatening": 5855,
      "Green": 5856,
      "torture": 5857,
      "expedition": 5858,
      "score": 5859,
      "affecting": 5860,
      "carrier": 5861,
      "benevolent": 5862,
      "portrait": 5863,
      "bewildered": 5864,
      "General": 5865,
      "thedral": 5866,
      "Skiffins": 5867,
      "Could": 5868,
      "Fo": 5869,
      "Ple": 5870,
      "Speak": 5871,
      "aly": 5872,
      "cket": 5873,
      "dus": 5874,
      "farm": 5875,
      "frank": 5876,
      "gif": 5877,
      "hit": 5878,
      "hanged": 5879,
      "mood": 5880,
      "maker": 5881,
      "prud": 5882,
      "rs": 5883,
      "rated": 5884,
      "sword": 5885,
      "uine": 5886,
      "uction": 5887,
      "vious": 5888,
      "waking": 5889,
      "injustice": 5890,
      "thew": 5891,
      "revol": 5892,
      "toler": 5893,
      "aration": 5894,
      "stim": 5895,
      "behalf": 5896,
      "becomes": 5897,
      "withered": 5898,
      "chop": 5899,
      "rol": 5900,
      "uries": 5901,
      "coals": 5902,
      "depos": 5903,
      "neath": 5904,
      "movable": 5905,
      "tives": 5906,
      "absur": 5907,
      "pelled": 5908,
      "reduced": 5909,
      "amuse": 5910,
      "amused": 5911,
      "shrun": 5912,
      "lover": 5913,
      "local": 5914,
      "quitted": 5915,
      "induce": 5916,
      "exchanged": 5917,
      "fired": 5918,
      "works": 5919,
      "oppress": 5920,
      "ruined": 5921,
      "project": 5922,
      "venerable": 5923,
      "pron": 5924,
      "ices": 5925,
      "donkey": 5926,
      "lighter": 5927,
      "torney": 5928,
      "replying": 5929,
      "lesson": 5930,
      "stops": 5931,
      "brisk": 5932,
      "hearty": 5933,
      "sided": 5934,
      "tread": 5935,
      "merch": 5936,
      "flour": 5937,
      "uding": 5938,
      "commence": 5939,
      "ughters": 5940,
      "kennel": 5941,
      "drawer": 5942,
      "fortunately": 5943,
      "pursuing": 5944,
      "rooks": 5945,
      "skill": 5946,
      "comfortably": 5947,
      "growl": 5948,
      "gaol": 5949,
      "riding": 5950,
      "Also": 5951,
      "warmth": 5952,
      "communicate": 5953,
      "Quinion": 5954,
      "mountain": 5955,
      "eighteen": 5956,
      "families": 5957,
      "Better": 5958,
      "suggestion": 5959,
      "inquiries": 5960,
      "North": 5961,
      "twins": 5962,
      "lifting": 5963,
      "announced": 5964,
      "facts": 5965,
      "impatience": 5966,
      "contemplation": 5967,
      "ENT": 5968,
      "military": 5969,
      "Joram": 5970,
      "vengeance": 5971,
      "imagined": 5972,
      "conveyed": 5973,
      "relig": 5974,
      "fragments": 5975,
      "inhabitants": 5976,
      "perplex": 5977,
      "memorable": 5978,
      "guineas": 5979,
      "Matthew": 5980,
      "innocence": 5981,
      "pistol": 5982,
      "behaviour": 5983,
      "Presently": 5984,
      "refuge": 5985,
      "messenger": 5986,
      "Gentle": 5987,
      "serene": 5988,
      "CO": 5989,
      "Ca": 5990,
      "Ever": 5991,
      "Law": 5992,
      "Neither": 5993,
      "UN": 5994,
      "VI": 5995,
      "Vic": 5996,
      "Wor": 5997,
      "bite": 5998,
      "cunning": 5999,
      "lit": 6000,
      "nigh": 6001,
      "sinking": 6002,
      "uity": 6003,
      "vy": 6004,
      "whim": 6005,
      "winking": 6006,
      "‘“": 6007,
      "inscri": 6008,
      "reck": 6009,
      "ators": 6010,
      "encounter": 6011,
      "mered": 6012,
      "hag": 6013,
      "cept": 6014,
      "wiped": 6015,
      "nothink": 6016,
      "admission": 6017,
      "united": 6018,
      "del": 6019,
      "upward": 6020,
      "agers": 6021,
      "access": 6022,
      "fection": 6023,
      "abled": 6024,
      "abond": 6025,
      "abrup": 6026,
      "shuff": 6027,
      "ifully": 6028,
      "icing": 6029,
      "perv": 6030,
      "persever": 6031,
      "performed": 6032,
      "ulars": 6033,
      "endured": 6034,
      "tooth": 6035,
      "distrust": 6036,
      "hasn": 6037,
      "pathe": 6038,
      "paces": 6039,
      "shapes": 6040,
      "underneath": 6041,
      "spi": 6042,
      "clut": 6043,
      "brow": 6044,
      "brid": 6045,
      "guilt": 6046,
      "bedside": 6047,
      "attle": 6048,
      "joke": 6049,
      "daughters": 6050,
      "spoon": 6051,
      "sensi": 6052,
      "openly": 6053,
      "speaker": 6054,
      "Than": 6055,
      "relap": 6056,
      "relate": 6057,
      "generosity": 6058,
      "charity": 6059,
      "hesitation": 6060,
      "blacksmith": 6061,
      "traver": 6062,
      "deadly": 6063,
      "confided": 6064,
      "resist": 6065,
      "brightly": 6066,
      "final": 6067,
      "Ange": 6068,
      "cuff": 6069,
      "dreaded": 6070,
      "appropri": 6071,
      "satisfactory": 6072,
      "views": 6073,
      "vari": 6074,
      "sensitive": 6075,
      "driving": 6076,
      "earthly": 6077,
      "humoured": 6078,
      "deserved": 6079,
      "entertained": 6080,
      "services": 6081,
      "ported": 6082,
      "quarrel": 6083,
      "principle": 6084,
      "delicacy": 6085,
      "perception": 6086,
      "stayed": 6087,
      "precise": 6088,
      "calmly": 6089,
      "Black": 6090,
      "deceive": 6091,
      "descended": 6092,
      "breathe": 6093,
      "contemplated": 6094,
      "debt": 6095,
      "stirring": 6096,
      "prospects": 6097,
      "Uncle": 6098,
      "harsh": 6099,
      "picking": 6100,
      "shrill": 6101,
      "principally": 6102,
      "involunt": 6103,
      "restore": 6104,
      "argument": 6105,
      "procession": 6106,
      "passenger": 6107,
      "entertainment": 6108,
      "consist": 6109,
      "WILL": 6110,
      "swallowed": 6111,
      "Startop": 6112,
      "linen": 6113,
      "summoned": 6114,
      "brandy": 6115,
      "Mademoiselle": 6116,
      "crocodile": 6117,
      "absurd": 6118,
      ".—": 6119,
      "AY": 6120,
      "Afri": 6121,
      "ARE": 6122,
      "Five": 6123,
      "Ghost": 6124,
      "Listen": 6125,
      "Mem": 6126,
      "SE": 6127,
      "burden": 6128,
      "cris": 6129,
      "dur": 6130,
      "ditch": 6131,
      "gust": 6132,
      "lake": 6133,
      "pip": 6134,
      "sou": 6135,
      "sion": 6136,
      "ske": 6137,
      "swo": 6138,
      "sangu": 6139,
      "spared": 6140,
      "tar": 6141,
      "tro": 6142,
      "tapping": 6143,
      "wn": 6144,
      "wri": 6145,
      "ware": 6146,
      "resh": 6147,
      "recent": 6148,
      "eding": 6149,
      "edge": 6150,
      "melted": 6151,
      "stud": 6152,
      "stuck": 6153,
      "sell": 6154,
      "sets": 6155,
      "novel": 6156,
      "admin": 6157,
      "lig": 6158,
      "libr": 6159,
      "depri": 6160,
      "terrace": 6161,
      "ache": 6162,
      "acknowledge": 6163,
      "tific": 6164,
      "peas": 6165,
      "peeping": 6166,
      "manage": 6167,
      "ardour": 6168,
      "pren": 6169,
      "prejud": 6170,
      "precip": 6171,
      "discharge": 6172,
      "dismissed": 6173,
      "greet": 6174,
      "bler": 6175,
      "ouncing": 6176,
      "shab": 6177,
      "wherever": 6178,
      "household": 6179,
      "backed": 6180,
      "sentiments": 6181,
      "dresses": 6182,
      "lessons": 6183,
      "stories": 6184,
      "tray": 6185,
      "counted": 6186,
      "bride": 6187,
      "cipl": 6188,
      "stillness": 6189,
      "misfortunes": 6190,
      "attack": 6191,
      "causes": 6192,
      "wax": 6193,
      "expressions": 6194,
      "evident": 6195,
      "penit": 6196,
      "diff": 6197,
      "giv": 6198,
      "considerate": 6199,
      "shows": 6200,
      "pattern": 6201,
      "control": 6202,
      "xture": 6203,
      "accum": 6204,
      "hesitated": 6205,
      "respectful": 6206,
      "respectfully": 6207,
      "finish": 6208,
      "particulars": 6209,
      "sweep": 6210,
      "centre": 6211,
      "secretly": 6212,
      "feroc": 6213,
      "sixty": 6214,
      "obligation": 6215,
      "barred": 6216,
      "bargain": 6217,
      "declared": 6218,
      "driver": 6219,
      "Road": 6220,
      "watchful": 6221,
      "effects": 6222,
      "petition": 6223,
      "witnesses": 6224,
      "suspense": 6225,
      "lodg": 6226,
      "appreci": 6227,
      "examination": 6228,
      "produce": 6229,
      "amazed": 6230,
      "referring": 6231,
      "Everybody": 6232,
      "pitch": 6233,
      "twink": 6234,
      "maids": 6235,
      "healthy": 6236,
      "accommod": 6237,
      "Walk": 6238,
      "costs": 6239,
      "modestly": 6240,
      "timidly": 6241,
      "responsible": 6242,
      "wreck": 6243,
      "species": 6244,
      "intimate": 6245,
      "India": 6246,
      "hunger": 6247,
      "farewell": 6248,
      "custody": 6249,
      "document": 6250,
      "About": 6251,
      "resemblance": 6252,
      "ghastly": 6253,
      "Camilla": 6254,
      "learning": 6255,
      "adopted": 6256,
      "paupers": 6257,
      "Time": 6258,
      "Fields": 6259,
      "Keep": 6260,
      "Dis": 6261,
      "Gabe": 6262,
      "Life": 6263,
      "Mor": 6264,
      "bay": 6265,
      "bility": 6266,
      "iley": 6267,
      "kick": 6268,
      "lagoon": 6269,
      "nment": 6270,
      "pane": 6271,
      "ral": 6272,
      "rags": 6273,
      "swore": 6274,
      "trot": 6275,
      "usage": 6276,
      "va": 6277,
      "yal": 6278,
      "thee": 6279,
      "thod": 6280,
      "tot": 6281,
      "isses": 6282,
      "method": 6283,
      "sters": 6284,
      "cease": 6285,
      "liking": 6286,
      "unpleasant": 6287,
      "cock": 6288,
      "dejected": 6289,
      "tie": 6290,
      "sustained": 6291,
      "poker": 6292,
      "quali": 6293,
      "someone": 6294,
      "ums": 6295,
      "umbre": 6296,
      "discourse": 6297,
      "forest": 6298,
      "cken": 6299,
      "assent": 6300,
      "West": 6301,
      "glances": 6302,
      "glory": 6303,
      "serving": 6304,
      "undertake": 6305,
      "clung": 6306,
      "store": 6307,
      "parce": 6308,
      "suppressed": 6309,
      "supposing": 6310,
      "winding": 6311,
      "Soon": 6312,
      "members": 6313,
      "confide": 6314,
      "stooping": 6315,
      "match": 6316,
      "licity": 6317,
      "tables": 6318,
      "pencil": 6319,
      "cares": 6320,
      "contri": 6321,
      "drawers": 6322,
      "Through": 6323,
      "reception": 6324,
      "traces": 6325,
      "joyful": 6326,
      "towers": 6327,
      "landing": 6328,
      "tomb": 6329,
      "sumption": 6330,
      "Somebody": 6331,
      "strict": 6332,
      "affections": 6333,
      "wildly": 6334,
      "signal": 6335,
      "Alas": 6336,
      "decay": 6337,
      "flowing": 6338,
      "utterance": 6339,
      "deserve": 6340,
      "contradi": 6341,
      "Boar": 6342,
      "extended": 6343,
      "apprehend": 6344,
      "neighbours": 6345,
      "Quick": 6346,
      "peaceful": 6347,
      "attendant": 6348,
      "separated": 6349,
      "declined": 6350,
      "grandfather": 6351,
      "preparing": 6352,
      "tumbling": 6353,
      "faltered": 6354,
      "struggled": 6355,
      "injured": 6356,
      "slip": 6357,
      "distressed": 6358,
      "virtues": 6359,
      "convenient": 6360,
      "vagabond": 6361,
      "vacation": 6362,
      "Tinker": 6363,
      "sobbing": 6364,
      "rattled": 6365,
      "ignorance": 6366,
      "Highgate": 6367,
      "philosophy": 6368,
      "Starkey": 6369,
      "tossed": 6370,
      "dialogue": 6371,
      "emerged": 6372,
      "deemed": 6373,
      "simply": 6374,
      "rarely": 6375,
      "extinguished": 6376,
      "physic": 6377,
      "comrade": 6378,
      "performance": 6379,
      "Bailey": 6380,
      "Salem": 6381,
      "solici": 6382,
      "pipes": 6383,
      "Gabelle": 6384,
      "!)": 6385,
      "Ad": 6386,
      "Ain": 6387,
      "Bas": 6388,
      "Barn": 6389,
      "Cast": 6390,
      "DO": 6391,
      "Eh": 6392,
      "Frank": 6393,
      "Gam": 6394,
      "Over": 6395,
      "PE": 6396,
      "Sa": 6397,
      "Sold": 6398,
      "Water": 6399,
      "XLV": 6400,
      "alighted": 6401,
      "eves": 6402,
      "fide": 6403,
      "iot": 6404,
      "jum": 6405,
      "lend": 6406,
      "lug": 6407,
      "mould": 6408,
      "oil": 6409,
      "pha": 6410,
      "wra": 6411,
      "reign": 6412,
      "oning": 6413,
      "token": 6414,
      "ishes": 6415,
      "ensu": 6416,
      "cean": 6417,
      "wixt": 6418,
      "wasted": 6419,
      "chor": 6420,
      "rog": 6421,
      "lime": 6422,
      "solic": 6423,
      "unnecessary": 6424,
      "urs": 6425,
      "acle": 6426,
      "acquired": 6427,
      "tier": 6428,
      "tick": 6429,
      "sullen": 6430,
      "whel": 6431,
      "conj": 6432,
      "iffe": 6433,
      "loaf": 6434,
      "tearing": 6435,
      "exquisite": 6436,
      "muff": 6437,
      "worship": 6438,
      "immovable": 6439,
      "ables": 6440,
      "cake": 6441,
      "disclo": 6442,
      "rushing": 6443,
      "greed": 6444,
      "illot": 6445,
      "daylight": 6446,
      "dears": 6447,
      "nightcap": 6448,
      "seriously": 6449,
      "divers": 6450,
      "offering": 6451,
      "clenched": 6452,
      "strain": 6453,
      "guide": 6454,
      "cile": 6455,
      "supported": 6456,
      "check": 6457,
      "mischief": 6458,
      "joining": 6459,
      "merit": 6460,
      "merits": 6461,
      "curse": 6462,
      "feels": 6463,
      "flag": 6464,
      "fires": 6465,
      "shilling": 6466,
      "commit": 6467,
      "colours": 6468,
      "pretending": 6469,
      "opens": 6470,
      "crib": 6471,
      "silk": 6472,
      "horiz": 6473,
      "speaks": 6474,
      "relish": 6475,
      "tribut": 6476,
      "accused": 6477,
      "recei": 6478,
      "sounding": 6479,
      "confident": 6480,
      "cupboard": 6481,
      "agging": 6482,
      "north": 6483,
      "arrive": 6484,
      "approval": 6485,
      "chiefly": 6486,
      "tones": 6487,
      "troublesome": 6488,
      "crum": 6489,
      "region": 6490,
      "occupy": 6491,
      "Roman": 6492,
      "humanity": 6493,
      "XXXV": 6494,
      "prayer": 6495,
      "hills": 6496,
      "clergy": 6497,
      "robbed": 6498,
      "screw": 6499,
      "remembrances": 6500,
      "velve": 6501,
      "delicious": 6502,
      "astonishing": 6503,
      "exertion": 6504,
      "intelligible": 6505,
      "announce": 6506,
      "genuine": 6507,
      "fifteen": 6508,
      "attempted": 6509,
      "previously": 6510,
      "persuas": 6511,
      "indignant": 6512,
      "recognised": 6513,
      "imaginary": 6514,
      "positions": 6515,
      "alarming": 6516,
      "benefit": 6517,
      "ecst": 6518,
      "Thomas": 6519,
      "model": 6520,
      "fatigue": 6521,
      "tranquill": 6522,
      "engagement": 6523,
      "bloom": 6524,
      "earlier": 6525,
      "Accord": 6526,
      "larger": 6527,
      "permitted": 6528,
      "Halloa": 6529,
      "brilliant": 6530,
      "escort": 6531,
      "constitution": 6532,
      "tinker": 6533,
      "scheme": 6534,
      "Bedwin": 6535,
      "benefactor": 6536,
      "Victor": 6537,
      "library": 6538,
      "wrath": 6539,
      "horizon": 6540,
      "?--": 6541,
      "Devil": 6542,
      "Dais": 6543,
      "Him": 6544,
      "Mind": 6545,
      "Mill": 6546,
      "Nature": 6547,
      "Sup": 6548,
      "South": 6549,
      "east": 6550,
      "gor": 6551,
      "kin": 6552,
      "lst": 6553,
      "lts": 6554,
      "ore": 6555,
      "pouring": 6556,
      "rat": 6557,
      "snat": 6558,
      "tis": 6559,
      "uously": 6560,
      "voc": 6561,
      "wink": 6562,
      "zard": 6563,
      "’.": 6564,
      "”;": 6565,
      "hero": 6566,
      "inward": 6567,
      "incapable": 6568,
      "inquires": 6569,
      "atmo": 6570,
      "tocr": 6571,
      "tobac": 6572,
      "isher": 6573,
      "enste": 6574,
      "level": 6575,
      "hack": 6576,
      "bearer": 6577,
      "chate": 6578,
      "sag": 6579,
      "rode": 6580,
      "adap": 6581,
      "union": 6582,
      "unreasonable": 6583,
      "covering": 6584,
      "deck": 6585,
      "aggrav": 6586,
      "manife": 6587,
      "confirm": 6588,
      "butt": 6589,
      "lored": 6590,
      "quit": 6591,
      "composition": 6592,
      "fie": 6593,
      "imprison": 6594,
      "dismiss": 6595,
      "discharged": 6596,
      "afresh": 6597,
      "rule": 6598,
      "shouldered": 6599,
      "wills": 6600,
      "medical": 6601,
      "lighting": 6602,
      "glit": 6603,
      "backs": 6604,
      "partners": 6605,
      "misgiving": 6606,
      "Church": 6607,
      "confron": 6608,
      "curts": 6609,
      "curtains": 6610,
      "shocked": 6611,
      "substit": 6612,
      "commonly": 6613,
      "servation": 6614,
      "ubble": 6615,
      "dining": 6616,
      "brighter": 6617,
      "remembering": 6618,
      "coroner": 6619,
      "hug": 6620,
      "needed": 6621,
      "ibly": 6622,
      "Always": 6623,
      "flushed": 6624,
      "testim": 6625,
      "properly": 6626,
      "slou": 6627,
      "safely": 6628,
      "contrast": 6629,
      "blows": 6630,
      "motionless": 6631,
      "gratified": 6632,
      "musical": 6633,
      "rers": 6634,
      "sticking": 6635,
      "admiring": 6636,
      "geni": 6637,
      "advantages": 6638,
      "travelled": 6639,
      "buildings": 6640,
      "recognition": 6641,
      "consult": 6642,
      "heaps": 6643,
      "cellar": 6644,
      "release": 6645,
      "dependent": 6646,
      "remonstrated": 6647,
      "queer": 6648,
      "Paul": 6649,
      "widow": 6650,
      "advised": 6651,
      "killed": 6652,
      "waves": 6653,
      "cautiously": 6654,
      "desirable": 6655,
      "nails": 6656,
      "refreshment": 6657,
      "romantic": 6658,
      "Garden": 6659,
      "skelet": 6660,
      "Frankenste": 6661,
      "illotine": 6662,
      "clergyman": 6663,
      "Daisy": 6664,
      "tobacco": 6665,
      "chateau": 6666,
      "Frankenstein": 6667,
      ".--": 6668,
      "Ag": 6669,
      "Book": 6670,
      "Ed": 6671,
      "MR": 6672,
      "TA": 6673,
      "Turn": 6674,
      "Wot": 6675,
      "bade": 6676,
      "barri": 6677,
      "craw": 6678,
      "cuni": 6679,
      "dried": 6680,
      "gig": 6681,
      "lain": 6682,
      "nin": 6683,
      "oes": 6684,
      "pts": 6685,
      "ssure": 6686,
      "sending": 6687,
      "tat": 6688,
      "tit": 6689,
      "tsey": 6690,
      "‘--": 6691,
      "resuming": 6692,
      "thr": 6693,
      "thie": 6694,
      "thumb": 6695,
      "tore": 6696,
      "lets": 6697,
      "leather": 6698,
      "hazard": 6699,
      "bec": 6700,
      "beard": 6701,
      "sale": 6702,
      "advert": 6703,
      "uted": 6704,
      "alle": 6705,
      "allest": 6706,
      "undoubted": 6707,
      "hom": 6708,
      "hovering": 6709,
      "acts": 6710,
      "abund": 6711,
      "pew": 6712,
      "pecuni": 6713,
      "sustain": 6714,
      "pots": 6715,
      "redskins": 6716,
      "concent": 6717,
      "contained": 6718,
      "perform": 6719,
      "pressure": 6720,
      "ults": 6721,
      "bodies": 6722,
      "arts": 6723,
      "imparted": 6724,
      "disper": 6725,
      "disinterested": 6726,
      "displayed": 6727,
      "illed": 6728,
      "medy": 6729,
      "overwhel": 6730,
      "spec": 6731,
      "lightened": 6732,
      "glare": 6733,
      "glorious": 6734,
      "dily": 6735,
      "betwixt": 6736,
      "backward": 6737,
      "aves": 6738,
      "brewery": 6739,
      "tram": 6740,
      "passions": 6741,
      "smallest": 6742,
      "bedstead": 6743,
      "throughout": 6744,
      "creation": 6745,
      "wrist": 6746,
      "writer": 6747,
      "stooped": 6748,
      "natured": 6749,
      "shoem": 6750,
      "visions": 6751,
      "Doady": 6752,
      "locks": 6753,
      "ERE": 6754,
      "crimes": 6755,
      "patch": 6756,
      "tempor": 6757,
      "graves": 6758,
      "appearances": 6759,
      "relent": 6760,
      "wonderfully": 6761,
      "grounds": 6762,
      "occasional": 6763,
      "shaded": 6764,
      "resign": 6765,
      "accountable": 6766,
      "brightened": 6767,
      "ski": 6768,
      "secrecy": 6769,
      "destiny": 6770,
      "fourth": 6771,
      "approve": 6772,
      "affectionately": 6773,
      "Emma": 6774,
      "volu": 6775,
      "promising": 6776,
      "ladder": 6777,
      "characters": 6778,
      "impressive": 6779,
      "hundreds": 6780,
      "humility": 6781,
      "INT": 6782,
      "porochial": 6783,
      "suitable": 6784,
      "probability": 6785,
      "Dead": 6786,
      "instruments": 6787,
      "printed": 6788,
      "perceive": 6789,
      "labours": 6790,
      "warmed": 6791,
      "cheerfulness": 6792,
      "Art": 6793,
      "punct": 6794,
      "garret": 6795,
      "struggling": 6796,
      "traveller": 6797,
      "slipped": 6798,
      "heavens": 6799,
      "persuade": 6800,
      "protector": 6801,
      "invitation": 6802,
      "Mean": 6803,
      "confessed": 6804,
      "compassionate": 6805,
      "ghostly": 6806,
      "stockings": 6807,
      "sufferings": 6808,
      "hastened": 6809,
      "introduced": 6810,
      "elderly": 6811,
      "patronage": 6812,
      "British": 6813,
      "reliance": 6814,
      "bald": 6815,
      "branch": 6816,
      "transport": 6817,
      "patrio": 6818,
      "glimpse": 6819,
      "treasure": 6820,
      "ascended": 6821,
      "correspondence": 6822,
      "pupil": 6823,
      "Magwitch": 6824,
      "twisted": 6825,
      "Parliament": 6826,
      "absorbed": 6827,
      "enthusiasm": 6828,
      "hitherto": 6829,
      "exclamation": 6830,
      "Beauty": 6831,
      "scholar": 6832,
      "shrunk": 6833,
      "merchant": 6834,
      "umbrella": 6835,
      "atmosphere": 6836,
      "manifest": 6837,
      "pecuniary": 6838,
      ":—": 6839,
      ";”": 6840,
      "CE": 6841,
      "Pi": 6842,
      "Pret": 6843,
      "SO": 6844,
      "Sit": 6845,
      "Tiffe": 6846,
      "Wed": 6847,
      "bath": 6848,
      "bond": 6849,
      "ded": 6850,
      "kite": 6851,
      "len": 6852,
      "link": 6853,
      "mult": 6854,
      "ocean": 6855,
      "pul": 6856,
      "sher": 6857,
      "tap": 6858,
      "tapped": 6859,
      "vine": 6860,
      "rela": 6861,
      "resc": 6862,
      "ongest": 6863,
      "asper": 6864,
      "enable": 6865,
      "enem": 6866,
      "offices": 6867,
      "arise": 6868,
      "itz": 6869,
      "secure": 6870,
      "beef": 6871,
      "liest": 6872,
      "west": 6873,
      "forlorn": 6874,
      "sore": 6875,
      "irre": 6876,
      "deaf": 6877,
      "acqui": 6878,
      "mock": 6879,
      "motive": 6880,
      "motives": 6881,
      "outward": 6882,
      "tial": 6883,
      "tices": 6884,
      "hated": 6885,
      "exal": 6886,
      "precaution": 6887,
      "tools": 6888,
      "dish": 6889,
      "discer": 6890,
      "disconcer": 6891,
      "prose": 6892,
      "nevertheless": 6893,
      "beforehand": 6894,
      "glow": 6895,
      "series": 6896,
      "sport": 6897,
      "uses": 6898,
      "clapping": 6899,
      "clinging": 6900,
      "strangers": 6901,
      "letting": 6902,
      "beggar": 6903,
      "ledge": 6904,
      "attending": 6905,
      "joint": 6906,
      "confer": 6907,
      "brook": 6908,
      "current": 6909,
      "fireside": 6910,
      "shivering": 6911,
      "busily": 6912,
      "visits": 6913,
      "sleeves": 6914,
      "carelessly": 6915,
      "vivid": 6916,
      "draws": 6917,
      "wishing": 6918,
      "spirited": 6919,
      "privile": 6920,
      "cordi": 6921,
      "hushed": 6922,
      "sleepy": 6923,
      "stricken": 6924,
      "coats": 6925,
      "growth": 6926,
      "satisfy": 6927,
      "abode": 6928,
      "masters": 6929,
      "exception": 6930,
      "prompt": 6931,
      "allows": 6932,
      "madness": 6933,
      "Clare": 6934,
      "thousands": 6935,
      "sticks": 6936,
      "declaration": 6937,
      "basin": 6938,
      "placing": 6939,
      "composedly": 6940,
      "virtuous": 6941,
      "heavier": 6942,
      "vacant": 6943,
      "divine": 6944,
      "banks": 6945,
      "rattle": 6946,
      "spectacle": 6947,
      "nods": 6948,
      "frequent": 6949,
      "comprehens": 6950,
      "scared": 6951,
      "apologe": 6952,
      "severely": 6953,
      "supply": 6954,
      "style": 6955,
      "details": 6956,
      "documents": 6957,
      "adventure": 6958,
      "coolly": 6959,
      "prosperous": 6960,
      "assembled": 6961,
      "embraced": 6962,
      "searching": 6963,
      "condemned": 6964,
      "staggered": 6965,
      "resources": 6966,
      "elegant": 6967,
      "brooding": 6968,
      "magnificent": 6969,
      "theatre": 6970,
      "Gentlemen": 6971,
      "appropriate": 6972,
      "shabby": 6973,
      "Gamfield": 6974,
      "Safie": 6975,
      "disclosure": 6976,
      "hackney": 6977,
      "Tiffey": 6978,
      "Wednes": 6979,
      "enemies": 6980,
      "AL": 6981,
      "Bor": 6982,
      "BLE": 6983,
      "Call": 6984,
      "GH": 6985,
      "Lign": 6986,
      "Narrative": 6987,
      "Other": 6988,
      "Squ": 6989,
      "Sever": 6990,
      "Seven": 6991,
      "Spy": 6992,
      "UR": 6993,
      "Wh": 6994,
      "bags": 6995,
      "boot": 6996,
      "bills": 6997,
      "danced": 6998,
      "eternal": 6999,
      "fed": 7000,
      "gage": 7001,
      "hut": 7002,
      "lou": 7003,
      "poo": 7004,
      "range": 7005,
      "slate": 7006,
      "inating": 7007,
      "retreat": 7008,
      "iters": 7009,
      "leet": 7010,
      "hay": 7011,
      "secur": 7012,
      "saving": 7013,
      "sadd": 7014,
      "verted": 7015,
      "admon": 7016,
      "cob": 7017,
      "coincid": 7018,
      "decor": 7019,
      "rip": 7020,
      "agon": 7021,
      "fected": 7022,
      "suited": 7023,
      "suitor": 7024,
      "amid": 7025,
      "ambition": 7026,
      "lomon": 7027,
      "whence": 7028,
      "rouse": 7029,
      "filling": 7030,
      "seeking": 7031,
      "impet": 7032,
      "plates": 7033,
      "--“": 7034,
      "Its": 7035,
      "turnkey": 7036,
      "overpow": 7037,
      "lightning": 7038,
      "ornament": 7039,
      "understone": 7040,
      "arks": 7041,
      "lowering": 7042,
      "Shepherd": 7043,
      "estate": 7044,
      "brute": 7045,
      "rights": 7046,
      "rows": 7047,
      "Solomon": 7048,
      "stealth": 7049,
      "watches": 7050,
      "flash": 7051,
      "malice": 7052,
      "insisted": 7053,
      "conduc": 7054,
      "considerations": 7055,
      "Doctors": 7056,
      "helor": 7057,
      "fastened": 7058,
      "wonders": 7059,
      "valley": 7060,
      "sunlight": 7061,
      "doesn": 7062,
      "corrup": 7063,
      "strangely": 7064,
      "approving": 7065,
      "gaze": 7066,
      "gazing": 7067,
      "aneous": 7068,
      "remainder": 7069,
      "clocks": 7070,
      "drif": 7071,
      "knitted": 7072,
      "surprising": 7073,
      "contracted": 7074,
      "attery": 7075,
      "wiser": 7076,
      "lodge": 7077,
      "cottagers": 7078,
      "throws": 7079,
      "thirst": 7080,
      "magic": 7081,
      "Looking": 7082,
      "wander": 7083,
      "Blunderstone": 7084,
      "descend": 7085,
      "distinction": 7086,
      "flesh": 7087,
      "faithfully": 7088,
      "twilight": 7089,
      "horrors": 7090,
      "clasping": 7091,
      "indignantly": 7092,
      "warned": 7093,
      "defend": 7094,
      "defence": 7095,
      "complaint": 7096,
      "crav": 7097,
      "Harold": 7098,
      "fancies": 7099,
      "involved": 7100,
      "grasping": 7101,
      "apprehensions": 7102,
      "treatment": 7103,
      "persisted": 7104,
      "Second": 7105,
      "eccent": 7106,
      "bachelor": 7107,
      "Anything": 7108,
      "ICH": 7109,
      "fatigued": 7110,
      "unexpectedly": 7111,
      "Newgate": 7112,
      "tranquil": 7113,
      "shudder": 7114,
      "obeyed": 7115,
      "inconvenience": 7116,
      "massive": 7117,
      "apprentice": 7118,
      "True": 7119,
      "Julia": 7120,
      "coward": 7121,
      "breeches": 7122,
      "Love": 7123,
      "WHICH": 7124,
      "seventy": 7125,
      "freedom": 7126,
      "escaped": 7127,
      "haggard": 7128,
      "consistent": 7129,
      "sanguine": 7130,
      "lodgings": 7131,
      "Castle": 7132,
      "fidel": 7133,
      "tranquillity": 7134,
      "glittering": 7135,
      "homage": 7136,
      "Lignum": 7137,
      "Several": 7138,
      "coincidence": 7139,
      "AW": 7140,
      "Bring": 7141,
      "Eight": 7142,
      "GE": 7143,
      "NE": 7144,
      "QU": 7145,
      "Rac": 7146,
      "Ser": 7147,
      "Swo": 7148,
      "Ye": 7149,
      "fist": 7150,
      "fishing": 7151,
      "gaunt": 7152,
      "lur": 7153,
      "lum": 7154,
      "lament": 7155,
      "liter": 7156,
      "mers": 7157,
      "pred": 7158,
      "plot": 7159,
      "slo": 7160,
      "vive": 7161,
      "yaw": 7162,
      "zes": 7163,
      "annel": 7164,
      "istic": 7165,
      "itar": 7166,
      "haired": 7167,
      "seed": 7168,
      "beam": 7169,
      "chuck": 7170,
      "sable": 7171,
      "sauce": 7172,
      "lign": 7173,
      "utch": 7174,
      "wels": 7175,
      "irr": 7176,
      "alled": 7177,
      "unction": 7178,
      "unnatural": 7179,
      "unwholesome": 7180,
      "deli": 7181,
      "sser": 7182,
      "conqu": 7183,
      "whither": 7184,
      "shar": 7185,
      "shor": 7186,
      "shooting": 7187,
      "shrew": 7188,
      "losing": 7189,
      "indist": 7190,
      "aret": 7191,
      "peril": 7192,
      "exult": 7193,
      "extens": 7194,
      "presses": 7195,
      "owner": 7196,
      "worry": 7197,
      "pling": 7198,
      "affir": 7199,
      "proportion": 7200,
      "oundrel": 7201,
      "obtain": 7202,
      "newly": 7203,
      "lowest": 7204,
      "scoundrel": 7205,
      "reported": 7206,
      "grain": 7207,
      "sideways": 7208,
      "begging": 7209,
      "cies": 7210,
      "cili": 7211,
      "intry": 7212,
      "cheap": 7213,
      "writes": 7214,
      "homely": 7215,
      "curiously": 7216,
      "waving": 7217,
      "malign": 7218,
      "portman": 7219,
      "incess": 7220,
      "refused": 7221,
      "guarded": 7222,
      "pier": 7223,
      "tempted": 7224,
      "sincerely": 7225,
      "charges": 7226,
      "hesitating": 7227,
      "fury": 7228,
      "furious": 7229,
      "coldly": 7230,
      "severity": 7231,
      "recovery": 7232,
      "aboard": 7233,
      "atively": 7234,
      "apply": 7235,
      "troubles": 7236,
      "knuck": 7237,
      "allowance": 7238,
      "Stay": 7239,
      "numerable": 7240,
      "terminated": 7241,
      "ension": 7242,
      "ensive": 7243,
      "concern": 7244,
      "pushing": 7245,
      "sugar": 7246,
      "mount": 7247,
      "benign": 7248,
      "examine": 7249,
      "cultiv": 7250,
      "producing": 7251,
      "raging": 7252,
      "terrific": 7253,
      "terrified": 7254,
      "screen": 7255,
      "wretchedness": 7256,
      "labouring": 7257,
      "Blue": 7258,
      "succession": 7259,
      "dimin": 7260,
      "eagerness": 7261,
      "Whenever": 7262,
      "authorities": 7263,
      "infli": 7264,
      "brushed": 7265,
      "resident": 7266,
      "Walworth": 7267,
      "customers": 7268,
      "combined": 7269,
      "flavour": 7270,
      "mildly": 7271,
      "drunken": 7272,
      "vanished": 7273,
      "rugged": 7274,
      "Guillotine": 7275,
      "swelled": 7276,
      "restrain": 7277,
      "government": 7278,
      "robbery": 7279,
      "renewed": 7280,
      "obscure": 7281,
      "acknowledged": 7282,
      "earliest": 7283,
      "HOW": 7284,
      "affliction": 7285,
      "creetur": 7286,
      "ingenious": 7287,
      "blaze": 7288,
      "blushing": 7289,
      "lofty": 7290,
      "constraint": 7291,
      "draught": 7292,
      "tidings": 7293,
      "ptible": 7294,
      "disguise": 7295,
      "gift": 7296,
      "perplexity": 7297,
      "Angel": 7298,
      "physician": 7299,
      "Barnard": 7300,
      "Soldier": 7301,
      "luggage": 7302,
      "receipt": 7303,
      "velvet": 7304,
      "Accordingly": 7305,
      "genius": 7306,
      "temporary": 7307,
      "Pretty": 7308,
      "eccentric": 7309,
      "fidelity": 7310,
      "Rachael": 7311,
      "Swosser": 7312,
      "Barge": 7313,
      "BER": 7314,
      "Bridge": 7315,
      "Citizen": 7316,
      "HIM": 7317,
      "Ill": 7318,
      "Mum": 7319,
      "Most": 7320,
      "Non": 7321,
      "Show": 7322,
      "Up": 7323,
      "bis": 7324,
      "croo": 7325,
      "dashed": 7326,
      "fret": 7327,
      "fender": 7328,
      "gruff": 7329,
      "gallows": 7330,
      "ire": 7331,
      "kward": 7332,
      "muttering": 7333,
      "sworn": 7334,
      "sighed": 7335,
      "tended": 7336,
      "inations": 7337,
      "innumerable": 7338,
      "rear": 7339,
      "requires": 7340,
      "tops": 7341,
      "istered": 7342,
      "aspi": 7343,
      "enabled": 7344,
      "orial": 7345,
      "stal": 7346,
      "stall": 7347,
      "hire": 7348,
      "hired": 7349,
      "vex": 7350,
      "chat": 7351,
      "robe": 7352,
      "ads": 7353,
      "lion": 7354,
      "utions": 7355,
      "wealth": 7356,
      "sober": 7357,
      "unal": 7358,
      "unts": 7359,
      "unsettled": 7360,
      "ungrateful": 7361,
      "unusually": 7362,
      "cot": 7363,
      "feast": 7364,
      "pear": 7365,
      "sus": 7366,
      "poll": 7367,
      "confounded": 7368,
      "hats": 7369,
      "icious": 7370,
      "teau": 7371,
      "exasper": 7372,
      "ultim": 7373,
      "appar": 7374,
      "commen": 7375,
      "knowed": 7376,
      "oused": 7377,
      "pla": 7378,
      "oppressed": 7379,
      "discom": 7380,
      "disadvantage": 7381,
      "discipl": 7382,
      "foremost": 7383,
      "inkled": 7384,
      "propri": 7385,
      "bliss": 7386,
      "blush": 7387,
      "medit": 7388,
      "heren": 7389,
      "awkward": 7390,
      "cled": 7391,
      "clapped": 7392,
      "evenings": 7393,
      "closet": 7394,
      "courts": 7395,
      "Jolly": 7396,
      "mustn": 7397,
      "People": 7398,
      "guided": 7399,
      "guitar": 7400,
      "mistrust": 7401,
      "presents": 7402,
      "Chr": 7403,
      "treating": 7404,
      "Ask": 7405,
      "adds": 7406,
      "confine": 7407,
      "lingered": 7408,
      "atha": 7409,
      "tille": 7410,
      "carpet": 7411,
      "interfe": 7412,
      "reader": 7413,
      "patting": 7414,
      "captiv": 7415,
      "statement": 7416,
      "tries": 7417,
      "trifle": 7418,
      "charmed": 7419,
      "helping": 7420,
      "sisters": 7421,
      "respectability": 7422,
      "landed": 7423,
      "cordial": 7424,
      "ize": 7425,
      "syll": 7426,
      "steadfast": 7427,
      "recovering": 7428,
      "purposes": 7429,
      "social": 7430,
      "shadowy": 7431,
      "passionately": 7432,
      "rors": 7433,
      "smoked": 7434,
      "continue": 7435,
      "Royal": 7436,
      "dense": 7437,
      "humbly": 7438,
      "numbers": 7439,
      "warmly": 7440,
      "leads": 7441,
      "conceive": 7442,
      "dreamed": 7443,
      "boats": 7444,
      "devote": 7445,
      "slightest": 7446,
      "Neverland": 7447,
      "Remember": 7448,
      "decline": 7449,
      "paying": 7450,
      "inquiring": 7451,
      "animated": 7452,
      "occurrence": 7453,
      "smelt": 7454,
      "chimneys": 7455,
      "claimed": 7456,
      "swinging": 7457,
      "contemplating": 7458,
      "cleaning": 7459,
      "recognized": 7460,
      "Carol": 7461,
      "triumphant": 7462,
      "triumphantly": 7463,
      "decidedly": 7464,
      "ORY": 7465,
      "increase": 7466,
      "muddy": 7467,
      "neatly": 7468,
      "recollections": 7469,
      "companionship": 7470,
      "assuredly": 7471,
      "refreshed": 7472,
      "Britain": 7473,
      "frowning": 7474,
      "guns": 7475,
      "sailors": 7476,
      "encouraging": 7477,
      "peeped": 7478,
      "guinea": 7479,
      "Curly": 7480,
      "deepest": 7481,
      "moderate": 7482,
      "panting": 7483,
      "pantry": 7484,
      "jealousy": 7485,
      "afflicted": 7486,
      "betrayed": 7487,
      "shrink": 7488,
      "gallantry": 7489,
      "buttoned": 7490,
      "Chick": 7491,
      "henceforth": 7492,
      "tendency": 7493,
      "tradesman": 7494,
      "lossom": 7495,
      "substance": 7496,
      "studies": 7497,
      "beckoned": 7498,
      "criminal": 7499,
      "materials": 7500,
      "Sudden": 7501,
      "rascal": 7502,
      "landscape": 7503,
      "revived": 7504,
      "drowned": 7505,
      "skirts": 7506,
      "monoton": 7507,
      "dusk": 7508,
      "solicitor": 7509,
      "Bastille": 7510,
      "Waterbrook": 7511,
      "testimony": 7512,
      "Agatha": 7513,
      "Artful": 7514,
      "Piper": 7515,
      "Wednesday": 7516,
      "cravat": 7517,
      "indistinct": 7518,
      "portmanteau": 7519,
      "Bargemen": 7520,
      "crooked": 7521,
      "AM": 7522,
      "Bench": 7523,
      "Col": 7524,
      "East": 7525,
      "Fr": 7526,
      "FOR": 7527,
      "Gra": 7528,
      "Hort": 7529,
      "Hol": 7530,
      "Hubble": 7531,
      "Night": 7532,
      "Ox": 7533,
      "Wool": 7534,
      "XL": 7535,
      "XLI": 7536,
      "bred": 7537,
      "broom": 7538,
      "faster": 7539,
      "fowl": 7540,
      "iated": 7541,
      "lust": 7542,
      "mate": 7543,
      "mute": 7544,
      "san": 7545,
      "sly": 7546,
      "south": 7547,
      "uing": 7548,
      "ule": 7549,
      "heaving": 7550,
      "inu": 7551,
      "inous": 7552,
      "incred": 7553,
      "invari": 7554,
      "retain": 7555,
      "recalling": 7556,
      "reserve": 7557,
      "ases": 7558,
      "org": 7559,
      "orm": 7560,
      "leag": 7561,
      "haughty": 7562,
      "seal": 7563,
      "secl": 7564,
      "secured": 7565,
      "bears": 7566,
      "youn": 7567,
      "sailing": 7568,
      "nois": 7569,
      "nomen": 7570,
      "esses": 7571,
      "forgiven": 7572,
      "unseen": 7573,
      "unspeak": 7574,
      "unaccountable": 7575,
      "coheren": 7576,
      "demean": 7577,
      "depressed": 7578,
      "hore": 7579,
      "noticing": 7580,
      "poison": 7581,
      "redden": 7582,
      "cts": 7583,
      ".”’": 7584,
      "dock": 7585,
      "dozing": 7586,
      "ardent": 7587,
      "bodily": 7588,
      "compared": 7589,
      "mug": 7590,
      "fixing": 7591,
      "implor": 7592,
      "dispose": 7593,
      "disclosed": 7594,
      "disgust": 7595,
      "woe": 7596,
      "proctor": 7597,
      "speck": 7598,
      "undertaking": 7599,
      "repul": 7600,
      "clue": 7601,
      "club": 7602,
      "county": 7603,
      "brut": 7604,
      "brass": 7605,
      "gured": 7606,
      "ciation": 7607,
      "creep": 7608,
      "attribut": 7609,
      "pleasan": 7610,
      "steel": 7611,
      "stealing": 7612,
      "momentary": 7613,
      "flutter": 7614,
      "mative": 7615,
      "workman": 7616,
      "insinu": 7617,
      "formal": 7618,
      "shower": 7619,
      "patted": 7620,
      "trick": 7621,
      "mixture": 7622,
      "valu": 7623,
      "travel": 7624,
      "pursues": 7625,
      "sunny": 7626,
      "Dedlocks": 7627,
      "brightness": 7628,
      "swept": 7629,
      "sweeping": 7630,
      "destined": 7631,
      "towns": 7632,
      "striving": 7633,
      "approved": 7634,
      "floating": 7635,
      "chal": 7636,
      "possessing": 7637,
      "fervent": 7638,
      "agreement": 7639,
      "obliging": 7640,
      "decide": 7641,
      "ironmaster": 7642,
      "knives": 7643,
      "expecting": 7644,
      "XXV": 7645,
      "Stand": 7646,
      "warming": 7647,
      "OULD": 7648,
      "snug": 7649,
      "enjoying": 7650,
      "aristocr": 7651,
      "puzzled": 7652,
      "Perkins": 7653,
      "handkerchiefs": 7654,
      "improving": 7655,
      "improvement": 7656,
      "sprang": 7657,
      "wigs": 7658,
      "Arab": 7659,
      "twin": 7660,
      "smelling": 7661,
      "tumult": 7662,
      "newspapers": 7663,
      "instinc": 7664,
      "dimly": 7665,
      "coughed": 7666,
      "pondering": 7667,
      "slice": 7668,
      "contemplate": 7669,
      "morsel": 7670,
      "distinguish": 7671,
      "failure": 7672,
      "uniform": 7673,
      "audience": 7674,
      "expensive": 7675,
      "rattling": 7676,
      "splend": 7677,
      "scrut": 7678,
      "collection": 7679,
      "Home": 7680,
      "settlement": 7681,
      "indicated": 7682,
      "reproachful": 7683,
      "preferred": 7684,
      "condescension": 7685,
      "perplexed": 7686,
      "squeeze": 7687,
      "squeezed": 7688,
      "surveying": 7689,
      "beasts": 7690,
      "blooming": 7691,
      "simplicity": 7692,
      "folk": 7693,
      "folks": 7694,
      "deliberately": 7695,
      "doomed": 7696,
      "mechanically": 7697,
      "brains": 7698,
      "elevated": 7699,
      "bustle": 7700,
      "obstinate": 7701,
      "inherit": 7702,
      "Judge": 7703,
      "galley": 7704,
      "gathering": 7705,
      "naughty": 7706,
      "packet": 7707,
      "poetry": 7708,
      "radiant": 7709,
      "exhibited": 7710,
      "Please": 7711,
      "prudent": 7712,
      "involuntarily": 7713,
      "Africa": 7714,
      "qualified": 7715,
      "thieves": 7716,
      "multitude": 7717,
      "disconcerted": 7718,
      "affirmative": 7719,
      "Suddenly": 7720,
      "Hortense": 7721,
      "Oxford": 7722,
      "invariably": 7723,
      "instinctive": 7724,
      "Daw": 7725,
      "Duff": 7726,
      "Doodle": 7727,
      "Fin": 7728,
      "Flo": 7729,
      "Hon": 7730,
      "Hal": 7731,
      "Light": 7732,
      "PER": 7733,
      "President": 7734,
      "SH": 7735,
      "Tower": 7736,
      "WAS": 7737,
      "bone": 7738,
      "cute": 7739,
      "crust": 7740,
      "jing": 7741,
      "jaw": 7742,
      "jug": 7743,
      "narr": 7744,
      "oak": 7745,
      "pages": 7746,
      "sink": 7747,
      "vap": 7748,
      "wings": 7749,
      "wintry": 7750,
      "insu": 7751,
      "income": 7752,
      "insol": 7753,
      "reappeared": 7754,
      "toil": 7755,
      "asmuch": 7756,
      "ashore": 7757,
      "endered": 7758,
      "metal": 7759,
      "lebr": 7760,
      "celebr": 7761,
      "vehi": 7762,
      "chose": 7763,
      "roared": 7764,
      "adjoining": 7765,
      "entry": 7766,
      "soap": 7767,
      "altern": 7768,
      "unjust": 7769,
      "uncommonly": 7770,
      "coaches": 7771,
      "det": 7772,
      "defic": 7773,
      "rive": 7774,
      "riob": 7775,
      "hoping": 7776,
      "aciously": 7777,
      "constru": 7778,
      "domin": 7779,
      "shan": 7780,
      "apsed": 7781,
      "fix": 7782,
      "figured": 7783,
      "failing": 7784,
      "planted": 7785,
      "yourselves": 7786,
      "ilence": 7787,
      "willingly": 7788,
      "overhead": 7789,
      "lav": 7790,
      "obed": 7791,
      "spon": 7792,
      "angs": 7793,
      "backwards": 7794,
      "repu": 7795,
      "awfully": 7796,
      "brink": 7797,
      "rightly": 7798,
      "civil": 7799,
      "lifeless": 7800,
      "actly": 7801,
      "intently": 7802,
      "Soho": 7803,
      "mists": 7804,
      "compound": 7805,
      "fortitude": 7806,
      "darkly": 7807,
      "submiss": 7808,
      "ffic": 7809,
      "interpose": 7810,
      "dragging": 7811,
      "differen": 7812,
      "talent": 7813,
      "considerably": 7814,
      "pile": 7815,
      "pict": 7816,
      "isters": 7817,
      "eyeing": 7818,
      "autumn": 7819,
      "blackened": 7820,
      "spiration": 7821,
      "version": 7822,
      "pursuits": 7823,
      "arranging": 7824,
      "Six": 7825,
      "corpse": 7826,
      "fairies": 7827,
      "cherished": 7828,
      "aneously": 7829,
      "dogged": 7830,
      "judged": 7831,
      "occupations": 7832,
      "flowed": 7833,
      "settling": 7834,
      "Barley": 7835,
      "pork": 7836,
      "bounded": 7837,
      "ucking": 7838,
      "feebly": 7839,
      "sorrowfully": 7840,
      "frock": 7841,
      "informing": 7842,
      "screamed": 7843,
      "delicately": 7844,
      "sadly": 7845,
      "solemnity": 7846,
      "piration": 7847,
      "graceful": 7848,
      "potent": 7849,
      "Consequ": 7850,
      "eleph": 7851,
      "observant": 7852,
      "harmless": 7853,
      "interruption": 7854,
      "END": 7855,
      "phenomen": 7856,
      "games": 7857,
      "convenience": 7858,
      "hurrying": 7859,
      "palm": 7860,
      "maintained": 7861,
      "avoided": 7862,
      "yielding": 7863,
      "brush": 7864,
      "zzling": 7865,
      "fiercely": 7866,
      "gloomily": 7867,
      "recommended": 7868,
      "introduction": 7869,
      "scale": 7870,
      "apology": 7871,
      "educated": 7872,
      "executed": 7873,
      "sparkling": 7874,
      "thrice": 7875,
      "rejoiced": 7876,
      "vigorous": 7877,
      "adventures": 7878,
      "neglect": 7879,
      "desirous": 7880,
      "infinitely": 7881,
      "carriages": 7882,
      "issue": 7883,
      "summit": 7884,
      "depths": 7885,
      "national": 7886,
      "slave": 7887,
      "source": 7888,
      "industrious": 7889,
      "eggs": 7890,
      "cushion": 7891,
      "gaoler": 7892,
      "pathetic": 7893,
      "Thankee": 7894,
      "traversed": 7895,
      "novelty": 7896,
      "deprived": 7897,
      "parcel": 7898,
      "curtsy": 7899,
      "undoubtedly": 7900,
      "dispersed": 7901,
      "exalted": 7902,
      "Borriob": 7903,
      "GHT": 7904,
      "shrewd": 7905,
      "extensive": 7906,
      "Christ": 7907,
      "interfere": 7908,
      "Woolwich": 7909,
      "youngest": 7910,
      "unspeakable": 7911,
      "reddening": 7912,
      "Dawkins": 7913,
      "Half": 7914,
      "Amer": 7915,
      "CT": 7916,
      "City": 7917,
      "DE": 7918,
      "Des": 7919,
      "DON": 7920,
      "Ear": 7921,
      "Foul": 7922,
      "Hor": 7923,
      "Hundred": 7924,
      "Jury": 7925,
      "Last": 7926,
      "Mid": 7927,
      "Mess": 7928,
      "Spi": 7929,
      "Twi": 7930,
      "Wo": 7931,
      "_was": 7932,
      "az": 7933,
      "bend": 7934,
      "baker": 7935,
      "cage": 7936,
      "du": 7937,
      "dæ": 7938,
      "dil": 7939,
      "dive": 7940,
      "eem": 7941,
      "fits": 7942,
      "ffect": 7943,
      "fainted": 7944,
      "fisher": 7945,
      "ium": 7946,
      "iency": 7947,
      "kid": 7948,
      "pies": 7949,
      "rase": 7950,
      "rants": 7951,
      "rash": 7952,
      "sity": 7953,
      "sip": 7954,
      "tast": 7955,
      "vul": 7956,
      "wits": 7957,
      "wittles": 7958,
      "yers": 7959,
      "hell": 7960,
      "infancy": 7961,
      "invisible": 7962,
      "intens": 7963,
      "anno": 7964,
      "requ": 7965,
      "retic": 7966,
      "remove": 7967,
      "replaced": 7968,
      "removing": 7969,
      "respected": 7970,
      "stum": 7971,
      "stating": 7972,
      "beams": 7973,
      "ceremon": 7974,
      "veget": 7975,
      "velled": 7976,
      "salt": 7977,
      "nomin": 7978,
      "roast": 7979,
      "rosy": 7980,
      "vern": 7981,
      "lican": 7982,
      "wears": 7983,
      "oots": 7984,
      "alling": 7985,
      "unned": 7986,
      "unlikely": 7987,
      "deference": 7988,
      "nets": 7989,
      "moves": 7990,
      "aby": 7991,
      "manus": 7992,
      "amond": 7993,
      "whip": 7994,
      "loaded": 7995,
      "icked": 7996,
      "lful": 7997,
      "extr": 7998,
      "exchange": 7999,
      "precaut": 8000,
      "ulp": 8001,
      "ulations": 8002,
      "mum": 8003,
      "faults": 8004,
      "imble": 8005,
      "imitation": 8006,
      "opposition": 8007,
      "dismay": 8008,
      "propit": 8009,
      "prolonged": 8010,
      "cannon": 8011,
      "print": 8012,
      "paved": 8013,
      "spell": 8014,
      "goods": 8015,
      "glaring": 8016,
      "ornam": 8017,
      "Missis": 8018,
      "diamond": 8019,
      "ishly": 8020,
      "scrup": 8021,
      "mostly": 8022,
      "offensive": 8023,
      "esteem": 8024,
      "string": 8025,
      "traced": 8026,
      "ieties": 8027,
      "begs": 8028,
      "pson": 8029,
      "sawyer": 8030,
      "happens": 8031,
      "jection": 8032,
      "jewels": 8033,
      "ltry": 8034,
      "wrung": 8035,
      "flood": 8036,
      "flute": 8037,
      "darkening": 8038,
      "clearing": 8039,
      "intercourse": 8040,
      "locking": 8041,
      "cript": 8042,
      "pike": 8043,
      "patched": 8044,
      "tempt": 8045,
      "Force": 8046,
      "Jarvis": 8047,
      "legged": 8048,
      "Beau": 8049,
      "ublican": 8050,
      "brightest": 8051,
      "tower": 8052,
      "breaker": 8053,
      "cork": 8054,
      "shuts": 8055,
      "fairly": 8056,
      "cuit": 8057,
      "fourteen": 8058,
      "bowl": 8059,
      "chapter": 8060,
      "sights": 8061,
      "ferv": 8062,
      "fervour": 8063,
      "orderly": 8064,
      "grieved": 8065,
      "Almost": 8066,
      "regions": 8067,
      "raptur": 8068,
      "rapture": 8069,
      "casts": 8070,
      "boards": 8071,
      "dreaming": 8072,
      "porch": 8073,
      "opportunities": 8074,
      "musing": 8075,
      "sorrows": 8076,
      "endeavours": 8077,
      "crushed": 8078,
      "mysteries": 8079,
      "handsomely": 8080,
      "grandmother": 8081,
      "pitied": 8082,
      "Blinder": 8083,
      "animate": 8084,
      "tumbri": 8085,
      "archway": 8086,
      "tails": 8087,
      "measured": 8088,
      "originated": 8089,
      "stretch": 8090,
      "desperation": 8091,
      "Except": 8092,
      "ORT": 8093,
      "elbows": 8094,
      "strolled": 8095,
      "bruised": 8096,
      "situated": 8097,
      "crazy": 8098,
      "stables": 8099,
      "expenses": 8100,
      "THIS": 8101,
      "representing": 8102,
      "stains": 8103,
      "soothed": 8104,
      "marrying": 8105,
      "remonstrance": 8106,
      "afforded": 8107,
      "WITH": 8108,
      "discussion": 8109,
      "Wait": 8110,
      "Wald": 8111,
      "shuddering": 8112,
      "vices": 8113,
      "stammered": 8114,
      "strayed": 8115,
      "additional": 8116,
      "adjusting": 8117,
      "awaiting": 8118,
      "investig": 8119,
      "drooping": 8120,
      "submit": 8121,
      "prevailed": 8122,
      "Dictionary": 8123,
      "weapons": 8124,
      "plunged": 8125,
      "liquor": 8126,
      "defiance": 8127,
      "sulky": 8128,
      "emigrant": 8129,
      "tolerably": 8130,
      "deposited": 8131,
      "amusement": 8132,
      "Cathedral": 8133,
      "abrupt": 8134,
      "Memorial": 8135,
      "ferocious": 8136,
      "Suppose": 8137,
      "buttons": 8138,
      "skeleton": 8139,
      "barrier": 8140,
      "punctual": 8141,
      "sherry": 8142,
      "security": 8143,
      "overpowered": 8144,
      "knuckles": 8145,
      "ultimately": 8146,
      "commenced": 8147,
      "syllable": 8148,
      "Caroline": 8149,
      "Holborn": 8150,
      "Flopson": 8151,
      "Americ": 8152,
      "Messrs": 8153,
      "_was_": 8154,
      "precautions": 8155,
      "17": 8156,
      "Cle": 8157,
      "Down": 8158,
      "Fort": 8159,
      "Frid": 8160,
      "Fitz": 8161,
      "Fleet": 8162,
      "GO": 8163,
      "Hill": 8164,
      "Haw": 8165,
      "HER": 8166,
      "Hah": 8167,
      "Liz": 8168,
      "Mister": 8169,
      "MIC": 8170,
      "Sha": 8171,
      "TW": 8172,
      "Tha": 8173,
      "Trib": 8174,
      "UT": 8175,
      "VE": 8176,
      "_he": 8177,
      "_him": 8178,
      "ahead": 8179,
      "bash": 8180,
      "dwe": 8181,
      "drow": 8182,
      "equi": 8183,
      "fitting": 8184,
      "fought": 8185,
      "fran": 8186,
      "footing": 8187,
      "gam": 8188,
      "iate": 8189,
      "itory": 8190,
      "jun": 8191,
      "mber": 8192,
      "ograp": 8193,
      "pool": 8194,
      "pony": 8195,
      "praised": 8196,
      "sar": 8197,
      "shat": 8198,
      "tan": 8199,
      "tes": 8200,
      "trod": 8201,
      "uno": 8202,
      "uary": 8203,
      "xen": 8204,
      "yell": 8205,
      "infirm": 8206,
      "repaired": 8207,
      "astic": 8208,
      "encom": 8209,
      "enorm": 8210,
      "arti": 8211,
      "arrested": 8212,
      "itably": 8213,
      "llers": 8214,
      "llies": 8215,
      "stif": 8216,
      "strous": 8217,
      "beats": 8218,
      "owls": 8219,
      "chord": 8220,
      "roses": 8221,
      "weigh": 8222,
      "alty": 8223,
      "allude": 8224,
      "unhappiness": 8225,
      "unworthy": 8226,
      "urious": 8227,
      "deem": 8228,
      "dearer": 8229,
      "tersay": 8230,
      "tipto": 8231,
      "conspir": 8232,
      "shroud": 8233,
      "ardently": 8234,
      "log": 8235,
      "lots": 8236,
      "quaint": 8237,
      "perish": 8238,
      "perspective": 8239,
      "existing": 8240,
      "ulating": 8241,
      "bolt": 8242,
      "apt": 8243,
      "Hear": 8244,
      "rail": 8245,
      "timely": 8246,
      "greens": 8247,
      "overheard": 8248,
      "pathis": 8249,
      "lame": 8250,
      "lazy": 8251,
      "glisten": 8252,
      "glided": 8253,
      "glowing": 8254,
      "torted": 8255,
      "pleaded": 8256,
      "grind": 8257,
      "estim": 8258,
      "strongest": 8259,
      "minded": 8260,
      "happening": 8261,
      "cible": 8262,
      "lasting": 8263,
      "creator": 8264,
      "cheering": 8265,
      "mistakes": 8266,
      "monstrous": 8267,
      "complied": 8268,
      "compens": 8269,
      "stress": 8270,
      "treacher": 8271,
      "ticed": 8272,
      "fathers": 8273,
      "fluttered": 8274,
      "flannel": 8275,
      "meantersay": 8276,
      "mature": 8277,
      "engendered": 8278,
      "marsh": 8279,
      "sleeper": 8280,
      "pening": 8281,
      "trifling": 8282,
      "chariot": 8283,
      "whistle": 8284,
      "profit": 8285,
      "repet": 8286,
      "lawyers": 8287,
      "resigned": 8288,
      "beautifully": 8289,
      "breaks": 8290,
      "skull": 8291,
      "whit": 8292,
      "hush": 8293,
      "calam": 8294,
      "laughs": 8295,
      "fearfully": 8296,
      "trusting": 8297,
      "bows": 8298,
      "husbands": 8299,
      "shadowed": 8300,
      "phrase": 8301,
      "prominent": 8302,
      "signific": 8303,
      "remarking": 8304,
      "characteristic": 8305,
      "consciously": 8306,
      "slumber": 8307,
      "INS": 8308,
      "rustic": 8309,
      "deserving": 8310,
      "rubs": 8311,
      "rays": 8312,
      "bounds": 8313,
      "inquis": 8314,
      "influenced": 8315,
      "imply": 8316,
      "gratification": 8317,
      "quarters": 8318,
      "robor": 8319,
      "frost": 8320,
      "frozen": 8321,
      "sympathis": 8322,
      "entire": 8323,
      "successful": 8324,
      "associations": 8325,
      "garments": 8326,
      "eaten": 8327,
      "rendering": 8328,
      "claims": 8329,
      "observations": 8330,
      "carts": 8331,
      "groping": 8332,
      "sickness": 8333,
      "protected": 8334,
      "clasp": 8335,
      "Grin": 8336,
      "tightly": 8337,
      "consulted": 8338,
      "clients": 8339,
      "concealment": 8340,
      "Exc": 8341,
      "Exactly": 8342,
      "stroke": 8343,
      "pinch": 8344,
      "pinched": 8345,
      "despised": 8346,
      "provide": 8347,
      "grasped": 8348,
      "accidentally": 8349,
      "combination": 8350,
      "loosely": 8351,
      "revealed": 8352,
      "stormy": 8353,
      "appealing": 8354,
      "bacon": 8355,
      "abandon": 8356,
      "politely": 8357,
      "balance": 8358,
      "tiny": 8359,
      "wickedness": 8360,
      "shouted": 8361,
      "partial": 8362,
      "particip": 8363,
      "restrained": 8364,
      "inferior": 8365,
      "uncertainty": 8366,
      "patriot": 8367,
      "customer": 8368,
      "fighting": 8369,
      "rigid": 8370,
      "innocently": 8371,
      "erect": 8372,
      "preceding": 8373,
      "shells": 8374,
      "vaguely": 8375,
      "issued": 8376,
      "mournfully": 8377,
      "dawn": 8378,
      "guests": 8379,
      "oyster": 8380,
      "ruler": 8381,
      "fulfil": 8382,
      "despondency": 8383,
      "borrowed": 8384,
      "seizing": 8385,
      "eloquence": 8386,
      "feathers": 8387,
      "universal": 8388,
      "compromise": 8389,
      "relinquished": 8390,
      "pronounced": 8391,
      "inscription": 8392,
      "perseverance": 8393,
      "sensibly": 8394,
      "cuffs": 8395,
      "precisely": 8396,
      "crisis": 8397,
      "specim": 8398,
      "shoemaker": 8399,
      "discern": 8400,
      "AWBER": 8401,
      "Nonsense": 8402,
      "Chickweed": 8403,
      "monotonous": 8404,
      "valuable": 8405,
      "Arabian": 8406,
      "Consequently": 8407,
      "Christmas": 8408,
      "Foulon": 8409,
      "dæmon": 8410,
      "manuscript": 8411,
      "fervently": 8412,
      "Friday": 8413,
      "Hawdon": 8414,
      "MICAWBER": 8415,
      "_he_": 8416,
      "_him_": 8417,
      "dwelt": 8418,
      "shattered": 8419,
      "Bay": 8420,
      "Er": 8421,
      "Ger": 8422,
      "ID": 8423,
      "Prob": 8424,
      "Pardon": 8425,
      "SHE": 8426,
      "Silence": 8427,
      "Thi": 8428,
      "Try": 8429,
      "_that": 8430,
      "blighted": 8431,
      "crou": 8432,
      "cance": 8433,
      "cated": 8434,
      "claw": 8435,
      "ffi": 8436,
      "fowls": 8437,
      "giddy": 8438,
      "jar": 8439,
      "kil": 8440,
      "kisses": 8441,
      "kicked": 8442,
      "lent": 8443,
      "mast": 8444,
      "mence": 8445,
      "matt": 8446,
      "nav": 8447,
      "oars": 8448,
      "pend": 8449,
      "pite": 8450,
      "sket": 8451,
      "swords": 8452,
      "sund": 8453,
      "sledge": 8454,
      "vary": 8455,
      "hey": 8456,
      "infl": 8457,
      "insepar": 8458,
      "recomp": 8459,
      "thow": 8460,
      "ert": 8461,
      "onic": 8462,
      "attain": 8463,
      "atoes": 8464,
      "assa": 8465,
      "enary": 8466,
      "itering": 8467,
      "stat": 8468,
      "stake": 8469,
      "stancy": 8470,
      "sele": 8471,
      "chances": 8472,
      "sack": 8473,
      "advers": 8474,
      "liable": 8475,
      "forwards": 8476,
      "sobs": 8477,
      "irons": 8478,
      "aye": 8479,
      "unk": 8480,
      "unlocked": 8481,
      "unfortunately": 8482,
      "urity": 8483,
      "coast": 8484,
      "defe": 8485,
      "decan": 8486,
      "decent": 8487,
      "hovel": 8488,
      "peel": 8489,
      "sured": 8490,
      "mantel": 8491,
      "amiss": 8492,
      "conject": 8493,
      "containing": 8494,
      "congenial": 8495,
      "quo": 8496,
      "perfection": 8497,
      "extrem": 8498,
      "presu": 8499,
      "boiled": 8500,
      "compose": 8501,
      "Hey": 8502,
      "imb": 8503,
      "imposed": 8504,
      "imprec": 8505,
      "dislike": 8506,
      "dispen": 8507,
      "wolf": 8508,
      "prostr": 8509,
      "prophe": 8510,
      "greasy": 8511,
      "blunder": 8512,
      "elapsed": 8513,
      "Were": 8514,
      "hedge": 8515,
      "spection": 8516,
      "eyel": 8517,
      "division": 8518,
      "undertook": 8519,
      "housebreaker": 8520,
      "scent": 8521,
      "ustr": 8522,
      "offended": 8523,
      "grid": 8524,
      "clam": 8525,
      "clust": 8526,
      "boyish": 8527,
      "eminent": 8528,
      "rests": 8529,
      "actual": 8530,
      "created": 8531,
      "presentiment": 8532,
      "jolly": 8533,
      "halfpenny": 8534,
      "visage": 8535,
      "visiting": 8536,
      "deeds": 8537,
      "subtle": 8538,
      "drum": 8539,
      "readiness": 8540,
      "viv": 8541,
      "considers": 8542,
      "trim": 8543,
      "trials": 8544,
      "accid": 8545,
      "doubtless": 8546,
      "profitable": 8547,
      "smaller": 8548,
      "retiring": 8549,
      "reasonably": 8550,
      "corrobor": 8551,
      "dealt": 8552,
      "laughingly": 8553,
      "necessarily": 8554,
      "growling": 8555,
      "gaiety": 8556,
      "gaiters": 8557,
      "Office": 8558,
      "volunt": 8559,
      "discovering": 8560,
      "limb": 8561,
      "wilder": 8562,
      "oblige": 8563,
      "laden": 8564,
      "Alb": 8565,
      "flush": 8566,
      "cram": 8567,
      "cradle": 8568,
      "barrel": 8569,
      "impressions": 8570,
      "exclaims": 8571,
      "identical": 8572,
      "praying": 8573,
      "wrongs": 8574,
      "slack": 8575,
      "resumes": 8576,
      "tax": 8577,
      "suspended": 8578,
      "Nevertheless": 8579,
      "sque": 8580,
      "Quale": 8581,
      "cotton": 8582,
      "countenances": 8583,
      "seats": 8584,
      "examining": 8585,
      "frosty": 8586,
      "fixedly": 8587,
      "nursed": 8588,
      "instructed": 8589,
      "Between": 8590,
      "laboured": 8591,
      "clouded": 8592,
      "sombre": 8593,
      "deceived": 8594,
      "assume": 8595,
      "associate": 8596,
      "flex": 8597,
      "YOUR": 8598,
      "demands": 8599,
      "murderous": 8600,
      "swung": 8601,
      "bidding": 8602,
      "originally": 8603,
      "stretching": 8604,
      "bundles": 8605,
      "execute": 8606,
      "convul": 8607,
      "harness": 8608,
      "antial": 8609,
      "shrie": 8610,
      "shrieks": 8611,
      "rapidity": 8612,
      "Says": 8613,
      "complaining": 8614,
      "coughing": 8615,
      "pillows": 8616,
      "regretted": 8617,
      "Should": 8618,
      "accidental": 8619,
      "starved": 8620,
      "flame": 8621,
      "reveal": 8622,
      "pledge": 8623,
      "reflecting": 8624,
      "enchanted": 8625,
      "desolation": 8626,
      "shouting": 8627,
      "apparent": 8628,
      "convicts": 8629,
      "sparks": 8630,
      "transported": 8631,
      "restraint": 8632,
      "ribbon": 8633,
      "recorded": 8634,
      "latent": 8635,
      "comprehended": 8636,
      "axe": 8637,
      "modern": 8638,
      "benevolence": 8639,
      "preceded": 8640,
      "ruffled": 8641,
      "develop": 8642,
      "practition": 8643,
      "kneeling": 8644,
      "sheets": 8645,
      "copying": 8646,
      "illustrious": 8647,
      "luxury": 8648,
      "fulfilled": 8649,
      "steamer": 8650,
      "embarrassed": 8651,
      "jerk": 8652,
      "dispute": 8653,
      "strengthened": 8654,
      "complacent": 8655,
      "filthy": 8656,
      "disparage": 8657,
      "emphatic": 8658,
      "emphatically": 8659,
      "vehement": 8660,
      "comforted": 8661,
      "Work": 8662,
      "twinkling": 8663,
      "contrived": 8664,
      "jumped": 8665,
      "tokens": 8666,
      "greedy": 8667,
      "ecstasy": 8668,
      "imprisonment": 8669,
      "advertise": 8670,
      "Meanwhile": 8671,
      "patriots": 8672,
      "acquies": 8673,
      "White": 8674,
      "louder": 8675,
      "amidst": 8676,
      "Twice": 8677,
      "Tribunal": 8678,
      "Grinby": 8679,
      "inseparable": 8680,
      "Cross": 8681,
      "Dutch": 8682,
      "Hi": 8683,
      "Hun": 8684,
      "LO": 8685,
      "Mal": 8686,
      "Mur": 8687,
      "Number": 8688,
      "Pre": 8689,
      "Pat": 8690,
      "Pent": 8691,
      "RI": 8692,
      "Res": 8693,
      "Rather": 8694,
      "Sur": 8695,
      "Swills": 8696,
      "UL": 8697,
      "Ve": 8698,
      "XI": 8699,
      "XII": 8700,
      "XIII": 8701,
      "XIV": 8702,
      "aunts": 8703,
      "bation": 8704,
      "cious": 8705,
      "citiz": 8706,
      "ds": 8707,
      "dan": 8708,
      "fence": 8709,
      "fles": 8710,
      "gru": 8711,
      "gers": 8712,
      "ians": 8713,
      "lp": 8714,
      "lull": 8715,
      "lud": 8716,
      "mare": 8717,
      "mended": 8718,
      "nap": 8719,
      "obl": 8720,
      "pil": 8721,
      "rout": 8722,
      "tending": 8723,
      "uated": 8724,
      "zer": 8725,
      "hem": 8726,
      "incur": 8727,
      "invent": 8728,
      "incoheren": 8729,
      "inspection": 8730,
      "inflex": 8731,
      "antic": 8732,
      "recl": 8733,
      "relied": 8734,
      "reservation": 8735,
      "remedy": 8736,
      "revive": 8737,
      "atin": 8738,
      "attorney": 8739,
      "tori": 8740,
      "encum": 8741,
      "orange": 8742,
      "stature": 8743,
      "stony": 8744,
      "stages": 8745,
      "staff": 8746,
      "bel": 8747,
      "bellow": 8748,
      "owling": 8749,
      "vereign": 8750,
      "wicket": 8751,
      "chand": 8752,
      "saun": 8753,
      "sally": 8754,
      "adt": 8755,
      "adic": 8756,
      "adorn": 8757,
      "addresses": 8758,
      "limin": 8759,
      "weighed": 8760,
      "soil": 8761,
      "unwon": 8762,
      "unmoved": 8763,
      "unchanged": 8764,
      "unfinished": 8765,
      "depre": 8766,
      "deferen": 8767,
      "defer": 8768,
      "ripp": 8769,
      "agent": 8770,
      "agged": 8771,
      "acquire": 8772,
      "tiest": 8773,
      "tires": 8774,
      "pel": 8775,
      "peach": 8776,
      "wheer": 8777,
      "nowhere": 8778,
      "contest": 8779,
      "concili": 8780,
      "constancy": 8781,
      "dole": 8782,
      "lore": 8783,
      "loitering": 8784,
      "ics": 8785,
      "pering": 8786,
      "golst": 8787,
      "exposed": 8788,
      "prelimin": 8789,
      "apper": 8790,
      "folly": 8791,
      "Help": 8792,
      "raved": 8793,
      "plant": 8794,
      "plank": 8795,
      "handing": 8796,
      "disquiet": 8797,
      "afar": 8798,
      "ruffi": 8799,
      "vener": 8800,
      "epence": 8801,
      "oldest": 8802,
      "blade": 8803,
      "assuring": 8804,
      "evermore": 8805,
      "ineffect": 8806,
      "obvious": 8807,
      "undergone": 8808,
      "spic": 8809,
      "firing": 8810,
      "iger": 8811,
      "scare": 8812,
      "scant": 8813,
      "ustration": 8814,
      "granted": 8815,
      "estee": 8816,
      "strained": 8817,
      "trap": 8818,
      "para": 8819,
      "mindful": 8820,
      "passive": 8821,
      "kettle": 8822,
      "Ingolst": 8823,
      "cial": 8824,
      "jewell": 8825,
      "presenting": 8826,
      "hears": 8827,
      "minster": 8828,
      "darker": 8829,
      "portable": 8830,
      "spectators": 8831,
      "prisons": 8832,
      "sleet": 8833,
      "reads": 8834,
      "colon": 8835,
      "vial": 8836,
      "personally": 8837,
      "Attorney": 8838,
      "tempered": 8839,
      "rung": 8840,
      "runs": 8841,
      "directing": 8842,
      "doubtfully": 8843,
      "shading": 8844,
      "Isn": 8845,
      "lawful": 8846,
      "Within": 8847,
      "sunset": 8848,
      "mming": 8849,
      "finishing": 8850,
      "Answ": 8851,
      "swee": 8852,
      "rotten": 8853,
      "footstep": 8854,
      "gateway": 8855,
      "strikes": 8856,
      "strictly": 8857,
      "starts": 8858,
      "bowing": 8859,
      "possessions": 8860,
      "anew": 8861,
      "postp": 8862,
      "lengthen": 8863,
      "resolve": 8864,
      "signify": 8865,
      "crash": 8866,
      "mouths": 8867,
      "drinks": 8868,
      "smothered": 8869,
      "repeatedly": 8870,
      "professor": 8871,
      "utters": 8872,
      "weaknesses": 8873,
      "frightfully": 8874,
      "gleam": 8875,
      "conception": 8876,
      "tavern": 8877,
      "folds": 8878,
      "motioned": 8879,
      "implicit": 8880,
      "ONE": 8881,
      "employer": 8882,
      "included": 8883,
      "screwed": 8884,
      "stationed": 8885,
      "freshness": 8886,
      "admirable": 8887,
      "sprung": 8888,
      "establish": 8889,
      "breadth": 8890,
      "gallop": 8891,
      "animation": 8892,
      "Didn": 8893,
      "faltering": 8894,
      "vidence": 8895,
      "judgement": 8896,
      "attempts": 8897,
      "bestowing": 8898,
      "pauses": 8899,
      "lordship": 8900,
      "interrupt": 8901,
      "Sundays": 8902,
      "loudly": 8903,
      "classes": 8904,
      "Prof": 8905,
      "monsieur": 8906,
      "fraud": 8907,
      "winning": 8908,
      "consulting": 8909,
      "smoothing": 8910,
      "smoothed": 8911,
      "softening": 8912,
      "increasing": 8913,
      "ghosts": 8914,
      "gravy": 8915,
      "supportable": 8916,
      "banking": 8917,
      "arguments": 8918,
      "lamb": 8919,
      "modesty": 8920,
      "profoundly": 8921,
      "consisted": 8922,
      "balustr": 8923,
      "jacent": 8924,
      "philosopher": 8925,
      "adviser": 8926,
      "expedient": 8927,
      "scores": 8928,
      "murmuring": 8929,
      "entreaties": 8930,
      "inhabited": 8931,
      "tossing": 8932,
      "condescend": 8933,
      "surveyed": 8934,
      "sinister": 8935,
      "lattice": 8936,
      "anticipated": 8937,
      "accompanying": 8938,
      "disturbance": 8939,
      "miseries": 8940,
      "inconvenient": 8941,
      "pupils": 8942,
      "blazing": 8943,
      "kneeled": 8944,
      "mechanical": 8945,
      "moaned": 8946,
      "comparison": 8947,
      "embracing": 8948,
      "studied": 8949,
      "majestic": 8950,
      "Suf": 8951,
      "purchase": 8952,
      "perpetually": 8953,
      "tormented": 8954,
      "swiftly": 8955,
      "eloquent": 8956,
      "weapon": 8957,
      "brimstone": 8958,
      "lounging": 8959,
      "vehemence": 8960,
      "indispen": 8961,
      "briskly": 8962,
      "religious": 8963,
      "clutched": 8964,
      "trodden": 8965,
      "accommodation": 8966,
      "Westminster": 8967,
      "rogative": 8968,
      "tribute": 8969,
      "announcement": 8970,
      "Edward": 8971,
      "relenting": 8972,
      "relaxed": 8973,
      "saddle": 8974,
      "exultation": 8975,
      "Illustration": 8976,
      "imploring": 8977,
      "inheritance": 8978,
      "phenomenon": 8979,
      "Spiker": 8980,
      "annoy": 8981,
      "tumbrils": 8982,
      "America": 8983,
      "Fortun": 8984,
      "tiptoe": 8985,
      "repetition": 8986,
      "Excuse": 8987,
      "Ernest": 8988,
      "Probably": 8989,
      "gridiron": 8990,
      "wilderness": 8991,
      "Malta": 8992,
      "unwonted": 8993,
      "esteemed": 8994,
      "Ingolstadt": 8995,
      "AG": 8996,
      "Abo": 8997,
      "Dark": 8998,
      "Four": 8999,
      "KS": 9000,
      "Latin": 9001,
      "Might": 9002,
      "Mine": 9003,
      "MAY": 9004,
      "PO": 9005,
      "Pris": 9006,
      "RAT": 9007,
      "Swit": 9008,
      "Scot": 9009,
      "Tow": 9010,
      "Too": 9011,
      "TORY": 9012,
      "US": 9013,
      "Watt": 9014,
      "aved": 9015,
      "aud": 9016,
      "bage": 9017,
      "bons": 9018,
      "cate": 9019,
      "cattle": 9020,
      "dun": 9021,
      "glo": 9022,
      "gence": 9023,
      "gles": 9024,
      "glove": 9025,
      "grud": 9026,
      "honey": 9027,
      "ju": 9028,
      "lers": 9029,
      "lumber": 9030,
      "mun": 9031,
      "mith": 9032,
      "ni": 9033,
      "ples": 9034,
      "pump": 9035,
      "sig": 9036,
      "sings": 9037,
      "sends": 9038,
      "tasted": 9039,
      "ucked": 9040,
      "warr": 9041,
      "xter": 9042,
      "”,": 9043,
      "inve": 9044,
      "infamous": 9045,
      "inexperienced": 9046,
      "reme": 9047,
      "onward": 9048,
      "atch": 9049,
      "toy": 9050,
      "total": 9051,
      "army": 9052,
      "arched": 9053,
      "hable": 9054,
      "hailed": 9055,
      "stack": 9056,
      "sealed": 9057,
      "besought": 9058,
      "ids": 9059,
      "idy": 9060,
      "vell": 9061,
      "wipe": 9062,
      "wives": 9063,
      "charms": 9064,
      "chase": 9065,
      "nook": 9066,
      "escor": 9067,
      "escrib": 9068,
      "webs": 9069,
      "forfe": 9070,
      "forgiving": 9071,
      "altar": 9072,
      "uneasily": 9073,
      "unlucky": 9074,
      "coax": 9075,
      "devour": 9076,
      "degrad": 9077,
      "dexter": 9078,
      "acles": 9079,
      "moss": 9080,
      "abashed": 9081,
      "managed": 9082,
      "ample": 9083,
      "Theer": 9084,
      "geons": 9085,
      "quity": 9086,
      "teaching": 9087,
      "indescrib": 9088,
      "usions": 9089,
      "preserve": 9090,
      "boiling": 9091,
      "appla": 9092,
      "comic": 9093,
      "commiser": 9094,
      "fiery": 9095,
      "impossibility": 9096,
      "impaired": 9097,
      "plane": 9098,
      "plants": 9099,
      "handy": 9100,
      "handwriting": 9101,
      "opposed": 9102,
      "iler": 9103,
      "ilitated": 9104,
      "discre": 9105,
      "display": 9106,
      "disclose": 9107,
      "disconsol": 9108,
      "discoloured": 9109,
      "discreet": 9110,
      "disfigured": 9111,
      "turnpike": 9112,
      "provision": 9113,
      "procure": 9114,
      "canv": 9115,
      "omen": 9116,
      "laun": 9117,
      "laud": 9118,
      "inev": 9119,
      "specially": 9120,
      "thence": 9121,
      "spin": 9122,
      "chill": 9123,
      "clay": 9124,
      "effected": 9125,
      "aces": 9126,
      "strings": 9127,
      "rences": 9128,
      "stolen": 9129,
      "emin": 9130,
      "ptions": 9131,
      "parch": 9132,
      "paralle": 9133,
      "supreme": 9134,
      "crew": 9135,
      "misty": 9136,
      "compare": 9137,
      "compact": 9138,
      "steal": 9139,
      "confli": 9140,
      "gentlemanly": 9141,
      "broker": 9142,
      "curling": 9143,
      "cursed": 9144,
      "ancis": 9145,
      "fluttering": 9146,
      "fireplace": 9147,
      "mates": 9148,
      "believing": 9149,
      "hardened": 9150,
      "evous": 9151,
      "commend": 9152,
      "colate": 9153,
      "prettier": 9154,
      "oftener": 9155,
      "giant": 9156,
      "Richmond": 9157,
      "forming": 9158,
      "patiently": 9159,
      "advoc": 9160,
      "trifles": 9161,
      "sitor": 9162,
      "gardener": 9163,
      "playful": 9164,
      "playfully": 9165,
      "questioner": 9166,
      "shady": 9167,
      "confiding": 9168,
      "confidently": 9169,
      "plaintive": 9170,
      "supposes": 9171,
      "touches": 9172,
      "Covent": 9173,
      "risk": 9174,
      "chocolate": 9175,
      "cutor": 9176,
      "izing": 9177,
      "keyhole": 9178,
      "quicker": 9179,
      "quickened": 9180,
      "listener": 9181,
      "chained": 9182,
      "Enough": 9183,
      "tremulous": 9184,
      "pleasures": 9185,
      "candour": 9186,
      "ordering": 9187,
      "limits": 9188,
      "appalling": 9189,
      "remarkably": 9190,
      "judges": 9191,
      "gardens": 9192,
      "denying": 9193,
      "identify": 9194,
      "seconds": 9195,
      "rustling": 9196,
      "OUN": 9197,
      "communicating": 9198,
      "department": 9199,
      "Marg": 9200,
      "sweetness": 9201,
      "connection": 9202,
      "implored": 9203,
      "polished": 9204,
      "creditor": 9205,
      "timber": 9206,
      "staying": 9207,
      "labou": 9208,
      "sympto": 9209,
      "entially": 9210,
      "occurrences": 9211,
      "blinds": 9212,
      "echoing": 9213,
      "facul": 9214,
      "attract": 9215,
      "attraction": 9216,
      "Turk": 9217,
      "debts": 9218,
      "bitterness": 9219,
      "measures": 9220,
      "despairing": 9221,
      "fraught": 9222,
      "Symond": 9223,
      "dignified": 9224,
      "boldly": 9225,
      "objections": 9226,
      "positive": 9227,
      "commanded": 9228,
      "ATION": 9229,
      "surrounding": 9230,
      "recollected": 9231,
      "peculiarly": 9232,
      "threatened": 9233,
      "flames": 9234,
      "tiresome": 9235,
      "awaken": 9236,
      "seasons": 9237,
      "speedily": 9238,
      "tortures": 9239,
      "Liber": 9240,
      "wrecked": 9241,
      "discussed": 9242,
      "leisurely": 9243,
      "Wales": 9244,
      "fragment": 9245,
      "swallow": 9246,
      "songs": 9247,
      "discoveries": 9248,
      "infernal": 9249,
[...]
