{
  "version": "1.0",
  "truncation": null,
  "padding": null,
  "added_tokens": [],
  "normalizer": null,
  "pre_tokenizer": null,
  "post_processor": null,
  "decoder": null,
  "model": {
    "type": "BPE",
    "dropout": null,
    "unk_token": null,
    "continuing_subword_prefix": null,
    "end_of_word_suffix": null,
    "fuse_unk": false,
    "byte_fallback": false,
    "ignore_merges": false,
    "vocab": {
      "\n": 0,
      " ": 1,
      "!": 2,
      "\"": 3,
      "#": 4,
      "&": 5,
      "'": 6,
      "(": 7,
      ")": 8,
      "*": 9,
      ",": 10,
      "-": 11,
      ".": 12,
      "/": 13,
      "0": 14,
      "1": 15,
      "2": 16,
      "3": 17,
      "4": 18,
      "5": 19,
      "6": 20,
      "7": 21,
      "8": 22,
      "9": 23,
      ":": 24,
      ";": 25,
      "?": 26,
      "A": 27,
      "B": 28,
      "C": 29,
      "D": 30,
      "E": 31,
      "F": 32,
      "G": 33,
      "H": 34,
      "I": 35,
      "J": 36,
      "K": 37,
      "L": 38,
      "M": 39,
      "N": 40,
      "O": 41,
      "P": 42,
      "Q": 43,
      "R": 44,
      "S": 45,
      "T": 46,
      "U": 47,
      "V": 48,
      "W": 49,
      "X": 50,
      "Y": 51,
      "Z": 52,
      "[": 53,
      "\\": 54,
      "]": 55,
      "a": 56,
      "b": 57,
      "c": 58,
      "d": 59,
      "e": 60,
      "f": 61,
      "g": 62,
      "h": 63,
      "i": 64,
      "j": 65,
      "k": 66,
      "l": 67,
      "m": 68,
      "n": 69,
      "o": 70,
      "p": 71,
      "q": 72,
      "r": 73,
      "s": 74,
      "t": 75,
      "u": 76,
      "v": 77,
      "w": 78,
      "x": 79,
      "y": 80,
      "z": 81,
      "|": 82,
      "¢": 83,
      "®": 84,
      "°": 85,
      "»": 86,
      "é": 87,
      "—": 88,
      "‘": 89,
      "’": 90,
      "“": 91,
      "”": 92,
      "e ": 93,
      "th": 94,
      "d ": 95,
      "s ": 96,
      "t ": 97,
      "in": 98,
      "an": 99,
      "er": 100,
      "the ": 101,
      "y ": 102,
      ", ": 103,
      "en": 104,
      "on": 105,
      "ed ": 106,
      "ou": 107,
      "f ": 108,
      "and ": 109,
      "or": 110,
      "ar": 111,
      ". ": 112,
      "of ": 113,
      "ing": 114,
      "o ": 115,
      "re": 116,
      "al": 117,
      "st": 118,
      "ha": 119,
      "ing ": 120,
      "hi": 121,
      "to ": 122,
      " the ": 123,
      "a ": 124,
      "at ": 125,
      "as ": 126,
      "at": 127,
      "om": 128,
      "er ": 129,
      "es": 130,
      "ly ": 131,
      "ch": 132,
      "it": 133,
      "ow": 134,
      "gh": 135,
      "el": 136,
      "in ": 137,
      "en ": 138,
      ", and ": 139,
      "se": 140,
      "| ": 141,
      "was ": 142,
      "le": 143,
      "ic": 144,
      "he ": 145,
      "that ": 146,
      "ac": 147,
      "ur": 148,
      "li": 149,
      "wi": 150,
      "l ": 151,
      "or ": 152,
      "on ": 153,
      "be": 154,
      "had ": 155,
      "ol": 156,
      "es ": 157,
      "ri": 158,
      "ere ": 159,
      "as": 160,
      "am": 161,
      "un": 162,
      "th ": 163,
      "os": 164,
      "di": 165,
      "ti": 166,
      "ch ": 167,
      "an ": 168,
      "of the ": 169,
      "em": 170,
      "wh": 171,
      "ab": 172,
      "si": 173,
      "no": 174,
      "sh": 175,
      "le ": 176,
      "de": 177,
      "ro": 178,
      ". \n": 179,
      "whi": 180,
      "ve ": 181,
      "ir": 182,
      "al ": 183,
      "k ": 184,
      "ag": 185,
      "ver": 186,
      "fr": 187,
      "ld ": 188,
      "; ": 189,
      "his ": 190,
      "for": 191,
      "il": 192,
      "ad": 193,
      "ed": 194,
      "ear": 195,
      ". T": 196,
      "bu": 197,
      "ent": 198,
      "oun": 199,
      "n ": 200,
      "it ": 201,
      "the": 202,
      "sp": 203,
      "ter": 204,
      "ght ": 205,
      "su": 206,
      "with ": 207,
      "ould ": 208,
      "from": 209,
      " \n": 210,
      "s of ": 211,
      "not ": 212,
      "oo": 213,
      "ent ": 214,
      "our": 215,
      "is ": 216,
      "which ": 217,
      "in the ": 218,
      "ev": 219,
      "ec": 220,
      "us": 221,
      "ap": 222,
      "ex": 223,
      "ul": 224,
      "con": 225,
      "were ": 226,
      "one ": 227,
      "but ": 228,
      "qu": 229,
      "s, ": 230,
      "ati": 231,
      "ce ": 232,
      "for ": 233,
      "ous ": 234,
      "pl": 235,
      "my ": 236,
      "out ": 237,
      "ow ": 238,
      "aw": 239,
      "tr": 240,
      "ain": 241,
      "som": 242,
      "ough": 243,
      "op": 244,
      "e, ": 245,
      "by ": 246,
      "bl": 247,
      "s and ": 248,
      "ed to ": 249,
      "sc": 250,
      "um": 251,
      "ew": 252,
      "all": 253,
      "ter ": 254,
      "all ": 255,
      "str": 256,
      "’s ": 257,
      "ep": 258,
      "kn": 259,
      "ak": 260,
      "up": 261,
      "ght": 262,
      "ose ": 263,
      "id": 264,
      "m ": 265,
      "be ": 266,
      "ther ": 267,
      "com": 268,
      "ay ": 269,
      "me ": 270,
      "he": 271,
      "ess ": 272,
      "ay": 273,
      "from ": 274,
      "is": 275,
      "cl": 276,
      "im": 277,
      "gre": 278,
      "to the ": 279,
      "own ": 280,
      "per": 281,
      "ang": 282,
      "pre": 283,
      "they ": 284,
      "hat ": 285,
      "gr": 286,
      "e of ": 287,
      "have ": 288,
      "oc": 289,
      ". A": 290,
      "ic ": 291,
      "ted ": 292,
      "could ": 293,
      "old ": 294,
      "ir ": 295,
      "me": 296,
      "e \n": 297,
      "od": 298,
      "mor": 299,
      "ong": 300,
      ". I": 301,
      "and": 302,
      "ound ": 303,
      "av": 304,
      "ell": 305,
      "ous": 306,
      "this ": 307,
      ". The ": 308,
      "ni": 309,
      "on the ": 310,
      "ed the ": 311,
      "pro": 312,
      "thing ": 313,
      "ar ": 314,
      "st ": 315,
      "fl": 316,
      "et": 317,
      "af": 318,
      "vi": 319,
      "no ": 320,
      "ain ": 321,
      "est": 322,
      "man": 323,
      "et ": 324,
      "mo": 325,
      "mi": 326,
      "ard ": 327,
      "wor": 328,
      "der": 329,
      "ad ": 330,
      "ough ": 331,
      "would ": 332,
      "so ": 333,
      "been ": 334,
      "anc": 335,
      "ant": 336,
      "with": 337,
      "par": 338,
      "ut": 339,
      "ind": 340,
      "them": 341,
      "our ": 342,
      "y, ": 343,
      "ess": 344,
      "very ": 345,
      "ther": 346,
      "its ": 347,
      "ble ": 348,
      ". H": 349,
      "some ": 350,
      "we ": 351,
      "ed \n": 352,
      "ast": 353,
      "ely ": 354,
      "ust ": 355,
      "their ": 356,
      "ast ": 357,
      "ost ": 358,
      "e the ": 359,
      "ally ": 360,
      "est ": 361,
      "ity ": 362,
      "of": 363,
      "cr": 364,
      "lik": 365,
      "br": 366,
      "there ": 367,
      "what ": 368,
      "able ": 369,
      "ation": 370,
      "ew ": 371,
      "e and ": 372,
      "fi": 373,
      "ever ": 374,
      "rec": 375,
      "seem": 376,
      "iti": 377,
      "from the ": 378,
      "end": 379,
      "cam": 380,
      "ings ": 381,
      ", \n": 382,
      "bo": 383,
      "ind ": 384,
      "ph": 385,
      "when ": 386,
      "him ": 387,
      ". W": 388,
      "tur": 389,
      ", but ": 390,
      "des": 391,
      "ard": 392,
      "dre": 393,
      ". Th": 394,
      "s \n": 395,
      "cur": 396,
      "ll ": 397,
      "do": 398,
      "ked ": 399,
      ". | ": 400,
      "thr": 401,
      "over": 402,
      "; and ": 403,
      "ation ": 404,
      "the \n": 405,
      "only ": 406,
      "s, and ": 407,
      "sel": 408,
      "did ": 409,
      "fe": 410,
      "cre": 411,
      ". It ": 412,
      "hor": 413,
      "ai": 414,
      "most ": 415,
      "about ": 416,
      "pres": 417,
      "gi": 418,
      "gl": 419,
      "ure": 420,
      "more ": 421,
      "befor": 422,
      "of \n": 423,
      "ob": 424,
      "po": 425,
      "ack ": 426,
      "him": 427,
      "tion": 428,
      "ca": 429,
      "ace ": 430,
      "ant ": 431,
      "other ": 432,
      "ud": 433,
      "you": 434,
      "where ": 435,
      "ought ": 436,
      "any ": 437,
      "are ": 438,
      "ate ": 439,
      "pe": 440,
      "’ ": 441,
      "ed, ": 442,
      "who ": 443,
      "ey": 444,
      "ill": 445,
      "ts ": 446,
      "cer": 447,
      "those ": 448,
      "sm": 449,
      "a \n": 450,
      "at the ": 451,
      "ing the ": 452,
      "ce": 453,
      "se ": 454,
      "es of ": 455,
      "ence ": 456,
      "tw": 457,
      "mad": 458,
      "saw": 459,
      "sh ": 460,
      "ut ": 461,
      "man ": 462,
      "to": 463,
      "ers ": 464,
      "out": 465,
      "tre": 466,
      "ath": 467,
      "own": 468,
      "fu": 469,
      "now ": 470,
      "hear": 471,
      "ound": 472,
      "strang": 473,
      "came ": 474,
      "ed by ": 475,
      "less ": 476,
      "mar": 477,
      "der ": 478,
      "than ": 479,
      "mon": 480,
      "up ": 481,
      "with the ": 482,
      "and \n": 483,
      "sin": 484,
      "dar": 485,
      "that the ": 486,
      "some": 487,
      ". He ": 488,
      "king ": 489,
      "ell ": 490,
      "e, and ": 491,
      "ig": 492,
      "ong ": 493,
      "car": 494,
      "tain ": 495,
      "sha": 496,
      "must ": 497,
      "he had ": 498,
      "itt": 499,
      "en the ": 500,
      "them ": 501,
      "ll": 502,
      "p ": 503,
      "fin": 504,
      "ne": 505,
      "sl": 506,
      "like ": 507,
      "The ": 508,
      "sur": 509,
      "dr": 510,
      "ious ": 511,
      "great ": 512,
      "dream": 513,
      ". O": 514,
      "ical ": 515,
      "pos": 516,
      "ver ": 517,
      "pr": 518,
      "form": 519,
      "ff": 520,
      "es, ": 521,
      "mu": 522,
      "uc": 523,
      "d, ": 524,
      "att": 525,
      "loo": 526,
      "even ": 527,
      "ful ": 528,
      ". S": 529,
      "in a ": 530,
      "let": 531,
      "tion ": 532,
      "ance ": 533,
      "dist": 534,
      "spec": 535,
      "om ": 536,
      "tim": 537,
      "found ": 538,
      "ing \n": 539,
      "time ": 540,
      "tain": 541,
      "my": 542,
      "though ": 543,
      "ach": 544,
      "pri": 545,
      "ese ": 546,
      "fir": 547,
      "after ": 548,
      "whose ": 549,
      "ot": 550,
      "if ": 551,
      "lat": 552,
      "had been ": 553,
      "gu": 554,
      "might ": 555,
      "wind": 556,
      "ved ": 557,
      "fac": 558,
      "light ": 559,
      "light": 560,
      "pec": 561,
      "tal": 562,
      "known ": 563,
      "fri": 564,
      "ass": 565,
      "s of the ": 566,
      "ill ": 567,
      "for the ": 568,
      "nd ": 569,
      "app": 570,
      "ave ": 571,
      "things ": 572,
      "bel": 573,
      "ful": 574,
      "such ": 575,
      "sid": 576,
      "it was ": 577,
      "so": 578,
      "| had ": 579,
      "por": 580,
      "s were ": 581,
      "hum": 582,
      "; but ": 583,
      "night": 584,
      "age ": 585,
      "saw ": 586,
      "ea": 587,
      "col": 588,
      "to \n": 589,
      "nor": 590,
      "tow": 591,
      ". B": 592,
      "arr": 593,
      "cor": 594,
      "enc": 595,
      "ned ": 596,
      "hel": 597,
      "pp": 598,
      "og": 599,
      "never ": 600,
      "ated ": 601,
      "and the ": 602,
      "way": 603,
      "t of ": 604,
      "fol": 605,
      "ood ": 606,
      "ve": 607,
      "not": 608,
      "ently ": 609,
      "plac": 610,
      "year": 611,
      "near": 612,
      "ving ": 613,
      "led ": 614,
      "ing, ": 615,
      "certain ": 616,
      "ber": 617,
      "int": 618,
      ". . ": 619,
      "beg": 620,
      "down ": 621,
      ", and the ": 622,
      "you ": 623,
      "sion": 624,
      "did not ": 625,
      "wat": 626,
      "dis": 627,
      "ge ": 628,
      "fear": 629,
      "ru": 630,
      "ite ": 631,
      "sen": 632,
      "mem": 633,
      "ist": 634,
      "ning ": 635,
      "ick": 636,
      "come ": 637,
      "g ": 638,
      "cha": 639,
      "these ": 640,
      "au": 641,
      "bur": 642,
      "ake ": 643,
      "high": 644,
      "es and ": 645,
      "s. \n": 646,
      "yon": 647,
      "ack": 648,
      "lim": 649,
      "shi": 650,
      "ary ": 651,
      "into ": 652,
      "ously ": 653,
      "in \n": 654,
      "of a ": 655,
      "beyon": 656,
      "whol": 657,
      ". M": 658,
      "star": 659,
      "Th": 660,
      "ail": 661,
      "men ": 662,
      "ting ": 663,
      "ep ": 664,
      "self ": 665,
      "aid ": 666,
      "sk": 667,
      "anci": 668,
      "ever": 669,
      "low": 670,
      "men": 671,
      "us ": 672,
      "many ": 673,
      "before ": 674,
      "was a ": 675,
      "much ": 676,
      "go": 677,
      "mat": 678,
      "ed and ": 679,
      "seemed to ": 680,
      "thin": 681,
      ", the ": 682,
      "ity": 683,
      "sion ": 684,
      "night ": 685,
      "lo": 686,
      "hal": 687,
      "we": 688,
      "ment": 689,
      "horr": 690,
      "nam": 691,
      "les ": 692,
      "lin": 693,
      "over ": 694,
      "ed a ": 695,
      "two ": 696,
      "first ": 697,
      "tri": 698,
      "el ": 699,
      "ood": 700,
      "tor": 701,
      "made ": 702,
      "oul": 703,
      "stor": 704,
      "? ": 705,
      "Car": 706,
      "still ": 707,
      "sub": 708,
      "hey ": 709,
      "all the ": 710,
      "heard ": 711,
      "ly": 712,
      "min": 713,
      "end ": 714,
      ". And ": 715,
      "rible ": 716,
      "fre": 717,
      "litt": 718,
      "ser": 719,
      ", | ": 720,
      "strange ": 721,
      "through ": 722,
      "ion": 723,
      "seen ": 724,
      "hous": 725,
      "caus": 726,
      "elt ": 727,
      "chi": 728,
      "inter": 729,
      "mer": 730,
      "ses ": 731,
      "ough the ": 732,
      ". It was ": 733,
      "inc": 734,
      "with a ": 735,
      "beyond ": 736,
      "ward ": 737,
      "e of the ": 738,
      "vo": 739,
      "to be ": 740,
      "jec": 741,
      "long ": 742,
      "once ": 743,
      ". N": 744,
      "ste": 745,
      "he was ": 746,
      "could not ": 747,
      "told ": 748,
      "almost ": 749,
      "sed ": 750,
      "thought ": 751,
      "stre": 752,
      "again": 753,
      "comp": 754,
      "har": 755,
      "s—": 756,
      "lef": 757,
      "black ": 758,
      "cent": 759,
      "tu": 760,
      ". There ": 761,
      "ish": 762,
      "way ": 763,
      ". F": 764,
      "ra": 765,
      "ali": 766,
      "abo": 767,
      "Ar": 768,
      "e-": 769,
      "ably ": 770,
      "thre": 771,
      "dd": 772,
      "bri": 773,
      "cle": 774,
      "sw": 775,
      "too": 776,
      "under": 777,
      "upon ": 778,
      "far": 779,
      "’t ": 780,
      "since ": 781,
      "into the ": 782,
      "air": 783,
      "fic": 784,
      "ed in ": 785,
      "thing": 786,
      "ial ": 787,
      "ock": 788,
      "appear": 789,
      "az": 790,
      "emp": 791,
      "disc": 792,
      "day": 793,
      "last ": 794,
      "ty ": 795,
      "ys": 796,
      "seemed ": 797,
      "hou": 798,
      "while ": 799,
      "ke": 800,
      "atur": 801,
      "tly ": 802,
      "knew ": 803,
      "ness ": 804,
      "eng": 805,
      "flo": 806,
      "ble": 807,
      "how": 808,
      "Carter ": 809,
      "know": 810,
      "her": 811,
      "stone ": 812,
      "old": 813,
      "sible ": 814,
      "little ": 815,
      "cour": 816,
      "fam": 817,
      "can": 818,
      "ven ": 819,
      "yet ": 820,
      "en, ": 821,
      "cas": 822,
      "s the ": 823,
      "ed, and ": 824,
      "ue ": 825,
      "dec": 826,
      "that \n": 827,
      "am ": 828,
      "In": 829,
      "ed with ": 830,
      "will ": 831,
      "cri": 832,
      "something ": 833,
      "co": 834,
      ". They ": 835,
      "far ": 836,
      "t \n": 837,
      "place ": 838,
      "ancient ": 839,
      "t, ": 840,
      "bor": 841,
      "plan": 842,
      "do ": 843,
      "inde": 844,
      "back ": 845,
      "gen": 846,
      "felt ": 847,
      "son": 848,
      "e. \n": 849,
      "| was ": 850,
      "human ": 851,
      "toward ": 852,
      "coun": 853,
      "gg": 854,
      "ingly ": 855,
      "of the \n": 856,
      "e—": 857,
      "then ": 858,
      "can ": 859,
      "by the ": 860,
      "without ": 861,
      "ily ": 862,
      "bro": 863,
      "through the ": 864,
      "how ": 865,
      "won": 866,
      "wr": 867,
      "| \n": 868,
      "ice ": 869,
      "see ": 870,
      "city ": 871,
      "ath ": 872,
      "ust": 873,
      "sig": 874,
      "moun": 875,
      "w ": 876,
      ", and \n": 877,
      "exc": 878,
      ". But ": 879,
      "fur": 880,
      "nes": 881,
      "wall": 882,
      "ei": 883,
      "sol": 884,
      "ves ": 885,
      "hat": 886,
      "ks ": 887,
      "lif": 888,
      "sil": 889,
      "cont": 890,
      "enti": 891,
      "in his ": 892,
      "of his ": 893,
      "ps ": 894,
      "ered ": 895,
      "times ": 896,
      "day ": 897,
      "cap": 898,
      "! ": 899,
      "pi": 900,
      "ying ": 901,
      "ash": 902,
      "fright": 903,
      "bod": 904,
      "sor": 905,
      "ten ": 906,
      "alle": 907,
      "vel": 908,
      "hide": 909,
      "sle": 910,
      "t the ": 911,
      "as the ": 912,
      "becaus": 913,
      "x ": 914,
      "too ": 915,
      "land": 916,
      "pass": 917,
      "ened ": 918,
      "was \n": 919,
      "del": 920,
      "down": 921,
      "hand": 922,
      "id ": 923,
      "now": 924,
      "around ": 925,
      "great": 926,
      "began ": 927,
      "sy": 928,
      "earth": 929,
      "head": 930,
      "window": 931,
      "lar": 932,
      "ening ": 933,
      "ies ": 934,
      "ok": 935,
      "yp": 936,
      "comm": 937,
      "after": 938,
      "house ": 939,
      "ge": 940,
      "ston": 941,
      "es, and ": 942,
      "eless ": 943,
      "terr": 944,
      "off ": 945,
      "sun": 946,
      "squ": 947,
      "above ": 948,
      "fa": 949,
      "ld": 950,
      "te ": 951,
      "dou": 952,
      "other": 953,
      "tak": 954,
      "y \n": 955,
      "nothing ": 956,
      "ling ": 957,
      "mom": 958,
      "- \n": 959,
      "ture": 960,
      "had \n": 961,
      "unknown ": 962,
      "real": 963,
      "beh": 964,
      "expl": 965,
      "gro": 966,
      "ner": 967,
      "sing": 968,
      "ed that ": 969,
      "shew": 970,
      "dark ": 971,
      "pic": 972,
      "tic": 973,
      "y and ": 974,
      ". On": 975,
      "just ": 976,
      "sum": 977,
      "imag": 978,
      "ment ": 979,
      "” \n": 980,
      "an’ ": 981,
      "chang": 982,
      "he \n": 983,
      "every ": 984,
      "her ": 985,
      "ly \n": 986,
      "long": 987,
      "well": 988,
      "peri": 989,
      "over the ": 990,
      "beli": 991,
      "new ": 992,
      "was the ": 993,
      "world ": 994,
      "utter": 995,
      "s to ": 996,
      "ch the ": 997,
      "sci": 998,
      ". In ": 999,
      "well ": 1000,
      "” ": 1001,
      "ature": 1002,
      "ept ": 1003,
      "s; ": 1004,
      "said ": 1005,
      "ten": 1006,
      "s that ": 1007,
      "hill": 1008,
      "door ": 1009,
      "monstr": 1010,
      "bre": 1011,
      "que": 1012,
      "know ": 1013,
      "memor": 1014,
      "pur": 1015,
      "able": 1016,
      "side ": 1017,
      "buil": 1018,
      "terrible ": 1019,
      "reach": 1020,
      "ched ": 1021,
      "head ": 1022,
      "house": 1023,
      ", for ": 1024,
      "ing and ": 1025,
      "Cur": 1026,
      "ster": 1027,
      "room ": 1028,
      "al \n": 1029,
      "have been ": 1030,
      "bar": 1031,
      "19": 1032,
      "On": 1033,
      "land ": 1034,
      "nec": 1035,
      "te": 1036,
      "tt": 1037,
      "away ": 1038,
      "doub": 1039,
      "ition": 1040,
      "door": 1041,
      "self": 1042,
      "Gre": 1043,
      "as | ": 1044,
      "ways ": 1045,
      "may ": 1046,
      "sam": 1047,
      "rem": 1048,
      "secre": 1049,
      "boo": 1050,
      "any": 1051,
      "read": 1052,
      "ef": 1053,
      "natur": 1054,
      "ing to ": 1055,
      "ular ": 1056,
      "Dr": 1057,
      "Wil": 1058,
      "s which ": 1059,
      "peop": 1060,
      "..": 1061,
      "iz": 1062,
      "that | ": 1063,
      "sound": 1064,
      "youn": 1065,
      "left ": 1066,
      "gener": 1067,
      "curious ": 1068,
      "shad": 1069,
      "It ": 1070,
      "bed ": 1071,
      "rep": 1072,
      "atter": 1073,
      "lec": 1074,
      "leg": 1075,
      "heav": 1076,
      "ci": 1077,
      "s in ": 1078,
      "vag": 1079,
      "rel": 1080,
      "on \n": 1081,
      "det": 1082,
      "a f": 1083,
      "ome ": 1084,
      "set ": 1085,
      "ine ": 1086,
      "when the ": 1087,
      "moon": 1088,
      "s in the ": 1089,
      "s of \n": 1090,
      "diff": 1091,
      "small ": 1092,
      "hideous ": 1093,
      "Curw": 1094,
      "call": 1095,
      "struc": 1096,
      ". Then ": 1097,
      "ly, ": 1098,
      "both ": 1099,
      "Stre": 1100,
      "another ": 1101,
      ". E": 1102,
      "es \n": 1103,
      "his \n": 1104,
      "umbl": 1105,
      "follow": 1106,
      "pit": 1107,
      "was not ": 1108,
      "led": 1109,
      "held ": 1110,
      "horror ": 1111,
      "er \n": 1112,
      "objec": 1113,
      "ga": 1114,
      "st the ": 1115,
      "get ": 1116,
      "tive ": 1117,
      "poin": 1118,
      "pu": 1119,
      "vis": 1120,
      "though": 1121,
      "has ": 1122,
      "roc": 1123,
      "looked ": 1124,
      "il ": 1125,
      "nex": 1126,
      "; for ": 1127,
      " and ": 1128,
      "kind ": 1129,
      "red ": 1130,
      "shed ": 1131,
      "soon ": 1132,
      "ot ": 1133,
      "sens": 1134,
      "think ": 1135,
      "Jo": 1136,
      "pan": 1137,
      "ing of ": 1138,
      " the \n": 1139,
      "spe": 1140,
      "about the ": 1141,
      "god": 1142,
      "ven": 1143,
      "which the ": 1144,
      "dered ": 1145,
      "norm": 1146,
      "ure ": 1147,
      "side": 1148,
      "fer": 1149,
      "loc": 1150,
      "rid": 1151,
      "turn": 1152,
      "fully ": 1153,
      "three ": 1154,
      "ped ": 1155,
      "ple": 1156,
      "y of ": 1157,
      "till ": 1158,
      "tran": 1159,
      "wal": 1160,
      "s had ": 1161,
      "would be ": 1162,
      "behind ": 1163,
      "twi": 1164,
      "outh ": 1165,
      "brought ": 1166,
      "here ": 1167,
      "was": 1168,
      "wood": 1169,
      "inv": 1170,
      ", he ": 1171,
      "sist": 1172,
      "whisp": 1173,
      "vers": 1174,
      "trac": 1175,
      "cat": 1176,
      "dam": 1177,
      "hen ": 1178,
      ", and | ": 1179,
      "ion ": 1180,
      "say ": 1181,
      "went ": 1182,
      "arch": 1183,
      "again ": 1184,
      "as if ": 1185,
      "sed": 1186,
      "room": 1187,
      "mas": 1188,
      "ros": 1189,
      "ug": 1190,
      "—and ": 1191,
      "in the \n": 1192,
      "port": 1193,
      "cul": 1194,
      "find ": 1195,
      "gave ": 1196,
      "pol": 1197,
      "qui": 1198,
      "gan": 1199,
      "ged ": 1200,
      "san": 1201,
      "for a ": 1202,
      "years ": 1203,
      "however": 1204,
      "people ": 1205,
      "Char": 1206,
      "ber ": 1207,
      "bas": 1208,
      ". P": 1209,
      "quest": 1210,
      "tell ": 1211,
      "—the ": 1212,
      "ence": 1213,
      "of my ": 1214,
      "ele": 1215,
      "dri": 1216,
      "ner ": 1217,
      "y, and ": 1218,
      "reg": 1219,
      "haps ": 1220,
      "to a ": 1221,
      "se, ": 1222,
      "under ": 1223,
      "clo": 1224,
      "later ": 1225,
      " of ": 1226,
      "always ": 1227,
      "war": 1228,
      "ord": 1229,
      "ed by the ": 1230,
      "aid": 1231,
      "lay ": 1232,
      "cho": 1233,
      "char": 1234,
      "secon": 1235,
      "being ": 1236,
      "an \n": 1237,
      "half": 1238,
      "ef ": 1239,
      "sugg": 1240,
      "deser": 1241,
      "ben": 1242,
      "incre": 1243,
      "lear": 1244,
      "e, but ": 1245,
      "s and \n": 1246,
      "wa": 1247,
      "anti": 1248,
      "as a ": 1249,
      "aking ": 1250,
      "monstrous ": 1251,
      ".” \n": 1252,
      "step": 1253,
      "sudd": 1254,
      "s, \n": 1255,
      "bit": 1256,
      "ho": 1257,
      "vast ": 1258,
      ". L": 1259,
      "became ": 1260,
      "scre": 1261,
      "pal": 1262,
      "ry ": 1263,
      "er, ": 1264,
      "ari": 1265,
      "stat": 1266,
      "see": 1267,
      "disp": 1268,
      "shor": 1269,
      ". This ": 1270,
      "s, but ": 1271,
      "feet ": 1272,
      ". . . ": 1273,
      "hop": 1274,
      "at \n": 1275,
      "list": 1276,
      ". That ": 1277,
      ". In": 1278,
      "there": 1279,
      "young ": 1280,
      "foo": 1281,
      "face ": 1282,
      "mind ": 1283,
      "ition ": 1284,
      "serv": 1285,
      "stu": 1286,
      "or \n": 1287,
      "es of the ": 1288,
      "direc": 1289,
      "sive ": 1290,
      "ong the ": 1291,
      "imagin": 1292,
      "fain": 1293,
      "les": 1294,
      "let ": 1295,
      "himself ": 1296,
      "sometimes ": 1297,
      "half ": 1298,
      "took ": 1299,
      "air ": 1300,
      "cir": 1301,
      "den": 1302,
      "ili": 1303,
      "past ": 1304,
      "er and ": 1305,
      "open ": 1306,
      "turned ": 1307,
      "where the ": 1308,
      "high ": 1309,
      "mountain": 1310,
      "body ": 1311,
      "same ": 1312,
      "sound ": 1313,
      "as \n": 1314,
      "olog": 1315,
      "spac": 1316,
      "kha": 1317,
      "lab": 1318,
      "tit": 1319,
      "top": 1320,
      "read ": 1321,
      "that he ": 1322,
      "they were ": 1323,
      "a-": 1324,
      "hour": 1325,
      "ye ": 1326,
      "acros": 1327,
      "expec": 1328,
      "clou": 1329,
      "there was ": 1330,
      "mind": 1331,
      "as he ": 1332,
      "k of ": 1333,
      "form ": 1334,
      "ed. \n": 1335,
      "Arkha": 1336,
      "toward the ": 1337,
      "suggest": 1338,
      "in’ ": 1339,
      "ere": 1340,
      "in that ": 1341,
      "dark": 1342,
      "began to ": 1343,
      "half-": 1344,
      "less": 1345,
      "unc": 1346,
      "’s \n": 1347,
      "impres": 1348,
      "wholly ": 1349,
      "go ": 1350,
      "ness": 1351,
      "son ": 1352,
      "reas": 1353,
      "; \n": 1354,
      "mist": 1355,
      "each ": 1356,
      "horror": 1357,
      "da": 1358,
      "| could ": 1359,
      ". As ": 1360,
      "Mr": 1361,
      "clim": 1362,
      "remo": 1363,
      "e, \n": 1364,
      "ground ": 1365,
      ". His ": 1366,
      "curi": 1367,
      "voic": 1368,
      "de ": 1369,
      "ish ": 1370,
      "make ": 1371,
      "vid": 1372,
      ". D": 1373,
      "hast": 1374,
      "out of ": 1375,
      "ised ": 1376,
      "close ": 1377,
      "Old ": 1378,
      "enough ": 1379,
      "sight ": 1380,
      "it \n": 1381,
      "moment ": 1382,
      "gone ": 1383,
      "outh": 1384,
      "regi": 1385,
      "mean": 1386,
      "distur": 1387,
      "contin": 1388,
      "back": 1389,
      "doc": 1390,
      "e to ": 1391,
      "lead": 1392,
      "abys": 1393,
      "ities ": 1394,
      "shap": 1395,
      "notic": 1396,
      "pow": 1397,
      "ts of ": 1398,
      "than": 1399,
      "stud": 1400,
      "ating ": 1401,
      "acc": 1402,
      "emon": 1403,
      "which had ": 1404,
      "person": 1405,
      "build": 1406,
      "But ": 1407,
      "sing ": 1408,
      "lish ": 1409,
      "deep": 1410,
      "with \n": 1411,
      "perhaps ": 1412,
      "world": 1413,
      "ruin": 1414,
      "get": 1415,
      "rest": 1416,
      "alone ": 1417,
      "ick ": 1418,
      "spok": 1419,
      "possible ": 1420,
      "shadow": 1421,
      "say": 1422,
      "uli": 1423,
      "t and ": 1424,
      ". C": 1425,
      "resp": 1426,
      "remem": 1427,
      "es. \n": 1428,
      "sim": 1429,
      "who had ": 1430,
      "must have ": 1431,
      "whole ": 1432,
      "famili": 1433,
      "mbl": 1434,
      "nor ": 1435,
      "num": 1436,
      "new": 1437,
      "ering ": 1438,
      "arc": 1439,
      "ded": 1440,
      "from \n": 1441,
      "dro": 1442,
      "hu": 1443,
      "mis": 1444,
      "s. The ": 1445,
      "vill": 1446,
      "ing, and ": 1447,
      "on a ": 1448,
      "evid": 1449,
      "more than ": 1450,
      "eyes ": 1451,
      "glim": 1452,
      "time": 1453,
      "quite ": 1454,
      "Great ": 1455,
      "St": 1456,
      "low ": 1457,
      "y. \n": 1458,
      "inst": 1459,
      "ement ": 1460,
      "ular": 1461,
      "odd ": 1462,
      "look ": 1463,
      "hin": 1464,
      "jo": 1465,
      "in my ": 1466,
      "ici": 1467,
      "clear": 1468,
      "eff": 1469,
      "organ": 1470,
      "red": 1471,
      "sever": 1472,
      "ung": 1473,
      "frag": 1474,
      "we had ": 1475,
      "floor ": 1476,
      "eas": 1477,
      "dead ": 1478,
      "bul": 1479,
      "exist": 1480,
      "ative ": 1481,
      "scen": 1482,
      "ture ": 1483,
      "bly ": 1484,
      "fall": 1485,
      "mid": 1486,
      "— \n": 1487,
      "ome": 1488,
      ". We ": 1489,
      "cau": 1490,
      "lett ": 1491,
      "centur": 1492,
      "stair": 1493,
      "| saw ": 1494,
      "grew ": 1495,
      "there were ": 1496,
      "ign": 1497,
      "slop": 1498,
      "ship ": 1499,
      "nameless ": 1500,
      "remain": 1501,
      "differ": 1502,
      "respon": 1503,
      "pap": 1504,
      "y-": 1505,
      "and un": 1506,
      "ref": 1507,
      "happ": 1508,
      "adv": 1509,
      "s of a ": 1510,
      "ed to the ": 1511,
      "grav": 1512,
      "descri": 1513,
      "peculi": 1514,
      "glimp": 1515,
      "Mar": 1516,
      "ean ": 1517,
      "ator": 1518,
      "| have ": 1519,
      "right ": 1520,
      "appar": 1521,
      "trav": 1522,
      "centr": 1523,
      "brok": 1524,
      "because ": 1525,
      "queer ": 1526,
      "bid": 1527,
      "having ": 1528,
      "earth ": 1529,
      "ents ": 1530,
      "tru": 1531,
      "try ": 1532,
      "myself ": 1533,
      "full ": 1534,
      "sign": 1535,
      "Charles ": 1536,
      "sli": 1537,
      "ed in the ": 1538,
      "it is ": 1539,
      "word": 1540,
      "off": 1541,
      "must be ": 1542,
      "street": 1543,
      "frightful ": 1544,
      "Ak": 1545,
      "don": 1546,
      "ted": 1547,
      "vely ": 1548,
      "of that ": 1549,
      "least ": 1550,
      "actu": 1551,
      "life": 1552,
      "shri": 1553,
      "clos": 1554,
      "dog": 1555,
      "indeed ": 1556,
      "next ": 1557,
      "Ward ": 1558,
      "t of the ": 1559,
      "chur": 1560,
      "when he ": 1561,
      "nei": 1562,
      "augh": 1563,
      "deli": 1564,
      "however, ": 1565,
      "second ": 1566,
      "antiqu": 1567,
      "ae": 1568,
      "aver": 1569,
      "dur": 1570,
      "fter ": 1571,
      "said": 1572,
      "tor ": 1573,
      "ward": 1574,
      "whe": 1575,
      "shar": 1576,
      "ph ": 1577,
      "grot": 1578,
      "Gil": 1579,
      "e’s ": 1580,
      "narr": 1581,
      "vol": 1582,
      "omin": 1583,
      "appro": 1584,
      "so that ": 1585,
      "circ": 1586,
      "ma": 1587,
      "tal ": 1588,
      "zz": 1589,
      "esqu": 1590,
      "ity, ": 1591,
      "ically ": 1592,
      "amid": 1593,
      "conce": 1594,
      "imp": 1595,
      "bodi": 1596,
      "toge": 1597,
      "sleep": 1598,
      "found": 1599,
      "save ": 1600,
      "tou": 1601,
      "wind ": 1602,
      "incl": 1603,
      "anim": 1604,
      "stop": 1605,
      "ird ": 1606,
      "grey ": 1607,
      "prob": 1608,
      "peak": 1609,
      "watch": 1610,
      "life ": 1611,
      "0 ": 1612,
      "none ": 1613,
      "ran": 1614,
      "ed his ": 1615,
      "arm": 1616,
      "sul": 1617,
      "my \n": 1618,
      "mark": 1619,
      ". For ": 1620,
      "iv": 1621,
      "town ": 1622,
      "stand": 1623,
      "bet": 1624,
      "shall ": 1625,
      "suc": 1626,
      "evil ": 1627,
      "from a ": 1628,
      "every": 1629,
      "continu": 1630,
      "And ": 1631,
      "En": 1632,
      "usu": 1633,
      "on, ": 1634,
      "which \n": 1635,
      "were \n": 1636,
      "grap": 1637,
      "ellow": 1638,
      "fig": 1639,
      "desc": 1640,
      ". Of ": 1641,
      "water": 1642,
      ". My ": 1643,
      "rather ": 1644,
      "aut": 1645,
      "betw": 1646,
      "amp": 1647,
      "fron": 1648,
      "consci": 1649,
      "e of \n": 1650,
      "often ": 1651,
      "studi": 1652,
      "betwe": 1653,
      "b ": 1654,
      "e; ": 1655,
      "hy": 1656,
      "mag": 1657,
      ". Y": 1658,
      "reli": 1659,
      "ately ": 1660,
      "scr": 1661,
      "turn ": 1662,
      "myster": 1663,
      "fear ": 1664,
      "-like ": 1665,
      "bes": 1666,
      "du": 1667,
      "n’t ": 1668,
      "per ": 1669,
      "tun": 1670,
      "take ": 1671,
      "vic": 1672,
      "ed me ": 1673,
      "en \n": 1674,
      "whil": 1675,
      "white ": 1676,
      "spr": 1677,
      "cond": 1678,
      "occas": 1679,
      ". A ": 1680,
      ". At ": 1681,
      "scream": 1682,
      "cell": 1683,
      "ek": 1684,
      "h ": 1685,
      "kept ": 1686,
      "mod": 1687,
      "pain": 1688,
      "tic ": 1689,
      "al, ": 1690,
      "haun": 1691,
      "accoun": 1692,
      "had not ": 1693,
      "ise ": 1694,
      "when | ": 1695,
      "window ": 1696,
      "good ": 1697,
      "re ": 1698,
      "stood ": 1699,
      "itu": 1700,
      "moon ": 1701,
      "work ": 1702,
      ". When ": 1703,
      "horrible ": 1704,
      "distant ": 1705,
      "believ": 1706,
      "legend": 1707,
      "visit": 1708,
      "cloud": 1709,
      "several ": 1710,
      "fas": 1711,
      "few ": 1712,
      "mit": 1713,
      "temp": 1714,
      "em ": 1715,
      "dep": 1716,
      "grow": 1717,
      "able to ": 1718,
      "prim": 1719,
      "near the ": 1720,
      "ould": 1721,
      "beyond the ": 1722,
      "larg": 1723,
      "ak ": 1724,
      "fec": 1725,
      "t to ": 1726,
      "sec": 1727,
      "where": 1728,
      "all \n": 1729,
      "upon the ": 1730,
      "work": 1731,
      "like the ": 1732,
      "recog": 1733,
      ". What ": 1734,
      "floor": 1735,
      "anything ": 1736,
      "tell": 1737,
      "’d ": 1738,
      ", a ": 1739,
      "ghoul": 1740,
      "trad": 1741,
      "they had ": 1742,
      "flash": 1743,
      "antic ": 1744,
      "before the ": 1745,
      "kind of ": 1746,
      "question": 1747,
      "bour": 1748,
      "cover": 1749,
      "lor": 1750,
      "pa": 1751,
      "ern ": 1752,
      "chan": 1753,
      "roof": 1754,
      "ir \n": 1755,
      "forth ": 1756,
      "away": 1757,
      "ed the \n": 1758,
      "ations ": 1759,
      "sinist": 1760,
      "kind": 1761,
      "your ": 1762,
      "—a ": 1763,
      ", though ": 1764,
      "ons ": 1765,
      "they \n": 1766,
      "cros": 1767,
      "sudden": 1768,
      "cold ": 1769,
      "sent ": 1770,
      "would have ": 1771,
      "bott": 1772,
      "farm": 1773,
      "grotesqu": 1774,
      "; the ": 1775,
      "An": 1776,
      "eful ": 1777,
      "tom": 1778,
      "eri": 1779,
      "ing a ": 1780,
      "histor": 1781,
      "death ": 1782,
      "which he ": 1783,
      "for \n": 1784,
      "finit": 1785,
      "specim": 1786,
      "against ": 1787,
      "ek ": 1788,
      "hun": 1789,
      "at a ": 1790,
      "in this ": 1791,
      "ur ": 1792,
      "expres": 1793,
      "ance": 1794,
      "matter ": 1795,
      "He ": 1796,
      "ban": 1797,
      "if": 1798,
      "ed it ": 1799,
      "es were ": 1800,
      "ext": 1801,
      "ulp": 1802,
      "morning ": 1803,
      "phys": 1804,
      "present ": 1805,
      "ude ": 1806,
      "keep ": 1807,
      "ength ": 1808,
      "Curwen ": 1809,
      "ide": 1810,
      "ially ": 1811,
      "lur": 1812,
      ", or ": 1813,
      "espec": 1814,
      "wild ": 1815,
      "le of ": 1816,
      "connec": 1817,
      "one of the ": 1818,
      "could be ": 1819,
      "draw": 1820,
      "looking ": 1821,
      "Pro": 1822,
      "she ": 1823,
      "town": 1824,
      "vell": 1825,
      "un ": 1826,
      "should ": 1827,
      "space ": 1828,
      "plain": 1829,
      "cryp": 1830,
      "ail ": 1831,
      "frequ": 1832,
      "writ": 1833,
      "large ": 1834,
      "17": 1835,
      "bon": 1836,
      "put ": 1837,
      "s; and ": 1838,
      "var": 1839,
      "yl": 1840,
      "th, ": 1841,
      "bear": 1842,
      "open": 1843,
      "odd": 1844,
      "Inn": 1845,
      "down the ": 1846,
      "eley ": 1847,
      "than the ": 1848,
      "remember": 1849,
      "better ": 1850,
      "cos": 1851,
      "ality ": 1852,
      "escap": 1853,
      "elep": 1854,
      "ters ": 1855,
      "nerv": 1856,
      "Street ": 1857,
      "pleas": 1858,
      "18": 1859,
      "Br": 1860,
      "val": 1861,
      "shoc": 1862,
      "ages ": 1863,
      "tern": 1864,
      "one of ": 1865,
      "ous \n": 1866,
      "s and the ": 1867,
      "visible ": 1868,
      "below": 1869,
      "above the ": 1870,
      "taken ": 1871,
      "book": 1872,
      "recogn": 1873,
      "hand ": 1874,
      "ou ": 1875,
      "shud": 1876,
      "not \n": 1877,
      "out of the ": 1878,
      "medi": 1879,
      "aul": 1880,
      "bal": 1881,
      "van": 1882,
      "sea ": 1883,
      "sight": 1884,
      "one \n": 1885,
      "sculp": 1886,
      ". Wil": 1887,
      "give ": 1888,
      "knowled": 1889,
      "family ": 1890,
      "excit": 1891,
      "vague ": 1892,
      "Innsm": 1893,
      "mal": 1894,
      "mess": 1895,
      "rest ": 1896,
      "libr": 1897,
      "dest": 1898,
      "black": 1899,
      "possi": 1900,
      "such a ": 1901,
      "complet": 1902,
      "dden ": 1903,
      "192": 1904,
      "hom": 1905,
      "rum": 1906,
      "rose ": 1907,
      "vent": 1908,
      "valle": 1909,
      "deep ": 1910,
      "their \n": 1911,
      "some \n": 1912,
      "ed to \n": 1913,
      "occur": 1914,
      ". The \n": 1915,
      "finally ": 1916,
      "night-": 1917,
      "normal ": 1918,
      "Al": 1919,
      "fant": 1920,
      "mus": 1921,
      "mad ": 1922,
      "pen": 1923,
      "rac": 1924,
      "hill ": 1925,
      "at once ": 1926,
      "ly and ": 1927,
      "wif": 1928,
      "ement": 1929,
      "shel": 1930,
      "experi": 1931,
      "prepar": 1932,
      "vision": 1933,
      "under the ": 1934,
      "father ": 1935,
      "vagu": 1936,
      "Street": 1937,
      "occasion": 1938,
      "cal": 1939,
      "hol": 1940,
      "od ": 1941,
      "er of ": 1942,
      "esc": 1943,
      "eld": 1944,
      "living ": 1945,
      "uni": 1946,
      "forc": 1947,
      "enter": 1948,
      "super": 1949,
      "which | ": 1950,
      "ation of ": 1951,
      "discover": 1952,
      "course ": 1953,
      "Rom": 1954,
      "mil": 1955,
      "ens ": 1956,
      "ed on ": 1957,
      "ches ": 1958,
      "eley": 1959,
      "search": 1960,
      "concer": 1961,
      "saw the ": 1962,
      "nearly ": 1963,
      "into a ": 1964,
      "got ": 1965,
      "Gilman ": 1966,
      "What": 1967,
      "sou": 1968,
      "orig": 1969,
      "really ": 1970,
      "accur": 1971,
      "why ": 1972,
      "road": 1973,
      "spir": 1974,
      "grand": 1975,
      "oci": 1976,
      "survi": 1977,
      "ship": 1978,
      "greater ": 1979,
      "general ": 1980,
      "got": 1981,
      "me, ": 1982,
      "sour": 1983,
      "es—": 1984,
      "had a ": 1985,
      "add": 1986,
      "even the ": 1987,
      "ceed": 1988,
      "north ": 1989,
      "mention": 1990,
      "across the ": 1991,
      "together ": 1992,
      "fle": 1993,
      "hard": 1994,
      "ied ": 1995,
      "lan": 1996,
      "pul": 1997,
      "wit": 1998,
      "thor": 1999,
      "ers": 2000,
      "habit": 2001,
      "as it ": 2002,
      "lid ": 2003,
      "noc": 2004,
      "out the ": 2005,
      "by a ": 2006,
      "kness ": 2007,
      "recall": 2008,
      "desp": 2009,
      "merely ": 2010,
      "sym": 2011,
      "explor": 2012,
      "Bo": 2013,
      "row": 2014,
      "sail": 2015,
      "vaul": 2016,
      ", which ": 2017,
      "arri": 2018,
      ". After ": 2019,
      "creature": 2020,
      "present": 2021,
      "certain": 2022,
      "cannot ": 2023,
      "whilst ": 2024,
      "done ": 2025,
      "fess": 2026,
      "lost ": 2027,
      "oth": 2028,
      "pas": 2029,
      "rat": 2030,
      "tem": 2031,
      "or the ": 2032,
      "also ": 2033,
      "sea": 2034,
      "lish": 2035,
      "whom ": 2036,
      "use ": 2037,
      "s, the ": 2038,
      "blas": 2039,
      "to the \n": 2040,
      ". All ": 2041,
      "nific": 2042,
      "part": 2043,
      "probably ": 2044,
      ") \n": 2045,
      "ight": 2046,
      "ry": 2047,
      "s or ": 2048,
      "s on the ": 2049,
      "ing-": 2050,
      "repe": 2051,
      "reve": 2052,
      "to his ": 2053,
      "early ": 2054,
      "awak": 2055,
      "somew": 2056,
      "allow": 2057,
      "gran": 2058,
      "ground": 2059,
      "It was ": 2060,
      "ach ": 2061,
      "gul": 2062,
      "gold": 2063,
      "o’ ": 2064,
      "ping ": 2065,
      "inn": 2066,
      "repor": 2067,
      "elec": 2068,
      "sely ": 2069,
      "sider": 2070,
      "were the ": 2071,
      "ted \n": 2072,
      "point": 2073,
      "youth ": 2074,
      "There ": 2075,
      "tried to ": 2076,
      "voice ": 2077,
      "around the ": 2078,
      "effec": 2079,
      "sinister ": 2080,
      "especially ": 2081,
      "West ": 2082,
      "cast": 2083,
      "s as ": 2084,
      "s with ": 2085,
      "ink": 2086,
      "arti": 2087,
      "ic \n": 2088,
      "up the ": 2089,
      "me to ": 2090,
      "angu": 2091,
      "themsel": 2092,
      "five ": 2093,
      "itive ": 2094,
      ". It is ": 2095,
      "ence of ": 2096,
      "friend": 2097,
      "friend ": 2098,
      "ished ": 2099,
      "moment": 2100,
      "fragment": 2101,
      "besid": 2102,
      "suddenly ": 2103,
      "fantast": 2104,
      "hon": 2105,
      "los": 2106,
      "laugh": 2107,
      "rang": 2108,
      "t, and ": 2109,
      "wall ": 2110,
      "that": 2111,
      "it, ": 2112,
      "sett": 2113,
      "among ": 2114,
      "tered ": 2115,
      "with its ": 2116,
      "used ": 2117,
      "e and \n": 2118,
      "near ": 2119,
      "disappear": 2120,
      "Ones ": 2121,
      "natural ": 2122,
      "rock ": 2123,
      "gard": 2124,
      "on-": 2125,
      "wish": 2126,
      "wise ": 2127,
      "spi": 2128,
      "supp": 2129,
      "given ": 2130,
      "compan": 2131,
      "brid": 2132,
      "wonder ": 2133,
      "velop": 2134,
      "neigh": 2135,
      "said, ": 2136,
      "various ": 2137,
      "somewhat ": 2138,
      "city": 2139,
      "saf": 2140,
      "hidden ": 2141,
      "age": 2142,
      "all, ": 2143,
      "ellow ": 2144,
      "viol": 2145,
      "visi": 2146,
      "recei": 2147,
      "ending ": 2148,
      "prin": 2149,
      "might be ": 2150,
      "stret": 2151,
      "case ": 2152,
      "bene": 2153,
      "disturb": 2154,
      "cosm": 2155,
      "As ": 2156,
      "God": 2157,
      "eve ": 2158,
      "galle": 2159,
      "last": 2160,
      "alt": 2161,
      "beings ": 2162,
      "osph": 2163,
      "agg": 2164,
      "suff": 2165,
      "our \n": 2166,
      "green ": 2167,
      "estig": 2168,
      "man’s ": 2169,
      "fish": 2170,
      "only a ": 2171,
      "feel": 2172,
      "against the ": 2173,
      "since the ": 2174,
      "Jose": 2175,
      "learned ": 2176,
      "labor": 2177,
      "peculiar ": 2178,
      "narrow ": 2179,
      "ron": 2180,
      "table ": 2181,
      "ery ": 2182,
      "ed him ": 2183,
      ". R": 2184,
      "real ": 2185,
      "ing that ": 2186,
      "at last ": 2187,
      "itself ": 2188,
      "leav": 2189,
      "wish ": 2190,
      "on that ": 2191,
      "siz": 2192,
      "forgot": 2193,
      "trou": 2194,
      "blac": 2195,
      "block": 2196,
      "ayed ": 2197,
      "grad": 2198,
      "most": 2199,
      "antly ": 2200,
      "s, and the ": 2201,
      "obsc": 2202,
      "final ": 2203,
      "poss": 2204,
      "ly, and ": 2205,
      "too, ": 2206,
      "wondered ": 2207,
      "either ": 2208,
      "common ": 2209,
      "after the ": 2210,
      "scienti": 2211,
      "umbling ": 2212,
      "spee": 2213,
      "daemon": 2214,
      "ies of ": 2215,
      "ke ": 2216,
      "pt ": 2217,
      "what": 2218,
      "s are ": 2219,
      "answ": 2220,
      "ing in ": 2221,
      "bed": 2222,
      "among the ": 2223,
      "she": 2224,
      "its \n": 2225,
      "marvell": 2226,
      "Willett ": 2227,
      "gaun": 2228,
      "point ": 2229,
      ". In the ": 2230,
      "Arkham ": 2231,
      "different ": 2232,
      "reflec": 2233,
      "Bl": 2234,
      "Mis": 2235,
      "bol": 2236,
      "lum": 2237,
      "mak": 2238,
      "typ": 2239,
      "—but ": 2240,
      "ed from ": 2241,
      "stri": 2242,
      "ing of the ": 2243,
      "as they ": 2244,
      "ch, ": 2245,
      "ses of ": 2246,
      "sembl": 2247,
      "he could ": 2248,
      "wil": 2249,
      "death": 2250,
      "road ": 2251,
      "termin": 2252,
      "conv": 2253,
      "craw": 2254,
      "record": 2255,
      "phem": 2256,
      "arded ": 2257,
      ". He had ": 2258,
      "look": 2259,
      "chil": 2260,
      "clear ": 2261,
      "decid": 2262,
      "rock": 2263,
      "finitely ": 2264,
      "Am": 2265,
      "Ed": 2266,
      "best ": 2267,
      "gri": 2268,
      "ram": 2269,
      "thro": 2270,
      "ous, ": 2271,
      "of this ": 2272,
      "live ": 2273,
      "will": 2274,
      "noon ": 2275,
      "dead": 2276,
      "forbid": 2277,
      "quar": 2278,
      "old \n": 2279,
      "what | ": 2280,
      "before": 2281,
      "folk ": 2282,
      "earth’s ": 2283,
      "others ": 2284,
      "Cap": 2285,
      "I ": 2286,
      "New ": 2287,
      "by": 2288,
      "fill": 2289,
      "hur": 2290,
      "sav": 2291,
      "ually ": 2292,
      "y to ": 2293,
      "y of the ": 2294,
      "one": 2295,
      "ord ": 2296,
      "at least ": 2297,
      "leave ": 2298,
      "flam": 2299,
      "outside ": 2300,
      "like a ": 2301,
      "seemed to be ": 2302,
      "fresh ": 2303,
      "signific": 2304,
      "... ": 2305,
      "heavy ": 2306,
      "was, ": 2307,
      "wait": 2308,
      "familiar ": 2309,
      "conscious": 2310,
      "electr": 2311,
      "beneath": 2312,
      "Fr": 2313,
      "cop": 2314,
      "four ": 2315,
      "west": 2316,
      "omed ": 2317,
      "ess, ": 2318,
      "was very ": 2319,
      "develop": 2320,
      "clu": 2321,
      "preci": 2322,
      "grou": 2323,
      "gras": 2324,
      "ted the ": 2325,
      "flu": 2326,
      "would \n": 2327,
      "would not ": 2328,
      "after a ": 2329,
      "colle": 2330,
      "sort of ": 2331,
      "singular ": 2332,
      "picture": 2333,
      "believe ": 2334,
      "increas": 2335,
      "Dan": 2336,
      "That ": 2337,
      "ahead ": 2338,
      "fo": 2339,
      "home ": 2340,
      "law": 2341,
      "mir": 2342,
      "ple ": 2343,
      "round ": 2344,
      "we \n": 2345,
      "ths ": 2346,
      "ere, ": 2347,
      "ed of ": 2348,
      "ors ": 2349,
      "resul": 2350,
      "sed, ": 2351,
      "le, ": 2352,
      "that they ": 2353,
      "aspec": 2354,
      "it had ": 2355,
      "with his ": 2356,
      "consider": 2357,
      "claw": 2358,
      "might": 2359,
      "ants ": 2360,
      "fire": 2361,
      "only the ": 2362,
      "ign ": 2363,
      "attemp": 2364,
      ". There was ": 2365,
      ". There were ": 2366,
      "terror ": 2367,
      "father": 2368,
      "a few ": 2369,
      "Arkham": 2370,
      "between ": 2371,
      "blasphem": 2372,
      "laborator": 2373,
      "bir": 2374,
      "cy": 2375,
      "duc": 2376,
      "fab": 2377,
      "iac": 2378,
      "lap": 2379,
      "vel ": 2380,
      "wood ": 2381,
      "ed my ": 2382,
      "along the ": 2383,
      "become ": 2384,
      ". To ": 2385,
      "feature": 2386,
      "care": 2387,
      "pped ": 2388,
      "Then ": 2389,
      "necess": 2390,
      "mistak": 2391,
      "enough to ": 2392,
      "Joseph ": 2393,
      "They ": 2394,
      "call ": 2395,
      "ean": 2396,
      "k, ": 2397,
      "sn": 2398,
      "tical ": 2399,
      "yr": 2400,
      "hic": 2401,
      "ate": 2402,
      "act ": 2403,
      "river ": 2404,
      "dev": 2405,
      "ago": 2406,
      "exam": 2407,
      "exper": 2408,
      "by \n": 2409,
      "so \n": 2410,
      "party ": 2411,
      "ute ": 2412,
      "obvi": 2413,
      "ceas": 2414,
      "ed by a ": 2415,
      "carven ": 2416,
      "slow": 2417,
      "prom": 2418,
      "eak ": 2419,
      "ences ": 2420,
      "help ": 2421,
      "place": 2422,
      "keep": 2423,
      "wonder": 2424,
      "detail": 2425,
      "reveal": 2426,
      "neighbour": 2427,
      "Ward": 2428,
      "citi": 2429,
      "ez": 2430,
      "ight ": 2431,
      "ling": 2432,
      "length ": 2433,
      "use": 2434,
      "archa": 2435,
      "leap": 2436,
      "elled ": 2437,
      "trem": 2438,
      "letter": 2439,
      "steep": 2440,
      "silent ": 2441,
      "summ": 2442,
      "twilight ": 2443,
      "foot": 2444,
      "expect": 2445,
      "evidently ": 2446,
      "origin": 2447,
      "In ": 2448,
      "fanc": 2449,
      "run": 2450,
      "thick": 2451,
      "ers of ": 2452,
      "onic ": 2453,
      "esome ": 2454,
      "ching ": 2455,
      "in their ": 2456,
      "older ": 2457,
      "terri": 2458,
      "evening ": 2459,
      "upper ": 2460,
      "ock ": 2461,
      "mix": 2462,
      "dres": 2463,
      "dread": 2464,
      "poor ": 2465,
      "must have been ": 2466,
      "tion of ": 2467,
      "spectr": 2468,
      "intel": 2469,
      "matter": 2470,
      "curiously ": 2471,
      "doctor ": 2472,
      "whether ": 2473,
      "forbidd": 2474,
      ": \n": 2475,
      "pat": 2476,
      "sof": 2477,
      "s. | ": 2478,
      "sought ": 2479,
      "tec": 2480,
      "ers, ": 2481,
      "seiz": 2482,
      "wild": 2483,
      "an in": 2484,
      "noi": 2485,
      "spor": 2486,
      "no one ": 2487,
      "fif": 2488,
      "caver": 2489,
      "outlin": 2490,
      "surfac": 2491,
      "distinc": 2492,
      "arrang": 2493,
      "cord": 2494,
      "sky": 2495,
      "interest": 2496,
      "do not ": 2497,
      "piec": 2498,
      "change ": 2499,
      "attered ": 2500,
      "charac": 2501,
      "What ": 2502,
      "find": 2503,
      "fail": 2504,
      "ia ": 2505,
      "late ": 2506,
      "langu": 2507,
      "mach": 2508,
      "tang": 2509,
      "and a ": 2510,
      "ing. \n": 2511,
      "return": 2512,
      "return ": 2513,
      "right": 2514,
      "sure": 2515,
      "import": 2516,
      "view": 2517,
      "crow": 2518,
      "from the \n": 2519,
      "ended ": 2520,
      "letter ": 2521,
      "talked ": 2522,
      "corrid": 2523,
      "water ": 2524,
      ". No ": 2525,
      "approach": 2526,
      "fashi": 2527,
      "accursed ": 2528,
      "'ll ": 2529,
      "? \n": 2530,
      "dat": 2531,
      "fic ": 2532,
      "gaz": 2533,
      "thous": 2534,
      "ann": 2535,
      "ed up ": 2536,
      "and then ": 2537,
      "to see ": 2538,
      "eless": 2539,
      "in its ": 2540,
      "agre": 2541,
      "fore": 2542,
      "ent, ": 2543,
      "plat": 2544,
      "e of a ": 2545,
      ". If ": 2546,
      "this \n": 2547,
      "no \n": 2548,
      "offic": 2549,
      "ation, ": 2550,
      "ts of the ": 2551,
      "finite ": 2552,
      "need": 2553,
      "surpri": 2554,
      "talk ": 2555,
      "eath ": 2556,
      "Curwen": 2557,
      "publ": 2558,
      "incredi": 2559,
      "don’t ": 2560,
      "El": 2561,
      "Kad": 2562,
      "cav": 2563,
      "fut": 2564,
      "fanci": 2565,
      "gn": 2566,
      "rap": 2567,
      "rup": 2568,
      "one, ": 2569,
      ". G": 2570,
      "to have ": 2571,
      "en and ": 2572,
      "sea-": 2573,
      "agu": 2574,
      "sup": 2575,
      "ent \n": 2576,
      "preh": 2577,
      "on the \n": 2578,
      "utter ": 2579,
      ". Ward ": 2580,
      "horri": 2581,
      "tions ": 2582,
      "sure ": 2583,
      "human": 2584,
      "north": 2585,
      "places ": 2586,
      "shewed ": 2587,
      "well-": 2588,
      "ological ": 2589,
      "join": 2590,
      "Pick": 2591,
      "ahum": 2592,
      "bid ": 2593,
      "hour ": 2594,
      "past": 2595,
      "ty": 2596,
      "wast": 2597,
      "ony": 2598,
      "ory ": 2599,
      "ing his ": 2600,
      "es; ": 2601,
      "lig": 2602,
      "ade ": 2603,
      "suspec": 2604,
      "quir": 2605,
      "scri": 2606,
      "ident": 2607,
      "perfec": 2608,
      "previ": 2609,
      "partic": 2610,
      "ity of ": 2611,
      "seem ": 2612,
      "drew ": 2613,
      ". These ": 2614,
      "fee": 2615,
      "himself": 2616,
      ". He was ": 2617,
      "carri": 2618,
      ". Some": 2619,
      "colour": 2620,
      "days ": 2621,
      "houses ": 2622,
      "while the ": 2623,
      "pursu": 2624,
      "doubt": 2625,
      "speak": 2626,
      "faint ": 2627,
      "includ": 2628,
      "So ": 2629,
      "hold ": 2630,
      "ith ": 2631,
      "table": 2632,
      "wand": 2633,
      "enz": 2634,
      "ench ": 2635,
      "oned ": 2636,
      "arch ": 2637,
      "als ": 2638,
      ", and he ": 2639,
      "icul": 2640,
      "on his ": 2641,
      "ris": 2642,
      "tiv": 2643,
      "scarc": 2644,
      "ances ": 2645,
      "camp": 2646,
      "through": 2647,
      "carv": 2648,
      "ney ": 2649,
      "dreams ": 2650,
      "cham": 2651,
      "farther ": 2652,
      "In the ": 2653,
      "gather": 2654,
      "investig": 2655,
      "mason": 2656,
      "cosmic ": 2657,
      "scarcely ": 2658,
      "Jer": 2659,
      "bb": 2660,
      "ia": 2661,
      "ive ": 2662,
      "mur": 2663,
      "oy": 2664,
      "tro": 2665,
      "vac": 2666,
      "vir": 2667,
      "thing, ": 2668,
      "ero": 2669,
      "order ": 2670,
      "art": 2671,
      "ess and ": 2672,
      "did": 2673,
      "ed—": 2674,
      "const": 2675,
      "ained ": 2676,
      "um ": 2677,
      "heir ": 2678,
      "immedi": 2679,
      "despit": 2680,
      "distance ": 2681,
      "hellish ": 2682,
      "born ": 2683,
      "mountain ": 2684,
      "ness and ": 2685,
      "single ": 2686,
      "reason ": 2687,
      "happen": 2688,
      "usual ": 2689,
      "Ammi": 2690,
      "Le": 2691,
      "Nor": 2692,
      "cu": 2693,
      "cot": 2694,
      "dw": 2695,
      "fell ": 2696,
      "rav": 2697,
      "y the ": 2698,
      "ed at ": 2699,
      "along ": 2700,
      "as we ": 2701,
      "ess of ": 2702,
      "frantic ": 2703,
      "tra": 2704,
      "strong": 2705,
      "known": 2706,
      "prec": 2707,
      "view ": 2708,
      "like": 2709,
      "feet": 2710,
      "preser": 2711,
      "outsid": 2712,
      "hear ": 2713,
      "came to ": 2714,
      "colum": 2715,
      "encoun": 2716,
      "veget": 2717,
      "rust": 2718,
      "subst": 2719,
      "except ": 2720,
      "whisper": 2721,
      "region": 2722,
      "villag": 2723,
      "night-gaun": 2724,
      "Cy": 2725,
      "aout ": 2726,
      "equ": 2727,
      "round": 2728,
      "sent": 2729,
      "slight": 2730,
      "tin": 2731,
      "wri": 2732,
      "though the ": 2733,
      "ed for ": 2734,
      "among": 2735,
      "und": 2736,
      "unti": 2737,
      "about": 2738,
      "shin": 2739,
      "shun": 2740,
      "scious ": 2741,
      "me \n": 2742,
      "gres": 2743,
      "odour ": 2744,
      "produc": 2745,
      "mov": 2746,
      "part ": 2747,
      "some of the ": 2748,
      "feel ": 2749,
      "saw that ": 2750,
      "folk": 2751,
      "lower ": 2752,
      "secret ": 2753,
      "ready ": 2754,
      "cep": 2755,
      "cut ": 2756,
      "daw": 2757,
      "ghast": 2758,
      "kat": 2759,
      "sch": 2760,
      "tex": 2761,
      "vap": 2762,
      "wom": 2763,
      "s to the ": 2764,
      "inary ": 2765,
      "er’s ": 2766,
      ", who ": 2767,
      "a great ": 2768,
      "elder ": 2769,
      "force ": 2770,
      "conscious ": 2771,
      "coming ": 2772,
      "affl": 2773,
      "we were ": 2774,
      "there \n": 2775,
      "formed ": 2776,
      "limit": 2777,
      "sky ": 2778,
      "sion of ": 2779,
      "heard the ": 2780,
      "city of ": 2781,
      "afterward ": 2782,
      "queer": 2783,
      "umbled ": 2784,
      "Joh": 2785,
      "quiet": 2786,
      "sane ": 2787,
      "deserted ": 2788,
      "broken ": 2789,
      "amidst ": 2790,
      "conceiv": 2791,
      "everything ": 2792,
      "milli": 2793,
      "Sar": 2794,
      "West": 2795,
      "When ": 2796,
      "ax": 2797,
      "aim": 2798,
      "chim": 2799,
      "dom": 2800,
      "danc": 2801,
      "gar": 2802,
      "jud": 2803,
      "lou": 2804,
      "ped": 2805,
      "rit": 2806,
      "’ \n": 2807,
      "e was ": 2808,
      "thes": 2809,
      "t that ": 2810,
      "ers and ": 2811,
      "ed that the ": 2812,
      "oresc": 2813,
      "of cour": 2814,
      "resol": 2815,
      "to do ": 2816,
      "les of ": 2817,
      "he would ": 2818,
      "wide ": 2819,
      "had come ": 2820,
      "an un": 2821,
      "fore ": 2822,
      "ear ": 2823,
      "busin": 2824,
      "ook ": 2825,
      "morn": 2826,
      "flow": 2827,
      "fied ": 2828,
      "pot": 2829,
      "ll the ": 2830,
      "formul": 2831,
      "guid": 2832,
      "loath": 2833,
      "mental ": 2834,
      ". Fr": 2835,
      "called ": 2836,
      "trans": 2837,
      "climb": 2838,
      "actual ": 2839,
      "forgotten ": 2840,
      "Miskat": 2841,
      "00 ": 2842,
      "Lak": 2843,
      "bil": 2844,
      "gor": 2845,
      "gent": 2846,
      "hard ": 2847,
      "k the ": 2848,
      "lit": 2849,
      "ton": 2850,
      ", with ": 2851,
      "ghou": 2852,
      "liv": 2853,
      "ed; ": 2854,
      "plic": 2855,
      "aying ": 2856,
      "mechan": 2857,
      "phosph": 2858,
      "outside": 2859,
      "carved ": 2860,
      "ance of ": 2861,
      "myself": 2862,
      "inten": 2863,
      "syst": 2864,
      "utterly ": 2865,
      "beneath ": 2866,
      "air of ": 2867,
      "Akeley ": 2868,
      "primal ": 2869,
      "rumour": 2870,
      "themselves ": 2871,
      "At ": 2872,
      "cli": 2873,
      "gat": 2874,
      "lon": 2875,
      "ton ": 2876,
      "win": 2877,
      "wing": 2878,
      "xious ": 2879,
      "thi": 2880,
      ", that ": 2881,
      "to my ": 2882,
      "not to ": 2883,
      "uscri": 2884,
      "quest ": 2885,
      "could have ": 2886,
      "field": 2887,
      "glas": 2888,
      "any \n": 2889,
      "small": 2890,
      "trees ": 2891,
      "itten ": 2892,
      "atten": 2893,
      "below ": 2894,
      "passed ": 2895,
      "sense of ": 2896,
      "hours ": 2897,
      "lessly ": 2898,
      "church ": 2899,
      "succ": 2900,
      "figure": 2901,
      "Provid": 2902,
      "oddly ": 2903,
      "despite ": 2904,
      "fantastic ": 2905,
      "whatever ": 2906,
      "fil": 2907,
      "ney": 2908,
      "pill": 2909,
      "tac": 2910,
      "vit": 2911,
      "y—": 2912,
      "thir": 2913,
      ", as ": 2914,
      "stup": 2915,
      "hap": 2916,
      "it. \n": 2917,
      "| could not ": 2918,
      "lean": 2919,
      "osity ": 2920,
      "determin": 2921,
      "edly ": 2922,
      "ed. The ": 2923,
      "but": 2924,
      "spot ": 2925,
      "knew": 2926,
      "m of ": 2927,
      "grown ": 2928,
      "met ": 2929,
      "more \n": 2930,
      "e the \n": 2931,
      ". | \n": 2932,
      "glad ": 2933,
      "youth": 2934,
      "solid ": 2935,
      "mater": 2936,
      "indeed, ": 2937,
      ". One ": 2938,
      ". Once ": 2939,
      "doubt ": 2940,
      "detec": 2941,
      "displ": 2942,
      "listen": 2943,
      "uncle ": 2944,
      "Engl": 2945,
      "tomb": 2946,
      "shocking ": 2947,
      "Innsmouth ": 2948,
      "vaguely ": 2949,
      "experim": 2950,
      "prehen": 2951,
      "Jermy": 2952,
      "dwelt ": 2953,
      "phosphoresc": 2954,
      "Ab": 2955,
      "King": 2956,
      "Su": 2957,
      "Wh": 2958,
      "cast ": 2959,
      "echo": 2960,
      "mare ": 2961,
      "snow": 2962,
      "e in ": 2963,
      "thy ": 2964,
      "s a ": 2965,
      "ank": 2966,
      "eness ": 2967,
      "ed out ": 2968,
      "order": 2969,
      "of their ": 2970,
      "still": 2971,
      "er to ": 2972,
      "che": 2973,
      "| am ": 2974,
      "river": 2975,
      "oss": 2976,
      "abnorm": 2977,
      "ool ": 2978,
      "aper": 2979,
      "ultim": 2980,
      "conf": 2981,
      "convers": 2982,
      "some of ": 2983,
      "ed to be ": 2984,
      "from his ": 2985,
      "y, \n": 2986,
      "record ": 2987,
      "boy": 2988,
      "pho": 2989,
      "case": 2990,
      "nightmare ": 2991,
      "begun ": 2992,
      "subjec": 2993,
      "sych": 2994,
      "afternoon ": 2995,
      "object ": 2996,
      "behind the ": 2997,
      "apparently ": 2998,
      "actually ": 2999,
      "tunn": 3000,
      ") ": 3001,
      "Or": 3002,
      "dwell": 3003,
      "gas": 3004,
      "hold": 3005,
      "sed the ": 3006,
      "soul": 3007,
      "ts": 3008,
      "—or ": 3009,
      ", was ": 3010,
      "itself": 3011,
      "ask ": 3012,
      "dimen": 3013,
      "age, ": 3014,
      "; a ": 3015,
      "ed, but ": 3016,
      "s of that ": 3017,
      "is the ": 3018,
      "even": 3019,
      "try": 3020,
      "very \n": 3021,
      "design": 3022,
      "with the \n": 3023,
      "e, and the ": 3024,
      "found the ": 3025,
      "might have ": 3026,
      "interest ": 3027,
      "walked ": 3028,
      "respond": 3029,
      "travell": 3030,
      "grotesque ": 3031,
      "library ": 3032,
      "examin": 3033,
      "! \n": 3034,
      ",” ": 3035,
      "For ": 3036,
      "Paw": 3037,
      "biz": 3038,
      "ging ": 3039,
      "lad": 3040,
      "lath": 3041,
      "tent": 3042,
      "wan": 3043,
      "inning ": 3044,
      "inste": 3045,
      ", where ": 3046,
      "of them ": 3047,
      "a of ": 3048,
      "omic": 3049,
      "eld ": 3050,
      "| felt ": 3051,
      "he did not ": 3052,
      "lived ": 3053,
      "on my ": 3054,
      "whar": 3055,
      "aband": 3056,
      "spar": 3057,
      "speak ": 3058,
      "tering ": 3059,
      "quick": 3060,
      "for some ": 3061,
      "opened ": 3062,
      "moved ": 3063,
      "bru": 3064,
      "brick ": 3065,
      "highly ": 3066,
      "weird ": 3067,
      "merch": 3068,
      "street ": 3069,
      "radi": 3070,
      "brood": 3071,
      "further ": 3072,
      "explain": 3073,
      "book ": 3074,
      "shrie": 3075,
      "circum": 3076,
      "haunted ": 3077,
      "sculpture": 3078,
      "despite the ": 3079,
      "cliff": 3080,
      "I’": 3081,
      "My ": 3082,
      "Nahum": 3083,
      "Ul": 3084,
      "eed": 3085,
      "lof": 3086,
      "making ": 3087,
      "telep": 3088,
      "—that ": 3089,
      "outer ": 3090,
      "ings and ": 3091,
      "stal": 3092,
      "| knew ": 3093,
      "was now ": 3094,
      "level ": 3095,
      "es to ": 3096,
      "it of ": 3097,
      "ent of ": 3098,
      "opean ": 3099,
      "ed to a ": 3100,
      "morbid ": 3101,
      "motion": 3102,
      "brain": 3103,
      "able \n": 3104,
      "s, and \n": 3105,
      "dream ": 3106,
      "dream-": 3107,
      "tained ": 3108,
      "guess": 3109,
      "year ": 3110,
      "higher ": 3111,
      "bore ": 3112,
      "sleep ": 3113,
      "because of ": 3114,
      "longer ": 3115,
      "struck ": 3116,
      "puzz": 3117,
      "local ": 3118,
      "impression": 3119,
      "Eng": 3120,
      "graph": 3121,
      "shudder": 3122,
      ". Willett ": 3123,
      "soul ": 3124,
      "photo": 3125,
      "Asen": 3126,
      "ade": 3127,
      "fair": 3128,
      "rail": 3129,
      "sand": 3130,
      "wea": 3131,
      "s on ": 3132,
      "inform": 3133,
      "eral ": 3134,
      "revel": 3135,
      "to me": 3136,
      "in an ": 3137,
      "lit ": 3138,
      "beaut": 3139,
      "dim ": 3140,
      "age of ": 3141,
      "spl": 3142,
      "evol": 3143,
      "s, | ": 3144,
      "heal": 3145,
      "more": 3146,
      "this time ": 3147,
      "ad of ": 3148,
      "e and the ": 3149,
      "recall ": 3150,
      "endous ": 3151,
      "when they ": 3152,
      ". Wh": 3153,
      "desper": 3154,
      "post": 3155,
      "marble ": 3156,
      ". On ": 3157,
      "specul": 3158,
      "latter ": 3159,
      "ence, ": 3160,
      ". Now ": 3161,
      "steep ": 3162,
      "tux": 3163,
      "planet": 3164,
      "built ": 3165,
      "walk ": 3166,
      "polic": 3167,
      "steps ": 3168,
      "leading ": 3169,
      "familiar": 3170,
      "modern ": 3171,
      "connected ": 3172,
      "golden ": 3173,
      "beneath the ": 3174,
      "material ": 3175,
      "Pawtux": 3176,
      "Lake ": 3177,
      "This ": 3178,
      "ahead": 3179,
      "bers ": 3180,
      "een": 3181,
      "laid ": 3182,
      "mast": 3183,
      "rol": 3184,
      "smo": 3185,
      "t-": 3186,
      "test": 3187,
      "vast": 3188,
      "wro": 3189,
      "yar": 3190,
      "th the ": 3191,
      "third ": 3192,
      "s from ": 3193,
      "erc": 3194,
      "of those ": 3195,
      "at all": 3196,
      "else": 3197,
      ", and a ": 3198,
      "sequ": 3199,
      "seven ": 3200,
      "amp ": 3201,
      "ch of ": 3202,
      "decl": 3203,
      "agged ": 3204,
      "spread ": 3205,
      "with their ": 3206,
      "used to ": 3207,
      "ull ": 3208,
      "strain": 3209,
      "clut": 3210,
      "old man ": 3211,
      "mother ": 3212,
      "brain ": 3213,
      "there is ": 3214,
      "him to ": 3215,
      "horiz": 3216,
      "madness ": 3217,
      "strangely ": 3218,
      "attic ": 3219,
      ". So ": 3220,
      "priest": 3221,
      "tales ": 3222,
      "born": 3223,
      "direction": 3224,
      "region ": 3225,
      "number ": 3226,
      "clearly ": 3227,
      "volum": 3228,
      "amidst the ": 3229,
      "front ": 3230,
      "eley’s ": 3231,
      "scientific ": 3232,
      "carefully ": 3233,
      "forbidden ": 3234,
      "dimension": 3235,
      "Nec": 3236,
      "cou": 3237,
      "cup": 3238,
      "cand": 3239,
      "hang": 3240,
      "med": 3241,
      "pha": 3242,
      "t. \n": 3243,
      "ts, ": 3244,
      "ustr": 3245,
      "vari": 3246,
      "yellow": 3247,
      "yellow ": 3248,
      ", in ": 3249,
      ", yet ": 3250,
      ". U": 3251,
      "haz": 3252,
      "es. The ": 3253,
      "chem": 3254,
      "lies ": 3255,
      "beast": 3256,
      "aged ": 3257,
      "evil": 3258,
      "event": 3259,
      "blu": 3260,
      "ism": 3261,
      "grave ": 3262,
      "ations": 3263,
      "boy ": 3264,
      "tured ": 3265,
      ", but \n": 3266,
      "gig": 3267,
      "darkn": 3268,
      "burst ": 3269,
      "start": 3270,
      "told me ": 3271,
      "discus": 3272,
      "ature ": 3273,
      "commun": 3274,
      "invol": 3275,
      "damn": 3276,
      "condition": 3277,
      "prints ": 3278,
      "until ": 3279,
      "15": 3280,
      "Lat": 3281,
      "afr": 3282,
      "bi": 3283,
      "barr": 3284,
      "bber": 3285,
      "cin": 3286,
      "east": 3287,
      "fun": 3288,
      "fellow": 3289,
      "hall": 3290,
      "hall ": 3291,
      "paw": 3292,
      "ran ": 3293,
      "se of ": 3294,
      "y’s ": 3295,
      "e that ": 3296,
      "ined ": 3297,
      "insist": 3298,
      "enough": 3299,
      "ings of ": 3300,
      "resembl": 3301,
      "stir": 3302,
      "at the \n": 3303,
      "es, \n": 3304,
      "seas": 3305,
      "see the ": 3306,
      "he saw ": 3307,
      "ung ": 3308,
      "dim": 3309,
      "six ": 3310,
      "ter, ": 3311,
      "which he had ": 3312,
      "for his ": 3313,
      "awful ": 3314,
      "blood ": 3315,
      "scal": 3316,
      "green": 3317,
      "could \n": 3318,
      "proc": 3319,
      "proved ": 3320,
      "fled ": 3321,
      "part of the ": 3322,
      "cru": 3323,
      "when \n": 3324,
      "before, ": 3325,
      "heard": 3326,
      "prac": 3327,
      "pray": 3328,
      "time, ": 3329,
      "associ": 3330,
      "alien ": 3331,
      "frightened ": 3332,
      "passage ": 3333,
      "stones ": 3334,
      "whispered ": 3335,
      "huge ": 3336,
      "advanc": 3337,
      "peculiar": 3338,
      "during the ": 3339,
      "physici": 3340,
      "nervous ": 3341,
      "recognis": 3342,
      "gulf": 3343,
      "lumin": 3344,
      "Ammi ": 3345,
      "bizarr": 3346,
      "Ulth": 3347,
      "'s ": 3348,
      ".\n": 3349,
      "Dun": 3350,
      "New": 3351,
      "We ": 3352,
      "cro": 3353,
      "eh": 3354,
      "eag": 3355,
      "kin": 3356,
      "knoc": 3357,
      "pati": 3358,
      "pock": 3359,
      "psych": 3360,
      "ring ": 3361,
      "tend": 3362,
      "wav": 3363,
      "yaw": 3364,
      "thin ": 3365,
      "this": 3366,
      "s was ": 3367,
      "erous ": 3368,
      "ers \n": 3369,
      "ed not ": 3370,
      "stro": 3371,
      "ham": 3372,
      "ing my ": 3373,
      "ing to the ": 3374,
      "at his ": 3375,
      "itude ": 3376,
      ", and was ": 3377,
      "ic, ": 3378,
      "emer": 3379,
      "le \n": 3380,
      "whit": 3381,
      "; though ": 3382,
      "from my ": 3383,
      "prodi": 3384,
      "thern ": 3385,
      "what was ": 3386,
      "only \n": 3387,
      "print": 3388,
      "attle": 3389,
      "whose \n": 3390,
      "nightmar": 3391,
      "correspond": 3392,
      "folks ": 3393,
      "chao": 3394,
      "alive ": 3395,
      "deci": 3396,
      ". They were ": 3397,
      "sign ": 3398,
      "ness of ": 3399,
      "period": 3400,
      "difficul": 3401,
      "pointed ": 3402,
      "locked ": 3403,
      "twist": 3404,
      "spoke ": 3405,
      "village ": 3406,
      "cellar ": 3407,
      "growing ": 3408,
      "garden": 3409,
      "mighty ": 3410,
      "iac ": 3411,
      "machin": 3412,
      "circumst": 3413,
      "16": 3414,
      "bad ": 3415,
      "baffl": 3416,
      "could": 3417,
      "dust ": 3418,
      "ge of ": 3419,
      "pose ": 3420,
      "south": 3421,
      "ane": 3422,
      "and his ": 3423,
      "else ": 3424,
      "that we ": 3425,
      "asked ": 3426,
      "ed, \n": 3427,
      "ap ": 3428,
      "extre": 3429,
      "true ": 3430,
      "ist ": 3431,
      "profess": 3432,
      "part of ": 3433,
      "partly ": 3434,
      "what the ": 3435,
      ", but the ": 3436,
      "fever": 3437,
      "ignor": 3438,
      "myth": 3439,
      "collec": 3440,
      "shiver": 3441,
      "told him ": 3442,
      "can’t ": 3443,
      "walls ": 3444,
      "fallen ": 3445,
      "church": 3446,
      ". You ": 3447,
      "specimen": 3448,
      "source ": 3449,
      "hardly ": 3450,
      "ronomic": 3451,
      "childr": 3452,
      "Capt": 3453,
      "Cycl": 3454,
      "ultimate ": 3455,
      "Necronomic": 3456,
      "prodigi": 3457,
      "'t ": 3458,
      "Nyar": 3459,
      "Rand": 3460,
      "aé": 3461,
      "a, ": 3462,
      "gle": 3463,
      "gain ": 3464,
      "mutter": 3465,
      "mouth": 3466,
      "ns ": 3467,
      "ny ": 3468,
      "o’": 3469,
      "oli": 3470,
      "ts and ": 3471,
      "ual ": 3472,
      "waking ": 3473,
      "e from ": 3474,
      "d of ": 3475,
      "inner ": 3476,
      "ans ": 3477,
      "archi": 3478,
      "ingu": 3479,
      "ing—": 3480,
      "although ": 3481,
      "a very ": 3482,
      "at all ": 3483,
      "that it ": 3484,
      "asc": 3485,
      "quain": 3486,
      "plain ": 3487,
      "comb": 3488,
      "height": 3489,
      "ation. \n": 3490,
      "ations of ": 3491,
      "recent ": 3492,
      "; and the ": 3493,
      "glow": 3494,
      "ed by \n": 3495,
      "slab": 3496,
      "otic ": 3497,
      "eau": 3498,
      "torch ": 3499,
      "served ": 3500,
      "Indi": 3501,
      "squar": 3502,
      "explic": 3503,
      ". Only ": 3504,
      "period ": 3505,
      "sounds ": 3506,
      "young": 3507,
      "following ": 3508,
      "caught ": 3509,
      "descrip": 3510,
      "bird": 3511,
      "fabul": 3512,
      "lonely ": 3513,
      "Ol": 3514,
      "big": 3515,
      "e. The ": 3516,
      "etern": 3517,
      "four": 3518,
      "flight": 3519,
      "gain": 3520,
      "ken ": 3521,
      "kill": 3522,
      "mere ": 3523,
      "ratt": 3524,
      "rhy": 3525,
      "sac": 3526,
      "ted, ": 3527,
      "influ": 3528,
      "ert ": 3529,
      ", so ": 3530,
      "ed as ": 3531,
      "and | ": 3532,
      "arous": 3533,
      ". “": 3534,
      "rever": 3535,
      "represent": 3536,
      "stand ": 3537,
      "ing it ": 3538,
      "as well ": 3539,
      "seen": 3540,
      "that his ": 3541,
      "that he was ": 3542,
      "action": 3543,
      "accord": 3544,
      "th of ": 3545,
      "emo": 3546,
      "absol": 3547,
      "earli": 3548,
      "were not ": 3549,
      "scattered ": 3550,
      "ism ": 3551,
      "persist": 3552,
      "metal ": 3553,
      "avo": 3554,
      "prov": 3555,
      "vio": 3556,
      "antarc": 3557,
      "crumbling ": 3558,
      "what \n": 3559,
      "what he ": 3560,
      ". Then, ": 3561,
      "curr": 3562,
      "glo": 3563,
      "those \n": 3564,
      "twent": 3565,
      "marked ": 3566,
      "slant": 3567,
      "pros": 3568,
      "colon": 3569,
      "decad": 3570,
      "delic": 3571,
      "windows ": 3572,
      "sunset ": 3573,
      "reached the ": 3574,
      "effor": 3575,
      "Great R": 3576,
      "drawn ": 3577,
      "concern": 3578,
      "certainly ": 3579,
      "electric ": 3580,
      "fancy ": 3581,
      "spectral ": 3582,
      "outside the ": 3583,
      "lathot": 3584,
      "(192": 3585,
      "Ch": 3586,
      "Der": 3587,
      "Hill": 3588,
      "No": 3589,
      "Po": 3590,
      "bad": 3591,
      "band": 3592,
      "ian ": 3593,
      "oth ": 3594,
      "sick": 3595,
      "vain": 3596,
      "anal": 3597,
      ", “": 3598,
      ", when ": 3599,
      ", an’ ": 3600,
      "ed at the ": 3601,
      "ary": 3602,
      "of S": 3603,
      "relat": 3604,
      "restor": 3605,
      "atic ": 3606,
      "itable ": 3607,
      ", and had ": 3608,
      "separ": 3609,
      "search ": 3610,
      "that he had ": 3611,
      "ossi": 3612,
      "whence ": 3613,
      "shant": 3614,
      "shew ": 3615,
      "depar": 3616,
      "theor": 3617,
      "us, ": 3618,
      "comfor": 3619,
      "have \n": 3620,
      "odour": 3621,
      "worn ": 3622,
      "ance, ": 3623,
      "y, but ": 3624,
      ". | was ": 3625,
      "those who ": 3626,
      "prison": 3627,
      "corner ": 3628,
      "certain \n": 3629,
      "started ": 3630,
      "going ": 3631,
      "because of the ": 3632,
      "terrac": 3633,
      "shewn ": 3634,
      "memory ": 3635,
      "objects ": 3636,
      "ordinary ": 3637,
      "top ": 3638,
      "suggestion": 3639,
      "disturbed ": 3640,
      "power": 3641,
      "bottom ": 3642,
      "plateau": 3643,
      "public ": 3644,
      "virtu": 3645,
      "erogl": 3646,
      "Nyarlathot": 3647,
      "rhyth": 3648,
      "Ones": 3649,
      "ded ": 3650,
      "eter": 3651,
      "phi": 3652,
      "patter": 3653,
      "race ": 3654,
      "sy ": 3655,
      "s. And ": 3656,
      "val ": 3657,
      "west ": 3658,
      "hierogl": 3659,
      "to get ": 3660,
      "as to ": 3661,
      "| thought ": 3662,
      "level": 3663,
      "that this ": 3664,
      "beheld ": 3665,
      "unseen ": 3666,
      "uncan": 3667,
      "abb": 3668,
      "ded, ": 3669,
      "fortun": 3670,
      "ountain": 3671,
      "s, or ": 3672,
      "op ": 3673,
      "propor": 3674,
      "manuscri": 3675,
      "ancest": 3676,
      "likely ": 3677,
      "fix": 3678,
      "camp ": 3679,
      ". | had ": 3680,
      "ation of the ": 3681,
      "less \n": 3682,
      "former ": 3683,
      "uct": 3684,
      "tower ": 3685,
      "corp": 3686,
      "week ": 3687,
      "stead": 3688,
      "alien": 3689,
      "written ": 3690,
      "commenc": 3691,
      "terror": 3692,
      "realis": 3693,
      ". On the ": 3694,
      "world of ": 3695,
      "breath": 3696,
      "reached ": 3697,
      "Dr. A": 3698,
      "gods ": 3699,
      "police ": 3700,
      "regular": 3701,
      "servant": 3702,
      "fascin": 3703,
      "depth": 3704,
      "frequent ": 3705,
      "bearing ": 3706,
      "bridg": 3707,
      "obscure ": 3708,
      "archaic ": 3709,
      "incredible ": 3710,
      "onyx ": 3711,
      "of course, ": 3712,
      "Cyclopean ": 3713,
      "bow": 3714,
      "dang": 3715,
      "dom ": 3716,
      "edi": 3717,
      "fav": 3718,
      "jour": 3719,
      "just": 3720,
      "nit": 3721,
      "pav": 3722,
      "ren": 3723,
      "s’ ": 3724,
      "ution ": 3725,
      "thunder": 3726,
      "d \n": 3727,
      "and in": 3728,
      "ared ": 3729,
      "ing, \n": 3730,
      "stench ": 3731,
      "ing with ": 3732,
      "omen": 3733,
      "er than ": 3734,
      "es; and ": 3735,
      "that had ": 3736,
      "lip": 3737,
      "rise ": 3738,
      "died ": 3739,
      "six": 3740,
      "shock": 3741,
      "degre": 3742,
      "roof ": 3743,
      "susp": 3744,
      "exceed": 3745,
      "contr": 3746,
      "connex": 3747,
      "identi": 3748,
      "meas": 3749,
      "me. \n": 3750,
      "manag": 3751,
      "ally \n": 3752,
      "box": 3753,
      "ai ": 3754,
      "most of the ": 3755,
      "presence ": 3756,
      "tot": 3757,
      "trembl": 3758,
      "now and then ": 3759,
      "somehow ": 3760,
      "myst": 3761,
      "firm": 3762,
      "gust": 3763,
      "talk": 3764,
      "left the ": 3765,
      "country ": 3766,
      "Wilbur": 3767,
      "doctor": 3768,
      "physical ": 3769,
      "occasional ": 3770,
      "stretched ": 3771,
      "marvellous ": 3772,
      "college ": 3773,
      "laboratory ": 3774,
      "attention ": 3775,
      "Kingspor": 3776,
      "Pawtuxet ": 3777,
      "Con": 3778,
      "Hill ": 3779,
      "Li": 3780,
      "Man": 3781,
      "ase": 3782,
      "ial": 3783,
      "ior ": 3784,
      "ible ": 3785,
      "ky ": 3786,
      "nal ": 3787,
      "s. He ": 3788,
      "s. S": 3789,
      "—I ": 3790,
      "s for ": 3791,
      "already ": 3792,
      "secur": 3793,
      "ical": 3794,
      "that a ": 3795,
      "olph ": 3796,
      "es in ": 3797,
      "they": 3798,
      "track": 3799,
      "blaz": 3800,
      "compar": 3801,
      "from that ": 3802,
      "progres": 3803,
      "manner ": 3804,
      "within ": 3805,
      "est \n": 3806,
      "crown": 3807,
      "there was a ": 3808,
      "phant": 3809,
      "turning ": 3810,
      ". It \n": 3811,
      "udd": 3812,
      "eyed ": 3813,
      "fright ": 3814,
      "s of the \n": 3815,
      "aught ": 3816,
      "author": 3817,
      "wholesome ": 3818,
      "ity, and ": 3819,
      "ity. \n": 3820,
      "name ": 3821,
      "picture ": 3822,
      "cult ": 3823,
      "closely ": 3824,
      "sudden ": 3825,
      "Old Ones ": 3826,
      "getting ": 3827,
      "simil": 3828,
      "simple ": 3829,
      "instant ": 3830,
      "antique ": 3831,
      "Innsmouth": 3832,
      "destro": 3833,
      "blackn": 3834,
      "mostly ": 3835,
      "obviously ": 3836,
      "scrip": 3837,
      "cott": 3838,
      "slightly ": 3839,
      "Kur": 3840,
      "Ver": 3841,
      "dem": 3842,
      "dare ": 3843,
      "etr": 3844,
      "hint": 3845,
      "ies": 3846,
      "ived ": 3847,
      "lock": 3848,
      "non-": 3849,
      "pon": 3850,
      "swi": 3851,
      "s. A": 3852,
      "vor": 3853,
      "ve, ": 3854,
      "were, ": 3855,
      "then, ": 3856,
      "instr": 3857,
      "inhabit": 3858,
      "enomen": 3859,
      "ed on the ": 3860,
      "orm": 3861,
      "arg": 3862,
      "arily ": 3863,
      "artic": 3864,
      "remark": 3865,
      "altogether ": 3866,
      "as of ": 3867,
      "esom": 3868,
      "set": 3869,
      "seal": 3870,
      "| did not ": 3871,
      "was to ": 3872,
      "led, ": 3873,
      "that no ": 3874,
      "lie ": 3875,
      "wide": 3876,
      "bewil": 3877,
      "dism": 3878,
      "dizz": 3879,
      "abs": 3880,
      "adm": 3881,
      "which | had ": 3882,
      "exac": 3883,
      "quality ": 3884,
      "blast": 3885,
      "ident ": 3886,
      "me, and ": 3887,
      "nivers": 3888,
      "prove ": 3889,
      "mother": 3890,
      "cry": 3891,
      "what they ": 3892,
      "box ": 3893,
      "phenomen": 3894,
      "desol": 3895,
      "posed ": 3896,
      "guard": 3897,
      "light of ": 3898,
      "ve-": 3899,
      "materi": 3900,
      "subt": 3901,
      "comple": 3902,
      "great-": 3903,
      "land of ": 3904,
      "moon-": 3905,
      "regard": 3906,
      "impression ": 3907,
      "Mr. Ward ": 3908,
      "instinc": 3909,
      "organic ": 3910,
      "try to ": 3911,
      "ghouls ": 3912,
      "hundr": 3913,
      "pleasant ": 3914,
      "vanished ": 3915,
      "knowledge ": 3916,
      "univers": 3917,
      "superst": 3918,
      "speech ": 3919,
      "intellig": 3920,
      "character": 3921,
      "Pickman ": 3922,
      "preced": 3923,
      "Miskatonic ": 3924,
      "Jermyn ": 3925,
      ".” ": 3926,
      "Bar": 3927,
      "Cth": 3928,
      "Kl": 3929,
      "Of ": 3930,
      "Sal": 3931,
      "Univers": 3932,
      "car ": 3933,
      "cob": 3934,
      "fat": 3935,
      "gli": 3936,
      "hence ": 3937,
      "igh": 3938,
      "pet": 3939,
      "song": 3940,
      "s; but ": 3941,
      "south ": 3942,
      "ution": 3943,
      "ved to ": 3944,
      "wel": 3945,
      "then": 3946,
      "ink ": 3947,
      "art ": 3948,
      ". J": 3949,
      "of all ": 3950,
      "ings": 3951,
      "alt ": 3952,
      "had, ": 3953,
      "chance ": 3954,
      "| can ": 3955,
      "les and ": 3956,
      "he knew ": 3957,
      "that was ": 3958,
      "accomp": 3959,
      "unk": 3960,
      "dish ": 3961,
      "debri": 3962,
      "ag ": 3963,
      "frenz": 3964,
      "ulhu": 3965,
      "atives ": 3966,
      "ument": 3967,
      "ally, ": 3968,
      "height ": 3969,
      "clam": 3970,
      "clust": 3971,
      "meant ": 3972,
      "ellent ": 3973,
      "so much ": 3974,
      "indic": 3975,
      "endless ": 3976,
      "about \n": 3977,
      "glac": 3978,
      "him. \n": 3979,
      "him \n": 3980,
      "cases ": 3981,
      "where \n": 3982,
      "less than ": 3983,
      "for the \n": 3984,
      "buried ": 3985,
      "men of ": 3986,
      "menac": 3987,
      "void ": 3988,
      "could not be ": 3989,
      "will be ": 3990,
      "entire ": 3991,
      "books ": 3992,
      "shadow ": 3993,
      "short ": 3994,
      "titan ": 3995,
      "remote ": 3996,
      "scene ": 3997,
      "bodies ": 3998,
      "between the ": 3999,
      "largely ": 4000,
      "specimens ": 4001,
      "possible": 4002,
      "blackness ": 4003,
      "consciousness ": 4004,
      "Danforth ": 4005,
      "night-gaunts ": 4006,
      "system": 4007,
      "experiment": 4008,
      "gigantic ": 4009,
      "Randolph ": 4010,
      "Cthulhu": 4011,
      "aur": 4012,
      "daz": 4013,
      "eat": 4014,
      "fan": 4015,
      "fer ": 4016,
      "fit": 4017,
      "hes": 4018,
      "pop": 4019,
      "rough": 4020,
      "rout": 4021,
      "sat ": 4022,
      "slight ": 4023,
      "swe": 4024,
      "t’s ": 4025,
      "taver": 4026,
      "usion": 4027,
      "s at ": 4028,
      "ank ": 4029,
      ", since ": 4030,
      "of these ": 4031,
      "respec": 4032,
      "revol": 4033,
      "had": 4034,
      "ing in the ": 4035,
      "er had ": 4036,
      "ch-": 4037,
      "it, and ": 4038,
      ", and in ": 4039,
      "that of ": 4040,
      "that it was ": 4041,
      "unmistak": 4042,
      "shot ": 4043,
      "definite ": 4044,
      "rot": 4045,
      "frant": 4046,
      "iled ": 4047,
      "with an ": 4048,
      "ood, ": 4049,
      "is \n": 4050,
      "consist": 4051,
      "conclu": 4052,
      "trying ": 4053,
      "opening ": 4054,
      "blood": 4055,
      "ter of ": 4056,
      "meet": 4057,
      "thing was ": 4058,
      "there, ": 4059,
      "like \n": 4060,
      "ation, and ": 4061,
      ". With ": 4062,
      "ers were ": 4063,
      "up to ": 4064,
      "itting ": 4065,
      "surround": 4066,
      "think": 4067,
      "storm": 4068,
      "? H": 4069,
      "subterr": 4070,
      "ly. \n": 4071,
      "Arth": 4072,
      "country": 4073,
      "barri": 4074,
      "repul": 4075,
      ". Per": 4076,
      "choked ": 4077,
      "reason": 4078,
      "close to the ": 4079,
      "building ": 4080,
      "central ": 4081,
      "neither ": 4082,
      "rather than ": 4083,
      "cellar": 4084,
      "paus": 4085,
      "vanish": 4086,
      "message ": 4087,
      "daemoniac ": 4088,
      "Edward ": 4089,
      "feeble ": 4090,
      "didn’t ": 4091,
      "likewise ": 4092,
      "million ": 4093,
      "prodigious ": 4094,
      "!” \n": 4095,
      "00": 4096,
      "All ": 4097,
      "Cor": 4098,
      "Ge": 4099,
      "Man ": 4100,
      "Ngran": 4101,
      "Sir ": 4102,
      "Whi": 4103,
      "Weed": 4104,
      "bound": 4105,
      "ger": 4106,
      "iously ": 4107,
      "lone ": 4108,
      "mul": 4109,
      "main ": 4110,
      "mock": 4111,
      "pour": 4112,
      "se \n": 4113,
      "tall ": 4114,
      "vin": 4115,
      "yard": 4116,
      ", however, ": 4117,
      "ed an ": 4118,
      "res": 4119,
      "ession ": 4120,
      "chin": 4121,
      "eli": 4122,
      "lead ": 4123,
      "ice-": 4124,
      "ured ": 4125,
      "lished ": 4126,
      "rising ": 4127,
      "is a ": 4128,
      "which we ": 4129,
      "explan": 4130,
      "exped": 4131,
      "conjec": 4132,
      "play": 4133,
      "idly ": 4134,
      "more and ": 4135,
      "proper": 4136,
      "ety ": 4137,
      "move ": 4138,
      "moving ": 4139,
      "craz": 4140,
      "glow ": 4141,
      "glance ": 4142,
      "must": 4143,
      "later": 4144,
      "s were \n": 4145,
      "place, ": 4146,
      "trip ": 4147,
      "serve ": 4148,
      "meric": 4149,
      "brief ": 4150,
      "empty ": 4151,
      "discour": 4152,
      "furtive ": 4153,
      "walls and ": 4154,
      "break": 4155,
      "reluct": 4156,
      "quiet ": 4157,
      "learn": 4158,
      ". Lat": 4159,
      "imagination ": 4160,
      "study ": 4161,
      "hinted ": 4162,
      "sharp ": 4163,
      "expression ": 4164,
      "frequently ": 4165,
      "writing ": 4166,
      "valley ": 4167,
      "companion": 4168,
      "gradually ": 4169,
      "possess": 4170,
      "bygone ": 4171,
      "slowly ": 4172,
      "original ": 4173,
      "Kadath ": 4174,
      "shunned ": 4175,
      "vapour": 4176,
      ". From ": 4177,
      "wrote ": 4178,
      "., ": 4179,
      "12": 4180,
      "Americ": 4181,
      "You ": 4182,
      "cust": 4183,
      "e; and ": 4184,
      "fro": 4185,
      "fai": 4186,
      "host ": 4187,
      "lest ": 4188,
      "ogi": 4189,
      "ograp": 4190,
      "ply ": 4191,
      "path": 4192,
      "ting": 4193,
      "zoo": 4194,
      "thick ": 4195,
      "s from the ": 4196,
      "t was ": 4197,
      "ene ": 4198,
      "ston ": 4199,
      "to re": 4200,
      "to find ": 4201,
      "at that ": 4202,
      "ely, ": 4203,
      "| heard ": 4204,
      "wid": 4205,
      "beam": 4206,
      "bearded ": 4207,
      "oll": 4208,
      "assum": 4209,
      "th and ": 4210,
      "emon ": 4211,
      "shr": 4212,
      "k \n": 4213,
      "; yet ": 4214,
      "edg": 4215,
      ". Their ": 4216,
      "entr": 4217,
      "which was ": 4218,
      "ult": 4219,
      "contain": 4220,
      "qual": 4221,
      "aked ": 4222,
      "affec": 4223,
      "so far ": 4224,
      ". He \n": 4225,
      "aston": 4226,
      "ity \n": 4227,
      "ity and ": 4228,
      "what had ": 4229,
      ". Those ": 4230,
      "glass": 4231,
      "observ": 4232,
      "him, and ": 4233,
      "any of the ": 4234,
      "illing": 4235,
      "slav": 4236,
      ". Some ": 4237,
      "distingu": 4238,
      "pping ": 4239,
      "shif": 4240,
      "beyond": 4241,
      "line of ": 4242,
      "made me ": 4243,
      "child ": 4244,
      ". It was the ": 4245,
      "Ingan": 4246,
      "plane ": 4247,
      "ness, ": 4248,
      "off the ": 4249,
      "realm": 4250,
      "singular": 4251,
      "changed ": 4252,
      "teen ": 4253,
      "though \n": 4254,
      "walk": 4255,
      "uggl": 4256,
      "regular ": 4257,
      "desert ": 4258,
      "dispos": 4259,
      "there was no ": 4260,
      "dark, ": 4261,
      "easily ": 4262,
      "conceal": 4263,
      "touch": 4264,
      "touch ": 4265,
      "Roman ": 4266,
      "castle ": 4267,
      "artific": 4268,
      "blasphemous ": 4269,
      "Curwen’s ": 4270,
      "future ": 4271,
      "schol": 4272,
      "Suy": 4273,
      "begun to ": 4274,
      "bizarre ": 4275,
      "hesit": 4276,
      "-S": 4277,
      "Apri": 4278,
      "After ": 4279,
      "Other ": 4280,
      "Par": 4281,
      "TH": 4282,
      "adi": 4283,
      "bat": 4284,
      "bour ": 4285,
      "ck": 4286,
      "cab": 4287,
      "domin": 4288,
      "fast": 4289,
      "is, ": 4290,
      "kin ": 4291,
      "main": 4292,
      "mould": 4293,
      "tast": 4294,
      "yard ": 4295,
      "—for ": 4296,
      "e a ": 4297,
      "in’": 4298,
      ", had ": 4299,
      ", we ": 4300,
      "enorm": 4301,
      "ed down ": 4302,
      "are \n": 4303,
      "red, ": 4304,
      "resid": 4305,
      "sti": 4306,
      "to make ": 4307,
      "ate \n": 4308,
      "ated \n": 4309,
      "se-": 4310,
      "| would ": 4311,
      "| shall ": 4312,
      "es which ": 4313,
      "asm": 4314,
      "abnormal ": 4315,
      "whir": 4316,
      "age \n": 4317,
      "ed; and ": 4318,
      "which they ": 4319,
      "my own ": 4320,
      "clum": 4321,
      "claim": 4322,
      "perce": 4323,
      "ang ": 4324,
      "man, ": 4325,
      "miles ": 4326,
      "bring ": 4327,
      "board": 4328,
      "dread ": 4329,
      "who \n": 4330,
      "eye ": 4331,
      "man of ": 4332,
      "darkness ": 4333,
      "surface ": 4334,
      "position ": 4335,
      "princ": 4336,
      "had been a ": 4337,
      "guess ": 4338,
      "lights ": 4339,
      "night, ": 4340,
      "beginning ": 4341,
      "through a ": 4342,
      ". Not ": 4343,
      "Arab": 4344,
      "swept ": 4345,
      "here": 4346,
      "horrors ": 4347,
      "drove ": 4348,
      "century ": 4349,
      "Marten": 4350,
      "standing ": 4351,
      "descend": 4352,
      "account ": 4353,
      "covered ": 4354,
      "lore ": 4355,
      "Brown ": 4356,
      "Whateley ": 4357,
      "thorough": 4358,
      "nocturn": 4359,
      "sheer ": 4360,
      "New Engl": 4361,
      "yrin": 4362,
      "cavern": 4363,
      "thousand ": 4364,
      "column": 4365,
      "formula": 4366,
      "Lake’s ": 4367,
      "weather": 4368,
      "afraid ": 4369,
      "Dunwi": 4370,
      "antarctic ": 4371,
      "rhythm": 4372,
      "Kuran": 4373,
      "-looking ": 4374,
      "Celep": 4375,
      "Ex": 4376,
      "athe": 4377,
      "ain the ": 4378,
      "bound ": 4379,
      "care ": 4380,
      "eal": 4381,
      "lu": 4382,
      "lay": 4383,
      "nau": 4384,
      "row ": 4385,
      "ray": 4386,
      "infinitely ": 4387,
      "err": 4388,
      "erable ": 4389,
      "y was ": 4390,
      "and its ": 4391,
      "of its ": 4392,
      "om the ": 4393,
      "er was ": 4394,
      "itary ": 4395,
      "in some ": 4396,
      "in 17": 4397,
      "| know ": 4398,
      "action ": 4399,
      "lis": 4400,
      "been": 4401,
      "been the ": 4402,
      "betwi": 4403,
      "rif": 4404,
      "amoun": 4405,
      "le and ": 4406,
      "it a ": 4407,
      "spent ": 4408,
      "not a ": 4409,
      "quis": 4410,
      "out \n": 4411,
      "trace ": 4412,
      "scar": 4413,
      "strong ": 4414,
      "up \n": 4415,
      "grac": 4416,
      "protec": 4417,
      "vist": 4418,
      "mant": 4419,
      "ity of the ": 4420,
      "what it ": 4421,
      "desir": 4422,
      "llen ": 4423,
      ". Our ": 4424,
      "had been \n": 4425,
      "for the first ": 4426,
      "notes ": 4427,
      "these things ": 4428,
      "burn": 4429,
      "stars ": 4430,
      "all the \n": 4431,
      "minut": 4432,
      "thought of ": 4433,
      "upon a ": 4434,
      "knows ": 4435,
      "human \n": 4436,
      "pip": 4437,
      "summon": 4438,
      "long-": 4439,
      "structure": 4440,
      "thought": 4441,
      "years ago": 4442,
      "direction ": 4443,
      "labyrin": 4444,
      ". As | ": 4445,
      "climbed ": 4446,
      "curiosity ": 4447,
      "deeply ": 4448,
      "midd": 4449,
      "glimpsed ": 4450,
      "words ": 4451,
      "tedly ": 4452,
      "deliri": 4453,
      "during ": 4454,
      "stopp": 4455,
      "relief": 4456,
      "messeng": 4457,
      "calm": 4458,
      "creatures ": 4459,
      "gulf ": 4460,
      "losop": 4461,
      "Blake ": 4462,
      "Ward’s ": 4463,
      "dreaded ": 4464,
      "masonry ": 4465,
      "immediate ": 4466,
      "woman ": 4467,
      "fabulous ": 4468,
      "hundred ": 4469,
      "Arthur ": 4470,
      "Celepha": 4471,
      "betwix": 4472,
      ": ": 4473,
      "Ger": 4474,
      "Harri": 4475,
      "cat ": 4476,
      "cut": 4477,
      "cities ": 4478,
      "dly ": 4479,
      "gam": 4480,
      "hood": 4481,
      "mel": 4482,
      "mouth ": 4483,
      "ok ": 4484,
      "overy ": 4485,
      "pinn": 4486,
      "pair of ": 4487,
      "tong": 4488,
      "ysi": 4489,
      "’g ": 4490,
      "into \n": 4491,
      "inexplic": 4492,
      "anch": 4493,
      ", whose ": 4494,
      "ordered ": 4495,
      "alway": 4496,
      "at this ": 4497,
      "es, but ": 4498,
      "he felt ": 4499,
      "wished ": 4500,
      "abrup": 4501,
      "shoul": 4502,
      "agon": 4503,
      "not be ": 4504,
      "apprehen": 4505,
      "exha": 4506,
      "ull": 4507,
      "one might ": 4508,
      "s, for ": 4509,
      "my uncle ": 4510,
      "trap": 4511,
      "bled ": 4512,
      "strength ": 4513,
      "from which ": 4514,
      "from some ": 4515,
      ". At the ": 4516,
      "ted by ": 4517,
      "projec": 4518,
      "proper ": 4519,
      "worst ": 4520,
      "ther the ": 4521,
      ". Here ": 4522,
      "there came ": 4523,
      "ational ": 4524,
      "reck": 4525,
      "ation \n": 4526,
      "most \n": 4527,
      "glanc": 4528,
      "other \n": 4529,
      "madness": 4530,
      "monst": 4531,
      "must \n": 4532,
      "he had \n": 4533,
      "great \n": 4534,
      "spectac": 4535,
      "first": 4536,
      "after \n": 4537,
      "faces ": 4538,
      "; but the ": 4539,
      "tower": 4540,
      "help": 4541,
      "watched ": 4542,
      "come to ": 4543,
      "chair": 4544,
      "weed": 4545,
      "week": 4546,
      "merci": 4547,
      "almost \n": 4548,
      "stream": 4549,
      "left": 4550,
      "back to ": 4551,
      "broad ": 4552,
      "furni": 4553,
      "too much ": 4554,
      "secrets ": 4555,
      "...": 4556,
      "pale ": 4557,
      "listening ": 4558,
      "across ": 4559,
      "number": 4560,
      "midnight ": 4561,
      "Akeley’s ": 4562,
      "closed ": 4563,
      "maj": 4564,
      "inclin": 4565,
      "figure ": 4566,
      "scrap": 4567,
      "wherein ": 4568,
      "recognised ": 4569,
      "completely ": 4570,
      "Boston": 4571,
      "repeat": 4572,
      "wish to ": 4573,
      "group ": 4574,
      "devil": 4575,
      "fashion": 4576,
      "carvings ": 4577,
      "encounter": 4578,
      "communic": 4579,
      "gleam": 4580,
      "exceedingly ": 4581,
      "ogist": 4582,
      "pinnac": 4583,
      "-Le": 4584,
      "A ": 4585,
      "Ju": 4586,
      "Obed ": 4587,
      "Rob": 4588,
      "bent ": 4589,
      "dust": 4590,
      "ff ": 4591,
      "o, ": 4592,
      "pend": 4593,
      "rad": 4594,
      "s. It was ": 4595,
      "swif": 4596,
      "ves and ": 4597,
      "ys ": 4598,
      "yph": 4599,
      "zen": 4600,
      "zen ": 4601,
      "iness ": 4602,
      "ans": 4603,
      "ed them ": 4604,
      "ary, ": 4605,
      ". Carter ": 4606,
      "of our ": 4607,
      "inging ": 4608,
      "refer": 4609,
      "state ": 4610,
      ", and the \n": 4611,
      "| think ": 4612,
      "acked ": 4613,
      "had the ": 4614,
      "es that ": 4615,
      "tis": 4616,
      "till the ": 4617,
      "sively ": 4618,
      "nothing": 4619,
      "shut ": 4620,
      "ago ": 4621,
      "age and ": 4622,
      "advis": 4623,
      "spher": 4624,
      "oper": 4625,
      "oppos": 4626,
      "stric": 4627,
      "clas": 4628,
      "image ": 4629,
      "ocean": 4630,
      "aven": 4631,
      "flying ": 4632,
      "ett": 4633,
      "vivi": 4634,
      "manif": 4635,
      "mile ": 4636,
      "parts ": 4637,
      "fish ": 4638,
      "did \n": 4639,
      ". It was a ": 4640,
      "smoo": 4641,
      ". Som": 4642,
      "gug": 4643,
      "such as ": 4644,
      "saw that the ": 4645,
      "coloss": 4646,
      "story ": 4647,
      "fresh": 4648,
      "harm": 4649,
      "Armit": 4650,
      "greatest ": 4651,
      "taking ": 4652,
      "On the ": 4653,
      "may be ": 4654,
      "may have ": 4655,
      "Dr. Willett ": 4656,
      "Willi": 4657,
      "people": 4658,
      "legend ": 4659,
      "wooden ": 4660,
      "cats ": 4661,
      "cloth": 4662,
      "less, ": 4663,
      "daemon ": 4664,
      "Mrs": 4665,
      "descent ": 4666,
      "autum": 4667,
      "relief ": 4668,
      "painted ": 4669,
      "primitive ": 4670,
      "lurking ": 4671,
      "occurr": 4672,
      "experience ": 4673,
      "univer": 4674,
      "Boston ": 4675,
      "elessly ": 4676,
      "wander": 4677,
      "pillar": 4678,
      "tunnel": 4679,
      "quickly ": 4680,
      "photograph": 4681,
      "favour": 4682,
      "Geor": 4683,
      "April ": 4684,
      "exhaust": 4685,
      "Be": 4686,
      "Kal": 4687,
      "Mu": 4688,
      "Pr": 4689,
      "Wal": 4690,
      "ait": 4691,
      "astr": 4692,
      "ased": 4693,
      "batter": 4694,
      "bung": 4695,
      "dus": 4696,
      "ead": 4697,
      "east ": 4698,
      "good": 4699,
      "key": 4700,
      "ots ": 4701,
      "rying ": 4702,
      "ritu": 4703,
      "se and ": 4704,
      "ed with a ": 4705,
      "atch": 4706,
      "ow, ": 4707,
      "was no ": 4708,
      "he could not ": 4709,
      "that the \n": 4710,
      "that | was ": 4711,
      "on and ": 4712,
      "had ever ": 4713,
      "old, ": 4714,
      "es the ": 4715,
      "es had ": 4716,
      "es of \n": 4717,
      "uncle": 4718,
      "divid": 4719,
      "whin": 4720,
      "; so ": 4721,
      "edge ": 4722,
      "it would be ": 4723,
      "atis": 4724,
      "plast": 4725,
      "e, for ": 4726,
      "blind": 4727,
      "blue ": 4728,
      "all his ": 4729,
      "clock ": 4730,
      "grow ": 4731,
      "vision ": 4732,
      "vivid": 4733,
      "estab": 4734,
      "parts of the ": 4735,
      "offer": 4736,
      "there are ": 4737,
      "; and \n": 4738,
      "ation and ": 4739,
      "before \n": 4740,
      "pois": 4741,
      "man \n": 4742,
      "strange \n": 4743,
      "forms ": 4744,
      "muf": 4745,
      "priv": 4746,
      "such \n": 4747,
      ". Most ": 4748,
      "two \n": 4749,
      "three-": 4750,
      "discovery ": 4751,
      "can be ": 4752,
      "silence ": 4753,
      "hideously ": 4754,
      "fair ": 4755,
      "long, ": 4756,
      "hills ": 4757,
      ". Even ": 4758,
      "points ": 4759,
      "drif": 4760,
      "scream ": 4761,
      "footh": 4762,
      "foot ": 4763,
      "remot": 4764,
      "building": 4765,
      "existence ": 4766,
      "signs of ": 4767,
      "dogs ": 4768,
      "deliber": 4769,
      "stopped ": 4770,
      "temple ": 4771,
      "wife ": 4772,
      "artist": 4773,
      "visit ": 4774,
      "leaving ": 4775,
      "necessary ": 4776,
      "surely ": 4777,
      "corridor": 4778,
      "data ": 4779,
      "previous ": 4780,
      "chimney": 4781,
      "business ": 4782,
      "hieroglyph": 4783,
      "exactly ": 4784,
      "more and more ": 4785,
      "zoog": 4786,
      "bungal": 4787,
      "Ben": 4788,
      "Mor": 4789,
      "Smi": 4790,
      "South ": 4791,
      "Tilling": 4792,
      "Un": 4793,
      "base": 4794,
      "dic": 4795,
      "daugh": 4796,
      "eti": 4797,
      "eal ": 4798,
      "e. | ": 4799,
      "few": 4800,
      "gap": 4801,
      "gold ": 4802,
      "h, ": 4803,
      "native ": 4804,
      "ost": 4805,
      "path ": 4806,
      "run ": 4807,
      "snow ": 4808,
      "situ": 4809,
      "t in ": 4810,
      ", they ": 4811,
      "once": 4812,
      ". V": 4813,
      "of an ": 4814,
      "rele": 4815,
      "to con": 4816,
      "to keep ": 4817,
      "at length ": 4818,
      "chant": 4819,
      "that my ": 4820,
      "beard": 4821,
      "ask": 4822,
      "unearth": 4823,
      "diary ": 4824,
      "emeter": 4825,
      "when": 4826,
      "abhorr": 4827,
      "forward ": 4828,
      "ed, and the ": 4829,
      "ter’s ": 4830,
      "upstair": 4831,
      "me a ": 4832,
      "ising ": 4833,
      "immen": 4834,
      "impossible ": 4835,
      "peril": 4836,
      "pret": 4837,
      "could see ": 4838,
      "elling ": 4839,
      "within the ": 4840,
      "utely ": 4841,
      "ess. \n": 4842,
      "crude ": 4843,
      ". Whi": 4844,
      "gian ": 4845,
      "ill-": 4846,
      "se of the ": 4847,
      "up a ": 4848,
      "somewhere ": 4849,
      "king \n": 4850,
      "shaped ": 4851,
      "fine ": 4852,
      "much": 4853,
      "even \n": 4854,
      "distor": 4855,
      "special ": 4856,
      "priest ": 4857,
      "guin": 4858,
      "tales of ": 4859,
      "belong": 4860,
      "colour ": 4861,
      "collap": 4862,
      "ogical ": 4863,
      "istic ": 4864,
      "line ": 4865,
      "still \n": 4866,
      "key ": 4867,
      "how the ": 4868,
      "famil": 4869,
      "eight ": 4870,
      "piping ": 4871,
      "picked ": 4872,
      "remain ": 4873,
      "reading ": 4874,
      "generally ": 4875,
      "Joe ": 4876,
      "ridg": 4877,
      "ion of ": 4878,
      "directly ": 4879,
      "past the ": 4880,
      "expected ": 4881,
      "abyss ": 4882,
      ". Cer": 4883,
      "remember ": 4884,
      "slope ": 4885,
      "remained ": 4886,
      "truth ": 4887,
      "full of ": 4888,
      "Charles Ward ": 4889,
      "antiquari": 4890,
      "made": 4891,
      "animal": 4892,
      "tradition": 4893,
      "remembered ": 4894,
      "Brattle": 4895,
      "shuddered ": 4896,
      "complete ": 4897,
      "wished to ": 4898,
      "spire": 4899,
      "altar": 4900,
      "trouble ": 4901,
      "neighbouring ": 4902,
      "cavern ": 4903,
      "thousand": 4904,
      "substance ": 4905,
      "Sarn": 4906,
      "Providence ": 4907,
      "Orn": 4908,
      "instead of ": 4909,
      "I’m ": 4910,
      "English ": 4911,
      "horizon": 4912,
      "number of ": 4913,
      "children ": 4914,
      "architec": 4915,
      "emotion": 4916,
      "earlier ": 4917,
      "connexion ": 4918,
      "managed to ": 4919,
      "material": 4920,
      "astonish": 4921,
      "nocturnal ": 4922,
      "Brattlebor": 4923,
      " was ": 4924,
      "-N": 4925,
      "-pan": 4926,
      "Com": 4927,
      "Eli": 4928,
      "Fen": 4929,
      "ah ": 4930,
      "bold": 4931,
      "fall ": 4932,
      "gal": 4933,
      "ies and ": 4934,
      "pit ": 4935,
      "pper": 4936,
      "piti": 4937,
      "wak": 4938,
      "e from the ": 4939,
      "ern": 4940,
      "er. \n": 4941,
      "ond ": 4942,
      "ed with the ": 4943,
      "and of ": 4944,
      "are the ": 4945,
      "resc": 4946,
      "a certain ": 4947,
      "ession": 4948,
      "itch": 4949,
      "it’s ": 4950,
      "in which ": 4951,
      "se. \n": 4952,
      "seen the ": 4953,
      "sevent": 4954,
      "| found ": 4955,
      "he thought ": 4956,
      "bear ": 4957,
      "beau": 4958,
      "tively ": 4959,
      "sides": 4960,
      "nois": 4961,
      "noxious ": 4962,
      "forest": 4963,
      "forest ": 4964,
      "with my ": 4965,
      "s of his ": 4966,
      "s of my ": 4967,
      "conven": 4968,
      "concep": 4969,
      "s, which ": 4970,
      "scap": 4971,
      "common": 4972,
      "person ": 4973,
      "grat": 4974,
      "ocean ": 4975,
      "ouse ": 4976,
      "flut": 4977,
      "them, and ": 4978,
      "cry ": 4979,
      "ation to ": 4980,
      ". It had ": 4981,
      "ant \n": 4982,
      "ed, the ": 4983,
      "made the ": 4984,
      "strange and ": 4985,
      "monoli": 4986,
      "up and ": 4987,
      "e, and \n": 4988,
      "shaf": 4989,
      "neg": 4990,
      "like that ": 4991,
      "uck": 4992,
      "attri": 4993,
      "lately ": 4994,
      "light, ": 4995,
      "side of the ": 4996,
      "arry ": 4997,
      "helped ": 4998,
      "burrow": 4999,
      "high-": 5000,
      "low, ": 5001,
      "loose ": 5002,
      "named ": 5003,
      "over \n": 5004,
      "interval": 5005,
      "harbour ": 5006,
      "abodi": 5007,
      "things": 5008,
      "something \n": 5009,
      "back to the ": 5010,
      "hands ": 5011,
      "purpose ": 5012,
      "moonlight ": 5013,
      "panic ": 5014,
      "here and ": 5015,
      "driven ": 5016,
      "labour": 5017,
      "buildings ": 5018,
      "shadowy ": 5019,
      "broke ": 5020,
      "stop ": 5021,
      ". Yet ": 5022,
      "spiri": 5023,
      "received ": 5024,
      "disturbing ": 5025,
      "suffici": 5026,
      "corridor ": 5027,
      "waste ": 5028,
      "through \n": 5029,
      "vacant ": 5030,
      "preserv": 5031,
      "abnormal": 5032,
      "brooding ": 5033,
      "lofty ": 5034,
      "Asenath ": 5035,
      "Ulthar": 5036,
      "description": 5037,
      "Nyarlathotep": 5038,
      "Vermon": 5039,
      ".m": 5040,
      "Col": 5041,
      "Har": 5042,
      "Jun": 5043,
      "Re": 5044,
      "Ter": 5045,
      "cof": 5046,
      "city, ": 5047,
      "din": 5048,
      "fath": 5049,
      "gossi": 5050,
      "hood ": 5051,
      "i ": 5052,
      "les, ": 5053,
      "nel ": 5054,
      "nature": 5055,
      "rough ": 5056,
      "ty-": 5057,
      "uch ": 5058,
      "wear": 5059,
      "s he ": 5060,
      "er, and ": 5061,
      "ond": 5062,
      "ons of ": 5063,
      "orous ": 5064,
      "of some ": 5065,
      "along": 5066,
      "ing at ": 5067,
      "at last": 5068,
      "itch ": 5069,
      "in and ": 5070,
      "ses and ": 5071,
      "was in ": 5072,
      "was so ": 5073,
      "legi": 5074,
      "liqu": 5075,
      "on this ": 5076,
      "es in the ": 5077,
      "ospit": 5078,
      "shook ": 5079,
      "deal ": 5080,
      "definitely ": 5081,
      "rob": 5082,
      "k and ": 5083,
      "; so that ": 5084,
      "spap": 5085,
      "is not ": 5086,
      "in the dark": 5087,
      "track ": 5088,
      "e, the ": 5089,
      "heap": 5090,
      "gru": 5091,
      "e of his ": 5092,
      "morbid": 5093,
      "mortal ": 5094,
      ". Its ": 5095,
      "nigh": 5096,
      "profound ": 5097,
      "mankind": 5098,
      "motion ": 5099,
      "worked ": 5100,
      "so many ": 5101,
      "them \n": 5102,
      "ther, ": 5103,
      "field ": 5104,
      "came the ": 5105,
      "him and ": 5106,
      "seldom ": 5107,
      "giving ": 5108,
      "obtain": 5109,
      "him, ": 5110,
      "ceil": 5111,
      "llen": 5112,
      "slum": 5113,
      "fact that ": 5114,
      "known to ": 5115,
      "dissol": 5116,
      "send ": 5117,
      "thinking ": 5118,
      "trium": 5119,
      "storm ": 5120,
      ". There was a ": 5121,
      "ish-": 5122,
      "into the \n": 5123,
      "decay": 5124,
      "felt a ": 5125,
      "excep": 5126,
      "sort ": 5127,
      "square ": 5128,
      "new and ": 5129,
      "purpo": 5130,
      "anyone ": 5131,
      "thoughts ": 5132,
      "has been ": 5133,
      "wax": 5134,
      "seek ": 5135,
      "shortly ": 5136,
      "less and ": 5137,
      "climb ": 5138,
      "noticed ": 5139,
      "dropped ": 5140,
      "animal ": 5141,
      "mysterious ": 5142,
      "bottom": 5143,
      "idea ": 5144,
      "plainly ": 5145,
      "possibly ": 5146,
      "penetr": 5147,
      "sourc": 5148,
      "symbol": 5149,
      "pass ": 5150,
      "beside ": 5151,
      "convinc": 5152,
      "gnaw": 5153,
      "dawn ": 5154,
      "resolved to ": 5155,
      "luminous ": 5156,
      "big ": 5157,
      "shantak": 5158,
      "philosop": 5159,
      "proportion": 5160,
      "conjecture": 5161,
      "foothill": 5162,
      "beauti": 5163,
      "Afr": 5164,
      "As the ": 5165,
      "Bir": 5166,
      "Cr": 5167,
      "Iran": 5168,
      "On ": 5169,
      "Pabodi": 5170,
      "ather ": 5171,
      "eks ": 5172,
      "lav": 5173,
      "leng": 5174,
      "pil": 5175,
      "paid ": 5176,
      "xi": 5177,
      "y. The ": 5178,
      "thod": 5179,
      "insi": 5180,
      "infin": 5181,
      "insan": 5182,
      "ero ": 5183,
      "erly ": 5184,
      "ers, and ": 5185,
      "report": 5186,
      "research": 5187,
      "stay ": 5188,
      "stea": 5189,
      "hast ": 5190,
      "a b": 5191,
      "omb": 5192,
      "chec": 5193,
      "ite \n": 5194,
      "elet": 5195,
      "element ": 5196,
      "sem": 5197,
      "seam": 5198,
      "| cannot ": 5199,
      "ologist": 5200,
      "diam": 5201,
      "tight": 5202,
      "abil": 5203,
      "abomin": 5204,
      "decor": 5205,
      "iron ": 5206,
      "admir": 5207,
      "bub": 5208,
      "ounc": 5209,
      "it would ": 5210,
      "not been ": 5211,
      "apart": 5212,
      "s, he ": 5213,
      "for their ": 5214,
      "plun": 5215,
      "all that ": 5216,
      "strai": 5217,
      "cler": 5218,
      "perman": 5219,
      "perhap": 5220,
      "profound": 5221,
      "no longer ": 5222,
      "mansion": 5223,
      "within": 5224,
      "them, ": 5225,
      "seemed \n": 5226,
      "ities": 5227,
      "came \n": 5228,
      "ture of ": 5229,
      ". | have ": 5230,
      "before, and ": 5231,
      "poor": 5232,
      "marri": 5233,
      "careful ": 5234,
      "nearest ": 5235,
      "loomed ": 5236,
      "over a ": 5237,
      "made him ": 5238,
      "subsequ": 5239,
      ". And the ": 5240,
      "series of ": 5241,
      "chis": 5242,
      "child": 5243,
      "chief ": 5244,
      "to be \n": 5245,
      "once more ": 5246,
      "steal": 5247,
      "s—and ": 5248,
      "clean": 5249,
      "underground ": 5250,
      "appeared ": 5251,
      "ness of the ": 5252,
      "engul": 5253,
      "ble, ": 5254,
      "ed with \n": 5255,
      "eight": 5256,
      "ash ": 5257,
      "downward ": 5258,
      "ment of ": 5259,
      "belief ": 5260,
      "memories ": 5261,
      "doubtedly ": 5262,
      "reput": 5263,
      "heaven ": 5264,
      "pushed ": 5265,
      "sensitive ": 5266,
      "woods ": 5267,
      "wait ": 5268,
      "newspap": 5269,
      "missing ": 5270,
      "time, and ": 5271,
      "papers ": 5272,
      "gravey": 5273,
      "usually ": 5274,
      "hyster": 5275,
      "condition ": 5276,
      "chanted ": 5277,
      "ancestr": 5278,
      "malign": 5279,
      "possibil": 5280,
      "occasionally ": 5281,
      "entered the ": 5282,
      "recalled ": 5283,
      "symbo": 5284,
      "sailor": 5285,
      "quarter": 5286,
      "Joseph Curwen ": 5287,
      "obvious ": 5288,
      "tremendous ": 5289,
      "summer ": 5290,
      "fifty ": 5291,
      "perfect ": 5292,
      "particular": 5293,
      "chamber ": 5294,
      "tiny ": 5295,
      "queerly ": 5296,
      "success": 5297,
      "tentac": 5298,
      ". When the ": 5299,
      "practic": 5300,
      "twisted ": 5301,
      "Olney ": 5302,
      "perceived ": 5303,
      "vivid ": 5304,
      "8 ": 5305,
      "Per": 5306,
      "Se": 5307,
      "Yor": 5308,
      "fing": 5309,
      "hem": 5310,
      "jum": 5311,
      "jest ": 5312,
      "ming ": 5313,
      "map": 5314,
      "p, ": 5315,
      "rain ": 5316,
      "satis": 5317,
      "ting the ": 5318,
      "ud ": 5319,
      "uous ": 5320,
      "us \n": 5321,
      "ve, and ": 5322,
      "wic": 5323,
      "want ": 5324,
      "’n": 5325,
      "insane ": 5326,
      "anom": 5327,
      "anthro": 5328,
      "anxious ": 5329,
      "one, and ": 5330,
      "ed it": 5331,
      "ed me": 5332,
      "are": 5333,
      "arm ": 5334,
      "arched ": 5335,
      "of which ": 5336,
      "alou": 5337,
      "hither": 5338,
      "to this ": 5339,
      "to say ": 5340,
      "to tell ": 5341,
      "a and ": 5342,
      "a moment ": 5343,
      "as much ": 5344,
      "in any ": 5345,
      "semi": 5346,
      "was un": 5347,
      "wire": 5348,
      "rific": 5349,
      "asid": 5350,
      "dious ": 5351,
      "absur": 5352,
      "shone ": 5353,
      "agn": 5354,
      "his own ": 5355,
      "entered ": 5356,
      "not even ": 5357,
      "ent and ": 5358,
      "but the ": 5359,
      "for an ": 5360,
      "for my ": 5361,
      "ain’t ": 5362,
      "bling ": 5363,
      "blind ": 5364,
      "eping ": 5365,
      "upward ": 5366,
      "come \n": 5367,
      "grey": 5368,
      "pre-": 5369,
      "themat": 5370,
      "them. \n": 5371,
      ". Wi": 5372,
      "tural ": 5373,
      ", but | ": 5374,
      "about to ": 5375,
      "pressed ": 5376,
      "observed ": 5377,
      "ought to ": 5378,
      "peac": 5379,
      "smell ": 5380,
      "toad": 5381,
      "ath-Le": 5382,
      "month": 5383,
      "drow": 5384,
      "time and ": 5385,
      "fact ": 5386,
      "factor": 5387,
      "things which ": 5388,
      "such things ": 5389,
      "sides ": 5390,
      "towers ": 5391,
      "down \n": 5392,
      "come from ": 5393,
      "chair ": 5394,
      "burning ": 5395,
      "torch": 5396,
      "made a ": 5397,
      ". It was \n": 5398,
      "voy": 5399,
      "way to ": 5400,
      "crib": 5401,
      "genu": 5402,
      "landscap": 5403,
      "greatly ": 5404,
      "sun ": 5405,
      "squat": 5406,
      "One ": 5407,
      "detest": 5408,
      "though, ": 5409,
      "Charles": 5410,
      "warn": 5411,
      "statu": 5412,
      "listen ": 5413,
      "background ": 5414,
      "abysses ": 5415,
      "shapeless ": 5416,
      "power ": 5417,
      "accust": 5418,
      "happened ": 5419,
      "aeons ": 5420,
      "scram": 5421,
      "victim": 5422,
      "whilst the ": 5423,
      "hung ": 5424,
      "cryptic ": 5425,
      "ylath-Le": 5426,
      "fessor ": 5427,
      "repeated ": 5428,
      "supply ": 5429,
      "crawling ": 5430,
      "significance ": 5431,
      "considerable ": 5432,
      "noisome ": 5433,
      "distinct ": 5434,
      "failed to ": 5435,
      "crowd": 5436,
      "surpris": 5437,
      "immediately ": 5438,
      "North ": 5439,
      "shining ": 5440,
      "ghastly ": 5441,
      "loathsome ": 5442,
      "gentle": 5443,
      "mechanical ": 5444,
      "conversation ": 5445,
      "telephon": 5446,
      "Necronomicon ": 5447,
      "Derby ": 5448,
      "Wilbur ": 5449,
      "bewilder": 5450,
      "artificial ": 5451,
      "Other God": 5452,
      "Dunwich ": 5453,
      "nause": 5454,
      "trap-": 5455,
      "colossal ": 5456,
      "Afric": 5457,
      "Eur": 5458,
      "Fed": 5459,
      "Hathe": 5460,
      "Isl": 5461,
      "Leng": 5462,
      "Malone ": 5463,
      "Qu": 5464,
      "Sabb": 5465,
      "clif": 5466,
      "eop": 5467,
      "equi": 5468,
      "fal": 5469,
      "fest": 5470,
      "gate ": 5471,
      "hot": 5472,
      "home": 5473,
      "ius ": 5474,
      "ler ": 5475,
      "lack ": 5476,
      "ming": 5477,
      "na": 5478,
      "natives ": 5479,
      "obe": 5480,
      "s. But ": 5481,
      "scho": 5482,
      "wer": 5483,
      "want": 5484,
      "yi": 5485,
      "your": 5486,
      "z ": 5487,
      "’n ": 5488,
      "“The ": 5489,
      "th-": 5490,
      ", while ": 5491,
      "ed all ": 5492,
      "ori": 5493,
      "army ": 5494,
      "of un": 5495,
      "of what ": 5496,
      "ings, ": 5497,
      "re-": 5498,
      "rear": 5499,
      "regre": 5500,
      "reach ": 5501,
      "alarm": 5502,
      "stick": 5503,
      "as the \n": 5504,
      "as soon ": 5505,
      "ate, ": 5506,
      "escrib": 5507,
      "in our ": 5508,
      ", and that ": 5509,
      "le-": 5510,
      "he might ": 5511,
      "urn": 5512,
      "had gone ": 5513,
      "had become ": 5514,
      "unknown": 5515,
      "tip": 5516,
      "of the great ": 5517,
      "empl": 5518,
      "wher": 5519,
      "sho": 5520,
      "shing ": 5521,
      "decre": 5522,
      "whist": 5523,
      "fru": 5524,
      "ading ": 5525,
      "ears ": 5526,
      "thetic ": 5527,
      "with a \n": 5528,
      "not the ": 5529,
      "which would ": 5530,
      "extrav": 5531,
      "conqu": 5532,
      "but \n": 5533,
      "pled ": 5534,
      "my mind ": 5535,
      "train ": 5536,
      "by his ": 5537,
      "blow": 5538,
      "scor": 5539,
      "strick": 5540,
      "perm": 5541,
      "percep": 5542,
      "prev": 5543,
      "on the floor ": 5544,
      "wore ": 5545,
      "parent": 5546,
      "utchin": 5547,
      "indescrib": 5548,
      "ess, and ": 5549,
      "bran": 5550,
      ". There": 5551,
      "him the ": 5552,
      "ceremon": 5553,
      "mark ": 5554,
      "king and ": 5555,
      "shat": 5556,
      "like to ": 5557,
      "The next ": 5558,
      "guard ": 5559,
      "apping ": 5560,
      "| had seen ": 5561,
      ". Be": 5562,
      "never \n": 5563,
      "ve. \n": 5564,
      "disap": 5565,
      "dislik": 5566,
      "into that ": 5567,
      "matters ": 5568,
      "weak": 5569,
      "? W": 5570,
      "harbour": 5571,
      "upon \n": 5572,
      "day, ": 5573,
      "floated ": 5574,
      "olden ": 5575,
      ". They had ": 5576,
      "e—the ": 5577,
      "without a ": 5578,
      "pierc": 5579,
      "now \n": 5580,
      "reality ": 5581,
      "s; \n": 5582,
      "brea": 5583,
      "house, ": 5584,
      "secret": 5585,
      "transm": 5586,
      "ence. \n": 5587,
      "state of ": 5588,
      "seek": 5589,
      "deniz": 5590,
      "mountains ": 5591,
      "close to ": 5592,
      "persons ": 5593,
      "drop ": 5594,
      "paper ": 5595,
      "mathemat": 5596,
      "succeed": 5597,
      "magic ": 5598,
      "conduc": 5599,
      "bank": 5600,
      "shock ": 5601,
      ". Willet": 5602,
      "destin": 5603,
      "penguin": 5604,
      "experienc": 5605,
      "concerning ": 5606,
      "Whateley": 5607,
      "added ": 5608,
      "settled ": 5609,
      "bridge ": 5610,
      "looked \n": 5611,
      "Edward": 5612,
      "precipit": 5613,
      "group": 5614,
      "fancied ": 5615,
      "horribly ": 5616,
      "previously ": 5617,
      "amongst the ": 5618,
      "conceivable ": 5619,
      "garre": 5620,
      "judg": 5621,
      "these \n": 5622,
      "vital ": 5623,
      "fairly ": 5624,
      "medical ": 5625,
      "chemical ": 5626,
      "deciph": 5627,
      "extreme ": 5628,
      "sacrific": 5629,
      "violet ": 5630,
      "colonial ": 5631,
      "edific": 5632,
      "suspic": 5633,
      "Barz": 5634,
      "frantically ": 5635,
      "princi": 5636,
      "Robert ": 5637,
      "autumn ": 5638,
      "whenever ": 5639,
      "steadi": 5640,
      "cliff ": 5641,
      "extravag": 5642,
      ".. ": 5643,
      "5 ": 5644,
      "Az": 5645,
      "Cour": 5646,
      "Dylath-Le": 5647,
      "His ": 5648,
      "IN": 5649,
      "Their ": 5650,
      "ather": 5651,
      "cle ": 5652,
      "dy": 5653,
      "dut": 5654,
      "e. He ": 5655,
      "fter": 5656,
      "fell": 5657,
      "git ": 5658,
      "gest": 5659,
      "hoo": 5660,
      "hus": 5661,
      "hospit": 5662,
      "la": 5663,
      "nin": 5664,
      "rare ": 5665,
      "yer ": 5666,
      "intr": 5667,
      "anic ": 5668,
      "er the ": 5669,
      "the same ": 5670,
      ", as if ": 5671,
      "ener": 5672,
      "en, and ": 5673,
      "eng ": 5674,
      "on, and ": 5675,
      ". Dr": 5676,
      "reti": 5677,
      "resist": 5678,
      "stagg": 5679,
      "hab": 5680,
      "hair": 5681,
      "hair ": 5682,
      "a little ": 5683,
      "ate the ": 5684,
      "ated, ": 5685,
      "iter": 5686,
      "in order ": 5687,
      "seat ": 5688,
      "se, and ": 5689,
      "les \n": 5690,
      "lied ": 5691,
      "beat": 5692,
      "beard ": 5693,
      "assur": 5694,
      "amor": 5695,
      "unbeliev": 5696,
      "unusual ": 5697,
      "digg": 5698,
      "ables ": 5699,
      "shoo": 5700,
      "devic": 5701,
      "fram": 5702,
      "forth": 5703,
      "addres": 5704,
      "ented ": 5705,
      "it in ": 5706,
      "confin": 5707,
      "one by ": 5708,
      "one night ": 5709,
      "pless ": 5710,
      "my friend ": 5711,
      "all this ": 5712,
      "struggl": 5713,
      "come": 5714,
      "immemor": 5715,
      "occup": 5716,
      "proble": 5717,
      "no more ": 5718,
      "mansion ": 5719,
      "ant, ": 5720,
      ". How ": 5721,
      "what he had ": 5722,
      "fien": 5723,
      "five-": 5724,
      "phon": 5725,
      "only one ": 5726,
      "urely ": 5727,
      "any other ": 5728,
      "peas": 5729,
      "ence and ": 5730,
      "saw \n": 5731,
      "ers had ": 5732,
      "ers of the ": 5733,
      "strange, ": 5734,
      "marine ": 5735,
      "need ": 5736,
      "uck ": 5737,
      "attend": 5738,
      "even though ": 5739,
      "lighted ": 5740,
      "things that ": 5741,
      "ful, ": 5742,
      "it was not ": 5743,
      "corner": 5744,
      "bert ": 5745,
      "watch ": 5746,
      "senses ": 5747,
      "buri": 5748,
      "skill ": 5749,
      "ever the ": 5750,
      "men, ": 5751,
      "goth": 5752,
      "thin’ ": 5753,
      "lovely ": 5754,
      "subtly ": 5755,
      "freely ": 5756,
      "void": 5757,
      "raid": 5758,
      "raised ": 5759,
      "farm ": 5760,
      "appear ": 5761,
      "appeared to ": 5762,
      "case of ": 5763,
      "planet ": 5764,
      "furnit": 5765,
      "life, ": 5766,
      "silently ": 5767,
      "ential ": 5768,
      "too \n": 5769,
      "realised ": 5770,
      "behind": 5771,
      "summer": 5772,
      "long \n": 5773,
      "a fain": 5774,
      "moonlight": 5775,
      "think of ": 5776,
      "catac": 5777,
      "damp ": 5778,
      "basalt ": 5779,
      "host": 5780,
      ". Inde": 5781,
      "er and more ": 5782,
      "uncover": 5783,
      "personal ": 5784,
      "spoken ": 5785,
      "fragr": 5786,
      "midst ": 5787,
      "cauti": 5788,
      "Marsh ": 5789,
      "truly ": 5790,
      "slipper": 5791,
      "life-": 5792,
      "impul": 5793,
      "everyone ": 5794,
      "covered with ": 5795,
      "roofs and ": 5796,
      "farmhouse ": 5797,
      "tomb ": 5798,
      "black, ": 5799,
      "shelves ": 5800,
      "grandfather ": 5801,
      "witch": 5802,
      "allowed ": 5803,
      "galley ": 5804,
      "significant ": 5805,
      "westward ": 5806,
      "particular ": 5807,
      "morning": 5808,
      "ghoul ": 5809,
      "winged ": 5810,
      "sculptures ": 5811,
      "information ": 5812,
      "physician ": 5813,
      "twenty ": 5814,
      "slanting ": 5815,
      "Chri": 5816,
      "vainly ": 5817,
      "similar ": 5818,
      "sealed ": 5819,
      "Cthulhu ": 5820,
      "rotting ": 5821,
      ": “": 5822,
      "July ": 5823,
      "!” ": 5824,
      "1 ": 5825,
      "?” \n": 5826,
      "Air": 5827,
      "Dex": 5828,
      "Pn": 5829,
      "Temp": 5830,
      "bab": 5831,
      "cele": 5832,
      "fast ": 5833,
      "gently ": 5834,
      "ich": 5835,
      "ies, ": 5836,
      "lak": 5837,
      "lod": 5838,
      "led \n": 5839,
      "mound": 5840,
      "oak": 5841,
      "rain": 5842,
      "sal": 5843,
      "sob": 5844,
      "s. Then ": 5845,
      "tar": 5846,
      "told": 5847,
      "ugg": 5848,
      "voc": 5849,
      "ves, ": 5850,
      "wings ": 5851,
      "xim": 5852,
      "y. | ": 5853,
      "thunder ": 5854,
      "s they ": 5855,
      "t a ": 5856,
      "ince ": 5857,
      "inside ": 5858,
      "infer": 5859,
      "the most ": 5860,
      "one—": 5861,
      "returned ": 5862,
      "stum": 5863,
      "stumbled ": 5864,
      "ing the \n": 5865,
      "to their ": 5866,
      "at my ": 5867,
      "as | had ": 5868,
      "atm": 5869,
      "attrac": 5870,
      "chos": 5871,
      "elder": 5872,
      "element": 5873,
      "| must ": 5874,
      "| will ": 5875,
      "was still ": 5876,
      "le, and ": 5877,
      "ic, and ": 5878,
      "he heard ": 5879,
      "that | had ": 5880,
      "uneas": 5881,
      "an hour ": 5882,
      "def": 5883,
      "whip": 5884,
      "; for the ": 5885,
      ". Thi": 5886,
      "ent, and ": 5887,
      "with that ": 5888,
      "with him ": 5889,
      "s of their ": 5890,
      "exten": 5891,
      "trag": 5892,
      "scep": 5893,
      "isol": 5894,
      "clud": 5895,
      ". Al": 5896,
      "ousness ": 5897,
      "proceed": 5898,
      "thing \n": 5899,
      "no man ": 5900,
      "est and ": 5901,
      "ever \n": 5902,
      "phra": 5903,
      ". Though ": 5904,
      ". Then the ": 5905,
      "about a ": 5906,
      "glit": 5907,
      "udden": 5908,
      "eyes": 5909,
      "eyes and ": 5910,
      "ed by the \n": 5911,
      "marvel": 5912,
      "monot": 5913,
      "months ": 5914,
      "up to the ": 5915,
      "he had been ": 5916,
      "letters ": 5917,
      "tion of the ": 5918,
      "time the ": 5919,
      "fire ": 5920,
      "guar": 5921,
      "lightn": 5922,
      "it was \n": 5923,
      "night, and ": 5924,
      "placed ": 5925,
      "years of ": 5926,
      "ists ": 5927,
      "bury": 5928,
      ". Mr": 5929,
      "start ": 5930,
      "men \n": 5931,
      "web": 5932,
      "linder": 5933,
      "stories ": 5934,
      ". And \n": 5935,
      ", | \n": 5936,
      "house and ": 5937,
      "chill ": 5938,
      "beyond \n": 5939,
      "stream ": 5940,
      "threat": 5941,
      "coar": 5942,
      "without \n": 5943,
      "without the ": 5944,
      "silhou": 5945,
      "slept ": 5946,
      "house in ": 5947,
      "her \n": 5948,
      "doorway": 5949,
      "civi": 5950,
      "relati": 5951,
      "for a moment ": 5952,
      "bas-": 5953,
      "faint": 5954,
      "dropp": 5955,
      "more than a ": 5956,
      ". Of the ": 5957,
      "mystery ": 5958,
      "had not been ": 5959,
      "historic ": 5960,
      "bank ": 5961,
      "cryptical ": 5962,
      "excited ": 5963,
      "valley": 5964,
      "occurred": 5965,
      "tempor": 5966,
      "beside the ": 5967,
      "crawled ": 5968,
      "throat": 5969,
      "cylinder": 5970,
      "language ": 5971,
      "important ": 5972,
      "suspected ": 5973,
      "chamber": 5974,
      "constantly ": 5975,
      "dawn": 5976,
      "John ": 5977,
      "liter": 5978,
      "ghoulish ": 5979,
      "phosphorescent ": 5980,
      "abandoned ": 5981,
      "Nahum ": 5982,
      "fungi": 5983,
      "resemblance ": 5984,
      "peculiarly ": 5985,
      "pocket ": 5986,
      "circumstance ": 5987,
      "aéro": 5988,
      "eternal ": 5989,
      "as well as ": 5990,
      "avoid ": 5991,
      "virtually ": 5992,
      "articul": 5993,
      ". Just ": 5994,
      ". Perhaps ": 5995,
      ". Later ": 5996,
      "Inganok": 5997,
      "-Soth": 5998,
      "enormous ": 5999,
      "Kuranes ": 6000,
      "manifest": 6001,
      "muffled ": 6002,
      "semi-": 6003,
      "celebr": 6004,
      ".M": 6005,
      "10": 6006,
      "Aug": 6007,
      "Hutchin": 6008,
      "I'll ": 6009,
      "Leng ": 6010,
      "Mc": 6011,
      "Mat": 6012,
      "May": 6013,
      "Mountain": 6014,
      "Ori": 6015,
      "Zad": 6016,
      "a, and ": 6017,
      "ben ": 6018,
      "batt": 6019,
      "cyl": 6020,
      "cemeter": 6021,
      "fum": 6022,
      "fung": 6023,
      "fellow ": 6024,
      "gil": 6025,
      "idi": 6026,
      "lli": 6027,
      "ld, ": 6028,
      "lamp ": 6029,
      "mass": 6030,
      "obl": 6031,
      "pse": 6032,
      "sard": 6033,
      "ted to ": 6034,
      "udo": 6035,
      "ves": 6036,
      "vil": 6037,
      "would": 6038,
      "’em ": 6039,
      "then the ": 6040,
      "d and ": 6041,
      "an, ": 6042,
      "an’s ": 6043,
      "another": 6044,
      ", so that ": 6045,
      "enchanted ": 6046,
      "of a \n": 6047,
      "of course ": 6048,
      "reel": 6049,
      "rear ": 6050,
      "reanim": 6051,
      "als of ": 6052,
      "alone": 6053,
      "to me ": 6054,
      "a curious ": 6055,
      "ghter ": 6056,
      "eldr": 6057,
      "in one ": 6058,
      "set of ": 6059,
      "ley ": 6060,
      "leagu": 6061,
      "urg": 6062,
      "or a ": 6063,
      "ries ": 6064,
      "rich ": 6065,
      "rial ": 6066,
      "asi": 6067,
      "assembl": 6068,
      "amaz": 6069,
      "unless ": 6070,
      "th \n": 6071,
      "dish": 6072,
      "tives ": 6073,
      "tiven": 6074,
      "an old ": 6075,
      "nother ": 6076,
      "noted ": 6077,
      "shog": 6078,
      "very": 6079,
      "; since ": 6080,
      "forget ": 6081,
      "admit": 6082,
      "ed-": 6083,
      "it and ": 6084,
      "it to ": 6085,
      "suitable ": 6086,
      "confu": 6087,
      "consul": 6088,
      "plan ": 6089,
      "awk": 6090,
      "allow ": 6091,
      "island": 6092,
      "island ": 6093,
      "angled ": 6094,
      "grass": 6095,
      "met": 6096,
      "mead": 6097,
      "metal": 6098,
      "ously": 6099,
      "fles": 6100,
      "no mean": 6101,
      "motor": 6102,
      "paral": 6103,
      "est of ": 6104,
      "what we ": 6105,
      "ations, ": 6106,
      "did | ": 6107,
      "did he ": 6108,
      "crept ": 6109,
      "you \n": 6110,
      "pedest": 6111,
      "man who ": 6112,
      "came from ": 6113,
      "than \n": 6114,
      "dared not ": 6115,
      "formed the ": 6116,
      "attach": 6117,
      "myri": 6118,
      "if | ": 6119,
      "faced ": 6120,
      "lightning ": 6121,
      "appall": 6122,
      "begin ": 6123,
      "down to ": 6124,
      "did not \n": 6125,
      "fear and ": 6126,
      "loom": 6127,
      "ments ": 6128,
      "trip": 6129,
      "mini": 6130,
      "chief": 6131,
      "incident ": 6132,
      "he was \n": 6133,
      "told of the ": 6134,
      "took the ": 6135,
      "far-": 6136,
      "knowing ": 6137,
      "here, ": 6138,
      "cool": 6139,
      "coast ": 6140,
      "ancient \n": 6141,
      "content": 6142,
      "of his \n": 6143,
      "command": 6144,
      "realm ": 6145,
      "said that ": 6146,
      "door and ": 6147,
      "nature of the ": 6148,
      "Willet": 6149,
      "heaven": 6150,
      "followed the ": 6151,
      "object": 6152,
      "lock ": 6153,
      "transl": 6154,
      "trace of ": 6155,
      "portent": 6156,
      "Old Ones": 6157,
      "meanwhile ": 6158,
      "shapes ": 6159,
      "ruins ": 6160,
      "ruined ": 6161,
      "newly ": 6162,
      "new \n": 6163,
      "evidence ": 6164,
      "effac": 6165,
      "advent": 6166,
      "March ": 6167,
      "apparat": 6168,
      "apparent ": 6169,
      "aeon": 6170,
      "aeon-": 6171,
      "approach ": 6172,
      "circular ": 6173,
      "autom": 6174,
      "paint": 6175,
      "crossing ": 6176,
      "expression": 6177,
      "ific ": 6178,
      "knowledge of ": 6179,
      "grandfather": 6180,
      "surviving ": 6181,
      "lantern": 6182,
      "suffer": 6183,
      "answer ": 6184,
      "Blak": 6185,
      "make the ": 6186,
      "typical ": 6187,
      "decided to ": 6188,
      "would not be ": 6189,
      "aspect ": 6190,
      "attempt to ": 6191,
      "promis": 6192,
      "soft ": 6193,
      "wildly ": 6194,
      "Kadath": 6195,
      "future": 6196,
      "northward ": 6197,
      "carried ": 6198,
      "murder": 6199,
      "stupendous ": 6200,
      "aperture ": 6201,
      ",” he ": 6202,
      "Asenath": 6203,
      "greenish ": 6204,
      "psychological ": 6205,
      "delicate ": 6206,
      "Great Race ": 6207,
      "powerful ": 6208,
      "uncanny ": 6209,
      "manuscrip": 6210,
      "remarkable ": 6211,
      "Salem ": 6212,
      "tavern": 6213,
      "Ngranek": 6214,
      "abruptly ": 6215,
      "Federal ": 6216,
      "amorph": 6217,
      "atmosph": 6218,
      "monoton": 6219,
      "August ": 6220,
      "cylind": 6221,
      "pseudo": 6222,
      "-eyed ": 6223,
      "2 ": 6224,
      "At": 6225,
      "Her": 6226,
      "Ital": 6227,
      "Pol": 6228,
      "T ": 6229,
      "Warr": 6230,
      "Yog": 6231,
      "bay": 6232,
      "bought ": 6233,
      "dg": 6234,
      "dam ": 6235,
      "dull ": 6236,
      "flight ": 6237,
      "gone, ": 6238,
      "hone ": 6239,
      "hew": 6240,
      "ifi": 6241,
      "junc": 6242,
      "lam": 6243,
      "lut": 6244,
      "lamp": 6245,
      "n't ": 6246,
      "o-": 6247,
      "os ": 6248,
      "put": 6249,
      "sand ": 6250,
      "sar": 6251,
      "s? ": 6252,
      "s. F": 6253,
      "soci": 6254,
      "ta": 6255,
      "tod": 6256,
      "us of ": 6257,
      "—which ": 6258,
      "thus ": 6259,
      "ine": 6260,
      "ina \n": 6261,
      "anni": 6262,
      "the old ": 6263,
      "the great ": 6264,
      ", 19": 6265,
      "enem": 6266,
      "on. \n": 6267,
      "ed its ": 6268,
      "ed from the ": 6269,
      "ouse": 6270,
      "around": 6271,
      "argu": 6272,
      "requir": 6273,
      "almost": 6274,
      "stol": 6275,
      "ing at the ": 6276,
      "seaw": 6277,
      "ses \n": 6278,
      "| began to ": 6279,
      "| saw the ": 6280,
      "lean ": 6281,
      "ics ": 6282,
      "wiz": 6283,
      "or to ": 6284,
      "ollec": 6285,
      "undoubtedly ": 6286,
      "who": 6287,
      "absor": 6288,
      "abund": 6289,
      "nobody ": 6290,
      "deal": 6291,
      "devi": 6292,
      "degener": 6293,
      "entity ": 6294,
      "ently, ": 6295,
      "it the ": 6296,
      "supre": 6297,
      "not to be ": 6298,
      "ook": 6299,
      "exact ": 6300,
      "construc": 6301,
      "que ": 6302,
      "s, though ": 6303,
      "oppres": 6304,
      "by some ": 6305,
      "blast ": 6306,
      "uments ": 6307,
      "strugg": 6308,
      "comes ": 6309,
      "me and ": 6310,
      "from this ": 6311,
      "they have ": 6312,
      "they would ": 6313,
      "and-": 6314,
      "prof": 6315,
      "flung ": 6316,
      "affor": 6317,
      "vibr": 6318,
      "mankind ": 6319,
      "worm": 6320,
      "world, ": 6321,
      "ancy ": 6322,
      ". Had ": 6323,
      "brow": 6324,
      "brick": 6325,
      "recollec": 6326,
      "phr": 6327,
      "did so ": 6328,
      "presently ": 6329,
      "poet": 6330,
      "tions of ": 6331,
      "cave ": 6332,
      "se to ": 6333,
      "made \n": 6334,
      "treat": 6335,
      "than any ": 6336,
      "dared ": 6337,
      "dragged ": 6338,
      "dreamed ": 6339,
      "dreams of ": 6340,
      "special": 6341,
      "found it ": 6342,
      "found in the ": 6343,
      "later, ": 6344,
      "might \n": 6345,
      "portra": 6346,
      "; but \n": 6347,
      "you can ": 6348,
      "disquiet": 6349,
      "disgust": 6350,
      "fearsome ": 6351,
      "burned ": 6352,
      "ailing ": 6353,
      "weeks ": 6354,
      "Carter": 6355,
      "end of ": 6356,
      ". No": 6357,
      "rais": 6358,
      "Archa": 6359,
      "things, ": 6360,
      "know \n": 6361,
      "wrong": 6362,
      "hateful ": 6363,
      "captive ": 6364,
      "now, ": 6365,
      "windowless ": 6366,
      "geolog": 6367,
      "unknown \n": 6368,
      "shewing ": 6369,
      "over the \n": 6370,
      "tech": 6371,
      "Green": 6372,
      "... \n": 6373,
      "repellent ": 6374,
      "ciph": 6375,
      "set out ": 6376,
      "sank ": 6377,
      "drive ": 6378,
      "second": 6379,
      "learn ": 6380,
      "palac": 6381,
      "seeking ": 6382,
      "servants ": 6383,
      "sound of ": 6384,
      "titanic ": 6385,
      "minds ": 6386,
      "remov": 6387,
      "voices ": 6388,
      "Great Ones ": 6389,
      "hint ": 6390,
      "falling ": 6391,
      "describe": 6392,
      "describe ": 6393,
      "slimy ": 6394,
      "shriek": 6395,
      "deliver": 6396,
      "sleeping ": 6397,
      "continuous ": 6398,
      "screaming ": 6399,
      "legends ": 6400,
      "flashlight ": 6401,
      "knowledg": 6402,
      "prepared ": 6403,
      "southern ": 6404,
      "pull ": 6405,
      "answer": 6406,
      "hurri": 6407,
      "foeti": 6408,
      "running ": 6409,
      "Elder ": 6410,
      "doubtless ": 6411,
      "including ": 6412,
      "Sark": 6413,
      "gentle ": 6414,
      "aperture": 6415,
      "tunnel ": 6416,
      "merchant": 6417,
      "shrieked ": 6418,
      "English": 6419,
      "priests ": 6420,
      ". Up": 6421,
      "tendenc": 6422,
      "combin": 6423,
      "avoid": 6424,
      "Great Rac": 6425,
      "pattern": 6426,
      "Kingsport ": 6427,
      "destroy": 6428,
      "ponder": 6429,
      "cryst": 6430,
      "moon-beast": 6431,
      "Miskatonic Univers": 6432,
      "Randolph Carter ": 6433,
      "custom": 6434,
      "scholar": 6435,
      "middle ": 6436,
      "tissu": 6437,
      "Armitage ": 6438,
      "Brattleboro ": 6439,
      "coffin": 6440,
      "eople ": 6441,
      "stricken ": 6442,
      "disappoint": 6443,
      "uddenly ": 6444,
      "pseudo-": 6445,
      "-li": 6446,
      "Chur": 6447,
      "Hallow": 6448,
      "Nig": 6449,
      "Nature": 6450,
      "Oc": 6451,
      "Yug": 6452,
      "aes": 6453,
      "ais": 6454,
      "bare ": 6455,
      "coff": 6456,
      "due ": 6457,
      "dying ": 6458,
      "een ": 6459,
      "eous ": 6460,
      "ebr": 6461,
      "e; but ": 6462,
      "fang": 6463,
      "fever ": 6464,
      "ggl": 6465,
      "hover": 6466,
      "hyp": 6467,
      "jagged ": 6468,
      "kep": 6469,
      "lun": 6470,
      "lose ": 6471,
      "pir": 6472,
      "pand": 6473,
      "rul": 6474,
      "se the ": 6475,
      "she had ": 6476,
      "wash": 6477,
      "’ve ": 6478,
      "e or ": 6479,
      "e had ": 6480,
      "inally ": 6481,
      ", there ": 6482,
      ", for the ": 6483,
      "ench": 6484,
      "ed him": 6485,
      "ouri": 6486,
      "or, ": 6487,
      "ington ": 6488,
      "retic": 6489,
      "alli": 6490,
      "station": 6491,
      "at night ": 6492,
      "as that ": 6493,
      "as an ": 6494,
      "esses ": 6495,
      "chest": 6496,
      "ely": 6497,
      "in those ": 6498,
      ", and Carter ": 6499,
      "accent": 6500,
      "uring ": 6501,
      "or two ": 6502,
      "beck": 6503,
      "had no ": 6504,
      "unnam": 6505,
      "osity": 6506,
      "dir": 6507,
      "ties ": 6508,
      "ember": 6509,
      "ements ": 6510,
      "abod": 6511,
      "shout": 6512,
      "al of ": 6513,
      "it seemed ": 6514,
      "spot": 6515,
      "not only ": 6516,
      "ent to ": 6517,
      "in the dark ": 6518,
      "eccentr": 6519,
      "confer": 6520,
      "ous and ": 6521,
      "out of \n": 6522,
      "trick": 6523,
      "traver": 6524,
      "e, | ": 6525,
      "strat": 6526,
      "eptem": 6527,
      "idol": 6528,
      "heer": 6529,
      "from their ": 6530,
      "grew": 6531,
      ". Am": 6532,
      ". An": 6533,
      ". Ar": 6534,
      "ted and ": 6535,
      "mean ": 6536,
      "me. | ": 6537,
      "aving ": 6538,
      "flood": 6539,
      "word ": 6540,
      "parall": 6541,
      "there, and ": 6542,
      "we could ": 6543,
      "craf": 6544,
      "cruc": 6545,
      "ation. The ": 6546,
      "seems ": 6547,
      "seemingly ": 6548,
      "when a ": 6549,
      "thrown ": 6550,
      "aily ": 6551,
      "glor": 6552,
      "glar": 6553,
      "peak ": 6554,
      "eyes, ": 6555,
      "es of a ": 6556,
      "something": 6557,
      "them as ": 6558,
      "nebul": 6559,
      "if the ": 6560,
      "things were ": 6561,
      "it was the ": 6562,
      "vey ": 6563,
      "notice ": 6564,
      "down from the ": 6565,
      "dissec": 6566,
      "ships ": 6567,
      "These ": 6568,
      "skull ": 6569,
      "skelet": 6570,
      "lost": 6571,
      "ould, ": 6572,
      "freed": 6573,
      "interior ": 6574,
      "told the ": 6575,
      "thought of the ": 6576,
      "again, and ": 6577,
      "s—the ": 6578,
      "far \n": 6579,
      "azure": 6580,
      "herent ": 6581,
      "course": 6582,
      "ancient and ": 6583,
      "how much ": 6584,
      "captain ": 6585,
      "frighten": 6586,
      "take the ": 6587,
      "s; for ": 6588,
      "hillside ": 6589,
      "break ": 6590,
      "know what ": 6591,
      "away from ": 6592,
      "away from the ": 6593,
      "doorway ": 6594,
      "Wilco": 6595,
      "repti": 6596,
      "Curwen, ": 6597,
      "structure ": 6598,
      ". Then he ": 6599,
      "walking ": 6600,
      "traces of ": 6601,
      "room, ": 6602,
      "massive ": 6603,
      "holy ": 6604,
      "hoary ": 6605,
      "listened ": 6606,
      "faintly ": 6607,
      "expected": 6608,
      "form of ": 6609,
      "background": 6610,
      "numerous ": 6611,
      "hint of ": 6612,
      "bulk ": 6613,
      "together": 6614,
      "studies ": 6615,
      "telling ": 6616,
      "farmhouse": 6617,
      "Ang": 6618,
      "Professor ": 6619,
      "malign ": 6620,
      "surviv": 6621,
      "reported ": 6622,
      "effect ": 6623,
      "suppose ": 6624,
      "troubl": 6625,
      "convul": 6626,
      "New Yor": 6627,
      "colleagu": 6628,
      "intellec": 6629,
      "sought to ": 6630,
      "noises ": 6631,
      "machine ": 6632,
      "encountered ": 6633,
      "equally ": 6634,
      "Johans": 6635,
      "quietly ": 6636,
      "knew \n": 6637,
      "abandon": 6638,
      "splen": 6639,
      "desperate ": 6640,
      "gulfs of ": 6641,
      "patient ": 6642,
      "pocket": 6643,
      "influence ": 6644,
      "according to ": 6645,
      "absolutely ": 6646,
      "badly ": 6647,
      "manuscript ": 6648,
      "demand": 6649,
      "instrument": 6650,
      "Klenz": 6651,
      "glacial ": 6652,
      "eaten ": 6653,
      "Weeden ": 6654,
      "reluctant ": 6655,
      "New England ": 6656,
      "gambre": 6657,
      "tongu": 6658,
      "inexplicable ": 6659,
      "merciful ": 6660,
      "avenu": 6661,
      "dusk ": 6662,
      "bungalow ": 6663,
      "Smith ": 6664,
      ". Certain": 6665,
      "neglec": 6666,
      "nigh ": 6667,
      "poorwill": 6668,
      "anomal": 6669,
      "hitherto ": 6670,
      "school": 6671,
      "immemorial ": 6672,
      ". Indeed, ": 6673,
      "whippoorwill": 6674,
      "eldritch ": 6675,
      "Sarkom": 6676,
      "Asi": 6677,
      "Atal ": 6678,
      "Ged": 6679,
      "Goth": 6680,
      "Hop": 6681,
      "Kez": 6682,
      "Now ": 6683,
      "ON": 6684,
      "Pi": 6685,
      "Phi": 6686,
      "Saw": 6687,
      "To ": 6688,
      "Wash": 6689,
      "a.m": 6690,
      "ccord": 6691,
      "g-": 6692,
      "gall": 6693,
      "hell": 6694,
      "king": 6695,
      "non": 6696,
      "net": 6697,
      "s-": 6698,
      "sad": 6699,
      "sed \n": 6700,
      "s. M": 6701,
      "tob": 6702,
      "taught ": 6703,
      "wave ": 6704,
      "ysm": 6705,
      "—though ": 6706,
      "’em": 6707,
      "’re ": 6708,
      "s at the ": 6709,
      "inscrip": 6710,
      "anu": 6711,
      "an’": 6712,
      "an’ \n": 6713,
      "the first ": 6714,
      "eness": 6715,
      "ed our ": 6716,
      "ed their ": 6717,
      "and the \n": 6718,
      "org": 6719,
      "orn": 6720,
      "ing. The ": 6721,
      "sto": 6722,
      "to our ": 6723,
      "to take ": 6724,
      "a good ": 6725,
      "at its ": 6726,
      "at first ": 6727,
      "as his ": 6728,
      "er in ": 6729,
      "es. | ": 6730,
      "es, and the ": 6731,
      "it, but ": 6732,
      "itud": 6733,
      "elab": 6734,
      "in fron": 6735,
      "| did ": 6736,
      "leth": 6737,
      "acted ": 6738,
      "liber": 6739,
      "on our ": 6740,
      "asle": 6741,
      "amm": 6742,
      "unh": 6743,
      "unt": 6744,
      "un’t ": 6745,
      "unimagin": 6746,
      "unnatural ": 6747,
      "uncomfor": 6748,
      "unpleasant ": 6749,
      "dial ": 6750,
      "of the old ": 6751,
      "emin": 6752,
      "defin": 6753,
      "depos": 6754,
      "aggl": 6755,
      "ague ": 6756,
      "his eyes ": 6757,
      "educ": 6758,
      "entities ": 6759,
      "it seemed to ": 6760,
      "it was": 6761,
      "term": 6762,
      "in the old ": 6763,
      "expan": 6764,
      "extrac": 6765,
      "umul": 6766,
      "up, ": 6767,
      "ay of ": 6768,
      "me the ": 6769,
      "from its ": 6770,
      "persu": 6771,
      "have no ": 6772,
      ". Ab": 6773,
      ". As the ": 6774,
      ". All the ": 6775,
      "ic and ": 6776,
      "meet ": 6777,
      "method": 6778,
      "thing that ": 6779,
      "thing which ": 6780,
      "motor ": 6781,
      "worse ": 6782,
      "them the ": 6783,
      "crou": 6784,
      "crumbl": 6785,
      "ities of ": 6786,
      "boat": 6787,
      "him a ": 6788,
      ". Ward": 6789,
      "overn": 6790,
      "only in ": 6791,
      "crew ": 6792,
      "aim ": 6793,
      "obtained ": 6794,
      "you, ": 6795,
      "where he ": 6796,
      "are not ": 6797,
      "small, ": 6798,
      "twice ": 6799,
      "came from the ": 6800,
      "he had seen ": 6801,
      "pron": 6802,
      "attack": 6803,
      "ance and ": 6804,
      "found \n": 6805,
      "known \n": 6806,
      "things \n": 6807,
      "soil ": 6808,
      "| had \n": 6809,
      "port ": 6810,
      "northern ": 6811,
      ". By ": 6812,
      "encour": 6813,
      "nearer ": 6814,
      "down to the ": 6815,
      "fear of ": 6816,
      "rubber": 6817,
      "audi": 6818,
      "highest ": 6819,
      "star-": 6820,
      "staring ": 6821,
      "stark ": 6822,
      "mention ": 6823,
      "us to ": 6824,
      "many \n": 6825,
      "much \n": 6826,
      "thin, ": 6827,
      "love ": 6828,
      "ment, ": 6829,
      "name of ": 6830,
      "link": 6831,
      "torn ": 6832,
      "? What ": 6833,
      "lying ": 6834,
      "end the ": 6835,
      "litten ": 6836,
      "house of ": 6837,
      "chill": 6838,
      "interv": 6839,
      "again, ": 6840,
      "way of ": 6841,
      "e- \n": 6842,
      "understand": 6843,
      "ed in his ": 6844,
      "daylight ": 6845,
      "| was \n": 6846,
      "through the \n": 6847,
      "how to ": 6848,
      "sort": 6849,
      "alley ": 6850,
      "afterno": 6851,
      "pictur": 6852,
      "peril ": 6853,
      "able, ": 6854,
      "barn": 6855,
      "barked ": 6856,
      "Once ": 6857,
      "remind": 6858,
      "naturally ": 6859,
      "detach": 6860,
      "rocks ": 6861,
      "wooded ": 6862,
      "gave a ": 6863,
      "base ": 6864,
      "warning ": 6865,
      "hope ": 6866,
      "stuff": 6867,
      "ness, and ": 6868,
      "daown ": 6869,
      "acces": 6870,
      "mist ": 6871,
      "centuries ": 6872,
      "travel": 6873,
      "peaked ": 6874,
      "ivory ": 6875,
      "studied ": 6876,
      "victi": 6877,
      "temple": 6878,
      "176": 6879,
      "rumour ": 6880,
      "occurred ": 6881,
      "Alhaz": 6882,
      "hollow ": 6883,
      "forced to ": 6884,
      "temper": 6885,
      "companion ": 6886,
      "As | ": 6887,
      "From ": 6888,
      "increasing ": 6889,
      "foet": 6890,
      "perfectly ": 6891,
      ". Something ": 6892,
      "Miskaton": 6893,
      "system ": 6894,
      "thirty ": 6895,
      "ankly ": 6896,
      "cheap ": 6897,
      "confid": 6898,
      "gasp": 6899,
      "wharves ": 6900,
      "telephone ": 6901,
      "declar": 6902,
      "hanging ": 6903,
      "Latin ": 6904,
      "dimly ": 6905,
      "Ulthar ": 6906,
      "chaos ": 6907,
      "baffling ": 6908,
      "cottage ": 6909,
      "superstiti": 6910,
      "trying to ": 6911,
      "expedition": 6912,
      "frozen ": 6913,
      "shrin": 6914,
      "Georgian ": 6915,
      "rescu": 6916,
      "Terrible ": 6917,
      "purpose": 6918,
      "lodg": 6919,
      "almost-": 6920,
      "heerd ": 6921,
      "azurewic": 6922,
      "Kezia": 6923,
      "* ": 6924,
      "-2": 6925,
      "Fe": 6926,
      "Gard": 6927,
      "IV": 6928,
      "Jen": 6929,
      "Ou": 6930,
      "OTH": 6931,
      "Por": 6932,
      "Sch": 6933,
      "Sir": 6934,
      "Some": 6935,
      "The": 6936,
      "bin": 6937,
      "band ": 6938,
      "bade ": 6939,
      "cow": 6940,
      "de of ": 6941,
      "eter ": 6942,
      "fying ": 6943,
      "fountain": 6944,
      "hudd": 6945,
      "iri": 6946,
      "is of ": 6947,
      "kill ": 6948,
      "lac": 6949,
      "moc": 6950,
      "nu": 6951,
      "nav": 6952,
      "pag": 6953,
      "rous": 6954,
      "ry, ": 6955,
      "ts, and ": 6956,
      "ven the ": 6957,
      "wo": 6958,
      "war ": 6959,
      "wound": 6960,
      "° ": 6961,
      "“D": 6962,
      "e in the ": 6963,
      "thri": 6964,
      "inj": 6965,
      "injec": 6966,
      "inches ": 6967,
      "inspir": 6968,
      "inquir": 6969,
      "onc": 6970,
      "onz": 6971,
      "oning ": 6972,
      "onom": 6973,
      "ore": 6974,
      ". K": 6975,
      "revi": 6976,
      "altern": 6977,
      "step ": 6978,
      "to him": 6979,
      "to leave ": 6980,
      "at any ": 6981,
      "as possible ": 6982,
      "ates ": 6983,
      "ate and ": 6984,
      "er of the ": 6985,
      "esid": 6986,
      "cher": 6987,
      "it—": 6988,
      "item": 6989,
      "in Arkham": 6990,
      "ice and ": 6991,
      "acquir": 6992,
      "on of ": 6993,
      "on its ": 6994,
      "on their ": 6995,
      "being": 6996,
      "had to ": 6997,
      "had he ": 6998,
      "abysm": 6999,
      "deem": 7000,
      "iron": 7001,
      "verse ": 7002,
      "spell ": 7003,
      "tern ": 7004,
      "s of those ": 7005,
      "ent of the ": 7006,
      "which is ": 7007,
      "use of ": 7008,
      "concre": 7009,
      "for this ": 7010,
      "ply": 7011,
      "trail ": 7012,
      "bless": 7013,
      "s and the \n": 7014,
      "be \n": 7015,
      "from an ": 7016,
      "perple": 7017,
      "they was ": 7018,
      "gram": 7019,
      "ic of ": 7020,
      "ted a ": 7021,
      "ted by the ": 7022,
      "mete": 7023,
      "mortal": 7024,
      "astic ": 7025,
      "crack": 7026,
      "crust": 7027,
      "bronz": 7028,
      "able of ": 7029,
      "cursed ": 7030,
      ". | did not ": 7031,
      "only by ": 7032,
      "creak": 7033,
      "creaking ": 7034,
      "horn": 7035,
      "giant ": 7036,
      "before. \n": 7037,
      "ts to ": 7038,
      "madly ": 7039,
      "stranger ": 7040,
      "came to the ": 7041,
      "marsh": 7042,
      "marks ": 7043,
      "month ": 7044,
      "shak": 7045,
      "shaking ": 7046,
      "shambl": 7047,
      "never": 7048,
      "like those ": 7049,
      "drug": 7050,
      "dreams and ": 7051,
      "formless ": 7052,
      "formed a ": 7053,
      "even more ": 7054,
      "ful \n": 7055,
      ". Such ": 7056,
      "time | ": 7057,
      "after all": 7058,
      "if he ": 7059,
      "if you ": 7060,
      "nighted ": 7061,
      "colleg": 7062,
      "arred ": 7063,
      "ated with ": 7064,
      "t of a ": 7065,
      "began": 7066,
      "waters ": 7067,
      "rub": 7068,
      "rushed ": 7069,
      "whole \n": 7070,
      "Then the ": 7071,
      "sket": 7072,
      "going to ": 7073,
      "seemed to \n": 7074,
      "link ": 7075,
      "first \n": 7076,
      "made it ": 7077,
      "heard of ": 7078,
      "serious ": 7079,
      "beyond all ": 7080,
      "e of the \n": 7081,
      "again. \n": 7082,
      "black \n": 7083,
      "brilli": 7084,
      "understand ": 7085,
      "stone \n": 7086,
      "little \n": 7087,
      "courty": 7088,
      "coast": 7089,
      "wrought ": 7090,
      ". But the ": 7091,
      "furry ": 7092,
      "sledg": 7093,
      "stony ": 7094,
      "sunken ": 7095,
      "explain ": 7096,
      "imagine ": 7097,
      "pure ": 7098,
      "purple ": 7099,
      "tee": 7100,
      "self-": 7101,
      "detail ": 7102,
      "ly, the ": 7103,
      "followed ": 7104,
      "catch ": 7105,
      "as if the ": 7106,
      "mass of ": 7107,
      "find the ": 7108,
      "tell you ": 7109,
      "ence, and ": 7110,
      "pallid ": 7111,
      "space and ": 7112,
      "regions ": 7113,
      "ded, and ": 7114,
      "time. \n": 7115,
      "St. ": 7116,
      "stairs ": 7117,
      "remaining ": 7118,
      "paper": 7119,
      "streets ": 7120,
      "bodily ": 7121,
      "peaks ": 7122,
      "dug ": 7123,
      "spring ": 7124,
      "occasion ": 7125,
      "account": 7126,
      "itude": 7127,
      ". When | ": 7128,
      "clouds ": 7129,
      "depth ": 7130,
      "paused ": 7131,
      "crossed ": 7132,
      "specimen ": 7133,
      "connecting ": 7134,
      "escape ": 7135,
      "nervously ": 7136,
      "one of those ": 7137,
      "hollow": 7138,
      "repeat ": 7139,
      "fragments of ": 7140,
      "wilder ": 7141,
      "quarter ": 7142,
      "filled ": 7143,
      "waiting ": 7144,
      ". There was no ": 7145,
      "features ": 7146,
      "snapp": 7147,
      "wildest ": 7148,
      "finding ": 7149,
      "rapidly ": 7150,
      "risen ": 7151,
      "preserved ": 7152,
      "column ": 7153,
      "school ": 7154,
      "text ": 7155,
      "climbing ": 7156,
      "displayed ": 7157,
      "eenth ": 7158,
      "there is no ": 7159,
      "damnable ": 7160,
      "yawning ": 7161,
      "strok": 7162,
      "emerged ": 7163,
      "aneous ": 7164,
      "professor": 7165,
      "quaint": 7166,
      "decadent ": 7167,
      "measur": 7168,
      "widely ": 7169,
      "glibber": 7170,
      "glaci": 7171,
      "roughly ": 7172,
      "unmistakably ": 7173,
      "countryside ": 7174,
      "faith": 7175,
      "ograph ": 7176,
      "Suydam ": 7177,
      "fasten": 7178,
      "thoroughly ": 7179,
      "for the first time ": 7180,
      "there came a ": 7181,
      "William": 7182,
      "establish": 7183,
      "Tillinghast ": 7184,
      "immense ": 7185,
      "attribut": 7186,
      "plunged ": 7187,
      "yield": 7188,
      ". Before ": 7189,
      "Azath": 7190,
      "energ": 7191,
      "chosen ": 7192,
      "sardonic ": 7193,
      "Yog-Soth": 7194,
      "Octob": 7195,
      "Johansen ": 7196,
      "splendid ": 7197,
      "elabor": 7198,
      "accessible ": 7199,
      "victim ": 7200,
      "perplex": 7201,
      "(19": 7202,
      ".. . ": 7203,
      "?” ": 7204,
      "Bab": 7205,
      "Cam": 7206,
      "Dut": 7207,
      "Fri": 7208,
      "Mo": 7209,
      "Mur": 7210,
      "Moun": 7211,
      "Mean": 7212,
      "Mazurewic": 7213,
      "Ro": 7214,
      "Soci": 7215,
      "Wi": 7216,
      "Zen": 7217,
      "d’": 7218,
      "fy": 7219,
      "gyp": 7220,
      "jac": 7221,
      "ker ": 7222,
      "ket": 7223,
      "pe ": 7224,
      "she \n": 7225,
      "s. E": 7226,
      "usion ": 7227,
      "vow": 7228,
      "ving \n": 7229,
      "weak ": 7230,
      "yet": 7231,
      "“| ": 7232,
      "e which ": 7233,
      "s | ": 7234,
      "in, ": 7235,
      "inch ": 7236,
      "inqui": 7237,
      "the last ": 7238,
      ", 192": 7239,
      ", too, ": 7240,
      ". .. ": 7241,
      "of any ": 7242,
      "ing, but ": 7243,
      "refin": 7244,
      "resum": 7245,
      "returning ": 7246,
      "alone, ": 7247,
      "station ": 7248,
      "hip ": 7249,
      "to that ": 7250,
      "a second ": 7251,
      "ator ": 7252,
      "ated the ": 7253,
      "ited ": 7254,
      "it. The ": 7255,
      "in S": 7256,
      "in these ": 7257,
      "in 18": 7258,
      "in view ": 7259,
      "| looked ": 7260,
      "| do not ": 7261,
      "was that ": 7262,
      "leer": 7263,
      "that their ": 7264,
      "accompan": 7265,
      "activ": 7266,
      "had once ": 7267,
      "es with ": 7268,
      "ossom": 7269,
      "disin": 7270,
      "dign": 7271,
      "tible ": 7272,
      "whel": 7273,
      "abaout ": 7274,
      "siven": 7275,
      "shop": 7276,
      "destruc": 7277,
      "rook": 7278,
      "whisk": 7279,
      "; that ": 7280,
      "; hence ": 7281,
      "adjac": 7282,
      "ed; but ": 7283,
      "theast": 7284,
      "spit": 7285,
      "oursel": 7286,
      "in the night": 7287,
      "eval ": 7288,
      "us, and ": 7289,
      "one could ": 7290,
      "s, who ": 7291,
      "plum": 7292,
      "play ": 7293,
      "plung": 7294,
      "played ": 7295,
      "by the \n": 7296,
      "blossom": 7297,
      "kne": 7298,
      "comprehen": 7299,
      "me with ": 7300,
      "clad ": 7301,
      "class": 7302,
      "prehistoric ": 7303,
      ". Again ": 7304,
      "on the other ": 7305,
      "provid": 7306,
      "flic": 7307,
      "flutter": 7308,
      "affair": 7309,
      "manship ": 7310,
      "would have been ": 7311,
      "been a ": 7312,
      "parts of ": 7313,
      "utmost ": 7314,
      "y, the ": 7315,
      "therly ": 7316,
      "aster": 7317,
      "brown ": 7318,
      "ations \n": 7319,
      "ations of the ": 7320,
      "ings \n": 7321,
      "ings were ": 7322,
      "when we ": 7323,
      "does ": 7324,
      "throng": 7325,
      "overwhel": 7326,
      "; and | ": 7327,
      "horse ": 7328,
      "about the \n": 7329,
      "presence of ": 7330,
      "shape": 7331,
      "them to ": 7332,
      "finish": 7333,
      "need not ": 7334,
      "drum": 7335,
      "es, the ": 7336,
      "specific ": 7337,
      "found a ": 7338,
      "primor": 7339,
      "firm ": 7340,
      "full": 7341,
      "it was a ": 7342,
      "correc": 7343,
      "follow ": 7344,
      "not, ": 7345,
      "place of ": 7346,
      "you will ": 7347,
      "sense ": 7348,
      "lot ": 7349,
      "over his ": 7350,
      "Carter, ": 7351,
      "sub-": 7352,
      "minute ": 7353,
      "end of the ": 7354,
      "through that ": 7355,
      "caused ": 7356,
      ". It was not ": 7357,
      "long and ": 7358,
      ". Nor": 7359,
      "centre": 7360,
      ". For the ": 7361,
      "brief": 7362,
      "knew that ": 7363,
      "famous ": 7364,
      "canv": 7365,
      "independ": 7366,
      "counter": 7367,
      "ingly \n": 7368,
      "e—a ": 7369,
      "write ": 7370,
      "excellent ": 7371,
      "life and ": 7372,
      "contro": 7373,
      "! The ": 7374,
      "passing ": 7375,
      "passag": 7376,
      "delusion": 7377,
      "now, and ": 7378,
      "earth, ": 7379,
      "headed ": 7380,
      "squatter": 7381,
      "unknown Kadath ": 7382,
      "realise ": 7383,
      "behold ": 7384,
      "dark \n": 7385,
      "just as ": 7386,
      "tenant": 7387,
      "monstros": 7388,
      "memory": 7389,
      "purcha": 7390,
      "room and ": 7391,
      "teen": 7392,
      "may have been ": 7393,
      "remn": 7394,
      "natural": 7395,
      "Dr. \n": 7396,
      "heavily ": 7397,
      "venerable ": 7398,
      "transpor": 7399,
      "sed, and ": 7400,
      "however, \n": 7401,
      "question ": 7402,
      "warned ": 7403,
      "seeing ": 7404,
      "spaces ": 7405,
      "cloud ": 7406,
      "out of that ": 7407,
      "shadows ": 7408,
      "shadowed ": 7409,
      "must have \n": 7410,
      "newcom": 7411,
      "fragment ": 7412,
      ". We had ": 7413,
      "slopes ": 7414,
      "ward, ": 7415,
      "Gilman’s ": 7416,
      "narrow": 7417,
      "watching ": 7418,
      "rank ": 7419,
      "continued to ": 7420,
      "descended ": 7421,
      "consciou": 7422,
      "cloudy ": 7423,
      "workmen ": 7424,
      "grotesquely ": 7425,
      "history ": 7426,
      "opened the ": 7427,
      "cosmo": 7428,
      "below the ": 7429,
      "books and ": 7430,
      "sculptured ": 7431,
      "prepared to ": 7432,
      "greater than ": 7433,
      "sailed ": 7434,
      "vault ": 7435,
      ". After a ": 7436,
      "cannot be ": 7437,
      "granite ": 7438,
      "suppli": 7439,
      "violently ": 7440,
      "receiving ": 7441,
      "stretch": 7442,
      "altar ": 7443,
      "obscur": 7444,
      "makes ": 7445,
      "type of ": 7446,
      "decided that ": 7447,
      "grim": 7448,
      "savage ": 7449,
      "mirr": 7450,
      "mixed ": 7451,
      "softly ": 7452,
      "crowd ": 7453,
      "fashioned ": 7454,
      "gaze ": 7455,
      "public": 7456,
      "Elwood ": 7457,
      "vegetation ": 7458,
      "wriggl": 7459,
      "folklor": 7460,
      "folklore ": 7461,
      "West’s ": 7462,
      "business": 7463,
      "formula ": 7464,
      "transfer": 7465,
      "determined to ": 7466,
      "displac": 7467,
      "phosphorescence ": 7468,
      "When the ": 7469,
      "traveller ": 7470,
      "merchants ": 7471,
      "I’ve ": 7472,
      "beauty ": 7473,
      "splend": 7474,
      "healthy ": 7475,
      "damnably ": 7476,
      "stirr": 7477,
      "feverish ": 7478,
      "o’ the ": 7479,
      "quaint ": 7480,
      "slab ": 7481,
      "according to the ": 7482,
      "Nov": 7483,
      "analy": 7484,
      "plateau ": 7485,
      "ancestor": 7486,
      "commenced to ": 7487,
      "realised that ": 7488,
      "manner of ": 7489,
      "phantasm": 7490,
      "hints of ": 7491,
      "great-great-": 7492,
      "cobweb": 7493,
      "subterrene ": 7494,
      "resently ": 7495,
      "expedition ": 7496,
      "Suydam": 7497,
      "amount of ": 7498,
      "German ": 7499,
      "group of ": 7500,
      "edge of the ": 7501,
      "triumph": 7502,
      "insidious ": 7503,
      "straight ": 7504,
      "engulf": 7505,
      "anthropol": 7506,
      "accustomed ": 7507,
      "lack of ": 7508,
      "extravagant ": 7509,
      "civilis": 7510,
      "Nigger": 7511,
      "coffin ": 7512,
      "eptember ": 7513,
      "Terrible Old ": 7514,
      ",0": 7515,
      "3 ": 7516,
      "6 ": 7517,
      "As": 7518,
      "Ba": 7519,
      "Bur": 7520,
      "Bish": 7521,
      "Bug": 7522,
      "De": 7523,
      "EL": 7524,
      "Mon": 7525,
      "Out": 7526,
      "Ooth": 7527,
      "Rh": 7528,
      "She": 7529,
      "Slater ": 7530,
      "aj": 7531,
      "bell": 7532,
      "ding ": 7533,
      "dum": 7534,
      "dwell ": 7535,
      "daily ": 7536,
      "ethere": 7537,
      "eded": 7538,
      "foc": 7539,
      "gin": 7540,
      "gay ": 7541,
      "ian": 7542,
      "ile ": 7543,
      "k, and ": 7544,
      "lot": 7545,
      "log": 7546,
      "mood": 7547,
      "maz": 7548,
      "moss": 7549,
      "nur": 7550,
      "oil ": 7551,
      "rational ": 7552,
      "sak": 7553,
      "s. It ": 7554,
      "sway": 7555,
      "sail ": 7556,
      "sang ": 7557,
      "tel": 7558,
      "tab": 7559,
      "tap": 7560,
      "t, \n": 7561,
      "ton, ": 7562,
      "vestig": 7563,
      "y; ": 7564,
      "“E": 7565,
      "e for ": 7566,
      "s in a ": 7567,
      "s whose ": 7568,
      "s had been ": 7569,
      "inspec": 7570,
      "insid": 7571,
      "infinite ": 7572,
      ", it ": 7573,
      ", nor ": 7574,
      "ensu": 7575,
      "ed or ": 7576,
      "ed no ": 7577,
      "ed and \n": 7578,
      "outw": 7579,
      "ings, and ": 7580,
      "ingly": 7581,
      "ret": 7582,
      "refu": 7583,
      "ality": 7584,
      "sty": 7585,
      "stain": 7586,
      "ham ": 7587,
      "to those ": 7588,
      "atched ": 7589,
      "omni": 7590,
      "chant ": 7591,
      "ghost": 7592,
      "in 16": 7593,
      "see \n": 7594,
      "ses of the ": 7595,
      "was an ": 7596,
      "ictor": 7597,
      "acquaint": 7598,
      "uring the ": 7599,
      "livi": 7600,
      "had never ": 7601,
      "rid ": 7602,
      "asure": 7603,
      "assist": 7604,
      "am \n": 7605,
      "unholy ": 7606,
      "dimin": 7607,
      "noise ": 7608,
      "rod": 7609,
      "which, ": 7610,
      "irregular ": 7611,
      "ages": 7612,
      "ilder": 7613,
      ". Tw": 7614,
      ". The": 7615,
      ". This \n": 7616,
      "buzz": 7617,
      "spo": 7618,
      "spell": 7619,
      "is that ": 7620,
      "which were ": 7621,
      "which seemed to ": 7622,
      "in the end ": 7623,
      "in the cold ": 7624,
      "exhi": 7625,
      "exchang": 7626,
      "exist ": 7627,
      "s, a ": 7628,
      "s, we ": 7629,
      "awled ": 7630,
      "awake ": 7631,
      "awesome ": 7632,
      "train": 7633,
      "opin": 7634,
      "blur": 7635,
      "all of ": 7636,
      "strain ": 7637,
      "epo": 7638,
      "imit": 7639,
      "greg": 7640,
      "own \n": 7641,
      "perspec": 7642,
      "they are ": 7643,
      "could never ": 7644,
      "ous, and ": 7645,
      "ous. \n": 7646,
      "afar ": 7647,
      "affair ": 7648,
      "so long ": 7649,
      "been \n": 7650,
      "very little ": 7651,
      "their own ": 7652,
      "crag ": 7653,
      "ations, and ": 7654,
      "boat ": 7655,
      "board ": 7656,
      "phin": 7657,
      "physi": 7658,
      ", but was ": 7659,
      "doing ": 7660,
      "crest ": 7661,
      "creature ": 7662,
      "horned ": 7663,
      "press ": 7664,
      "obst": 7665,
      "pool": 7666,
      "tional ": 7667,
      "where a ": 7668,
      "those who had ": 7669,
      "futi": 7670,
      "hearing ": 7671,
      "monster": 7672,
      "ittle ": 7673,
      "dry ": 7674,
      "dragg": 7675,
      "great stone ": 7676,
      "position": 7677,
      "muse": 7678,
      "ance of the ": 7679,
      "times, ": 7680,
      "time he ": 7681,
      "after his ": 7682,
      "if \n": 7683,
      "guarded ": 7684,
      "might be": 7685,
      "facul": 7686,
      "face, ": 7687,
      "light, and ": 7688,
      "so, ": 7689,
      "| had not ": 7690,
      "note ": 7691,
      "place, and ": 7692,
      "shiver ": 7693,
      "ary \n": 7694,
      "into my ": 7695,
      ". Many ": 7696,
      "Those ": 7697,
      "Then, ": 7698,
      "skull": 7699,
      "made no ": 7700,
      "? Wh": 7701,
      "little": 7702,
      "cause ": 7703,
      "interrup": 7704,
      "incid": 7705,
      "incant": 7706,
      "way \n": 7707,
      "ably \n": 7708,
      "bright ": 7709,
      "swar": 7710,
      "bleak ": 7711,
      "how \n": 7712,
      "ed, and \n": 7713,
      "cohor": 7714,
      "son, ": 7715,
      "broad": 7716,
      "mounting ": 7717,
      "solution ": 7718,
      "captain": 7719,
      "body of ": 7720,
      "lands ": 7721,
      "syll": 7722,
      "stone, ": 7723,
      "hills and ": 7724,
      "Only ": 7725,
      "may \n": 7726,
      "same \n": 7727,
      "nature ": 7728,
      "It is ": 7729,
      "moonlit ": 7730,
      "small hour": 7731,
      "horror and ": 7732,
      "gave the ": 7733,
      ". Prob": 7734,
      "close": 7735,
      "clothing ": 7736,
      "became a ": 7737,
      "shore ": 7738,
      "circle": 7739,
      "dense ": 7740,
      "open \n": 7741,
      "space, ": 7742,
      "suggestive ": 7743,
      "wholly un": 7744,
      "reasons ": 7745,
      "sight of ": 7746,
      "back the ": 7747,
      "accep": 7748,
      "deeper ": 7749,
      "spoke of ": 7750,
      "odd \n": 7751,
      "look at ": 7752,
      "| saw that the ": 7753,
      "responsi": 7754,
      "glimpse ": 7755,
      "ominous ": 7756,
      "save the ": 7757,
      "watched the ": 7758,
      "duplic": 7759,
      "floor, ": 7760,
      "tradition ": 7761,
      "lurked ": 7762,
      "draw ": 7763,
      "valu": 7764,
      "balanc": 7765,
      "excitement ": 7766,
      "musical ": 7767,
      "calcul": 7768,
      "hole ": 7769,
      "escop": 7770,
      "addition": 7771,
      "lantern ": 7772,
      "witness": 7773,
      "vault": 7774,
      "rat-": 7775,
      "honey": 7776,
      "range ": 7777,
      "gardens ": 7778,
      "visible": 7779,
      "God! ": 7780,
      "forgotten": 7781,
      "answered ": 7782,
      "decided ": 7783,
      "rocky ": 7784,
      "grim ": 7785,
      "French ": 7786,
      "developed ": 7787,
      "Joseph Curwen": 7788,
      "expected to ": 7789,
      "arrangement ": 7790,
      "tangible ": 7791,
      "foreign ": 7792,
      "incredibly ": 7793,
      "seem to ": 7794,
      "vegetable ": 7795,
      "equal ": 7796,
      "among \n": 7797,
      "thither ": 7798,
      "waning ": 7799,
      "puzzled ": 7800,
      "to meet ": 7801,
      "evolution": 7802,
      "rolled ": 7803,
      "clutch": 7804,
      "borne ": 7805,
      "eastern ": 7806,
      "fellow-": 7807,
      "knocked ": 7808,
      "southward ": 7809,
      "o’clock ": 7810,
      "Indian ": 7811,
      "reverber": 7812,
      "absolute ": 7813,
      "twenty-": 7814,
      "concerning the ": 7815,
      "suggestions of ": 7816,
      "identifi": 7817,
      "absence ": 7818,
      "absence of ": 7819,
      "admit ": 7820,
      "complex ": 7821,
      "superstition": 7822,
      "unkemp": 7823,
      "shifting ": 7824,
      "messenger ": 7825,
      "betwixt ": 7826,
      "gleaming ": 7827,
      "opposite ": 7828,
      "classi": 7829,
      "basement ": 7830,
      "daughter ": 7831,
      "Sarnath ": 7832,
      "-paned ": 7833,
      "boldly ": 7834,
      "Birch ": 7835,
      "graveyard": 7836,
      "aside ": 7837,
      "Hatheg-": 7838,
      "steadily ": 7839,
      "phonograph ": 7840,
      "fragrant ": 7841,
      "slippery ": 7842,
      "Dexter ": 7843,
      "Pnak": 7844,
      "Tempest ": 7845,
      "vocal ": 7846,
      "bas-relief": 7847,
      "obliter": 7848,
      "admitted ": 7849,
      "myriad ": 7850,
      "Archaean ": 7851,
      "crystal ": 7852,
      "gambrel ": 7853,
      ". About ": 7854,
      "encourag": 7855,
      "primordial ": 7856,
      ",000 ": 7857,
      "telescop": 7858,
      "Hatheg-Kl": 7859,
      "), ": 7860,
      "-E": 7861,
      "30": 7862,
      "7 ": 7863,
      "Ay": 7864,
      "Bor": 7865,
      "Dar": 7866,
      "Des": 7867,
      "Gl": 7868,
      "Hy": 7869,
      "House ": 7870,
      "Janu": 7871,
      "Lu": 7872,
      "Mn": 7873,
      "Mer": 7874,
      "May ": 7875,
      "Mass": 7876,
      "Noy": 7877,
      "Pri": 7878,
      "Sk": 7879,
      "cover ": 7880,
      "ding": 7881,
      "d, and ": 7882,
      "date ": 7883,
      "dun’t ": 7884,
      "eav": 7885,
      "efully ": 7886,
      "fel": 7887,
      "fad": 7888,
      "food ": 7889,
      "func": 7890,
      "gust ": 7891,
      "gone": 7892,
      "gained ": 7893,
      "hug": 7894,
      "ile": 7895,
      "kil": 7896,
      "led the ": 7897,
      "lake ": 7898,
      "mound ": 7899,
      "nest": 7900,
      "ox": 7901,
      "ol ": 7902,
      "ogu": 7903,
      "pent": 7904,
      "rom": 7905,
      "s’": 7906,
      "ses": 7907,
      "s. In ": 7908,
      "tick": 7909,
      "veng": 7910,
      "wn": 7911,
      "wol": 7912,
      "wear ": 7913,
      "s we ": 7914,
      "inev": 7915,
      "individ": 7916,
      ", of ": 7917,
      "en’s ": 7918,
      "eness of ": 7919,
      "on’t ": 7920,
      "ed H": 7921,
      "and in ": 7922,
      "ing; ": 7923,
      "ing, and the ": 7924,
      "ree ": 7925,
      "replac": 7926,
      "ale ": 7927,
      "al, and ": 7928,
      "alcul": 7929,
      "ing from the ": 7930,
      "to him ": 7931,
      "to give ": 7932,
      "a new ": 7933,
      "a small ": 7934,
      "at night": 7935,
      "as | \n": 7936,
      "ated": 7937,
      "chor": 7938,
      "chok": 7939,
      "in all ": 7940,
      "sepul": 7941,
      "| should ": 7942,
      "| heard the ": 7943,
      "ical, ": 7944,
      "that is ": 7945,
      "that they were ": 7946,
      "lime": 7947,
      "lives ": 7948,
      "beam ": 7949,
      "es on the ": 7950,
      "rim ": 7951,
      "amnes": 7952,
      "diment": 7953,
      "diseas": 7954,
      "distric": 7955,
      "sist ": 7956,
      "shot": 7957,
      "shutter": 7958,
      "deb": 7959,
      "which": 7960,
      "agon ": 7961,
      "frankly ": 7962,
      "forget": 7963,
      "ed. He ": 7964,
      "busy ": 7965,
      "ental ": 7966,
      "ently": 7967,
      "spaw": 7968,
      "with some ": 7969,
      "which might ": 7970,
      "exec": 7971,
      "exquis": 7972,
      "one of \n": 7973,
      "one day ": 7974,
      "quot": 7975,
      "s, was ": 7976,
      "s, with ": 7977,
      "out a ": 7978,
      "ophi": 7979,
      "e, or ": 7980,
      "sco": 7981,
      "complain": 7982,
      "hether ": 7983,
      "from those ": 7984,
      "impass": 7985,
      "presum": 7986,
      "prefer": 7987,
      "have to ": 7988,
      ". An ": 7989,
      ". After": 7990,
      "more, ": 7991,
      "provision": 7992,
      "flick": 7993,
      "visu": 7994,
      "manner": 7995,
      "worship": 7996,
      "likeness ": 7997,
      "brac": 7998,
      ", but he ": 7999,
      ". | am ": 8000,
      "only to ": 8001,
      "selec": 8002,
      "about it": 8003,
      "about his ": 8004,
      "poign": 8005,
      "polished ": 8006,
      "cases of ": 8007,
      "illusion": 8008,
      "ts were ": 8009,
      "smell": 8010,
      "ceased": 8011,
      "total ": 8012,
      "heart ": 8013,
      ". He had, ": 8014,
      "surg": 8015,
      "dreamland ": 8016,
      ". Old ": 8017,
      "promin": 8018,
      "forming ": 8019,
      "talk of ": 8020,
      "soap": 8021,
      "cold": 8022,
      "ogen": 8023,
      "places": 8024,
      "down from ": 8025,
      "you know": 8026,
      "senti": 8027,
      "member": 8028,
      "members ": 8029,
      "come from the ": 8030,
      "into his ": 8031,
      "wholly \n": 8032,
      "Thur": 8033,
      "men were ": 8034,
      "ski": 8035,
      "night the ": 8036,
      "loqu": 8037,
      "weir": 8038,
      "lines of ": 8039,
      "? The ": 8040,
      "heard a ": 8041,
      ". Nor ": 8042,
      "threw ": 8043,
      "swamp ": 8044,
      "since \n": 8045,
      "keen": 8046,
      "engag": 8047,
      "howl": 8048,
      "howling ": 8049,
      "court ": 8050,
      "course of ": 8051,
      "decay ": 8052,
      "do \n": 8053,
      "geneal": 8054,
      "felt the ": 8055,
      "countr": 8056,
      "counted ": 8057,
      "then \n": 8058,
      "walls of ": 8059,
      "entire": 8060,
      "capable of ": 8061,
      "body": 8062,
      "house was ": 8063,
      "geome": 8064,
      "squir": 8065,
      "nerves ": 8066,
      "terrible \n": 8067,
      "reach the ": 8068,
      "barking ": 8069,
      "doubly ": 8070,
      "doors ": 8071,
      "efit ": 8072,
      "Dr. Willet": 8073,
      "s in the \n": 8074,
      ". Ex": 8075,
      ". Every": 8076,
      "sensation ": 8077,
      "whisper ": 8078,
      "whispers ": 8079,
      "warm": 8080,
      "ordin": 8081,
      "charg": 8082,
      "charnel ": 8083,
      "learning ": 8084,
      "monstrous \n": 8085,
      "hoar": 8086,
      "mists ": 8087,
      "Old On": 8088,
      "sight and ": 8089,
      "means of ": 8090,
      "shape ": 8091,
      "noticed the ": 8092,
      "personality ": 8093,
      "But the ": 8094,
      "world’s ": 8095,
      "says ": 8096,
      "simply ": 8097,
      "deduc": 8098,
      "missing": 8099,
      "Star": 8100,
      "easy ": 8101,
      "responsible ": 8102,
      "shriek ": 8103,
      "delight": 8104,
      "wheel": 8105,
      "sharp": 8106,
      "circle ": 8107,
      "touched ": 8108,
      "probable ": 8109,
      "none the ": 8110,
      "studied the ": 8111,
      "visitor": 8112,
      "secrec": 8113,
      "section": 8114,
      "pause ": 8115,
      "crossed the ": 8116,
      "idea of ": 8117,
      "shudder ": 8118,
      "librar": 8119,
      "Romero ": 8120,
      "Whateley’s ": 8121,
      "flew ": 8122,
      "templ": 8123,
      "report ": 8124,
      "fragments ": 8125,
      "that, ": 8126,
      "receiv": 8127,
      "God, ": 8128,
      "galley": 8129,
      "possession ": 8130,
      "scientific": 8131,
      "reflected ": 8132,
      "reflection": 8133,
      "filled with ": 8134,
      "electrical ": 8135,
      "picturesqu": 8136,
      "increasingly ": 8137,
      "round the ": 8138,
      "hic ": 8139,
      "ceased ": 8140,
      "ceased to ": 8141,
      "tremend": 8142,
      "importance ": 8143,
      "horrible": 8144,
      "Pickman": 8145,
      "onyx": 8146,
      ". Sometimes ": 8147,
      "coloured ": 8148,
      "constant ": 8149,
      "Legras": 8150,
      "travers": 8151,
      "stronger ": 8152,
      "limitless ": 8153,
      "guide ": 8154,
      "winter ": 8155,
      "youth’s ": 8156,
      "still the ": 8157,
      "river-": 8158,
      "gasol": 8159,
      "brush": 8160,
      "photograp": 8161,
      "revelation ": 8162,
      "desperately ": 8163,
      "policem": 8164,
      "smok": 8165,
      "smoke ": 8166,
      "vastly ": 8167,
      ". Un": 8168,
      "startling ": 8169,
      "involving ": 8170,
      "eager": 8171,
      "psycholog": 8172,
      "emerg": 8173,
      "rattling ": 8174,
      "aroused ": 8175,
      "current ": 8176,
      "effort to ": 8177,
      "separate ": 8178,
      "likely to ": 8179,
      "steady ": 8180,
      "dangerous ": 8181,
      "phantas": 8182,
      "vortex": 8183,
      "blasted ": 8184,
      "clustered ": 8185,
      "void of ": 8186,
      "conclusion": 8187,
      "surrounding ": 8188,
      "barrier ": 8189,
      "formulae ": 8190,
      "always \n": 8191,
      "shoulder": 8192,
      "furnish": 8193,
      ". Some of the ": 8194,
      "private ": 8195,
      "relev": 8196,
      "thousands of ": 8197,
      "-Narg": 8198,
      "monolith": 8199,
      "high-priest ": 8200,
      "Vermont ": 8201,
      "ability ": 8202,
      "chiselled ": 8203,
      "symbol ": 8204,
      "anxious to ": 8205,
      "genuine ": 8206,
      "Europ": 8207,
      "breathing ": 8208,
      "Edward’s ": 8209,
      "garret ": 8210,
      "five-pointed ": 8211,
      "Zadok ": 8212,
      "meadow": 8213,
      "Herbert ": 8214,
      "hewn ": 8215,
      "Gothic ": 8216,
      "intervening ": 8217,
      "Febru": 8218,
      "Nigger-": 8219,
      "Ooth-Narg": 8220,
      "Rhod": 8221,
      "sepulch": 8222,
      "'d ": 8223,
      "-grown ": 8224,
      "., \n": 8225,
      "14": 8226,
      "30 ": 8227,
      "Brid": 8228,
      "Cer": 8229,
      "E ": 8230,
      "ES": 8231,
      "Em": 8232,
      "Ear": 8233,
      "East ": 8234,
      "Egyp": 8235,
      "God ": 8236,
      "Just ": 8237,
      "Kilder": 8238,
      "Mil": 8239,
      "Nature ": 8240,
      "Oon": 8241,
      "Town ": 8242,
      "Wor": 8243,
      "Wing": 8244,
      "a. \n": 8245,
      "bal ": 8246,
      "bold ": 8247,
      "bath": 8248,
      "bird ": 8249,
      "e. S": 8250,
      "fy ": 8251,
      "gur": 8252,
      "govern": 8253,
      "ior": 8254,
      "ific": 8255,
      "ju": 8256,
      "jung": 8257,
      "ky": 8258,
      "lain ": 8259,
      "lack": 8260,
      "les, and ": 8261,
      "mos": 8262,
      "mould ": 8263,
      "mood ": 8264,
      "nine ": 8265,
      "oon ": 8266,
      "olive ": 8267,
      "pig": 8268,
      "ration": 8269,
      "rmit": 8270,
      "sing the ": 8271,
      "she was ": 8272,
      "s. They ": 8273,
      "s. D": 8274,
      "sitting ": 8275,
      "ting \n": 8276,
      "ted, and ": 8277,
      "task ": 8278,
      "usi": 8279,
      "usive ": 8280,
      "vest": 8281,
      "vess": 8282,
      "zeal ": 8283,
      "—had ": 8284,
      "—yet ": 8285,
      "—perhaps ": 8286,
      "“S": 8287,
      "“Y": 8288,
      "s where ": 8289,
      "iner": 8290,
      "iness": 8291,
      "inking ": 8292,
      "intim": 8293,
      "inel ": 8294,
      "anean ": 8295,
      "er-": 8296,
      "er—": 8297,
      "the other ": 8298,
      "y that ": 8299,
      "y had ": 8300,
      ", whilst ": 8301,
      "en, \n": 8302,
      "enry ": 8303,
      "ones ": 8304,
      "one’s ": 8305,
      "ed some ": 8306,
      "ed in a ": 8307,
      "ed through ": 8308,
      "and was ": 8309,
      "of it ": 8310,
      "resent": 8311,
      "alof": 8312,
      "altered ": 8313,
      "sten": 8314,
      "stout ": 8315,
      "stayed ": 8316,
      "hath ": 8317,
      "hagg": 8318,
      "to its ": 8319,
      "to let ": 8320,
      "a sort of ": 8321,
      "at once": 8322,
      "as far ": 8323,
      "as possible": 8324,
      "at, ": 8325,
      "atom": 8326,
      "chose ": 8327,
      "in many ": 8328,
      ", and then ": 8329,
      "| had been ": 8330,
      "least": 8331,
      "or even ": 8332,
      "had seen ": 8333,
      "had brought ": 8334,
      "had taken ": 8335,
      "es of the \n": 8336,
      "ass ": 8337,
      "unk ": 8338,
      "unutter": 8339,
      "unmention": 8340,
      "unconscious ": 8341,
      "unwholesome ": 8342,
      "tir": 8343,
      "tiar": 8344,
      "ch \n": 8345,
      "an and ": 8346,
      "when, ": 8347,
      "aba": 8348,
      "abstr": 8349,
      "sily ": 8350,
      "shou": 8351,
      "shed": 8352,
      "deed": 8353,
      "age-": 8354,
      "version": 8355,
      "vertical ": 8356,
      "add ": 8357,
      "buti": 8358,
      "spic": 8359,
      "terrest": 8360,
      "with this ": 8361,
      "which made ": 8362,
      "which seemed ": 8363,
      "ecst": 8364,
      "extr": 8365,
      "exotic ": 8366,
      "exposed ": 8367,
      "conc": 8368,
      "consequ": 8369,
      "confirm": 8370,
      "quick ": 8371,
      "quite \n": 8372,
      "s, yet ": 8373,
      "ative": 8374,
      "for that ": 8375,
      "traf": 8376,
      "somely ": 8377,
      "ought": 8378,
      "e, though ": 8379,
      "by no mean": 8380,
      "ed to his ": 8381,
      "um of ": 8382,
      "ewor": 8383,
      "ewell": 8384,
      "ally": 8385,
      "strown ": 8386,
      "heed": 8387,
      "from any ": 8388,
      "issu": 8389,
      "implic": 8390,
      "preter": 8391,
      "grinning ": 8392,
      "e of that ": 8393,
      "ocial ": 8394,
      "old woman ": 8395,
      "mely ": 8396,
      "this was ": 8397,
      "produ": 8398,
      "ar of ": 8399,
      "no time ": 8400,
      "man, and ": 8401,
      "moan": 8402,
      "worri": 8403,
      "parti": 8404,
      "essenti": 8405,
      "crash": 8406,
      "bring": 8407,
      "ations. \n": 8408,
      "fight": 8409,
      "itively ": 8410,
      "him in the ": 8411,
      "curved ": 8412,
      "doom": 8413,
      "dog ": 8414,
      "throng ": 8415,
      "overhead": 8416,
      "overmant": 8417,
      "did the ": 8418,
      "feast": 8419,
      "creeping ": 8420,
      "about that ": 8421,
      "ure, ": 8422,
      "before, but ": 8423,
      "other than ": 8424,
      "peo": 8425,
      "eye": 8426,
      "madd": 8427,
      "man had ": 8428,
      "ers as ": 8429,
      "own, ": 8430,
      "dared to ": 8431,
      "someone ": 8432,
      "carav": 8433,
      "carrying ": 8434,
      "finished ": 8435,
      "need of ": 8436,
      "slate ": 8437,
      "dram": 8438,
      "dreamland": 8439,
      "forms of ": 8440,
      ". Se": 8441,
      "otted ": 8442,
      "wind-": 8443,
      "winding ": 8444,
      "light \n": 8445,
      "talking ": 8446,
      "s were not ": 8447,
      "corn": 8448,
      "way, ": 8449,
      "near \n": 8450,
      "fearful ": 8451,
      "rushing ": 8452,
      "chain": 8453,
      "wholesom": 8454,
      "men, and ": 8455,
      "god ": 8456,
      "ity—": 8457,
      "night of ": 8458,
      "lovel": 8459,
      "triang": 8460,
      "? And ": 8461,
      "subconscious ": 8462,
      "mine ": 8463,
      "fresco": 8464,
      "incalcul": 8465,
      "steam": 8466,
      "told \n": 8467,
      "harmon": 8468,
      "left \n": 8469,
      "black and ": 8470,
      ". There \n": 8471,
      ". There is ": 8472,
      "way to the ": 8473,
      "above": 8474,
      "three \n": 8475,
      "things, and ": 8476,
      "appeared to be ": 8477,
      "discer": 8478,
      "herit": 8479,
      "old-": 8480,
      "yet \n": 8481,
      "will \n": 8482,
      "toward the \n": 8483,
      "can \n": 8484,
      "wrong ": 8485,
      "exces": 8486,
      "excav": 8487,
      "solar ": 8488,
      "in his \n": 8489,
      "day \n": 8490,
      "sorry ": 8491,
      "slep": 8492,
      "earth-": 8493,
      "ies of the ": 8494,
      "nothing but ": 8495,
      "grocer": 8496,
      "science ": 8497,
      ". In \n": 8498,
      "said to ": 8499,
      "able, and ": 8500,
      "reaching ": 8501,
      "room was ": 8502,
      "190": 8503,
      "away the ": 8504,
      "that | could ": 8505,
      "curious \n": 8506,
      "relic": 8507,
      "calling ": 8508,
      "both \n": 8509,
      "was not a ": 8510,
      "objective ": 8511,
      "thought, ": 8512,
      "looked at ": 8513,
      "normal": 8514,
      "went to ": 8515,
      "polar ": 8516,
      "however, the ": 8517,
      "driving ": 8518,
      "secondar": 8519,
      "bits of ": 8520,
      "feet in ": 8521,
      "thereafter ": 8522,
      "servant ": 8523,
      "direct ": 8524,
      "deni": 8525,
      "open space ": 8526,
      "mountain-": 8527,
      "mountains of ": 8528,
      "space, and ": 8529,
      "titud": 8530,
      "cloud of ": 8531,
      "form a ": 8532,
      "suggestion ": 8533,
      "lesser ": 8534,
      "lessness ": 8535,
      "noticed that ": 8536,
      "spoke of the ": 8537,
      "hushed ": 8538,
      "organism": 8539,
      "bullet": 8540,
      "midnight": 8541,
      ". We were ": 8542,
      "caution ": 8543,
      "advant": 8544,
      "Marsh": 8545,
      "travelled ": 8546,
      "centre of ": 8547,
      "Charles Ward’s ": 8548,
      "Akeley": 8549,
      "next day ": 8550,
      "approxim": 8551,
      "touch of ": 8552,
      "continued ": 8553,
      "dul ": 8554,
      ". At first ": 8555,
      ". At last ": 8556,
      "believed ": 8557,
      "larger ": 8558,
      "against a ": 8559,
      "especial ": 8560,
      "should be ": 8561,
      "varying ": 8562,
      "better than ": 8563,
      "media": 8564,
      "balustr": 8565,
      "visions ": 8566,
      "origin ": 8567,
      "really \n": 8568,
      "sailors ": 8569,
      ". After that ": 8570,
      "There was ": 8571,
      "suffered ": 8572,
      "fish-": 8573,
      "blocks ": 8574,
      "crawl ": 8575,
      "precipic": 8576,
      "ahead of ": 8577,
      "fireplace ": 8578,
      "devot": 8579,
      "details ": 8580,
      "fifteen ": 8581,
      "distinctly ": 8582,
      "characters ": 8583,
      "gazing ": 8584,
      "surprising ": 8585,
      "wandered ": 8586,
      "gathering ": 8587,
      "cud ": 8588,
      "shunn": 8589,
      "vapour ": 8590,
      "conceivably ": 8591,
      "loud ": 8592,
      ". From the ": 8593,
      "gorge": 8594,
      "glass ": 8595,
      "detectives ": 8596,
      "display": 8597,
      "Jermyn": 8598,
      "Abdul ": 8599,
      "merchant ": 8600,
      "impressions ": 8601,
      "connected with ": 8602,
      "Lake had ": 8603,
      "elsewhere": 8604,
      "clutched ": 8605,
      "horizon ": 8606,
      "eventually ": 8607,
      "eager to ": 8608,
      "yawned ": 8609,
      "correspondence ": 8610,
      "professors ": 8611,
      "source of ": 8612,
      "prospec": 8613,
      "departed ": 8614,
      "Nyarlathotep ": 8615,
      "Dr. Armit": 8616,
      "journey": 8617,
      "measure": 8618,
      "mystic ": 8619,
      "Manuscri": 8620,
      "blackness": 8621,
      "setting ": 8622,
      "dismal ": 8623,
      "dismis": 8624,
      "crystal": 8625,
      "desolate ": 8626,
      "Salem": 8627,
      "welcom": 8628,
      "fitted ": 8629,
      "subterranean ": 8630,
      "Ngranek ": 8631,
      "Sir W": 8632,
      "crazy ": 8633,
      "ultane": 8634,
      "singularly ": 8635,
      "maintain": 8636,
      "Brown Jen": 8637,
      "graceful ": 8638,
      "betwixt the ": 8639,
      "Harris ": 8640,
      "shoulder ": 8641,
      "smooth ": 8642,
      "uncle’s ": 8643,
      "poison ": 8644,
      "distorted ": 8645,
      "Fenner ": 8646,
      "fathom": 8647,
      "Iranon ": 8648,
      "tightly ": 8649,
      "subsequent ": 8650,
      "ancestral ": 8651,
      "Olney Cour": 8652,
      "wireless ": 8653,
      "nauseous ": 8654,
      "mingled ": 8655,
      "fruit": 8656,
      "indescribable ": 8657,
      "intric": 8658,
      "struggling ": 8659,
      "fiendish ": 8660,
      "glittering ": 8661,
      "relatively ": 8662,
      "articulate ": 8663,
      "shoggoth": 8664,
      "atmosphere ": 8665,
      "Atl": 8666,
      "phras": 8667,
      "foetid ": 8668,
      "anomalous ": 8669,
      "superstitious ": 8670,
      "mocking ": 8671,
      "navig": 8672,
      "October ": 8673,
      ". Norry": 8674,
      "obstac": 8675,
      "Pnakotic ": 8676,
      "none the less ": 8677,
      "-litten ": 8678,
      ".D": 8679,
      "20": 8680,
      "50": 8681,
      "AN": 8682,
      "Ac": 8683,
      "Au": 8684,
      "Allen ": 8685,
      "Barry ": 8686,
      "Cath": 8687,
      "Dou": 8688,
      "Es": 8689,
      "East": 8690,
      "Gaw": 8691,
      "He": 8692,
      "Hor": 8693,
      "Here ": 8694,
      "House": 8695,
      "If ": 8696,
      "Je": 8697,
      "King ": 8698,
      "Magn": 8699,
      "Sy": 8700,
      "Span": 8701,
      "Salt": 8702,
      "Suddenly ": 8703,
      "ah": 8704,
      "ak of ": 8705,
      "bend": 8706,
      "den ": 8707,
      "dul": 8708,
      "ech": 8709,
      "fate ": 8710,
      "fumbling ": 8711,
      "hed": 8712,
      "ivi": 8713,
      "kal": 8714,
      "lob": 8715,
      "mum": 8716,
      "mudd": 8717,
      "ohem": 8718,
      "penc": 8719,
      "pau": 8720,
      "pswi": 8721,
      "sat": 8722,
      "sad ": 8723,
      "s; the ": 8724,
      "tough": 8725,
      "tted ": 8726,
      "ty, ": 8727,
      "test ": 8728,
      "ts \n": 8729,
      "ual": 8730,
      "yn": 8731,
      "é ": 8732,
      "“W": 8733,
      "”, “": 8734,
      "tho": 8735,
      "theless ": 8736,
      "thou ": 8737,
      "s it ": 8738,
      "s have ": 8739,
      "inland ": 8740,
      "invisible ": 8741,
      "inconceivable ": 8742,
      "ers. \n": 8743,
      "y or ": 8744,
      "y with ": 8745,
      ", my ": 8746,
      ", the \n": 8747,
      ", till ": 8748,
      "eness and ": 8749,
      "ed of the ": 8750,
      "ed over the ": 8751,
      "aring ": 8752,
      "arter ": 8753,
      "arose ": 8754,
      "are of ": 8755,
      "ings. \n": 8756,
      "rebu": 8757,
      "reef": 8758,
      "restrain": 8759,
      "readi": 8760,
      "alpha": 8761,
      "albuti": 8762,
      "stic": 8763,
      "stun": 8764,
      "stoo": 8765,
      "stim": 8766,
      "stood": 8767,
      "stained ": 8768,
      "hable ": 8769,
      "ing on the ": 8770,
      "his": 8771,
      "a man ": 8772,
      "a kind of ": 8773,
      "a year ": 8774,
      "a week ": 8775,
      "at which ": 8776,
      "at times ": 8777,
      "atter ": 8778,
      "ating the ": 8779,
      "atop ": 8780,
      "omp": 8781,
      "esp": 8782,
      "ese \n": 8783,
      "chron": 8784,
      "oward ": 8785,
      "in a \n": 8786,
      "in every ": 8787,
      "in Arkham ": 8788,
      ", and we ": 8789,
      "lem": 8790,
      "he did ": 8791,
      "he found ": 8792,
      "that there ": 8793,
      "that these ": 8794,
      "that none ": 8795,
      "act": 8796,
      "active ": 8797,
      "lich": 8798,
      "wife": 8799,
      "or had ": 8800,
      "beat ": 8801,
      "been, ": 8802,
      "had heard ": 8803,
      "es from ": 8804,
      "rim": 8805,
      "amu": 8806,
      "unable to ": 8807,
      "unexplain": 8808,
      "unexpected ": 8809,
      "till": 8810,
      "an odd ": 8811,
      "of the mad ": 8812,
      "where, ": 8813,
      "sigh": 8814,
      "shallow ": 8815,
      "deaf": 8816,
      "definit": 8817,
      "depart": 8818,
      "whither ": 8819,
      "irregular": 8820,
      "ages of ": 8821,
      "age. \n": 8822,
      "forever": 8823,
      "forty ": 8824,
      "adop": 8825,
      "ed. This ": 8826,
      "ent. \n": 8827,
      "oung": 8828,
      "spread": 8829,
      "ooking ": 8830,
      "which it ": 8831,
      "in the great ": 8832,
      "event ": 8833,
      "expos": 8834,
      "conclud": 8835,
      "one to ": 8836,
      "my eyes ": 8837,
      "trical ": 8838,
      "open the ": 8839,
      "scur": 8840,
      "all my ": 8841,
      "all these ": 8842,
      "up the \n": 8843,
      "compos": 8844,
      "imon ": 8845,
      "perform": 8846,
      "occult ": 8847,
      ". Another ": 8848,
      "me, and | ": 8849,
      "ar and ": 8850,
      "fly": 8851,
      "flat ": 8852,
      "vigil": 8853,
      "man’s \n": 8854,
      "work of ": 8855,
      "ance, and ": 8856,
      "ance. \n": 8857,
      "ants of ": 8858,
      "some very ": 8859,
      "bringing ": 8860,
      "e and a ": 8861,
      "fiend": 8862,
      "recover": 8863,
      "bog": 8864,
      "both the ": 8865,
      "when it ": 8866,
      ". West ": 8867,
      "doom ": 8868,
      "throw": 8869,
      "overlook": 8870,
      "; and he ": 8871,
      ". It was, ": 8872,
      "gid ": 8873,
      "him, and he ": 8874,
      "ed, for ": 8875,
      "who had been ": 8876,
      "eyond ": 8877,
      "illum": 8878,
      "twel": 8879,
      "mongre": 8880,
      "carry ": 8881,
      "The Street": 8882,
      "drag ": 8883,
      "dreams": 8884,
      "prou": 8885,
      "ucin": 8886,
      "attic": 8887,
      "even a ": 8888,
      "species ": 8889,
      "time \n": 8890,
      "face and ": 8891,
      "| had ever ": 8892,
      "saw a ": 8893,
      "ences of ": 8894,
      "held": 8895,
      "never been ": 8896,
      "vein": 8897,
      "place \n": 8898,
      "years, ": 8899,
      "years, and ": 8900,
      ". . . \n": 8901,
      "you to ": 8902,
      "disjoin": 8903,
      "disordered ": 8904,
      "ruin ": 8905,
      "chain ": 8906,
      "chasm": 8907,
      "before his ": 8908,
      "much of the ": 8909,
      "seemed to have ": 8910,
      "tried ": 8911,
      "torches ": 8912,
      "free ": 8913,
      ", | was ": 8914,
      "to be the ": 8915,
      "could not \n": 8916,
      "could not help ": 8917,
      "s— \n": 8918,
      "left, ": 8919,
      ". Finally ": 8920,
      "alid ": 8921,
      "bright": 8922,
      "swarm": 8923,
      "understood ": 8924,
      "disclos": 8925,
      "course, ": 8926,
      "will not ": 8927,
      "will never ": 8928,
      "cost": 8929,
      ". They \n": 8930,
      "toward \n": 8931,
      "e—and ": 8932,
      "walls, ": 8933,
      "silence": 8934,
      "sorts of ": 8935,
      "alley": 8936,
      "because the ": 8937,
      "passages ": 8938,
      "now—": 8939,
      "headland": 8940,
      "stone": 8941,
      "sunk ": 8942,
      "sunlight ": 8943,
      "squat ": 8944,
      "double ": 8945,
      "shewed the ": 8946,
      "tic \n": 8947,
      "every \n": 8948,
      "belief": 8949,
      "said \n": 8950,
      "said that the ": 8951,
      "tension ": 8952,
      "breed": 8953,
      "memory of ": 8954,
      "purg": 8955,
      "teach": 8956,
      "away \n": 8957,
      "ready to ": 8958,
      "nature of ": 8959,
      "s which \n": 8960,
      "It was a ": 8961,
      "repet": 8962,
      ". Then | ": 8963,
      "visits ": 8964,
      "think that ": 8965,
      "speaking ": 8966,
      "gods of ": 8967,
      "ple, ": 8968,
      "was, | ": 8969,
      "whispering ": 8970,
      "damp": 8971,
      "regard ": 8972,
      "ware": 8973,
      "hope to ": 8974,
      "face of the ": 8975,
      "imagination": 8976,
      "imaginative ": 8977,
      "air and ": 8978,
      "space": 8979,
      "titter": 8980,
      "that he could ": 8981,
      "impressed ": 8982,
      "reassur": 8983,
      "| could see ": 8984,
      ". As we ": 8985,
      "removed ": 8986,
      "curiosity": 8987,
      "de l": 8988,
      "hasten": 8989,
      "enough to \n": 8990,
      "sight of the ": 8991,
      "meaning": 8992,
      "leader": 8993,
      "study": 8994,
      "deep-": 8995,
      "instant": 8996,
      "organis": 8997,
      "bulging ": 8998,
      "scenes ": 8999,
      "caution": 9000,
      "century and ": 9001,
      "remains ": 9002,
      "refus": 9003,
      "described ": 9004,
      "offen": 9005,
      "must be \n": 9006,
      "streets and ": 9007,
      "delight ": 9008,
      "whether the ": 9009,
      "sharply ": 9010,
      "appropri": 9011,
      "circle of ": 9012,
      "impli": 9013,
      "none of the ": 9014,
      "usual": 9015,
      "descend ": 9016,
      "consciously ": 9017,
      "mysteries ": 9018,
      "account of ": 9019,
      "accountable ": 9020,
      "depths ": 9021,
      "section ": 9022,
      "flashed ": 9023,
      "away. \n": 9024,
      "against the \n": 9025,
      "extent ": 9026,
      "rest of the ": 9027,
      "black-": 9028,
      "experience": 9029,
      "calm ": 9030,
      "grandmother ": 9031,
      "survived ": 9032,
      "source": 9033,
      "pulled ": 9034,
      "blasohem": 9035,
      "reveal ": 9036,
      "artist ": 9037,
      "honour ": 9038,
      "laugh ": 9039,
      "city, and ": 9040,
      "safe ": 9041,
      "safet": 9042,
      "safely ": 9043,
      "printed ": 9044,
      "last, ": 9045,
      "agger": 9046,
      "feeling of ": 9047,
      "size and ": 9048,
      "possess ": 9049,
      "reflected, ": 9050,
      "lumber": 9051,
      "savag": 9052,
      "seemed to be a ": 9053,
      "consciousness": 9054,
      "western ": 9055,
      "increased ": 9056,
      "law ": 9057,
      "claw-": 9058,
      "cyc": 9059,
      "keeping ": 9060,
      "citizen": 9061,
      "leap ": 9062,
      "footprints ": 9063,
      "older than ": 9064,
      "distinct": 9065,
      "piece of ": 9066,
      "tangle of ": 9067,
      "and a half ": 9068,
      "investigator": 9069,
      "masonry": 9070,
      "substanti": 9071,
      "villagers ": 9072,
      "undul": 9073,
      "afflic": 9074,
      "millions of ": 9075,
      "When | ": 9076,
      "had come to ": 9077,
      "potent ": 9078,
      "intens": 9079,
      "About ": 9080,
      "ladder": 9081,
      "ladder ": 9082,
      "shrieking ": 9083,
      "Nahum’s ": 9084,
      "familiarity ": 9085,
      "vast, ": 9086,
      "varied ": 9087,
      "blue-": 9088,
      "hallucin": 9089,
      "stirred ": 9090,
      "advanced ": 9091,
      "difficulty ": 9092,
      "feverish": 9093,
      "ignorant ": 9094,
      "ascend": 9095,
      "shantak ": 9096,
      "bottom of the ": 9097,
      "fortunate ": 9098,
      "degree of ": 9099,
      "Libr": 9100,
      "similar": 9101,
      "swim": 9102,
      "instruments ": 9103,
      "bewildered ": 9104,
      "regarding ": 9105,
      "Of the ": 9106,
      "meant to ": 9107,
      "route ": 9108,
      "revolver ": 9109,
      "? Had ": 9110,
      "vapours ": 9111,
      "bearded man ": 9112,
      "entrance ": 9113,
      "affected ": 9114,
      "distinguish ": 9115,
      "in 176": 9116,
      "desire to ": 9117,
      "labyrinth": 9118,
      "Celephais ": 9119,
      "William ": 9120,
      "Benefit ": 9121,
      "gaping ": 9122,
      "releas": 9123,
      "pretty ": 9124,
      "Sarnath": 9125,
      "pitiful ": 9126,
      "intervals ": 9127,
      "beautiful ": 9128,
      "permanent ": 9129,
      "tentacles ": 9130,
      "factory ": 9131,
      "Charles’s ": 9132,
      "surprisingly ": 9133,
      "trap-door ": 9134,
      "groups of ": 9135,
      "princip": 9136,
      "ING": 9137,
      "in order to ": 9138,
      "unbelievable ": 9139,
      "catacomb": 9140,
      "guardi": 9141,
      "threaten": 9142,
      "aéroplane ": 9143,
[...]
