{
  "version": "1.0",
  "truncation": null,
  "padding": null,
  "added_tokens": [],
  "normalizer": null,
  "pre_tokenizer": null,
  "post_processor": null,
  "decoder": null,
  "model": {
    "type": "BPE",
    "dropout": null,
    "unk_token": null,
    "continuing_subword_prefix": null,
    "end_of_word_suffix": null,
    "fuse_unk": false,
    "byte_fallback": false,
    "ignore_merges": false,
    "vocab": {
      "\n": 0,
      " ": 1,
      "!": 2,
      "\"": 3,
      "&": 4,
      "'": 5,
      "(": 6,
      ")": 7,
      "*": 8,
      "+": 9,
      ",": 10,
      "-": 11,
      ".": 12,
      "/": 13,
      "0": 14,
      "1": 15,
      "2": 16,
      "3": 17,
      "4": 18,
      "5": 19,
      "6": 20,
      "7": 21,
      "8": 22,
      "9": 23,
      ":": 24,
      ";": 25,
      "=": 26,
      "?": 27,
      "A": 28,
      "B": 29,
      "C": 30,
      "D": 31,
      "E": 32,
      "F": 33,
      "G": 34,
      "H": 35,
      "I": 36,
      "J": 37,
      "K": 38,
      "L": 39,
      "M": 40,
      "N": 41,
      "O": 42,
      "P": 43,
      "Q": 44,
      "R": 45,
      "S": 46,
      "T": 47,
      "U": 48,
      "V": 49,
      "W": 50,
      "X": 51,
      "Y": 52,
      "Z": 53,
      "[": 54,
      "]": 55,
      "_": 56,
      "a": 57,
      "b": 58,
      "c": 59,
      "d": 60,
      "e": 61,
      "f": 62,
      "g": 63,
      "h": 64,
      "i": 65,
      "j": 66,
      "k": 67,
      "l": 68,
      "m": 69,
      "n": 70,
      "o": 71,
      "p": 72,
      "q": 73,
      "r": 74,
      "s": 75,
      "t": 76,
      "u": 77,
      "v": 78,
      "w": 79,
      "x": 80,
      "y": 81,
      "z": 82,
      "�": 83,
      "e ": 84,
      "th": 85,
      "d ": 86,
      "t ": 87,
      "s ": 88,
      "in": 89,
      "er": 90,
      "an": 91,
      ", ": 92,
      "ou": 93,
      " th": 94,
      "en": 95,
      "on": 96,
      ". ": 97,
      "y ": 98,
      "or": 99,
      "ing": 100,
      "ar": 101,
      "o ": 102,
      "of": 103,
      "ed ": 104,
      "al": 105,
      " the ": 106,
      "a ": 107,
      "and ": 108,
      "ha": 109,
      "st": 110,
      "wa": 111,
      "re": 112,
      ".  ": 113,
      "ing ": 114,
      "the ": 115,
      "hi": 116,
      "to ": 117,
      "er ": 118,
      "of ": 119,
      "at ": 120,
      "om": 121,
      "el": 122,
      "he ": 123,
      "it": 124,
      "was ": 125,
      "es": 126,
      "at": 127,
      "ow": 128,
      "en ": 129,
      "ch": 130,
      "e\n": 131,
      "li": 132,
      "be": 133,
      "le": 134,
      "in ": 135,
      "ac": 136,
      "gh": 137,
      "for": 138,
      "wi": 139,
      "ere ": 140,
      "l ": 141,
      "is": 142,
      "ly ": 143,
      "you": 144,
      "as": 145,
      ".\n": 146,
      "em": 147,
      "oo": 148,
      "ev": 149,
      "had ": 150,
      "on ": 151,
      "ti": 152,
      "ir": 153,
      "no": 154,
      "I ": 155,
      "it ": 156,
      "ri": 157,
      "ed": 158,
      "es ": 159,
      "is ": 160,
      "un": 161,
      "to": 162,
      "with": 163,
      "ld ": 164,
      "wh": 165,
      "ro": 166,
      "k ": 167,
      "an ": 168,
      "le ": 169,
      "ve ": 170,
      "ur": 171,
      ", and ": 172,
      "us": 173,
      "ab": 174,
      "am": 175,
      "se": 176,
      "that ": 177,
      "ad": 178,
      "ic": 179,
      "il": 180,
      "id": 181,
      "ag": 182,
      "his ": 183,
      "sh": 184,
      "ut ": 185,
      "  ": 186,
      "--": 187,
      "os": 188,
      "as ": 189,
      "out ": 190,
      "ould ": 191,
      "you ": 192,
      "ey ": 193,
      "ent": 194,
      "up": 195,
      "and": 196,
      "'s ": 197,
      "ear": 198,
      "sa": 199,
      "with ": 200,
      "s, ": 201,
      "op": 202,
      "e, ": 203,
      "not ": 204,
      "ch ": 205,
      "The ": 206,
      "were ": 207,
      "ver": 208,
      "s\n": 209,
      "our": 210,
      "ly": 211,
      "ough": 212,
      "of the ": 213,
      "ter": 214,
      "fr": 215,
      "oth": 216,
      "for ": 217,
      "f ": 218,
      ",\n": 219,
      "di": 220,
      "or ": 221,
      "Th": 222,
      "et": 223,
      "one ": 224,
      "n ": 225,
      "'\n": 226,
      "ap": 227,
      "ke ": 228,
      "him": 229,
      " that ": 230,
      "ec": 231,
      "whi": 232,
      "ol": 233,
      "wor": 234,
      "ent ": 235,
      "si": 236,
      "ex": 237,
      "oun": 238,
      "all": 239,
      "' ": 240,
      "al ": 241,
      "in the ": 242,
      "ul": 243,
      "be ": 244,
      "ep": 245,
      "tr": 246,
      "qu": 247,
      "ain": 248,
      "som": 249,
      "He ": 250,
      "sp": 251,
      "her ": 252,
      "com": 253,
      "have ": 254,
      "It ": 255,
      "all ": 256,
      "from": 257,
      "'t ": 258,
      "go": 259,
      "ow ": 260,
      "con": 261,
      "t\n": 262,
      "oc": 263,
      "ea": 264,
      "me": 265,
      "but ": 266,
      "me ": 267,
      "tw": 268,
      "pl": 269,
      "su": 270,
      "are ": 271,
      "she ": 272,
      "kn": 273,
      "hat ": 274,
      "ay": 275,
      "ever": 276,
      "ce ": 277,
      "et ": 278,
      " the\n": 279,
      "igh": 280,
      "ir ": 281,
      "im": 282,
      "ew": 283,
      "ed to ": 284,
      "ong": 285,
      "cl": 286,
      "ati": 287,
      "mor": 288,
      "to the ": 289,
      "d\n": 290,
      "would ": 291,
      "ut": 292,
      "y\n": 293,
      "ard": 294,
      "sel": 295,
      "ter ": 296,
      "um": 297,
      "y, ": 298,
      "fi": 299,
      "loo": 300,
      "do": 301,
      "been ": 302,
      "they ": 303,
      "ma": 304,
      "der": 305,
      "a\n": 306,
      "king ": 307,
      "dow": 308,
      "ous": 309,
      "res": 310,
      "pro": 311,
      "po": 312,
      "; ": 313,
      "gr": 314,
      "like ": 315,
      "of\n": 316,
      "could ": 317,
      "s of ": 318,
      "An": 319,
      "bo": 320,
      "per": 321,
      ".'\n": 322,
      "id ": 323,
      "eir ": 324,
      "ell": 325,
      "which ": 326,
      "ked ": 327,
      "her": 328,
      "and\n": 329,
      "!  ": 330,
      "fac": 331,
      "ll ": 332,
      "no ": 333,
      "up ": 334,
      "pe": 335,
      "r ": 336,
      "But ": 337,
      "my ": 338,
      "ind ": 339,
      "dr": 340,
      "s. ": 341,
      "about ": 342,
      "af": 343,
      "itt": 344,
      "em ": 345,
      "bl": 346,
      "es, ": 347,
      "s.  ": 348,
      "ame ": 349,
      "e.  ": 350,
      "thing ": 351,
      "hap": 352,
      "ever ": 353,
      "ey": 354,
      "s and ": 355,
      "so ": 356,
      "bac": 357,
      "ov": 358,
      "by ": 359,
      "man": 360,
      "th ": 361,
      "e. ": 362,
      "the\n": 363,
      "ist": 364,
      "way": 365,
      "on the ": 366,
      "over": 367,
      "there ": 368,
      "who ": 369,
      "what ": 370,
      "ust ": 371,
      "ther": 372,
      "ted ": 373,
      "ta": 374,
      "of th": 375,
      "ord": 376,
      "fe": 377,
      "ally ": 378,
      "from ": 379,
      "ed\n": 380,
      "pos": 381,
      "ish": 382,
      "par": 383,
      "was a ": 384,
      "him ": 385,
      "ing\n": 386,
      "ff": 387,
      "av": 388,
      "t, ": 389,
      "we ": 390,
      "ang": 391,
      "st ": 392,
      "when ": 393,
      "so": 394,
      "we": 395,
      "some": 396,
      "our ": 397,
      "ess ": 398,
      "ar ": 399,
      "day": 400,
      "m ": 401,
      "other ": 402,
      "even ": 403,
      "ost ": 404,
      "though": 405,
      "to\n": 406,
      "est": 407,
      "mon": 408,
      "gre": 409,
      "sm": 410,
      "ound ": 411,
      "ig": 412,
      "And ": 413,
      "fl": 414,
      "sc": 415,
      "e of ": 416,
      "ed, ": 417,
      "str": 418,
      "ther ": 419,
      "ay ": 420,
      "ous ": 421,
      "end": 422,
      "anc": 423,
      "I'": 424,
      "ing, ": 425,
      "ind": 426,
      "ast": 427,
      "it was ": 428,
      "sid": 429,
      "some ": 430,
      "You": 431,
      "ll": 432,
      "ers ": 433,
      "more ": 434,
      "any ": 435,
      ". The ": 436,
      "got ": 437,
      "only ": 438,
      "br": 439,
      "ew ": 440,
      "n't ": 441,
      "uc": 442,
      "dis": 443,
      "ob": 444,
      "again": 445,
      "at the ": 446,
      "t of ": 447,
      "pr": 448,
      "ely ": 449,
      "ty ": 450,
      "ood ": 451,
      "pen": 452,
      "said ": 453,
      "ight ": 454,
      "inst": 455,
      "most ": 456,
      "he had ": 457,
      "able ": 458,
      "It was ": 459,
      "very ": 460,
      "ill": 461,
      "tur": 462,
      "two ": 463,
      "de": 464,
      "ca": 465,
      "was\n": 466,
      "iv": 467,
      "did ": 468,
      "way ": 469,
      "in a ": 470,
      "rem": 471,
      "oul": 472,
      "time ": 473,
      "co": 474,
      "tim": 475,
      "p ": 476,
      "he": 477,
      "ast ": 478,
      "se ": 479,
      "ant": 480,
      " they ": 481,
      "gl": 482,
      "bel": 483,
      "ess": 484,
      "ub": 485,
      "at\n": 486,
      "peop": 487,
      "litt": 488,
      "own ": 489,
      "?  ": 490,
      "if ": 491,
      "your ": 492,
      "fir": 493,
      ". Th": 494,
      ".  He ": 495,
      "mu": 496,
      "rea": 497,
      "don": 498,
      "out": 499,
      "d, ": 500,
      ".  Th": 501,
      "long": 502,
      "read": 503,
      "ing to ": 504,
      "en\n": 505,
      "ant ": 506,
      "into ": 507,
      "ate ": 508,
      "ation": 509,
      "this ": 510,
      "ho": 511,
      ",' ": 512,
      "never ": 513,
      "?'\n": 514,
      "get ": 515,
      "year": 516,
      "a m": 517,
      "thing": 518,
      ".  The ": 519,
      "You ": 520,
      "ion": 521,
      ".  S": 522,
      "ra": 523,
      "chi": 524,
      "ade ": 525,
      "do ": 526,
      "ed the ": 527,
      "ite ": 528,
      "te": 529,
      ". A": 530,
      "tion": 531,
      "arm": 532,
      "ell ": 533,
      "Gord": 534,
      "ass": 535,
      "ack": 536,
      "in\n": 537,
      ", but ": 538,
      "back ": 539,
      "In": 540,
      "seem": 541,
      "ing the ": 542,
      ".  A": 543,
      "ce": 544,
      "use ": 545,
      "hear": 546,
      " their ": 547,
      "down ": 548,
      "ful": 549,
      "lo": 550,
      "bu": 551,
      "hal": 552,
      "ary ": 553,
      "little ": 554,
      "had been ": 555,
      "a s": 556,
      "off": 557,
      "ting ": 558,
      "car": 559,
      "righ": 560,
      "befor": 561,
      ", the ": 562,
      "pres": 563,
      "ose ": 564,
      "Wh": 565,
      "ill ": 566,
      "to be ": 567,
      "a f": 568,
      "where ": 569,
      "a b": 570,
      "under": 571,
      "beg": 572,
      "tic": 573,
      "lic": 574,
      "emb": 575,
      "he was ": 576,
      "om ": 577,
      "Dor": 578,
      "cr": 579,
      "rough": 580,
      "ound": 581,
      "work": 582,
      "cour": 583,
      "aw": 584,
      "pre": 585,
      "ty": 586,
      "ts ": 587,
      "said": 588,
      "by": 589,
      "self ": 590,
      "can ": 591,
      "came ": 592,
      "alway": 593,
      "and the ": 594,
      "down": 595,
      "er, ": 596,
      "any": 597,
      "wom": 598,
      "min": 599,
      "from the ": 600,
      "ke": 601,
      "ust": 602,
      "On": 603,
      "tal": 604,
      "ory ": 605,
      "ure": 606,
      "Doroth": 607,
      "know": 608,
      "ation ": 609,
      "go ": 610,
      "ly\n": 611,
      "over ": 612,
      "fu": 613,
      "hand": 614,
      " this ": 615,
      "ned ": 616,
      "for the ": 617,
      "people ": 618,
      "ble ": 619,
      "tt": 620,
      "ink": 621,
      "made ": 622,
      "see ": 623,
      "cre": 624,
      "en the ": 625,
      "kind ": 626,
      "est ": 627,
      "ook": 628,
      "ge": 629,
      "ree ": 630,
      "with the ": 631,
      "beca": 632,
      "Fl": 633,
      "old ": 634,
      "will ": 635,
      "hav": 636,
      "lif": 637,
      "ng": 638,
      "every": 639,
      "their ": 640,
      "iz": 641,
      "hat": 642,
      "ped ": 643,
      "a p": 644,
      "ook ": 645,
      "ect": 646,
      "plac": 647,
      "let": 648,
      "now": 649,
      "wer": 650,
      "ought ": 651,
      "diff": 652,
      "just ": 653,
      "feel": 654,
      "wr": 655,
      "come ": 656,
      "mar": 657,
      "ge ": 658,
      "always ": 659,
      "a c": 660,
      "self": 661,
      "s, and ": 662,
      "went ": 663,
      ". He ": 664,
      "att": 665,
      "hun": 666,
      "dy ": 667,
      "ine ": 668,
      "man ": 669,
      "ards ": 670,
      "ink ": 671,
      "can": 672,
      "ne": 673,
      "re ": 674,
      "ly, ": 675,
      "don't ": 676,
      "end ": 677,
      "its ": 678,
      "e.\n": 679,
      "en, ": 680,
      "almost ": 681,
      "ept ": 682,
      "dd": 683,
      "hous": 684,
      "stre": 685,
      "ese ": 686,
      "vi": 687,
      "who": 688,
      "war": 689,
      "day ": 690,
      "the s": 691,
      "col": 692,
      "fa": 693,
      "other": 694,
      "less ": 695,
      "wee": 696,
      "    ": 697,
      "mom": 698,
      "say": 699,
      "Com": 700,
      "e-": 701,
      "s.\n": 702,
      "round ": 703,
      "s were ": 704,
      "has ": 705,
      "had\n": 706,
      "star": 707,
      "because ": 708,
      "tion ": 709,
      "Mr": 710,
      "after ": 711,
      "ser": 712,
      "ock": 713,
      "mo": 714,
      "cas": 715,
      "gir": 716,
      "pa": 717,
      "w ": 718,
      "them ": 719,
      "ful ": 720,
      "how ": 721,
      "did not ": 722,
      "ure ": 723,
      "much ": 724,
      "low": 725,
      "them": 726,
      "it is ": 727,
      "app": 728,
      "before ": 729,
      "sup": 730,
      "tel": 731,
      "still ": 732,
      "ood": 733,
      "with a ": 734,
      "'W": 735,
      "ep ": 736,
      "enc": 737,
      " there ": 738,
      "ist ": 739,
      ".  I ": 740,
      "out of ": 741,
      "exc": 742,
      "side ": 743,
      "if": 744,
      "is\n": 745,
      "mer": 746,
      "pic": 747,
      "age ": 748,
      "des": 749,
      "though ": 750,
      "on, ": 751,
      "iti": 752,
      "cont": 753,
      "ad ": 754,
      ". I ": 755,
      "Mr ": 756,
      "after": 757,
      "es\n": 758,
      "ligh": 759,
      "get": 760,
      "Winst": 761,
      "ble": 762,
      "oci": 763,
      "e's ": 764,
      ".  I": 765,
      " them": 766,
      "ead ": 767,
      "ings ": 768,
      "possi": 769,
      "happen": 770,
      "first ": 771,
      "against ": 772,
      "quite ": 773,
      "act": 774,
      "Par": 775,
      "every ": 776,
      " and ": 777,
      "dec": 778,
      "au": 779,
      "inter": 780,
      "able": 781,
      "shi": 782,
      "make ": 783,
      "ave ": 784,
      "must ": 785,
      "sk": 786,
      "an\n": 787,
      ".  H": 788,
      "ight": 789,
      "tri": 790,
      "us ": 791,
      "into the ": 792,
      "lish": 793,
      "ning ": 794,
      "ence ": 795,
      "back": 796,
      "te ": 797,
      "es of ": 798,
      "on\n": 799,
      "liv": 800,
      "ish ": 801,
      ". I": 802,
      "tor": 803,
      "too ": 804,
      "pi": 805,
      "por": 806,
      "Gordon ": 807,
      "mil": 808,
      "than ": 809,
      "times ": 810,
      "then ": 811,
      "own": 812,
      "ud": 813,
      "ance ": 814,
      "acc": 815,
      "long ": 816,
      "ated ": 817,
      ". It ": 818,
      "his\n": 819,
      "ue ": 820,
      "being ": 821,
      "job": 822,
      "men ": 823,
      "ros": 824,
      "ari": 825,
      "he\n": 826,
      "might ": 827,
      "looked ": 828,
      "dar": 829,
      "ing-": 830,
      "ass ": 831,
      "amp": 832,
      "es and ": 833,
      "ack ": 834,
      ", and the ": 835,
      "kind of ": 836,
      "cer": 837,
      "! ": 838,
      "by the ": 839,
      "mat": 840,
      "ug": 841,
      "ity ": 842,
      "beli": 843,
      "that the ": 844,
      "bar": 845,
      ".  But ": 846,
      "rememb": 847,
      "'d ": 848,
      "No": 849,
      "near": 850,
      "pri": 851,
      "mean": 852,
      "good ": 853,
      "of the\n": 854,
      "enough": 855,
      "it\n": 856,
      "ive ": 857,
      "in his ": 858,
      "face ": 859,
      "brea": 860,
      "without ": 861,
      "fin": 862,
      "rec": 863,
      "I was ": 864,
      "!'\n": 865,
      "cle": 866,
      "bur": 867,
      ". W": 868,
      "off ": 869,
      "ef": 870,
      "led ": 871,
      "chil": 872,
      "? ": 873,
      ". S": 874,
      ".  And ": 875,
      "liz": 876,
      "Dorothy ": 877,
      "did": 878,
      "hor": 879,
      "lar": 880,
      "ment": 881,
      "twe": 882,
      "differ": 883,
      "ched ": 884,
      "six": 885,
      ".  W": 886,
      "ool": 887,
      "il ": 888,
      "such ": 889,
      "look ": 890,
      "ener": 891,
      "ably ": 892,
      "wal": 893,
      "that": 894,
      "it, ": 895,
      "che": 896,
      "put ": 897,
      "ten ": 898,
      "another ": 899,
      "which": 900,
      "know ": 901,
      "half ": 902,
      ":\n": 903,
      "betwe": 904,
      "even": 905,
      "ick": 906,
      "hel": 907,
      "hour": 908,
      "vo": 909,
      "hop": 910,
      "s--": 911,
      "ice ": 912,
      "should ": 913,
      ".  It ": 914,
      "with\n": 915,
      "ken ": 916,
      "ould": 917,
      "ain ": 918,
      "how": 919,
      "ste": 920,
      " than ": 921,
      "something ": 922,
      "t's ": 923,
      "mp": 924,
      "Mrs ": 925,
      ". But ": 926,
      "se, ": 927,
      "fron": 928,
      "lef": 929,
      "for\n": 930,
      "Ch": 931,
      "I\n": 932,
      "all the ": 933,
      "shop": 934,
      "sur": 935,
      "five ": 936,
      "sw": 937,
      "'I ": 938,
      "They ": 939,
      "week": 940,
      " of ": 941,
      "cap": 942,
      "h, ": 943,
      "There ": 944,
      "air": 945,
      "e, and ": 946,
      "y-": 947,
      "ed and ": 948,
      "work ": 949,
      "fiel": 950,
      "!' ": 951,
      " them ": 952,
      "appear": 953,
      "'re ": 954,
      "hom": 955,
      "cor": 956,
      "sl": 957,
      "ten": 958,
      "anim": 959,
      "room": 960,
      "comp": 961,
      "now ": 962,
      "ard ": 963,
      "call": 964,
      "dist": 965,
      "s,\n": 966,
      "coun": 967,
      "ung": 968,
      "sle": 969,
      "poin": 970,
      "book": 971,
      "This ": 972,
      "asc": 973,
      "les ": 974,
      "ash": 975,
      "believ": 976,
      "away ": 977,
      "elt ": 978,
      "beh": 979,
      "seemed to ": 980,
      "'B": 981,
      "eas": 982,
      "through": 983,
      "ed that ": 984,
      "ric": 985,
      "take ": 986,
      "Flory ": 987,
      "gu": 988,
      "stand": 989,
      "not\n": 990,
      "'O": 991,
      "were\n": 992,
      "ong ": 993,
      "pap": 994,
      "was the ": 995,
      "let ": 996,
      "while ": 997,
      "inc": 998,
      "idd": 999,
      "pec": 1000,
      "ually ": 1001,
      "quar": 1002,
      "twent": 1003,
      "took ": 1004,
      "s the ": 1005,
      "A ": 1006,
      "Fr": 1007,
      "der ": 1008,
      "lik": 1009,
      "body ": 1010,
      "whole ": 1011,
      "ph": 1012,
      "turned ": 1013,
      "vol": 1014,
      "of cour": 1015,
      "giv": 1016,
      "I'm ": 1017,
      "lat": 1018,
      "le\n": 1019,
      "tain": 1020,
      "chang": 1021,
      "win": 1022,
      "al\n": 1023,
      "of them ": 1024,
      "ed in ": 1025,
      "of a ": 1026,
      "tre": 1027,
      "ing that ": 1028,
      ".  It was ": 1029,
      "_ ": 1030,
      "e--": 1031,
      "young": 1032,
      "nothing ": 1033,
      "jo": 1034,
      "lin": 1035,
      "mun": 1036,
      ":  ": 1037,
      "himself ": 1038,
      "bet": 1039,
      "P.": 1040,
      "nec": 1041,
      "well": 1042,
      "the": 1043,
      "toge": 1044,
      "ush": 1045,
      "would be ": 1046,
      "I'd ": 1047,
      "except ": 1048,
      "Fasc": 1049,
      "U.": 1050,
      "my": 1051,
      "ner": 1052,
      "as\n": 1053,
      "room ": 1054,
      "life ": 1055,
      "mov": 1056,
      "whe": 1057,
      "spea": 1058,
      "!\n": 1059,
      "als ": 1060,
      "mis": 1061,
      "won": 1062,
      "great ": 1063,
      "emp": 1064,
      "umb": 1065,
      "dre": 1066,
      "head": 1067,
      "ocial": 1068,
      "pass": 1069,
      "ry ": 1070,
      "ered ": 1071,
      "leas": 1072,
      "you\n": 1073,
      "that\n": 1074,
      "men": 1075,
      "years ": 1076,
      "When ": 1077,
      " to ": 1078,
      "cri": 1079,
      "ion ": 1080,
      "money": 1081,
      "'s\n": 1082,
      "Eliz": 1083,
      "For ": 1084,
      "abe": 1085,
      "Elizabe": 1086,
      "hum": 1087,
      "real": 1088,
      "ic ": 1089,
      "sed ": 1090,
      "bed": 1091,
      "avel": 1092,
      "girl": 1093,
      "Social": 1094,
      "dou": 1095,
      ". H": 1096,
      "fif": 1097,
      "s to ": 1098,
      "wait": 1099,
      "right ": 1100,
      "'ll ": 1101,
      "old": 1102,
      "moment ": 1103,
      "cha": 1104,
      "hard": 1105,
      "ity": 1106,
      "le, ": 1107,
      ",' said ": 1108,
      "Eng": 1109,
      "gener": 1110,
      "s' ": 1111,
      "in the\n": 1112,
      "stop": 1113,
      ".  She ": 1114,
      "serv": 1115,
      "English": 1116,
      "selv": 1117,
      "ment ": 1118,
      "ner ": 1119,
      "sch": 1120,
      "time": 1121,
      "?' ": 1122,
      "same ": 1123,
      "for a ": 1124,
      "felt ": 1125,
      "ously ": 1126,
      "perhap": 1127,
      "dden": 1128,
      "mi": 1129,
      "ould\n": 1130,
      "az": 1131,
      "days ": 1132,
      "out\n": 1133,
      "she had ": 1134,
      "used to ": 1135,
      "am ": 1136,
      "ical ": 1137,
      "morn": 1138,
      "could not ": 1139,
      "last ": 1140,
      "tea": 1141,
      "ual ": 1142,
      "st\n": 1143,
      "cloth": 1144,
      "head ": 1145,
      "fri": 1146,
      "sen": 1147,
      "want ": 1148,
      "or\n": 1149,
      "your": 1150,
      "as a ": 1151,
      "de ": 1152,
      ".  '": 1153,
      "fort": 1154,
      "sub": 1155,
      "', ": 1156,
      ".U.": 1157,
      ": ": 1158,
      "looking ": 1159,
      "give ": 1160,
      "les": 1161,
      "new": 1162,
      "really ": 1163,
      "there was ": 1164,
      "behind ": 1165,
      "duc": 1166,
      "childr": 1167,
      "ual": 1168,
      "riv": 1169,
      "ly the ": 1170,
      "have been ": 1171,
      "pris": 1172,
      "s that ": 1173,
      "ement": 1174,
      " through": 1175,
      "I had ": 1176,
      "she was ": 1177,
      "place ": 1178,
      "She ": 1179,
      "tow": 1180,
      "acros": 1181,
      "ed.\n": 1182,
      "prob": 1183,
      "offic": 1184,
      "bloo": 1185,
      "four ": 1186,
      "ism": 1187,
      "saw ": 1188,
      "bro": 1189,
      " think ": 1190,
      "orm": 1191,
      "que": 1192,
      "half": 1193,
      "three ": 1194,
      "door": 1195,
      "bott": 1196,
      "cur": 1197,
      "One ": 1198,
      "Winston ": 1199,
      "In the ": 1200,
      "hundr": 1201,
      "ank": 1202,
      "say ": 1203,
      "knew ": 1204,
      "left ": 1205,
      "sha": 1206,
      ". It was ": 1207,
      "sion": 1208,
      "Ravel": 1209,
      "Ravelst": 1210,
      "Cl": 1211,
      "bit": 1212,
      "nex": 1213,
      "ing a ": 1214,
      "it's ": 1215,
      "ild": 1216,
      "money ": 1217,
      "flo": 1218,
      "red ": 1219,
      "tly ": 1220,
      "house ": 1221,
      "Ev": 1222,
      "gn": 1223,
      "enti": 1224,
      "he said": 1225,
      "a few ": 1226,
      "bor": 1227,
      "exist": 1228,
      "night ": 1229,
      "pan": 1230,
      "add": 1231,
      "el ": 1232,
      "lec": 1233,
      "began ": 1234,
      "rather ": 1235,
      "heard ": 1236,
      "mind": 1237,
      "sor": 1238,
      "ster": 1239,
      "white ": 1240,
      "far ": 1241,
      "ious ": 1242,
      "row": 1243,
      "uli": 1244,
      "mach": 1245,
      "didn't ": 1246,
      "ely": 1247,
      "when": 1248,
      "ently ": 1249,
      "simp": 1250,
      "all\n": 1251,
      "going to ": 1252,
      ". There ": 1253,
      ". They ": 1254,
      "ouldn't ": 1255,
      "dg": 1256,
      ", I ": 1257,
      "ory": 1258,
      ".  They ": 1259,
      "bed ": 1260,
      "uri": 1261,
      "her\n": 1262,
      "street": 1263,
      "tin": 1264,
      " that": 1265,
      "stood ": 1266,
      "pers": 1267,
      "ily ": 1268,
      "war ": 1269,
      "word": 1270,
      "they were ": 1271,
      "sin": 1272,
      "sil": 1273,
      "le of ": 1274,
      "like a ": 1275,
      "fol": 1276,
      "er\n": 1277,
      ".  B": 1278,
      ".  T": 1279,
      "open": 1280,
      "Go": 1281,
      "run": 1282,
      "can't ": 1283,
      "e,\n": 1284,
      "arm ": 1285,
      "ref": 1286,
      "used ": 1287,
      "moment": 1288,
      "well ": 1289,
      "once ": 1290,
      "month": 1291,
      "shor": 1292,
      "seemed ": 1293,
      "s in ": 1294,
      "alread": 1295,
      "rest": 1296,
      "try": 1297,
      "'ve ": 1298,
      "sol": 1299,
      "-\n": 1300,
      "found ": 1301,
      "gave ": 1302,
      "midd": 1303,
      "told ": 1304,
      "all, ": 1305,
      "O.U.": 1306,
      "bus": 1307,
      "agg": 1308,
      "quest": 1309,
      "P.O.U.": 1310,
      "P.O.U.M": 1311,
      "doc": 1312,
      "class ": 1313,
      "minut": 1314,
      "possible ": 1315,
      "but": 1316,
      "ip": 1317,
      "ry": 1318,
      "yet ": 1319,
      "ary": 1320,
      "if you ": 1321,
      "ling ": 1322,
      "set ": 1323,
      "Commun": 1324,
      "?\n": 1325,
      "S ": 1326,
      "ers, ": 1327,
      "form": 1328,
      "hundred ": 1329,
      "tch": 1330,
      "vis": 1331,
      "Ver": 1332,
      " the": 1333,
      ". And ": 1334,
      "ck": 1335,
      "pub": 1336,
      "e and ": 1337,
      "t that ": 1338,
      "as the ": 1339,
      "sudden": 1340,
      "called ": 1341,
      "pain": 1342,
      " that\n": 1343,
      "leg": 1344,
      "icul": 1345,
      "between ": 1346,
      "E ": 1347,
      "t of the ": 1348,
      "ing.\n": 1349,
      "es, and ": 1350,
      "oot": 1351,
      "ir\n": 1352,
      "..": 1353,
      "Bur": 1354,
      "be\n": 1355,
      ", with ": 1356,
      "two": 1357,
      "over the ": 1358,
      "about the ": 1359,
      "I've ": 1360,
      "mou": 1361,
      "ward": 1362,
      "small ": 1363,
      "\" ": 1364,
      "dir": 1365,
      "done ": 1366,
      "hou": 1367,
      "ig ": 1368,
      "fre": 1369,
      "med": 1370,
      "plo": 1371,
      "keep": 1372,
      ") ": 1373,
      "night": 1374,
      "past ": 1375,
      "s of the ": 1376,
      ". T": 1377,
      "going ": 1378,
      "        ": 1379,
      "hand ": 1380,
      "nes": 1381,
      "rat": 1382,
      "ed by ": 1383,
      "doub": 1384,
      "s a ": 1385,
      "wher": 1386,
      "look": 1387,
      "read ": 1388,
      ". B": 1389,
      "knew": 1390,
      "gg": 1391,
      "char": 1392,
      "ool ": 1393,
      "away": 1394,
      "here ": 1395,
      "mind ": 1396,
      "revol": 1397,
      "high": 1398,
      "right": 1399,
      "At ": 1400,
      "Lon": 1401,
      "TH": 1402,
      "pow": 1403,
      "tell ": 1404,
      "one\n": 1405,
      "ome": 1406,
      "she": 1407,
      "upon ": 1408,
      "anything ": 1409,
      "ber": 1410,
      "dem": 1411,
      "was": 1412,
      "es.\n": 1413,
      "ail": 1414,
      "cover": 1415,
      "ba": 1416,
      "ing and ": 1417,
      "esid": 1418,
      "many ": 1419,
      "suppos": 1420,
      "gun": 1421,
      "pat": 1422,
      "him, ": 1423,
      "sion ": 1424,
      "comm": 1425,
      "towards ": 1426,
      "sever": 1427,
      "woman ": 1428,
      "keep ": 1429,
      "No ": 1430,
      "nat": 1431,
      "stu": 1432,
      "uck ": 1433,
      "certain": 1434,
      "En": 1435,
      "to get ": 1436,
      ".  There ": 1437,
      "Gordon": 1438,
      "a little ": 1439,
      "reg": 1440,
      "world ": 1441,
      ". A ": 1442,
      "augh": 1443,
      "also ": 1444,
      "lip": 1445,
      "rif": 1446,
      "when the ": 1447,
      "writ": 1448,
      "next ": 1449,
      "ru": 1450,
      "itch": 1451,
      "is the ": 1452,
      "spo": 1453,
      "pul": 1454,
      "numb": 1455,
      ". '": 1456,
      "ick ": 1457,
      "imag": 1458,
      "black ": 1459,
      "to the\n": 1460,
      "girl ": 1461,
      "dev": 1462,
      "wind": 1463,
      "tru": 1464,
      "a, ": 1465,
      "out of the ": 1466,
      "getting ": 1467,
      "up the ": 1468,
      "Ky": 1469,
      "--\n": 1470,
      "taken ": 1471,
      ".  A ": 1472,
      "down the ": 1473,
      "nam": 1474,
      "pleas": 1475,
      "ank ": 1476,
      "of them": 1477,
      "pret": 1478,
      "dy": 1479,
      "find ": 1480,
      "was not ": 1481,
      "ght ": 1482,
      "would have ": 1483,
      "uck": 1484,
      "er and ": 1485,
      "as though ": 1486,
      "young ": 1487,
      "fur": 1488,
      "ear ": 1489,
      "port": 1490,
      "ial ": 1491,
      "ition": 1492,
      "is, ": 1493,
      "not": 1494,
      "Club": 1495,
      "dam": 1496,
      "It's ": 1497,
      "ak": 1498,
      "a th": 1499,
      "ton": 1500,
      "ing of ": 1501,
      "ide": 1502,
      "sho": 1503,
      "ock ": 1504,
      "ever, ": 1505,
      "difficul": 1506,
      "voic": 1507,
      "probably ": 1508,
      "follow": 1509,
      "row ": 1510,
      "stand ": 1511,
      "reas": 1512,
      "seen ": 1513,
      "ent\n": 1514,
      "have\n": 1515,
      "necess": 1516,
      "sing": 1517,
      "ution": 1518,
      "water": 1519,
      "ement ": 1520,
      "want": 1521,
      "th, ": 1522,
      "under ": 1523,
      "eyes ": 1524,
      "thir": 1525,
      "ism ": 1526,
      "ried ": 1527,
      "working ": 1528,
      "merely ": 1529,
      "window": 1530,
      "'Y": 1531,
      "dro": 1532,
      "of his ": 1533,
      "friend": 1534,
      "machin": 1535,
      "Engl": 1536,
      "fam": 1537,
      "and, ": 1538,
      "spec": 1539,
      "full ": 1540,
      "'Bri": 1541,
      "In ": 1542,
      "O'Bri": 1543,
      " ther": 1544,
      "'A": 1545,
      "etc": 1546,
      "ally": 1547,
      "got to ": 1548,
      "too": 1549,
      "arc": 1550,
      "been\n": 1551,
      "coming ": 1552,
      "; but ": 1553,
      "up and ": 1554,
      "Elizabeth ": 1555,
      "ole": 1556,
      "eng": 1557,
      ".  You ": 1558,
      "lig": 1559,
      "thought ": 1560,
      "ance, ": 1561,
      "but\n": 1562,
      "ei": 1563,
      "hur": 1564,
      "sum": 1565,
      "does ": 1566,
      "eff": 1567,
      "pound": 1568,
      " three ": 1569,
      "the b": 1570,
      "secon": 1571,
      "happ": 1572,
      "turn": 1573,
      "Ros": 1574,
      "del": 1575,
      "lit": 1576,
      "swe": 1577,
      "yell": 1578,
      "s are ": 1579,
      "ating ": 1580,
      "list": 1581,
      "word ": 1582,
      "er of ": 1583,
      "led": 1584,
      "iss ": 1585,
      "one of the ": 1586,
      "expl": 1587,
      "eav": 1588,
      "brought ": 1589,
      "everyone ": 1590,
      ". In ": 1591,
      "since ": 1592,
      "ies ": 1593,
      "the same ": 1594,
      "matter": 1595,
      "believe ": 1596,
      "El": 1597,
      " think": 1598,
      "ise ": 1599,
      "shall ": 1600,
      "six ": 1601,
      "Juli": 1602,
      "e.'\n": 1603,
      "week ": 1604,
      "together": 1605,
      "Rosem": 1606,
      "kept ": 1607,
      "sn": 1608,
      "on his ": 1609,
      "himself": 1610,
      "may ": 1611,
      "need": 1612,
      "several ": 1613,
      "'H": 1614,
      "air ": 1615,
      "pig": 1616,
      "int": 1617,
      "omb": 1618,
      "lear": 1619,
      "sometimes ": 1620,
      "hat's ": 1621,
      "remember": 1622,
      "English ": 1623,
      "selves ": 1624,
      "din": 1625,
      "few ": 1626,
      "new ": 1627,
      "table": 1628,
      "ately ": 1629,
      "roll": 1630,
      "mak": 1631,
      "tain ": 1632,
      "Party ": 1633,
      "different ": 1634,
      "jec": 1635,
      "past": 1636,
      "sat ": 1637,
      "s, the ": 1638,
      "'Oh, ": 1639,
      "better ": 1640,
      "simply ": 1641,
      "19": 1642,
      "inking ": 1643,
      "ed a ": 1644,
      "wif": 1645,
      "will": 1646,
      " that the ": 1647,
      "utter": 1648,
      "dog": 1649,
      "human ": 1650,
      "Ravelston ": 1651,
      "ach": 1652,
      "ans": 1653,
      ".  M": 1654,
      "ing in ": 1655,
      "allow": 1656,
      "peri": 1657,
      "manag": 1658,
      "Dorothy": 1659,
      "whether ": 1660,
      "busin": 1661,
      "four": 1662,
      "y of ": 1663,
      "ed with ": 1664,
      "way, ": 1665,
      "she\n": 1666,
      "e, but ": 1667,
      "For": 1668,
      "dres": 1669,
      "ness ": 1670,
      "pock": 1671,
      "are\n": 1672,
      "le-": 1673,
      "tiv": 1674,
      "till ": 1675,
      "abo": 1676,
      "among": 1677,
      "consc": 1678,
      "penn": 1679,
      "school": 1680,
      "fish": 1681,
      "order": 1682,
      "ed. ": 1683,
      "trou": 1684,
      "from\n": 1685,
      "making ": 1686,
      "boy": 1687,
      "hardly ": 1688,
      "'S": 1689,
      "What ": 1690,
      "gone ": 1691,
      "es. ": 1692,
      "is a ": 1693,
      "franc": 1694,
      "a mom": 1695,
      "'T": 1696,
      "Nap": 1697,
      "by\n": 1698,
      "rub": 1699,
      ", a ": 1700,
      "he could ": 1701,
      "worl": 1702,
      "suc": 1703,
      "ell, ": 1704,
      "teen ": 1705,
      "piec": 1706,
      "cent": 1707,
      "y to ": 1708,
      ".  O": 1709,
      "er to ": 1710,
      "had a ": 1711,
      "kne": 1712,
      "ordin": 1713,
      "sleep": 1714,
      "Napole": 1715,
      "Po": 1716,
      "these ": 1717,
      "morning ": 1718,
      "acker": 1719,
      "actually ": 1720,
      "suddenly ": 1721,
      "Ar": 1722,
      "As ": 1723,
      "equ": 1724,
      "gar": 1725,
      "sy": 1726,
      "t to ": 1727,
      "ed, and ": 1728,
      "with his ": 1729,
      "class": 1730,
      "'t\n": 1731,
      "rad": 1732,
      "those ": 1733,
      "leav": 1734,
      "emplo": 1735,
      "ago": 1736,
      "f cour": 1737,
      "each ": 1738,
      "soon ": 1739,
      "Even ": 1740,
      "medi": 1741,
      "ER": 1742,
      "bre": 1743,
      "chap": 1744,
      "sitt": 1745,
      "uro": 1746,
      "secre": 1747,
      "; and ": 1748,
      "Winston": 1749,
      "animals ": 1750,
      "speak": 1751,
      "Un": 1752,
      "pur": 1753,
      "sent ": 1754,
      "chur": 1755,
      "saw": 1756,
      "prov": 1757,
      "hotel": 1758,
      "women ": 1759,
      "having ": 1760,
      "job ": 1761,
      "house": 1762,
      ";\n": 1763,
      "dread": 1764,
      "wall": 1765,
      "employ": 1766,
      "dea": 1767,
      "rap": 1768,
      "and a ": 1769,
      "it.\n": 1770,
      "live ": 1771,
      "again ": 1772,
      "s, but ": 1773,
      "sist": 1774,
      "draw": 1775,
      "militi": 1776,
      "OU": 1777,
      "We ": 1778,
      "bir": 1779,
      "rang": 1780,
      "think": 1781,
      " those ": 1782,
      "ond ": 1783,
      "ed his ": 1784,
      "ly.\n": 1785,
      "there were ": 1786,
      ". We ": 1787,
      "IN": 1788,
      "Lacker": 1789,
      "per ": 1790,
      "wasn't ": 1791,
      "Lackerste": 1792,
      "fter ": 1793,
      "mem": 1794,
      "vag": 1795,
      "wash": 1796,
      "produc": 1797,
      "s. The ": 1798,
      "so\n": 1799,
      "oulder": 1800,
      "lic ": 1801,
      "front ": 1802,
      "Bo": 1803,
      "both": 1804,
      "ping ": 1805,
      "s had ": 1806,
      "ann": 1807,
      "stor": 1808,
      "still": 1809,
      "spect": 1810,
      "ign": 1811,
      "a sor": 1812,
      "crow": 1813,
      "light ": 1814,
      "perhaps ": 1815,
      "Gover": 1816,
      "sun": 1817,
      "vel": 1818,
      ", which ": 1819,
      "red": 1820,
      "Indi": 1821,
      "wonder": 1822,
      "'No": 1823,
      "bad": 1824,
      "watch": 1825,
      "no\n": 1826,
      "es were ": 1827,
      "tramp": 1828,
      "field ": 1829,
      "aim": 1830,
      "bul": 1831,
      "good": 1832,
      "anted ": 1833,
      "ch\n": 1834,
      "I have ": 1835,
      "black": 1836,
      "who had ": 1837,
      "letter": 1838,
      "field": 1839,
      "P.O.U.M. ": 1840,
      "Govern": 1841,
      "ing, and ": 1842,
      "to go ": 1843,
      "rid": 1844,
      "direc": 1845,
      "igar": 1846,
      "back to ": 1847,
      "present": 1848,
      "ition ": 1849,
      "fun": 1850,
      "squ": 1851,
      "real ": 1852,
      "unti": 1853,
      "road": 1854,
      "you are ": 1855,
      "fire": 1856,
      "more than ": 1857,
      "Elli": 1858,
      "'You ": 1859,
      "pin": 1860,
      "rit": 1861,
      "inv": 1862,
      "rist": 1863,
      "shoulder": 1864,
      "bad ": 1865,
      "mur": 1866,
      "mist": 1867,
      "hair": 1868,
      "it of ": 1869,
      "conf": 1870,
      "play": 1871,
      "they had ": 1872,
      "e. The ": 1873,
      "greg": 1874,
      "dead": 1875,
      "children ": 1876,
      "dur": 1877,
      "en't ": 1878,
      "y and ": 1879,
      "ham": 1880,
      "lead": 1881,
      "clas": 1882,
      "Euro": 1883,
      "Mac": 1884,
      "dang": 1885,
      "out, ": 1886,
      "org": 1887,
      "or, ": 1888,
      "extr": 1889,
      "under the ": 1890,
      "Span": 1891,
      "foo": 1892,
      "enorm": 1893,
      "stair": 1894,
      ".  P": 1895,
      "to have ": 1896,
      "very": 1897,
      "ained ": 1898,
      "there was a ": 1899,
      "when he ": 1900,
      "complet": 1901,
      "ben": 1902,
      "ious": 1903,
      "ith ": 1904,
      "rel": 1905,
      "to a ": 1906,
      "ular ": 1907,
      "feet ": 1908,
      "build": 1909,
      "'What ": 1910,
      "dark ": 1911,
      "of course": 1912,
      "dep": 1913,
      "rup": 1914,
      "would\n": 1915,
      "e the ": 1916,
      "they": 1917,
      "ering ": 1918,
      "oup": 1919,
      "is not ": 1920,
      "obvi": 1921,
      "begin": 1922,
      "talking ": 1923,
      "through ": 1924,
      "given ": 1925,
      "morning": 1926,
      "Do ": 1927,
      "fil": 1928,
      "memb": 1929,
      "pol": 1930,
      "prom": 1931,
      "fully ": 1932,
      "round the ": 1933,
      "light": 1934,
      "horri": 1935,
      "War": 1936,
      "cat": 1937,
      "pal": 1938,
      "others ": 1939,
      "gras": 1940,
      "Why ": 1941,
      "ized ": 1942,
      "interest": 1943,
      "home ": 1944,
      "aid ": 1945,
      "pe ": 1946,
      "er's ": 1947,
      ", he ": 1948,
      ". O": 1949,
      "fore": 1950,
      "strang": 1951,
      "woman": 1952,
      "break": 1953,
      "walked ": 1954,
      "half-": 1955,
      "Cre": 1956,
      "ek": 1957,
      "town": 1958,
      "in, ": 1959,
      "archi": 1960,
      "stri": 1961,
      "fiv": 1962,
      "talk ": 1963,
      "ward ": 1964,
      "clear": 1965,
      "voice ": 1966,
      "twenty-": 1967,
      "already ": 1968,
      "besid": 1969,
      "my\n": 1970,
      "tou": 1971,
      "in their ": 1972,
      "had not ": 1973,
      "that he ": 1974,
      "e, the ": 1975,
      "lying ": 1976,
      "hold ": 1977,
      "thing that ": 1978,
      "contin": 1979,
      "remember ": 1980,
      "nearly ": 1981,
      "twenty ": 1982,
      "AR": 1983,
      "cam": 1984,
      "vill": 1985,
      "wood": 1986,
      "s in the ": 1987,
      "step": 1988,
      "es,\n": 1989,
      "immedi": 1990,
      "door ": 1991,
      "there is ": 1992,
      ".  It's ": 1993,
      "larg": 1994,
      "imagin": 1995,
      "'  ": 1996,
      "bomb": 1997,
      "cal": 1998,
      "ture": 1999,
      "s of\n": 2000,
      "ed her ": 2001,
      "stat": 2002,
      "you, ": 2003,
      "you have ": 2004,
      "import": 2005,
      "afterno": 2006,
      "Fa": 2007,
      "inside ": 2008,
      ". You ": 2009,
      "wish": 2010,
      "as he ": 2011,
      "post": 2012,
      "ught ": 2013,
      "thing, ": 2014,
      "lice ": 2015,
      "ceiv": 2016,
      "better": 2017,
      "together ": 2018,
      "question": 2019,
      "food ": 2020,
      "farm": 2021,
      "hy": 2022,
      "itud": 2023,
      "mean ": 2024,
      "Creev": 2025,
      "efor": 2026,
      "rac": 2027,
      "ing his ": 2028,
      "least ": 2029,
      "sigh": 2030,
      "natur": 2031,
      "arcel": 2032,
      "ith": 2033,
      "lov": 2034,
      "name ": 2035,
      "pay": 2036,
      "eless ": 2037,
      "--the ": 2038,
      "herself ": 2039,
      "of those ": 2040,
      "we were ": 2041,
      "hu": 2042,
      "me, ": 2043,
      "then": 2044,
      " thought ": 2045,
      " these ": 2046,
      ". M": 2047,
      "hat\n": 2048,
      "to see ": 2049,
      "till": 2050,
      "noti": 2051,
      "you could ": 2052,
      "vers": 2053,
      "things ": 2054,
      "writt": 2055,
      "enough ": 2056,
      "igaret": 2057,
      "gent": 2058,
      "i ": 2059,
      "tell": 2060,
      "ut\n": 2061,
      "vic": 2062,
      "ous\n": 2063,
      "ome ": 2064,
      "shar": 2065,
      "tak": 2066,
      "large ": 2067,
      "'But ": 2068,
      "curi": 2069,
      "ket": 2070,
      "lab": 2071,
      "tor ": 2072,
      "tho": 2073,
      "intel": 2074,
      ", and\n": 2075,
      " though": 2076,
      ".  N": 2077,
      "at a ": 2078,
      "leave ": 2079,
      "--and ": 2080,
      "earli": 2081,
      "ativ": 2082,
      "smo": 2083,
      "anyone ": 2084,
      "houses ": 2085,
      "cop": 2086,
      "e!  ": 2087,
      "fall": 2088,
      "last": 2089,
      "slow": 2090,
      "another": 2091,
      "ones ": 2092,
      "had": 2093,
      "notic": 2094,
      "rot": 2095,
      "ump": 2096,
      "like the ": 2097,
      "drun": 2098,
      "so that ": 2099,
      "talk": 2100,
      "possible": 2101,
      "bloody ": 2102,
      "revolution": 2103,
      "Macgreg": 2104,
      "arcelon": 2105,
      "Barcelon": 2106,
      "Po ": 2107,
      "kind": 2108,
      "thre": 2109,
      "water ": 2110,
      "ess, ": 2111,
      "lim": 2112,
      "about": 2113,
      "occas": 2114,
      "suff": 2115,
      "of this ": 2116,
      "colour": 2117,
      "against the ": 2118,
      "paper": 2119,
      "Po Ky": 2120,
      "fer": 2121,
      "table ": 2122,
      "what": 2123,
      ". P": 2124,
      "on a ": 2125,
      "known ": 2126,
      "of their ": 2127,
      "turn ": 2128,
      "cold ": 2129,
      "standing ": 2130,
      "., ": 2131,
      "dust": 2132,
      "har": 2133,
      "la ": 2134,
      "ris": 2135,
      "t and ": 2136,
      "on the\n": 2137,
      "hair ": 2138,
      "else ": 2139,
      "bey": 2140,
      "expec": 2141,
      "ty-": 2142,
      "answer": 2143,
      "a sort of ": 2144,
      "lay ": 2145,
      "ton ": 2146,
      "often ": 2147,
      "in my ": 2148,
      "lodg": 2149,
      "street ": 2150,
      "Europe": 2151,
      "Bin": 2152,
      "bly ": 2153,
      "det": 2154,
      "hour ": 2155,
      "soci": 2156,
      "t the ": 2157,
      "ter of ": 2158,
      ",' he said": 2159,
      "Fascist ": 2160,
      "suppose ": 2161,
      "bour": 2162,
      "ef ": 2163,
      "h ": 2164,
      "pped ": 2165,
      "wea": 2166,
      "ans ": 2167,
      ", or ": 2168,
      "why ": 2169,
      "ousand ": 2170,
      "p of ": 2171,
      " they were ": 2172,
      ". The\n": 2173,
      "On the ": 2174,
      "everything ": 2175,
      "could\n": 2176,
      "never": 2177,
      "sing ": 2178,
      " things ": 2179,
      "one's ": 2180,
      "alon": 2181,
      "to do ": 2182,
      "es.  ": 2183,
      "led\n": 2184,
      "show": 2185,
      "heav": 2186,
      "pay ": 2187,
      "wear": 2188,
      "ed in the ": 2189,
      "ital": 2190,
      "like\n": 2191,
      "Verr": 2192,
      "'M": 2193,
      "ap ": 2194,
      "exact": 2195,
      "try ": 2196,
      "spap": 2197,
      "doing ": 2198,
      "poor ": 2199,
      "parent": 2200,
      "people": 2201,
      "nowb": 2202,
      "through the ": 2203,
      "they\n": 2204,
      "pocket": 2205,
      "sitting ": 2206,
      "; the ": 2207,
      "Al": 2208,
      "Sun": 2209,
      "kitch": 2210,
      "ron": 2211,
      "open ": 2212,
      "trad": 2213,
      "qui": 2214,
      "spir": 2215,
      "more\n": 2216,
      "into a ": 2217,
      "a man ": 2218,
      "do not ": 2219,
      "Flory": 2220,
      "U ": 2221,
      "boo": 2222,
      "don ": 2223,
      "to make ": 2224,
      "in her ": 2225,
      "I could ": 2226,
      "I don't ": 2227,
      "adm": 2228,
      "up, ": 2229,
      "for inst": 2230,
      "exp": 2231,
      "flow": 2232,
      "outside ": 2233,
      "case ": 2234,
      "newspap": 2235,
      "across the ": 2236,
      "Every": 2237,
      "Ma": 2238,
      "big ": 2239,
      "fear": 2240,
      "ler": 2241,
      "mad": 2242,
      "ot": 2243,
      "s; ": 2244,
      "y.\n": 2245,
      "es--": 2246,
      "about\n": 2247,
      "comfort": 2248,
      "fact ": 2249,
      "fair": 2250,
      "Not ": 2251,
      "ung ": 2252,
      "fifty ": 2253,
      "both ": 2254,
      "eat": 2255,
      "land": 2256,
      "ons ": 2257,
      "art": 2258,
      "div": 2259,
      "him\n": 2260,
      "sign": 2261,
      "grow": 2262,
      "grap": 2263,
      "when you ": 2264,
      "I'll ": 2265,
      "will be ": 2266,
      "tion of ": 2267,
      "middle ": 2268,
      "occasion": 2269,
      "MR": 2270,
      "cler": 2271,
      "perf": 2272,
      "day, ": 2273,
      "scre": 2274,
      "strug": 2275,
      "able to ": 2276,
      "tee": 2277,
      "pain ": 2278,
      "that's ": 2279,
      "animal": 2280,
      "prison": 2281,
      "bri": 2282,
      "put": 2283,
      "seven ": 2284,
      "wards ": 2285,
      "yards ": 2286,
      "er-": 2287,
      "alter": 2288,
      "hill": 2289,
      "even\n": 2290,
      "man, ": 2291,
      "start": 2292,
      "bread ": 2293,
      "Christ": 2294,
      "polit": 2295,
      "Min": 2296,
      "eg": 2297,
      "far": 2298,
      "less": 2299,
      "thing\n": 2300,
      "ching ": 2301,
      "spent ": 2302,
      "when I ": 2303,
      "smell ": 2304,
      "feel ": 2305,
      "dden ": 2306,
      "of course, ": 2307,
      "'t": 2308,
      "cut ": 2309,
      "dri": 2310,
      "laugh": 2311,
      "mus": 2312,
      "nigh": 2313,
      "sal": 2314,
      "ty, ": 2315,
      "we\n": 2316,
      "think ": 2317,
      "at any ": 2318,
      "he would ": 2319,
      "escap": 2320,
      "seem ": 2321,
      "oppos": 2322,
      "him.\n": 2323,
      "ext": 2324,
      "ounc": 2325,
      "doz": 2326,
      "Anarchi": 2327,
      "year ": 2328,
      "descri": 2329,
      "began to ": 2330,
      "continu": 2331,
      "couldn't ": 2332,
      "ech": 2333,
      "figh": 2334,
      "tu": 2335,
      "yet": 2336,
      "ed it ": 2337,
      "at the\n": 2338,
      "ace ": 2339,
      "agre": 2340,
      "they are ": 2341,
      "polic": 2342,
      "prac": 2343,
      ".  He had ": 2344,
      " through the ": 2345,
      " their\n": 2346,
      "either ": 2347,
      "ian ": 2348,
      "law": 2349,
      "vari": 2350,
      " thing": 2351,
      "it was\n": 2352,
      "He was ": 2353,
      "fig": 2354,
      "pot": 2355,
      "body": 2356,
      "feeling ": 2357,
      "which\n": 2358,
      "London ": 2359,
      "Bor": 2360,
      "round": 2361,
      "tched ": 2362,
      "this": 2363,
      ", as ": 2364,
      "who was ": 2365,
      "Mrs Creev": 2366,
      "U Po Ky": 2367,
      "Gu": 2368,
      "If ": 2369,
      "du": 2370,
      "fing": 2371,
      "hard ": 2372,
      "og": 2373,
      "s!  ": 2374,
      " than": 2375,
      "ing.  ": 2376,
      "ed for ": 2377,
      "life": 2378,
      "asked ": 2379,
      "--a ": 2380,
      "impossible ": 2381,
      "could be ": 2382,
      "struck ": 2383,
      ". As ": 2384,
      "hundre": 2385,
      "Fascist": 2386,
      "above ": 2387,
      "huge ": 2388,
      "Don": 2389,
      "Snowb": 2390,
      "T ": 2391,
      "fro": 2392,
      "met": 2393,
      "pop": 2394,
      "sul": 2395,
      "wanted ": 2396,
      "ed up ": 2397,
      "usual": 2398,
      "ative ": 2399,
      ".  In ": 2400,
      "held ": 2401,
      "realiz": 2402,
      "ili": 2403,
      "ve": 2404,
      "wouldn't ": 2405,
      "wast": 2406,
      "it was a ": 2407,
      "es that ": 2408,
      "whom ": 2409,
      "out the ": 2410,
      "worked ": 2411,
      "comes ": 2412,
      "teles": 2413,
      "shill": 2414,
      "enough to ": 2415,
      "person ": 2416,
      "world": 2417,
      "f course ": 2418,
      "LL": 2419,
      "call ": 2420,
      "cigaret": 2421,
      "hon": 2422,
      "ni": 2423,
      "nin": 2424,
      "ity, ": 2425,
      "ed,\n": 2426,
      "when\n": 2427,
      "ular": 2428,
      "ed to be ": 2429,
      "face, ": 2430,
      "fire ": 2431,
      "back to the ": 2432,
      "paid ": 2433,
      "trying to ": 2434,
      "stuff": 2435,
      "0 ": 2436,
      "His ": 2437,
      "Rect": 2438,
      "eight ": 2439,
      "ench": 2440,
      "worth ": 2441,
      "const": 2442,
      "consid": 2443,
      "does": 2444,
      "deep": 2445,
      "time, ": 2446,
      "said, ": 2447,
      "effec": 2448,
      "Jo": 2449,
      "Ro": 2450,
      "That ": 2451,
      "fill": 2452,
      "ker": 2453,
      "lad": 2454,
      "ys": 2455,
      "enem": 2456,
      "meant ": 2457,
      "ground ": 2458,
      "drink": 2459,
      "s and the ": 2460,
      "longer": 2461,
      "who\n": 2462,
      "started ": 2463,
      "priv": 2464,
      "general ": 2465,
      "enormous ": 2466,
      "just": 2467,
      "x ": 2468,
      "into": 2469,
      "ence": 2470,
      "beast": 2471,
      "had to ": 2472,
      "tive ": 2473,
      "e.  The ": 2474,
      "discover": 2475,
      "belli": 2476,
      ".  He was ": 2477,
      " there was ": 2478,
      "dark": 2479,
      "shop ": 2480,
      "minutes ": 2481,
      "ds ": 2482,
      "gri": 2483,
      "twi": 2484,
      "thr": 2485,
      "ed him ": 2486,
      "ed.  ": 2487,
      "up\n": 2488,
      "which was ": 2489,
      "smell": 2490,
      ".  The\n": 2491,
      "geo": 2492,
      "decid": 2493,
      ". It is ": 2494,
      "such a ": 2495,
      "chair": 2496,
      "stopped ": 2497,
      "Communist ": 2498,
      "Burm": 2499,
      "London": 2500,
      "Rosemary ": 2501,
      "'L": 2502,
      "town ": 2503,
      "s on ": 2504,
      "arg": 2505,
      "as I ": 2506,
      "themselves ": 2507,
      "walk": 2508,
      "doctor": 2509,
      "idea ": 2510,
      "full of ": 2511,
      "Warbur": 2512,
      "Ko ": 2513,
      "cros": 2514,
      "mag": 2515,
      "sound": 2516,
      "repe": 2517,
      "he said ": 2518,
      "ature": 2519,
      "isn't ": 2520,
      "ent, ": 2521,
      "He had ": 2522,
      "It is ": 2523,
      "tea ": 2524,
      "before the ": 2525,
      "must be ": 2526,
      "months ": 2527,
      "necessary ": 2528,
      "O'Brien ": 2529,
      "liter": 2530,
      "ordinary ": 2531,
      "AN": 2532,
      "Rus": 2533,
      "lan": 2534,
      "line ": 2535,
      "than": 2536,
      "in this ": 2537,
      "stick": 2538,
      "you're ": 2539,
      "it had ": 2540,
      "ici": 2541,
      "you can ": 2542,
      ",' she ": 2543,
      "won't ": 2544,
      "Government ": 2545,
      "'The ": 2546,
      "mos": 2547,
      "sus": 2548,
      "s for ": 2549,
      "s which ": 2550,
      "only\n": 2551,
      "ely\n": 2552,
      "forgo": 2553,
      "irc": 2554,
      "nois": 2555,
      "very\n": 2556,
      "expres": 2557,
      "s.  The ": 2558,
      "stra": 2559,
      "tic ": 2560,
      ".  His ": 2561,
      "child": 2562,
      "notice ": 2563,
      "telescre": 2564,
      "'Th": 2565,
      "Low": 2566,
      "bas": 2567,
      "dear": 2568,
      "food": 2569,
      "kid": 2570,
      "val": 2571,
      ". This ": 2572,
      "stay": 2573,
      "at this ": 2574,
      "unemploy": 2575,
      "top ": 2576,
      "sec": 2577,
      "or two ": 2578,
      "twel": 2579,
      "inde": 2580,
      "fail": 2581,
      "most\n": 2582,
      "which the ": 2583,
      "however, ": 2584,
      "person": 2585,
      "best ": 2586,
      "dest": 2587,
      "habit": 2588,
      "reco": 2589,
      "nothing": 2590,
      "I am ": 2591,
      "is that ": 2592,
      "uni": 2593,
      "usual ": 2594,
      "proc": 2595,
      "police ": 2596,
      "man's ": 2597,
      "ther\n": 2598,
      "soon": 2599,
      "surpris": 2600,
      "when they ": 2601,
      "question ": 2602,
      "lost ": 2603,
      "eri": 2604,
      ", you ": 2605,
      ". . ": 2606,
      "of that ": 2607,
      "at least ": 2608,
      "it would ": 2609,
      "adv": 2610,
      "some\n": 2611,
      "up to ": 2612,
      "great": 2613,
      "caught ": 2614,
      "reach": 2615,
      "heart ": 2616,
      "contro": 2617,
      "Mr Macgreg": 2618,
      "speak ": 2619,
      "Communist": 2620,
      "machine-": 2621,
      "forgott": 2622,
      "ia ": 2623,
      "kin": 2624,
      "pag": 2625,
      "sure ": 2626,
      "y the ": 2627,
      "zz": 2628,
      ", that ": 2629,
      "ed at ": 2630,
      "in which ": 2631,
      "----": 2632,
      "spe": 2633,
      "impres": 2634,
      "clos": 2635,
      " through ": 2636,
      "a moment ": 2637,
      "Miss ": 2638,
      "bon": 2639,
      "bab": 2640,
      "civ": 2641,
      "fter": 2642,
      "goo": 2643,
      "pet": 2644,
      "slip": 2645,
      "s and\n": 2646,
      "er than ": 2647,
      "arriv": 2648,
      "espec": 2649,
      "event": 2650,
      "see": 2651,
      "say, ": 2652,
      "claim": 2653,
      "somewhere ": 2654,
      "where the ": 2655,
      "finish": 2656,
      "written ": 2657,
      "Don't ": 2658,
      "\"\n": 2659,
      "care ": 2660,
      "eur": 2661,
      "tom": 2662,
      "into\n": 2663,
      ". L": 2664,
      "a week": 2665,
      "story ": 2666,
      "was that ": 2667,
      "as they ": 2668,
      "convers": 2669,
      "tast": 2670,
      "understand ": 2671,
      "cannot ": 2672,
      "expect": 2673,
      "C.": 2674,
      "S'": 2675,
      "Some": 2676,
      "bow": 2677,
      "driv": 2678,
      "frigh": 2679,
      "ik": 2680,
      "ike ": 2681,
      "norm": 2682,
      "rate ": 2683,
      "what\n": 2684,
      ".  L": 2685,
      "itary ": 2686,
      "ask ": 2687,
      "to think ": 2688,
      "not to ": 2689,
      "comrad": 2690,
      "um ": 2691,
      "blue ": 2692,
      "ture ": 2693,
      "much": 2694,
      "has been ": 2695,
      "if they ": 2696,
      "Mr Warbur": 2697,
      "myself": 2698,
      "across ": 2699,
      ".T": 2700,
      "Ex": 2701,
      "ci": 2702,
      "fut": 2703,
      "jam": 2704,
      "low ": 2705,
      "loc": 2706,
      "t of\n": 2707,
      "erhap": 2708,
      "ing,\n": 2709,
      "pover": 2710,
      "remar": 2711,
      "help ": 2712,
      "quarter": 2713,
      "Elizabeth": 2714,
      "doubt ": 2715,
      "succ": 2716,
      "Napoleon ": 2717,
      "danger": 2718,
      "breakf": 2719,
      "fighting ": 2720,
      "Russi": 2721,
      "sou": 2722,
      "then, ": 2723,
      "s with ": 2724,
      "onc": 2725,
      ".  Gordon ": 2726,
      "you've ": 2727,
      "es in ": 2728,
      "ound, ": 2729,
      "ult": 2730,
      "spr": 2731,
      "ending ": 2732,
      "he's ": 2733,
      "he'd ": 2734,
      "ation, ": 2735,
      "living ": 2736,
      "matter ": 2737,
      "effor": 2738,
      "floor": 2739,
      "public ": 2740,
      "managed to ": 2741,
      "until ": 2742,
      "Do you ": 2743,
      "hadn't ": 2744,
      "Mar": 2745,
      "Qu": 2746,
      "West": 2747,
      "Y ": 2748,
      "ean": 2749,
      "hol": 2750,
      "ing--": 2751,
      "nowa": 2752,
      "road ": 2753,
      ", and he ": 2754,
      "able\n": 2755,
      "quick": 2756,
      "her, ": 2757,
      "ship": 2758,
      "certain ": 2759,
      "look at ": 2760,
      "Char": 2761,
      "school ": 2762,
      "among the ": 2763,
      "beyond ": 2764,
      "aur": 2765,
      "den": 2766,
      "hang": 2767,
      "pav": 2768,
      "ing them ": 2769,
      "sti": 2770,
      "else": 2771,
      "whose ": 2772,
      ", and then ": 2773,
      "shout": 2774,
      "raw": 2775,
      "present ": 2776,
      "stream": 2777,
      "There was ": 2778,
      "later": 2779,
      "doctor ": 2780,
      "organ": 2781,
      "Bro": 2782,
      "Just ": 2783,
      "thy ": 2784,
      "ere's ": 2785,
      "ingly ": 2786,
      "ing the\n": 2787,
      "ally, ": 2788,
      "a week ": 2789,
      "ed--": 2790,
      "tobac": 2791,
      "sett": 2792,
      "ically ": 2793,
      "ch of ": 2794,
      "appro": 2795,
      "poss": 2796,
      "green ": 2797,
      "disappear": 2798,
      "coat": 2799,
      "coal ": 2800,
      "rais": 2801,
      "hear ": 2802,
      "buy ": 2803,
      "becaus": 2804,
      "might be ": 2805,
      "point": 2806,
      "miser": 2807,
      ". His ": 2808,
      "sens": 2809,
      "short": 2810,
      "ING": 2811,
      "efore ": 2812,
      "especi": 2813,
      "'G": 2814,
      "cell": 2815,
      "ga": 2816,
      "hold": 2817,
      "na": 2818,
      "ness": 2819,
      "s.'\n": 2820,
      "ying ": 2821,
      "yard": 2822,
      "ous, ": 2823,
      "was to ": 2824,
      "ow, ": 2825,
      "cho": 2826,
      "ford ": 2827,
      "oop": 2828,
      "amp ": 2829,
      "aged ": 2830,
      "terri": 2831,
      "meet": 2832,
      "fact that ": 2833,
      "taking ": 2834,
      "partic": 2835,
      ".  As ": 2836,
      "care": 2837,
      "letter ": 2838,
      "attitud": 2839,
      "start ": 2840,
      "most": 2841,
      "paper ": 2842,
      "fifteen ": 2843,
      "?' said ": 2844,
      "clothes ": 2845,
      "want to ": 2846,
      "tiny ": 2847,
      "dozen ": 2848,
      "D ": 2849,
      "_, ": 2850,
      "dead ": 2851,
      "warm": 2852,
      "d of ": 2853,
      ". N": 2854,
      "offe": 2855,
      "a good ": 2856,
      "and his ": 2857,
      "chance ": 2858,
      "become ": 2859,
      "form ": 2860,
      "asp": 2861,
      "sav": 2862,
      "one of those ": 2863,
      "sleep ": 2864,
      "dream": 2865,
      "fell": 2866,
      "n't\n": 2867,
      "sit ": 2868,
      ". One ": 2869,
      "shel": 2870,
      "saf": 2871,
      "occur": 2872,
      "es, the ": 2873,
      "prof": 2874,
      "a mat": 2875,
      "hands ": 2876,
      "viol": 2877,
      "ence, ": 2878,
      "hours ": 2879,
      "later ": 2880,
      "perio": 2881,
      "rubb": 2882,
      "dreadful ": 2883,
      "May": 2884,
      "ged ": 2885,
      "kill": 2886,
      "s'": 2887,
      "chan": 2888,
      "on and ": 2889,
      "that was ": 2890,
      "plat": 2891,
      "part": 2892,
      "ustom": 2893,
      "marri": 2894,
      "cold": 2895,
      "myself ": 2896,
      "England ": 2897,
      "second ": 2898,
      "explain": 2899,
      "Lackersteen ": 2900,
      "Hild": 2901,
      "book ": 2902,
      "dul": 2903,
      "gy": 2904,
      "me\n": 2905,
      "pu": 2906,
      "sli": 2907,
      "tem": 2908,
      " thir": 2909,
      "lie ": 2910,
      "early ": 2911,
      "would not ": 2912,
      "ground": 2913,
      "small": 2914,
      "objec": 2915,
      "pence ": 2916,
      "now, ": 2917,
      "change ": 2918,
      "intellig": 2919,
      "Minist": 2920,
      ",\" ": 2921,
      "IG": 2922,
      "ake ": 2923,
      "bell": 2924,
      "ia": 2925,
      "nar": 2926,
      "pit": 2927,
      "shap": 2928,
      "any\n": 2929,
      "one, ": 2930,
      ". When ": 2931,
      "along": 2932,
      "forc": 2933,
      "forward ": 2934,
      "ident": 2935,
      "something": 2936,
      "starv": 2937,
      "if\n": 2938,
      "behind the ": 2939,
      "dirty ": 2940,
      "listen": 2941,
      "wife ": 2942,
      "Brit": 2943,
      "cow": 2944,
      "ses ": 2945,
      "th\n": 2946,
      ". For ": 2947,
      "ing for ": 2948,
      "itu": 2949,
      "bear": 2950,
      "acked ": 2951,
      "sh ": 2952,
      "have to ": 2953,
      "from the\n": 2954,
      "aff": 2955,
      "what was ": 2956,
      "feet": 2957,
      "grew ": 2958,
      "scen": 2959,
      "do you ": 2960,
      "understand": 2961,
      "down, ": 2962,
      "sky": 2963,
      ". If ": 2964,
      "restaur": 2965,
      "divid": 2966,
      "Ko S'": 2967,
      "bag": 2968,
      "cle ": 2969,
      "e; ": 2970,
      "gaz": 2971,
      "sir": 2972,
      "art ": 2973,
      "al, ": 2974,
      "stock": 2975,
      "ess of ": 2976,
      "es of the ": 2977,
      "an in": 2978,
      "as it ": 2979,
      "and-": 2980,
      "here": 2981,
      "e.  He ": 2982,
      "by a ": 2983,
      "thought": 2984,
      "igg": 2985,
      "instead ": 2986,
      ". At ": 2987,
      "Gordon, ": 2988,
      "ceed": 2989,
      "begin ": 2990,
      "ation of ": 2991,
      "ash ": 2992,
      "sort of ": 2993,
      "God ": 2994,
      "agged ": 2995,
      "two\n": 2996,
      "reason": 2997,
      "doesn't ": 2998,
      "Lower ": 2999,
      "'_": 3000,
      "How ": 3001,
      "afr": 3002,
      "ey\n": 3003,
      "fell ": 3004,
      "farm ": 3005,
      "gard": 3006,
      "ks ": 3007,
      "tear": 3008,
      "trem": 3009,
      ".  F": 3010,
      ", and I ": 3011,
      "usually ": 3012,
      "It was a ": 3013,
      "meal": 3014,
      "over, ": 3015,
      "ended ": 3016,
      "hung": 3017,
      "bath": 3018,
      "common ": 3019,
      "'Yes, ": 3020,
      "learn": 3021,
      "ignor": 3022,
      "recogn": 3023,
      "frighten": 3024,
      "'It's ": 3025,
      "Con": 3026,
      "b ": 3027,
      "circ": 3028,
      "ey, ": 3029,
      "gres": 3030,
      "iliz": 3031,
      "took": 3032,
      "an, ": 3033,
      "ary, ": 3034,
      "itself": 3035,
      "libr": 3036,
      "ashi": 3037,
      "edly ": 3038,
      "is to ": 3039,
      "train": 3040,
      "spl": 3041,
      "spon": 3042,
      "grav": 3043,
      "bling ": 3044,
      "who were ": 3045,
      "grey ": 3046,
      "way of ": 3047,
      "said.\n": 3048,
      "women": 3049,
      "Once ": 3050,
      "everything": 3051,
      "attemp": 3052,
      "'Well, ": 3053,
      "corner ": 3054,
      "Socialist ": 3055,
      "your\n": 3056,
      "children": 3057,
      "....": 3058,
      "Nob": 3059,
      "ON": 3060,
      "fat ": 3061,
      "sound ": 3062,
      "wo ": 3063,
      "along ": 3064,
      "was, ": 3065,
      "ound\n": 3066,
      "met ": 3067,
      "meet ": 3068,
      "mechan": 3069,
      "thought of ": 3070,
      "disg": 3071,
      "pray": 3072,
      "little\n": 3073,
      "aware ": 3074,
      "after the ": 3075,
      "Socialist": 3076,
      "Club ": 3077,
      "makes ": 3078,
      "o'": 3079,
      "rag": 3080,
      "rush": 3081,
      "wound": 3082,
      ". In the ": 3083,
      "atmos": 3084,
      "been": 3085,
      "in some ": 3086,
      "had the ": 3087,
      "it to ": 3088,
      "educ": 3089,
      "you were ": 3090,
      " that he ": 3091,
      "sive ": 3092,
      "conv": 3093,
      "th of ": 3094,
      "again, ": 3095,
      "defin": 3096,
      "self-": 3097,
      "other\n": 3098,
      "happened ": 3099,
      ".  He\n": 3100,
      ".  We ": 3101,
      "evening ": 3102,
      "Franc": 3103,
      "passed ": 3104,
      "yourself": 3105,
      "Box": 3106,
      "Spanish ": 3107,
      "Lower Bin": 3108,
      "'--": 3109,
      "cro": 3110,
      "cut": 3111,
      "jung": 3112,
      "pt ": 3113,
      "push": 3114,
      "van": 3115,
      "angr": 3116,
      "or the ": 3117,
      "ing with ": 3118,
      "bed, ": 3119,
      "in and ": 3120,
      "issu": 3121,
      "that I ": 3122,
      "or a ": 3123,
      "main ": 3124,
      "like that": 3125,
      "strong": 3126,
      "brown ": 3127,
      "if he ": 3128,
      "outsid": 3129,
      "ations ": 3130,
      "ceas": 3131,
      "shir": 3132,
      "ity of ": 3133,
      "point ": 3134,
      "seemed to be ": 3135,
      "phys": 3136,
      "during the ": 3137,
      "societ": 3138,
      "practic": 3139,
      "cigarett": 3140,
      "'N": 3141,
      "All": 3142,
      "Ma ": 3143,
      "bin": 3144,
      "coffe": 3145,
      "eigh": 3146,
      "ff ": 3147,
      "gen": 3148,
      "gro": 3149,
      "sof": 3150,
      "sam": 3151,
      "only": 3152,
      "to his ": 3153,
      "it.  ": 3154,
      "for the\n": 3155,
      "even the ": 3156,
      "on to the ": 3157,
      "plan": 3158,
      "ew\n": 3159,
      "her.\n": 3160,
      "working-": 3161,
      "letari": 3162,
      "pick": 3163,
      "darkn": 3164,
      "walk ": 3165,
      "know what ": 3166,
      "sense ": 3167,
      "rying ": 3168,
      "charac": 3169,
      "For the ": 3170,
      "church": 3171,
      "foreig": 3172,
      "coloured ": 3173,
      "machine-gun": 3174,
      ".' ": 3175,
      "away, ": 3176,
      "eh": 3177,
      "fat": 3178,
      "ve\n": 3179,
      "ench ": 3180,
      ". In": 3181,
      "ore": 3182,
      "ary\n": 3183,
      "arrest": 3184,
      "stone ": 3185,
      "way\n": 3186,
      "in a\n": 3187,
      "act ": 3188,
      "wil": 3189,
      "among ": 3190,
      "sear": 3191,
      "ily": 3192,
      "iled ": 3193,
      "with her ": 3194,
      "tern": 3195,
      "proletari": 3196,
      "poet": 3197,
      "fact, ": 3198,
      "eye ": 3199,
      "only a ": 3200,
      "typ": 3201,
      "kind of th": 3202,
      "excep": 3203,
      "ship ": 3204,
      "room, ": 3205,
      "movement": 3206,
      "teach": 3207,
      "England": 3208,
      "penny ": 3209,
      "for instance, ": 3210,
      "MRS ": 3211,
      "OR": 3212,
      "]:  ": 3213,
      "aut": 3214,
      "cup": 3215,
      "fight": 3216,
      "son": 3217,
      " thre": 3218,
      "ale ": 3219,
      "ely, ": 3220,
      "was still ": 3221,
      "ask": 3222,
      "opin": 3223,
      "other, ": 3224,
      "worse ": 3225,
      "And\n": 3226,
      "fact": 3227,
      "there's ": 3228,
      "e of a ": 3229,
      "he had been ": 3230,
      "saying ": 3231,
      "lived ": 3232,
      "half a ": 3233,
      "between": 3234,
      "There were ": 3235,
      "join": 3236,
      "Socialism": 3237,
      "                ": 3238,
      "yellow ": 3239,
      "trouble ": 3240,
      "ouple of ": 3241,
      "exactly ": 3242,
      "After ": 3243,
      "Ge": 3244,
      "We": 3245,
      "mid": 3246,
      "non": 3247,
      "ty\n": 3248,
      ", because ": 3249,
      " they": 3250,
      "stir": 3251,
      "was an ": 3252,
      "nobody ": 3253,
      "progres": 3254,
      "grac": 3255,
      "no one ": 3256,
      "so for": 3257,
      "from a ": 3258,
      "days, ": 3259,
      "princ": 3260,
      "deep ": 3261,
      "antly ": 3262,
      "Flor": 3263,
      "a pi": 3264,
      "feeling that ": 3265,
      "picked ": 3266,
      ".  If ": 3267,
      "near ": 3268,
      "servant": 3269,
      "yourself ": 3270,
      "short ": 3271,
      "mouth": 3272,
      "furn": 3273,
      "spectac": 3274,
      "bourgeo": 3275,
      "dic": 3276,
      "eag": 3277,
      "fav": 3278,
      "lun": 3279,
      "los": 3280,
      "lay": 3281,
      "mere ": 3282,
      "o-": 3283,
      "ring": 3284,
      "ras": 3285,
      "viv": 3286,
      "erc": 3287,
      "ery ": 3288,
      "on their ": 3289,
      "a kind of ": 3290,
      "stup": 3291,
      "ately": 3292,
      "ur ": 3293,
      "shoo": 3294,
      "train ": 3295,
      "love ": 3296,
      "Only ": 3297,
      ". He had ": 3298,
      "need ": 3299,
      "moder": 3300,
      " there was a ": 3301,
      "They were ": 3302,
      "breast": 3303,
      "vagu": 3304,
      "tomor": 3305,
      "bun": 3306,
      "cook": 3307,
      "hos": 3308,
      "kno": 3309,
      "red to ": 3310,
      "sat": 3311,
      "e that ": 3312,
      "ers. ": 3313,
      ".  D": 3314,
      "of it": 3315,
      "with the\n": 3316,
      "as though": 3317,
      "got\n": 3318,
      "here, ": 3319,
      "over\n": 3320,
      "tax": 3321,
      "of these ": 3322,
      "position ": 3323,
      "struc": 3324,
      ".  She was ": 3325,
      "rail": 3326,
      ".  At ": 3327,
      "away from ": 3328,
      "girls ": 3329,
      "running ": 3330,
      "mouth ": 3331,
      "reason ": 3332,
      "Dorothy's ": 3333,
      "business ": 3334,
      "perfect": 3335,
      "Anarchist": 3336,
      "various ": 3337,
      "Boris ": 3338,
      "shillings ": 3339,
      "late ": 3340,
      "pp": 3341,
      "t-": 3342,
      "ened ": 3343,
      "ing their ": 3344,
      "ing her ": 3345,
      "ession": 3346,
      "you'd ": 3347,
      "evid": 3348,
      "es to ": 3349,
      "absol": 3350,
      "out and ": 3351,
      "out of\n": 3352,
      "worst ": 3353,
      "parti": 3354,
      "someone ": 3355,
      "if I ": 3356,
      "people who ": 3357,
      ".  What ": 3358,
      "country": 3359,
      "their\n": 3360,
      "middle-": 3361,
      "demand": 3362,
      "happen ": 3363,
      "Julia": 3364,
      "secret ": 3365,
      "church ": 3366,
      "hotel ": 3367,
      "disgust": 3368,
      "CH": 3369,
      "Civ": 3370,
      "Eur": 3371,
      "LI": 3372,
      "a-": 3373,
      "aver": 3374,
      "bb": 3375,
      "bread": 3376,
      "gat": 3377,
      "la": 3378,
      "in that ": 3379,
      "incl": 3380,
      ".  For ": 3381,
      "ing in the ": 3382,
      "at all": 3383,
      "in any ": 3384,
      "asle": 3385,
      "on her ": 3386,
      "ently": 3387,
      "true ": 3388,
      "have a ": 3389,
      "!  The ": 3390,
      "we had ": 3391,
      "somehow ": 3392,
      "remain": 3393,
      "hot ": 3394,
      "a min": 3395,
      "down and ": 3396,
      "can be ": 3397,
      "kind of\n": 3398,
      "write ": 3399,
      "should be ": 3400,
      "country ": 3401,
      "books ": 3402,
      "queal": 3403,
      "power": 3404,
      "Gordon's ": 3405,
      "'Yes": 3406,
      "etc., ": 3407,
      "Julia ": 3408,
      "dress": 3409,
      "political ": 3410,
      "private ": 3411,
      "absolut": 3412,
      ".]": 3413,
      "d-": 3414,
      "ez": 3415,
      "gli": 3416,
      "ution ": 3417,
      "y, and ": 3418,
      "ed by the ": 3419,
      "ston": 3420,
      "stay ": 3421,
      "wag": 3422,
      "respon": 3423,
      "beat": 3424,
      "lev": 3425,
      "k and ": 3426,
      "with a\n": 3427,
      "expen": 3428,
      "but the ": 3429,
      "boy ": 3430,
      "there are ": 3431,
      "coat ": 3432,
      "into his ": 3433,
      "knows ": 3434,
      "see the ": 3435,
      "end of the ": 3436,
      "decent ": 3437,
      "accoun": 3438,
      "well, ": 3439,
      "generally ": 3440,
      "wanted to ": 3441,
      "consci": 3442,
      "extra": 3443,
      "revolutionary ": 3444,
      "heavy ": 3445,
      "Euras": 3446,
      "Mon": 3447,
      "laid ": 3448,
      "wand": 3449,
      "ane": 3450,
      "a lo": 3451,
      "atur": 3452,
      "les of ": 3453,
      "it had been ": 3454,
      "term": 3455,
      "spend ": 3456,
      "compar": 3457,
      "suit": 3458,
      "close ": 3459,
      "grown ": 3460,
      "bod": 3461,
      "indust": 3462,
      "acket": 3463,
      "down\n": 3464,
      "father": 3465,
      "point of ": 3466,
      "rick": 3467,
      "miles ": 3468,
      "there was no ": 3469,
      "doubt": 3470,
      "patron": 3471,
      "towards the ": 3472,
      "syst": 3473,
      "completely ": 3474,
      "important ": 3475,
      "civiliz": 3476,
      "All ": 3477,
      "EN": 3478,
      "Mis": 3479,
      "Re": 3480,
      "custom": 3481,
      "ies": 3482,
      "iber": 3483,
      "men, ": 3484,
      "rum": 3485,
      "se\n": 3486,
      "thor": 3487,
      ", not ": 3488,
      ". F": 3489,
      "alone ": 3490,
      "ally\n": 3491,
      "ing at ": 3492,
      "ing up ": 3493,
      "itself ": 3494,
      "became ": 3495,
      "it and ": 3496,
      "edg": 3497,
      "k of ": 3498,
      "ably": 3499,
      "that they ": 3500,
      "ose\n": 3501,
      "upon the ": 3502,
      "experi": 3503,
      "troop": 3504,
      "do\n": 3505,
      "pose": 3506,
      "parap": 3507,
      "scar": 3508,
      "first": 3509,
      "log": 3510,
      "a bit of ": 3511,
      "awn": 3512,
      "accep": 3513,
      "accord": 3514,
      "capital": 3515,
      "There was a ": 3516,
      "words ": 3517,
      "certainly ": 3518,
      "windm": 3519,
      "does not ": 3520,
      "death": 3521,
      "immediately ": 3522,
      "Sunday ": 3523,
      "twelve ": 3524,
      "'P": 3525,
      "O ": 3526,
      "St": 3527,
      "Yet ": 3528,
      "bit ": 3529,
      "eful ": 3530,
      "kt": 3531,
      "luck": 3532,
      "send ": 3533,
      "the first ": 3534,
      "an hour ": 3535,
      "idist": 3536,
      "verand": 3537,
      "our\n": 3538,
      "' and ": 3539,
      "me to ": 3540,
      "she could ": 3541,
      "proper": 3542,
      "!  I ": 3543,
      "s.  He ": 3544,
      "scrap": 3545,
      "coal": 3546,
      "buil": 3547,
      "a sing": 3548,
      "wrong": 3549,
      "father ": 3550,
      "say that ": 3551,
      "aukt": 3552,
      ". What ": 3553,
      ".  It was a ": 3554,
      "Socialism ": 3555,
      "stop ": 3556,
      "fortun": 3557,
      "run ": 3558,
      "number of ": 3559,
      "Kyaukt": 3560,
      "crowd": 3561,
      "drunk": 3562,
      "Verrall ": 3563,
      "aspidist": 3564,
      "Kyauktad": 3565,
      "'.\n": 3566,
      "boot": 3567,
      "fool": 3568,
      "er.\n": 3569,
      ", was ": 3570,
      "ing them": 3571,
      "arrang": 3572,
      "ed to\n": 3573,
      "ing it ": 3574,
      "ature ": 3575,
      "like": 3576,
      "top": 3577,
      "with their ": 3578,
      ", and a ": 3579,
      "shut ": 3580,
      "sugg": 3581,
      "are not ": 3582,
      "et of ": 3583,
      "clock": 3584,
      "prot": 3585,
      "box": 3586,
      "about it": 3587,
      "part ": 3588,
      "partly ": 3589,
      "time to ": 3590,
      "off the ": 3591,
      "s, and the ": 3592,
      "Party": 3593,
      "own\n": 3594,
      "capable ": 3595,
      "phere ": 3596,
      "mix": 3597,
      "broke ": 3598,
      "lect": 3599,
      ". There was ": 3600,
      " they\n": 3601,
      "Father ": 3602,
      "gentle": 3603,
      "never\n": 3604,
      "smell of ": 3605,
      "figure": 3606,
      "hundred": 3607,
      "straight ": 3608,
      "erhaps ": 3609,
      "atmosphere ": 3610,
      "Ca": 3611,
      "Cat": 3612,
      "N.T": 3613,
      "bank": 3614,
      "dear ": 3615,
      "free ": 3616,
      "nic": 3617,
      "wro": 3618,
      "y's ": 3619,
      "anti": 3620,
      "ant, ": 3621,
      ".  You": 3622,
      "elop": 3623,
      "le and ": 3624,
      "as well ": 3625,
      "tered ": 3626,
      "The\n": 3627,
      "one of ": 3628,
      "old\n": 3629,
      "such": 3630,
      "imp": 3631,
      "board": 3632,
      "part of the ": 3633,
      "somebody ": 3634,
      "disc": 3635,
      "firm": 3636,
      "hoto": 3637,
      "a bit ": 3638,
      "anything": 3639,
      "hungr": 3640,
      "Come ": 3641,
      "ence. ": 3642,
      "meaning": 3643,
      "which, ": 3644,
      "broken ": 3645,
      "human be": 3646,
      "horrible ": 3647,
      "struggl": 3648,
      "opposite ": 3649,
      "organiz": 3650,
      "especially ": 3651,
      "working-class ": 3652,
      "character": 3653,
      "Cor": 3654,
      "Every ": 3655,
      "egg": 3656,
      "fish ": 3657,
      "lon": 3658,
      "o\n": 3659,
      "rain": 3660,
      "t.\n": 3661,
      "wre": 3662,
      " this\n": 3663,
      "enn": 3664,
      ". D": 3665,
      "and then ": 3666,
      "hated ": 3667,
      "itor": 3668,
      "ite\n": 3669,
      "andal": 3670,
      "olog": 3671,
      "wore ": 3672,
      "siz": 3673,
      "goes ": 3674,
      "she would ": 3675,
      "drink ": 3676,
      "eyes": 3677,
      "what I ": 3678,
      "from his ": 3679,
      "avo": 3680,
      "so, ": 3681,
      "flag": 3682,
      "def": 3683,
      "right, ": 3684,
      "talked ": 3685,
      "'We ": 3686,
      "picture": 3687,
      "ence of ": 3688,
      "udg": 3689,
      "arily ": 3690,
      "whether": 3691,
      "queer ": 3692,
      "floor ": 3693,
      "summ": 3694,
      "conscious": 3695,
      "soon as ": 3696,
      "promis": 3697,
      "teeth ": 3698,
      "U Po Kyin ": 3699,
      "princip": 3700,
      "!'  ": 3701,
      "East": 3702,
      "How": 3703,
      "Jon": 3704,
      "Mother ": 3705,
      "_patron": 3706,
      "cul": 3707,
      "fal": 3708,
      "lamp": 3709,
      "o, ": 3710,
      "ror": 3711,
      "e to ": 3712,
      "ers and ": 3713,
      " this": 3714,
      "ed; ": 3715,
      "eph": 3716,
      "trav": 3717,
      "seld": 3718,
      "ousand": 3719,
      "herself": 3720,
      "up of ": 3721,
      "ble\n": 3722,
      "him and ": 3723,
      "side, ": 3724,
      "chief": 3725,
      "life, ": 3726,
      "if the ": 3727,
      "milli": 3728,
      "Chur": 3729,
      "while the ": 3730,
      "less\n": 3731,
      ".  That ": 3732,
      "God": 3733,
      "villag": 3734,
      "C.N.T": 3735,
      "Civil ": 3736,
      "industri": 3737,
      "I think ": 3738,
      "New": 3739,
      "Squeal": 3740,
      "Vic": 3741,
      "foot": 3742,
      "ither ": 3743,
      "tun": 3744,
      "ore ": 3745,
      "he had\n": 3746,
      "ator": 3747,
      "on to ": 3748,
      "died ": 3749,
      "poem": 3750,
      "there\n": 3751,
      "ishing ": 3752,
      "him to ": 3753,
      "it was not ": 3754,
      "disap": 3755,
      " they had ": 3756,
      "essenti": 3757,
      "teen": 3758,
      "cean": 3759,
      "over and ": 3760,
      "hand, ": 3761,
      "out of his ": 3762,
      "gett": 3763,
      "clean": 3764,
      "distanc": 3765,
      "quarter ": 3766,
      "already": 3767,
      "house, ": 3768,
      "knew that ": 3769,
      "graph": 3770,
      "night, ": 3771,
      "Snowball ": 3772,
      "), ": 3773,
      "ALL": 3774,
      "Col": 3775,
      "Tr": 3776,
      "coo": 3777,
      "pun": 3778,
      "s?  ": 3779,
      "tin ": 3780,
      "thel": 3781,
      "thinking ": 3782,
      "ings, ": 3783,
      "ess.  ": 3784,
      "lies ": 3785,
      "beau": 3786,
      "you'll ": 3787,
      "ed. The ": 3788,
      "edge ": 3789,
      "you to ": 3790,
      "s, and\n": 3791,
      "siv": 3792,
      "me that ": 3793,
      "maj": 3794,
      "so much ": 3795,
      "we're ": 3796,
      "ers were ": 3797,
      "people, ": 3798,
      "arms ": 3799,
      "warm ": 3800,
      "fair ": 3801,
      "excit": 3802,
      "meric": 3803,
      "desp": 3804,
      "From ": 3805,
      "high ": 3806,
      "thirty ": 3807,
      "rolled ": 3808,
      "Ellis ": 3809,
      "beginn": 3810,
      "kitchen ": 3811,
      "bread and ": 3812,
      "sooner ": 3813,
      "travell": 3814,
      "beauti": 3815,
      "'D": 3816,
      "May ": 3817,
      "Spain": 3818,
      "ax": 3819,
      "bal": 3820,
      "bought ": 3821,
      "eful": 3822,
      "fain": 3823,
      "ile ": 3824,
      "lor": 3825,
      "nor ": 3826,
      "ere\n": 3827,
      "answ": 3828,
      ", '": 3829,
      "almost\n": 3830,
      "the other ": 3831,
      "its\n": 3832,
      "roof": 3833,
      "idea": 3834,
      "--'\n": 3835,
      "ult ": 3836,
      "rest ": 3837,
      "blo": 3838,
      "part of ": 3839,
      ".  She had ": 3840,
      "child ": 3841,
      "carried ": 3842,
      "prev": 3843,
      "feeling of ": 3844,
      "mark": 3845,
      ". It was a ": 3846,
      "walking ": 3847,
      "between the ": 3848,
      "likely ": 3849,
      "years ago": 3850,
      "bottom ": 3851,
      "machine ": 3852,
      "public": 3853,
      "where": 3854,
      ".  There was ": 3855,
      "ruin": 3856,
      "dropped ": 3857,
      "family ": 3858,
      "trouble": 3859,
      "Winston's ": 3860,
      "benea": 3861,
      "obvious ": 3862,
      "beginning ": 3863,
      "natural ": 3864,
      "nowaday": 3865,
      "HA": 3866,
      "Ital": 3867,
      "Kop": 3868,
      "To ": 3869,
      "bil": 3870,
      "ding ": 3871,
      "een ": 3872,
      "eop": 3873,
      "e?  ": 3874,
      "les, ": 3875,
      "mother ": 3876,
      "nine ": 3877,
      "s or ": 3878,
      "ers' ": 3879,
      "enjo": 3880,
      "er of the ": 3881,
      "ese\n": 3882,
      "asid": 3883,
      "novel": 3884,
      "it in ": 3885,
      "ed-": 3886,
      "an hour": 3887,
      "save ": 3888,
      "with an ": 3889,
      "cond": 3890,
      "e.  But ": 3891,
      "e. He ": 3892,
      "money, ": 3893,
      "belong": 3894,
      "collec": 3895,
      "Mrs\n": 3896,
      "merc": 3897,
      "finally ": 3898,
      "cheek": 3899,
      "corner": 3900,
      "of course ": 3901,
      "myster": 3902,
      "moved ": 3903,
      "far as ": 3904,
      "soldi": 3905,
      "visi": 3906,
      "sheet": 3907,
      "stuff ": 3908,
      "famili": 3909,
      "particular": 3910,
      ".]\n": 3911,
      "Americ": 3912,
      "Br": 3913,
      "Chap": 3914,
      "E:  ": 3915,
      "Pro": 3916,
      "Sh": 3917,
      "Wor": 3918,
      "YOU": 3919,
      "coc": 3920,
      "caf": 3921,
      "gam": 3922,
      "gest": 3923,
      "ies of ": 3924,
      "king": 3925,
      "lack ": 3926,
      "vast ": 3927,
      "wall ": 3928,
      "rebelli": 3929,
      ".  G": 3930,
      "it.'\n": 3931,
      "ches ": 3932,
      "youth": 3933,
      "I can ": 3934,
      "es the ": 3935,
      "within ": 3936,
      "one could ": 3937,
      "all this ": 3938,
      "conceiv": 3939,
      "impossible": 3940,
      "on the other ": 3941,
      "day\n": 3942,
      ".  After ": 3943,
      "cru": 3944,
      "prec": 3945,
      "go on ": 3946,
      "ific": 3947,
      "deser": 3948,
      "moust": 3949,
      "aughter": 3950,
      "pulled ": 3951,
      "Rosemary": 3952,
      "dinner": 3953,
      "vague ": 3954,
      "boots ": 3955,
      "Mrs Creevy ": 3956,
      "Russian ": 3957,
      "IGO": 3958,
      "A.": 3959,
      "So ": 3960,
      "ath": 3961,
      "fashi": 3962,
      "gas": 3963,
      "pool": 3964,
      "photo": 3965,
      "sent": 3966,
      "sevent": 3967,
      "this\n": 3968,
      ", the\n": 3969,
      "stro": 3970,
      "of her ": 3971,
      "it, and ": 3972,
      "itut": 3973,
      "ession ": 3974,
      "at, ": 3975,
      "ate, ": 3976,
      "had no ": 3977,
      "I got ": 3978,
      "to them": 3979,
      "--that ": 3980,
      "ental ": 3981,
      "were not ": 3982,
      "que ": 3983,
      "are the ": 3984,
      "et and ": 3985,
      "ut, ": 3986,
      "Anim": 3987,
      "s. He ": 3988,
      "position": 3989,
      "any longer": 3990,
      "again.\n": 3991,
      "get\n": 3992,
      ".  It\n": 3993,
      "must have ": 3994,
      ".  Her ": 3995,
      "tried to ": 3996,
      "back, ": 3997,
      "remembered ": 3998,
      "burst ": 3999,
      "stead": 4000,
      "Ravelston": 4001,
      "tell you ": 4002,
      "shot ": 4003,
      "O'Brien": 4004,
      "still\n": 4005,
      "mistak": 4006,
      "quiet": 4007,
      "Flory's ": 4008,
      "argum": 4009,
      "British ": 4010,
      "', and ": 4011,
      ".'  ": 4012,
      "CE": 4013,
      "aily ": 4014,
      "ler ": 4015,
      "mal": 4016,
      "ram": 4017,
      "sac": 4018,
      "y,\n": 4019,
      "s at ": 4020,
      "into the\n": 4021,
      "ers\n": 4022,
      "ers.  ": 4023,
      "oud": 4024,
      " thing ": 4025,
      "evil ": 4026,
      "nose ": 4027,
      "it for ": 4028,
      "it is\n": 4029,
      "ily, ": 4030,
      "as an ": 4031,
      "earth": 4032,
      "were the ": 4033,
      "ourn": 4034,
      "whisk": 4035,
      "fix": 4036,
      "ously": 4037,
      "!  You ": 4038,
      "up to the ": 4039,
      "peac": 4040,
      "blu": 4041,
      "ey're ": 4042,
      "party ": 4043,
      "ed, but ": 4044,
      "more or ": 4045,
      "instinc": 4046,
      "heel": 4047,
      "glass": 4048,
      "always\n": 4049,
      "can\n": 4050,
      "afterward": 4051,
      "ugg": 4052,
      ". She ": 4053,
      "!' said ": 4054,
      "easy ": 4055,
      "peculi": 4056,
      "stopp": 4057,
      "God, ": 4058,
      "ness, ": 4059,
      "difficulty ": 4060,
      "equal": 4061,
      "memor": 4062,
      "slowly ": 4063,
      "Burmese ": 4064,
      "Ministry ": 4065,
      "afraid ": 4066,
      "genu": 4067,
      "modern ": 4068,
      "suggest": 4069,
      "Ger": 4070,
      "High": 4071,
      "Hla ": 4072,
      "RE": 4073,
      "Spain ": 4074,
      "ach ": 4075,
      "ling": 4076,
      "ost": 4077,
      "ran ": 4078,
      "s-": 4079,
      "ux": 4080,
      "wind ": 4081,
      "arti": 4082,
      "receiv": 4083,
      ".  In": 4084,
      "had been\n": 4085,
      "not, ": 4086,
      "it would be ": 4087,
      "rich ": 4088,
      "un ": 4089,
      "to their ": 4090,
      "icy": 4091,
      "enter": 4092,
      "appe": 4093,
      "apped ": 4094,
      "econ": 4095,
      "afford ": 4096,
      "man\n": 4097,
      "smash": 4098,
      "flung ": 4099,
      "aston": 4100,
      "cott": 4101,
      "glass ": 4102,
      "longer ": 4103,
      "ation\n": 4104,
      ".  Some": 4105,
      "armed ": 4106,
      "urely ": 4107,
      "know the ": 4108,
      "ought to ": 4109,
      "atten": 4110,
      "cheap": 4111,
      "help": 4112,
      "blood": 4113,
      "imagine ": 4114,
      "pretty ": 4115,
      "will\n": 4116,
      "memory ": 4117,
      "obviously ": 4118,
      "afternoon": 4119,
      "lodging-": 4120,
      "consider": 4121,
      "Brother": 4122,
      "instead of ": 4123,
      "Civil Gu": 4124,
      "Ben": 4125,
      "Ocean": 4126,
      "Se": 4127,
      "ck ": 4128,
      "gle": 4129,
      "kis": 4130,
      "kil": 4131,
      "sick": 4132,
      "incre": 4133,
      "inten": 4134,
      "anx": 4135,
      ". \"": 4136,
      "ed on ": 4137,
      "and was ": 4138,
      "to take ": 4139,
      "omin": 4140,
      "eless": 4141,
      "es. The ": 4142,
      "chest": 4143,
      "chanc": 4144,
      "least": 4145,
      "you?'\n": 4146,
      "emer": 4147,
      "had never ": 4148,
      "noise ": 4149,
      "sex": 4150,
      "age, ": 4151,
      "trous": 4152,
      "trade ": 4153,
      "quid ": 4154,
      "commun": 4155,
      "fied ": 4156,
      "itted ": 4157,
      ", but the ": 4158,
      "down to the ": 4159,
      "bug": 4160,
      "work, ": 4161,
      "Dorothy, ": 4162,
      "known": 4163,
      "made a ": 4164,
      "attack ": 4165,
      "interest ": 4166,
      ". It\n": 4167,
      "evening": 4168,
      "hope ": 4169,
      "front of ": 4170,
      "develop": 4171,
      "'No, ": 4172,
      "remark": 4173,
      "'And ": 4174,
      "Big ": 4175,
      "Em": 4176,
      "Nor": 4177,
      "She had ": 4178,
      "_pl": 4179,
      "ail ": 4180,
      "dust ": 4181,
      "ek ": 4182,
      "ject": 4183,
      "migh": 4184,
      "ner, ": 4185,
      "nativ": 4186,
      "pon": 4187,
      "temp": 4188,
      "vir": 4189,
      "s was ": 4190,
      ", in ": 4191,
      "inging ": 4192,
      "are, ": 4193,
      "hast": 4194,
      "sto": 4195,
      "ing on the ": 4196,
      "at his ": 4197,
      "ated": 4198,
      "lea": 4199,
      "I should ": 4200,
      "unt ": 4201,
      "one of them ": 4202,
      "ect ": 4203,
      "exam": 4204,
      "ain't ": 4205,
      "ongeur": 4206,
      "blow": 4207,
      "e.  And ": 4208,
      "what it ": 4209,
      "scri": 4210,
      "prin": 4211,
      "deb": 4212,
      "ready ": 4213,
      "reading ": 4214,
      ",' he ": 4215,
      "Where ": 4216,
      "prepar": 4217,
      ". He was ": 4218,
      "side of the ": 4219,
      "possibly ": 4220,
      "difference ": 4221,
      "how\n": 4222,
      "animal ": 4223,
      "French ": 4224,
      "speaking ": 4225,
      "subjec": 4226,
      "official ": 4227,
      "window ": 4228,
      "dinner ": 4229,
      "militiam": 4230,
      "birth": 4231,
      "came\n": 4232,
      "Father": 4233,
      "rotsky": 4234,
      "expected ": 4235,
      "indeed, ": 4236,
      "control": 4237,
      "a matter of ": 4238,
      "opinion": 4239,
      "Chapter ": 4240,
      "_plongeur": 4241,
      "BO": 4242,
      "Bar": 4243,
      "aer": 4244,
      "dish": 4245,
      "ny": 4246,
      "sy ": 4247,
      "t, and ": 4248,
      "wood ": 4249,
      "yard ": 4250,
      "ant\n": 4251,
      ", to ": 4252,
      "oud ": 4253,
      "ed him": 4254,
      "a '": 4255,
      "and I ": 4256,
      "es' ": 4257,
      "es; ": 4258,
      "rich": 4259,
      "that it ": 4260,
      "upon": 4261,
      "earth ": 4262,
      "not even ": 4263,
      "ly, and ": 4264,
      " that was ": 4265,
      "sper": 4266,
      "contr": 4267,
      "mast": 4268,
      "s. I ": 4269,
      "e.  I ": 4270,
      "monstr": 4271,
      "flat": 4272,
      "deal ": 4273,
      "time\n": 4274,
      "people\n": 4275,
      ".  Then ": 4276,
      "down to ": 4277,
      "office ": 4278,
      "by the\n": 4279,
      "Mr\n": 4280,
      "skin": 4281,
      "might have ": 4282,
      "clear ": 4283,
      "swallow": 4284,
      "slum": 4285,
      "slept ": 4286,
      "easily ": 4287,
      "guil": 4288,
      "THE ": 4289,
      "esides, ": 4290,
      "a thing ": 4291,
      "191": 4292,
      "Indian ": 4293,
      "Rector ": 4294,
      "recogniz": 4295,
      "a piec": 4296,
      "absolutely ": 4297,
      "Catho": 4298,
      "wrote ": 4299,
      "00": 4300,
      "C. ": 4301,
      "St ": 4302,
      "clim": 4303,
      "fright": 4304,
      "gar ": 4305,
      "main": 4306,
      "udden": 4307,
      "once": 4308,
      "only the ": 4309,
      "artic": 4310,
      "ed of ": 4311,
      "re\n": 4312,
      "reli": 4313,
      "rely ": 4314,
      ".  Flory ": 4315,
      "er was ": 4316,
      "you think ": 4317,
      "asking ": 4318,
      "agon": 4319,
      "show ": 4320,
      "as to ": 4321,
      "you will ": 4322,
      "examp": 4323,
      "come\n": 4324,
      "concer": 4325,
      "clock ": 4326,
      "like a\n": 4327,
      "peas": 4328,
      "s.  But ": 4329,
      "manner": 4330,
      "order ": 4331,
      "him a ": 4332,
      "only one ": 4333,
      "bring ": 4334,
      "said that ": 4335,
      "ation.\n": 4336,
      ".  All ": 4337,
      "went on ": 4338,
      "desir": 4339,
      "able, ": 4340,
      "helpl": 4341,
      "'I don't ": 4342,
      "distinc": 4343,
      "morning, ": 4344,
      ". They were ": 4345,
      "further ": 4346,
      "too\n": 4347,
      "a moment": 4348,
      "succeed": 4349,
      "murder": 4350,
      "village ": 4351,
      "Barcelona ": 4352,
      "expect ": 4353,
      "scream": 4354,
      "popul": 4355,
      "Mr Macgregor ": 4356,
      "naked ": 4357,
      "attitude ": 4358,
      "a single ": 4359,
      "seldom ": 4360,
      "!\" ": 4361,
      "Mc": 4362,
      "Mo": 4363,
      "My ": 4364,
      "Rom": 4365,
      "Sou": 4366,
      "To": 4367,
      "car ": 4368,
      "due ": 4369,
      "e?'\n": 4370,
      "situ": 4371,
      "tong": 4372,
      "ton, ": 4373,
      "uff": 4374,
      " thousand ": 4375,
      "ed out ": 4376,
      "ed from ": 4377,
      "watched ": 4378,
      "being\n": 4379,
      "ood, ": 4380,
      "tip": 4381,
      "unless ": 4382,
      "Then ": 4383,
      "sig": 4384,
      "sim": 4385,
      "quir": 4386,
      "me.\n": 4387,
      "every\n": 4388,
      "drinking ": 4389,
      "about a ": 4390,
      "e. I ": 4391,
      "greas": 4392,
      "flat ": 4393,
      "got a ": 4394,
      "if it ": 4395,
      ".  She\n": 4396,
      "type ": 4397,
      "know that ": 4398,
      "a couple of ": 4399,
      "neigh": 4400,
      "view": 4401,
      "after all": 4402,
      "move ": 4403,
      " there were ": 4404,
      "did\n": 4405,
      "however": 4406,
      "movement ": 4407,
      "'ll be ": 4408,
      "addres": 4409,
      ".  They were ": 4410,
      "writing ": 4411,
      "spoke ": 4412,
      "pull": 4413,
      "air of ": 4414,
      "Army ": 4415,
      "class-": 4416,
      "until": 4417,
      "grasp": 4418,
      "afternoon ": 4419,
      "beastly ": 4420,
      "telescreen": 4421,
      "Flory, ": 4422,
      "includ": 4423,
      "IS ": 4424,
      "I think": 4425,
      "NO": 4426,
      "Pres": 4427,
      "bound ": 4428,
      "bicy": 4429,
      "ead": 4430,
      "hen": 4431,
      "hood ": 4432,
      "oes ": 4433,
      "pas": 4434,
      "rul": 4435,
      "ustr": 4436,
      "then the ": 4437,
      "in those ": 4438,
      "ers of ": 4439,
      ", for ": 4440,
      ". No ": 4441,
      "ed them ": 4442,
      "a long ": 4443,
      ".  No ": 4444,
      "the whole ": 4445,
      "beer": 4446,
      "in your ": 4447,
      "it all ": 4448,
      "uncomfort": 4449,
      "--but ": 4450,
      "vert": 4451,
      "dim": 4452,
      "whit": 4453,
      "in the middle ": 4454,
      "go\n": 4455,
      "master": 4456,
      "grad": 4457,
      "s. But ": 4458,
      "therefore ": 4459,
      "straw": 4460,
      "strong ": 4461,
      "glas": 4462,
      ",' he said ": 4463,
      "loy": 4464,
      "carri": 4465,
      "pressed ": 4466,
      "When": 4467,
      "places ": 4468,
      "wrong ": 4469,
      "a cer": 4470,
      "tel ": 4471,
      "afterwards ": 4472,
      "happened": 4473,
      "barric": 4474,
      ". Some": 4475,
      "Mrs Lackersteen ": 4476,
      "left": 4477,
      "weeks ": 4478,
      "From": 4479,
      "empty ": 4480,
      "Very ": 4481,
      "regard": 4482,
      "intend": 4483,
      "193": 4484,
      "dressed ": 4485,
      "wooden ": 4486,
      "sharp": 4487,
      "'My ": 4488,
      "Everyone ": 4489,
      "at any rate ": 4490,
      "future ": 4491,
      "pavement": 4492,
      "occurred to ": 4493,
      "favour": 4494,
      "satis": 4495,
      "perfectly ": 4496,
      "eople ": 4497,
      "-looking ": 4498,
      "New ": 4499,
      "WA": 4500,
      "ct": 4501,
      "ebr": 4502,
      "lav": 4503,
      "ran": 4504,
      "wine ": 4505,
      "s who ": 4506,
      "ed at the ": 4507,
      "story": 4508,
      "wami": 4509,
      ".  One ": 4510,
      ".  Even ": 4511,
      "to him": 4512,
      "at that ": 4513,
      "ley ": 4514,
      "led, ": 4515,
      "lets ": 4516,
      "aswami": 4517,
      "why": 4518,
      "amoun": 4519,
      "seiz": 4520,
      "that he had ": 4521,
      "oplan": 4522,
      "trench": 4523,
      "plain": 4524,
      "plast": 4525,
      "umped ": 4526,
      "most of the ": 4527,
      "remained ": 4528,
      "much\n": 4529,
      "this was ": 4530,
      ". All": 4531,
      "typic": 4532,
      "haven't ": 4533,
      "everywher": 4534,
      "come to ": 4535,
      "pair": 4536,
      "military ": 4537,
      "counter": 4538,
      "papers ": 4539,
      "offici": 4540,
      "Even the ": 4541,
      "Veraswami": 4542,
      "ness of ": 4543,
      "At the ": 4544,
      "happy ": 4545,
      "learned ": 4546,
      "francs ": 4547,
      "dreadful": 4548,
      "filthy ": 4549,
      "beside ": 4550,
      "telling ": 4551,
      "fallen ": 4552,
      "European ": 4553,
      "growing ": 4554,
      "suspic": 4555,
      "slipped ": 4556,
      "Sometimes ": 4557,
      "physical ": 4558,
      "foreign ": 4559,
      "furnit": 4560,
      "tomorrow": 4561,
      "condition": 4562,
      "aeroplan": 4563,
      " was ": 4564,
      "'\"": 4565,
      "'the ": 4566,
      "ah": 4567,
      "co ": 4568,
      "craw": 4569,
      "dug": 4570,
      "een": 4571,
      "ech ": 4572,
      "fad": 4573,
      "fall ": 4574,
      "find": 4575,
      "gate ": 4576,
      "mon ": 4577,
      "ny ": 4578,
      "pink ": 4579,
      "then\n": 4580,
      "ine, ": 4581,
      "an' ": 4582,
      "ender": 4583,
      "or's ": 4584,
      "argu": 4585,
      "red, ": 4586,
      ".  In the ": 4587,
      "to do": 4588,
      "action": 4589,
      "forget ": 4590,
      "you.'\n": 4591,
      "empri": 4592,
      "evol": 4593,
      "I saw ": 4594,
      "is no ": 4595,
      "without\n": 4596,
      "an old ": 4597,
      "that she ": 4598,
      "illi": 4599,
      "as much ": 4600,
      "as usual": 4601,
      "sauc": 4602,
      "one another": 4603,
      "ever\n": 4604,
      "would never ": 4605,
      "which is ": 4606,
      "up a ": 4607,
      "what you ": 4608,
      "flash": 4609,
      "You're ": 4610,
      "did not\n": 4611,
      ". Then ": 4612,
      "this moment ": 4613,
      ".  So ": 4614,
      "rather": 4615,
      ". All ": 4616,
      "anyway": 4617,
      "creature": 4618,
      "place, ": 4619,
      "now\n": 4620,
      "end of ": 4621,
      "'What": 4622,
      "desper": 4623,
      "gets ": 4624,
      "Paris": 4625,
      "different": 4626,
      "pointed ": 4627,
      "money-": 4628,
      "bitter": 4629,
      "pretend": 4630,
      "strange ": 4631,
      "wish ": 4632,
      "earlier": 4633,
      " than the ": 4634,
      "impossible to ": 4635,
      "just\n": 4636,
      "destro": 4637,
      "local ": 4638,
      "Ko S'la ": 4639,
      "Benjam": 4640,
      "'I'm ": 4641,
      "; they ": 4642,
      "LE": 4643,
      "Some ": 4644,
      "gon": 4645,
      "gut": 4646,
      "ies, ": 4647,
      "jail": 4648,
      "moun": 4649,
      "may": 4650,
      "ror ": 4651,
      "rent ": 4652,
      "son ": 4653,
      "tar": 4654,
      "ues": 4655,
      "went\n": 4656,
      "s on the ": 4657,
      "ed that the ": 4658,
      "stol": 4659,
      "respect": 4660,
      "elect": 4661,
      "eleph": 4662,
      "was in ": 4663,
      "ley": 4664,
      "an un": 4665,
      "seen": 4666,
      "as well": 4667,
      "exclaim": 4668,
      "meal ": 4669,
      "plent": 4670,
      "play ": 4671,
      "sudden ": 4672,
      "doing": 4673,
      "they could ": 4674,
      "maid": 4675,
      "which he ": 4676,
      "what the ": 4677,
      "there, ": 4678,
      "when she ": 4679,
      "deal": 4680,
      "heart": 4681,
      "ure, ": 4682,
      "market": 4683,
      "the sam": 4684,
      "back\n": 4685,
      ". I\n": 4686,
      "belief": 4687,
      "near the ": 4688,
      "!' he ": 4689,
      "appearance ": 4690,
      "distance ": 4691,
      "neck": 4692,
      "nerv": 4693,
      ",' said the ": 4694,
      "fresh ": 4695,
      "power ": 4696,
      "she'd ": 4697,
      "special ": 4698,
      "second": 4699,
      "death ": 4700,
      "Government": 4701,
      "direction": 4702,
      "promp": 4703,
      "breakfast": 4704,
      " thirty ": 4705,
      "Nobby ": 4706,
      "vanish": 4707,
      "Ell": 4708,
      "Ho": 4709,
      "He\n": 4710,
      "Yes, ": 4711,
      "ahead ": 4712,
      "cel": 4713,
      "danc": 4714,
      "e'": 4715,
      "eight": 4716,
      "ian": 4717,
      "iously ": 4718,
      "lap": 4719,
      "ming": 4720,
      "nor": 4721,
      "nice ": 4722,
      "pool ": 4723,
      "pping ": 4724,
      "rust": 4725,
      "song": 4726,
      "tend": 4727,
      "vul": 4728,
      "iness ": 4729,
      "erv": 4730,
      ". Winston ": 4731,
      "a great ": 4732,
      "stanc": 4733,
      "res ": 4734,
      "red\n": 4735,
      "relig": 4736,
      ".  C": 4737,
      ".  This ": 4738,
      ".  When ": 4739,
      "lean": 4740,
      "lead ": 4741,
      "in it": 4742,
      "tired ": 4743,
      "us\n": 4744,
      "that you ": 4745,
      "age of ": 4746,
      "sight ": 4747,
      "tra": 4748,
      "spit": 4749,
      "occup": 4750,
      "factor": 4751,
      "ted the ": 4752,
      "pose ": 4753,
      "ing, but ": 4754,
      "some of the ": 4755,
      "brain": 4756,
      "penc": 4757,
      "glo": 4758,
      "understood ": 4759,
      "attack": 4760,
      "houses, ": 4761,
      "long as ": 4762,
      ".  With ": 4763,
      "cheap ": 4764,
      "guard": 4765,
      "later, ": 4766,
      "mission": 4767,
      "drew ": 4768,
      "waiting ": 4769,
      "waiter ": 4770,
      "blood ": 4771,
      ". There were ": 4772,
      " that, ": 4773,
      ". To ": 4774,
      "pige": 4775,
      "centur": 4776,
      "Spani": 4777,
      "foot ": 4778,
      "five\n": 4779,
      "there is no ": 4780,
      "earlier ": 4781,
      "conversation ": 4782,
      "breakfast ": 4783,
      "fellow": 4784,
      "so forth": 4785,
      "capable of ": 4786,
      "fashion": 4787,
      " T": 4788,
      "After": 4789,
      "Gre": 4790,
      "Look ": 4791,
      "Oh, ": 4792,
      "ST": 4793,
      "She was ": 4794,
      "camp": 4795,
      "fight ": 4796,
      "mir": 4797,
      "mother": 4798,
      "native ": 4799,
      "tro": 4800,
      "ed to the ": 4801,
      "ed the\n": 4802,
      "hab": 4803,
      "stitut": 4804,
      "return": 4805,
      "ing out ": 4806,
      "history ": 4807,
      "to me": 4808,
      "to say": 4809,
      "he is ": 4810,
      "beer ": 4811,
      "les and ": 4812,
      "wild ": 4813,
      "ly and ": 4814,
      "whom": 4815,
      "whol": 4816,
      ", and the\n": 4817,
      "idly ": 4818,
      "shin": 4819,
      "shov": 4820,
      "out to ": 4821,
      "ough ": 4822,
      "othing ": 4823,
      "all over ": 4824,
      "ouse ": 4825,
      "faces ": 4826,
      "up with ": 4827,
      "manner ": 4828,
      "glance ": 4829,
      "seems ": 4830,
      "miners ": 4831,
      "know, ": 4832,
      "declar": 4833,
      "lish ": 4834,
      "burn": 4835,
      "Mrs W": 4836,
      "seemed to have ": 4837,
      "gives ": 4838,
      "refus": 4839,
      "command": 4840,
      "singing": 4841,
      "boys ": 4842,
      "ER ": 4843,
      "Lackersteen": 4844,
      "announc": 4845,
      "rupe": 4846,
      "stepped ": 4847,
      "large, ": 4848,
      "outside the ": 4849,
      "forgotten ": 4850,
      "---- ": 4851,
      "settled ": 4852,
      "along the ": 4853,
      "circum": 4854,
      "Geor": 4855,
      "etc., etc": 4856,
      "major": 4857,
      "Ministry of ": 4858,
      "econom": 4859,
      "Fre": 4860,
      "Por": 4861,
      "Pop": 4862,
      "Satur": 4863,
      "Sempri": 4864,
      "awa": 4865,
      "batt": 4866,
      "cked ": 4867,
      "ie ": 4868,
      "n't": 4869,
      "tch ": 4870,
      "wo": 4871,
      "y that ": 4872,
      "in-": 4873,
      "ing; ": 4874,
      "aren't ": 4875,
      "haust": 4876,
      "stuck ": 4877,
      "ing to the ": 4878,
      "hit ": 4879,
      "of my ": 4880,
      "le.\n": 4881,
      "in an ": 4882,
      "for their ": 4883,
      "evil": 4884,
      "rig": 4885,
      "to think": 4886,
      "rose ": 4887,
      "absur": 4888,
      "that it was ": 4889,
      "id\n": 4890,
      "not a ": 4891,
      "ly that ": 4892,
      "ext ": 4893,
      "exhaust": 4894,
      "meas": 4895,
      "are you ": 4896,
      "would have been ": 4897,
      "umph": 4898,
      "like this": 4899,
      "s of a ": 4900,
      "board ": 4901,
      "which had ": 4902,
      "!  What ": 4903,
      "faced ": 4904,
      "bled ": 4905,
      "s.  And ": 4906,
      "though the ": 4907,
      "ture of ": 4908,
      "times, ": 4909,
      "glanc": 4910,
      "hole ": 4911,
      "marry ": 4912,
      "stretch": 4913,
      "serious ": 4914,
      "skin ": 4915,
      ".  How ": 4916,
      "too much ": 4917,
      "ing-room ": 4918,
      "burst": 4919,
      "hors": 4920,
      "front": 4921,
      "Chin": 4922,
      "phras": 4923,
      "moment, ": 4924,
      "devil ": 4925,
      "crowd ": 4926,
      "labour": 4927,
      "ninet": 4928,
      "gather": 4929,
      "Ma Hla ": 4930,
      "Animal ": 4931,
      "neighbour": 4932,
      "barricad": 4933,
      " S": 4934,
      "-and-": 4935,
      "Pleas": 4936,
      "S.": 4937,
      "ais": 4938,
      "bang": 4939,
      "ding": 4940,
      "flic": 4941,
      "n\n": 4942,
      "uis": 4943,
      "winter": 4944,
      "thro": 4945,
      "this, ": 4946,
      "insul": 4947,
      "er, and ": 4948,
      ", who ": 4949,
      "aliv": 4950,
      "and fr": 4951,
      "and fro": 4952,
      "sty": 4953,
      "to her ": 4954,
      "ess. ": 4955,
      "es are ": 4956,
      "ago ": 4957,
      "she's ": 4958,
      "white": 4959,
      "in the same ": 4960,
      "tran": 4961,
      "gover": 4962,
      "each": 4963,
      "poor": 4964,
      "somehow": 4965,
      "smoo": 4966,
      "scor": 4967,
      "diseas": 4968,
      "below": 4969,
      "a bad ": 4970,
      "said\n": 4971,
      "came to ": 4972,
      "now that ": 4973,
      "view ": 4974,
      "war, ": 4975,
      "round and ": 4976,
      "path": 4977,
      "contain": 4978,
      "changed ": 4979,
      "brok": 4980,
      "mind, ": 4981,
      "charge ": 4982,
      "listen ": 4983,
      "'How ": 4984,
      "sym": 4985,
      "whatever ": 4986,
      "detail": 4987,
      "fairly ": 4988,
      "strugg": 4989,
      "normal ": 4990,
      "Mr Warburton ": 4991,
      "tobacco ": 4992,
      "narrow ": 4993,
      "tremend": 4994,
      "'C": 4995,
      "'F": 4996,
      "Her ": 4997,
      "It\n": 4998,
      "Mean": 4999,
      "OM": 5000,
      "Ori": 5001,
      "Whi": 5002,
      "Well, ": 5003,
      "bush": 5004,
      "cen": 5005,
      "fet": 5006,
      "hus": 5007,
      "journ": 5008,
      "ky ": 5009,
      "pass ": 5010,
      "ring ": 5011,
      "round, ": 5012,
      "sed": 5013,
      "shav": 5014,
      "tall ": 5015,
      "ver ": 5016,
      "s as ": 5017,
      "in's ": 5018,
      "infl": 5019,
      "inhabit": 5020,
      ". C": 5021,
      ". Even ": 5022,
      "aliz": 5023,
      "stick ": 5024,
      "reduc": 5025,
      "he was a ": 5026,
      "it!  ": 5027,
      "ate\n": 5028,
      "for them": 5029,
      "separ": 5030,
      "ages ": 5031,
      "his own ": 5032,
      "his head ": 5033,
      "as a\n": 5034,
      "sahi": 5035,
      "or two": 5036,
      "eca": 5037,
      "qual": 5038,
      "conc": 5039,
      "ce of ": 5040,
      "y, but ": 5041,
      "proper ": 5042,
      "face. ": 5043,
      "s.  It was ": 5044,
      "ways ": 5045,
      "tail": 5046,
      "green": 5047,
      "got to be ": 5048,
      "remind": 5049,
      "heal": 5050,
      "ants ": 5051,
      "long, ": 5052,
      "raz": 5053,
      ". Al": 5054,
      "Why": 5055,
      "Who ": 5056,
      "previ": 5057,
      "knowled": 5058,
      "after\n": 5059,
      "skul": 5060,
      "triumph": 5061,
      "which they ": 5062,
      "except the ": 5063,
      "Fascism": 5064,
      "mention": 5065,
      "less, ": 5066,
      "bottom": 5067,
      ". That ": 5068,
      ".  There was a ": 5069,
      "difficult to ": 5070,
      "since the ": 5071,
      "complete ": 5072,
      "ARLI": 5073,
      "curious ": 5074,
      "curiously ": 5075,
      "necessary to ": 5076,
      "good\n": 5077,
      "success": 5078,
      "dull ": 5079,
      "practically ": 5080,
      "hospit": 5081,
      "system": 5082,
      "discus": 5083,
      "C.N.T. ": 5084,
      "circumstanc": 5085,
      "Ba ": 5086,
      "Dep": 5087,
      "Wal": 5088,
      "With ": 5089,
      "band": 5090,
      "bigg": 5091,
      "e' ": 5092,
      "fo": 5093,
      "gall": 5094,
      "k, ": 5095,
      "lum": 5096,
      "individ": 5097,
      ", it ": 5098,
      "ed as ": 5099,
      "alive ": 5100,
      "hak": 5101,
      "stic": 5102,
      "station": 5103,
      "step ": 5104,
      "wav": 5105,
      "ing of the ": 5106,
      "at all ": 5107,
      "he could not ": 5108,
      "action ": 5109,
      "I went ": 5110,
      "se-": 5111,
      "ented ": 5112,
      "s, or ": 5113,
      "ly,\n": 5114,
      "while, ": 5115,
      "spite ": 5116,
      "comfor": 5117,
      "umer": 5118,
      "gram": 5119,
      "grass ": 5120,
      "Any": 5121,
      "something that ": 5122,
      "ends ": 5123,
      "I'm": 5124,
      "got the ": 5125,
      "glad ": 5126,
      "long\n": 5127,
      "ready to ": 5128,
      "tion of the ": 5129,
      "themselv": 5130,
      "lightly ": 5131,
      "torn ": 5132,
      "means ": 5133,
      "that, ": 5134,
      "field, ": 5135,
      "distric": 5136,
      "away from the ": 5137,
      "aza": 5138,
      "reflec": 5139,
      "damned ": 5140,
      "Napoleon": 5141,
      "saw the ": 5142,
      "militia ": 5143,
      "good-": 5144,
      "stairs ": 5145,
      "admir": 5146,
      "uniform": 5147,
      "kind\n": 5148,
      "pagand": 5149,
      "ultane": 5150,
      "Hilda ": 5151,
      "Lower Binfield ": 5152,
      "CHARLI": 5153,
      "more or less ": 5154,
      "electric": 5155,
      "!_": 5156,
      "Gold": 5157,
      "Jun": 5158,
      "bill": 5159,
      "cad": 5160,
      "could": 5161,
      "e'd ": 5162,
      "f the ": 5163,
      "i-": 5164,
      "mess": 5165,
      "ox": 5166,
      "pill": 5167,
      "rab": 5168,
      "round\n": 5169,
      "sack": 5170,
      "slic": 5171,
      "ery": 5172,
      "y of the ": 5173,
      "ed me ": 5174,
      "ed their ": 5175,
      "a very ": 5176,
      "re-": 5177,
      "remain ": 5178,
      "he was\n": 5179,
      "he did not ": 5180,
      "it--": 5181,
      "liked ": 5182,
      "achi": 5183,
      "nothing, ": 5184,
      "I didn't ": 5185,
      "with no ": 5186,
      " that she ": 5187,
      "all the\n": 5188,
      "all that": 5189,
      "quite\n": 5190,
      "god": 5191,
      "proble": 5192,
      "bodi": 5193,
      "perman": 5194,
      "affair": 5195,
      "when it ": 5196,
      "sold ": 5197,
      "weigh": 5198,
      "brut": 5199,
      "instant ": 5200,
      "degre": 5201,
      "reached ": 5202,
      "ational ": 5203,
      "tion, ": 5204,
      "full": 5205,
      "beggar": 5206,
      "go to ": 5207,
      "feeling": 5208,
      "how to ": 5209,
      "Winston, ": 5210,
      "decenc": 5211,
      "clean ": 5212,
      "sense": 5213,
      "queer": 5214,
      "entirely ": 5215,
      "he said, ": 5216,
      "tell you": 5217,
      ".  There were ": 5218,
      "a thousand ": 5219,
      "hurri": 5220,
      "centr": 5221,
      "provid": 5222,
      "wondered ": 5223,
      "deadly ": 5224,
      "food, ": 5225,
      "sight": 5226,
      "kitchen": 5227,
      "agree": 5228,
      "potat": 5229,
      "Road": 5230,
      "angry ": 5231,
      "astonish": 5232,
      "typical ": 5233,
      ".)": 5234,
      "DE": 5235,
      "Lat": 5236,
      "Mill": 5237,
      "Pl": 5238,
      "a.\n": 5239,
      "dat": 5240,
      "fic": 5241,
      "fast": 5242,
      "iel": 5243,
      "nast": 5244,
      "oil": 5245,
      "pour": 5246,
      "rhy": 5247,
      "sand": 5248,
      "tory ": 5249,
      "went": 5250,
      "would": 5251,
      "what's ": 5252,
      "s from ": 5253,
      " the same ": 5254,
      "and had ": 5255,
      ".  No": 5256,
      ".  I'm ": 5257,
      "ing him ": 5258,
      "beam": 5259,
      "eman ": 5260,
      "es of\n": 5261,
      "unt": 5262,
      "rob": 5263,
      "seized ": 5264,
      "addy ": 5265,
      "shell": 5266,
      " that I ": 5267,
      "me a ": 5268,
      "rest of the ": 5269,
      "grow ": 5270,
      "could have ": 5271,
      "which were ": 5272,
      "up his ": 5273,
      "blad": 5274,
      "s.  She ": 5275,
      "e.  It ": 5276,
      "overall": 5277,
      "who are ": 5278,
      "t, but ": 5279,
      "we are ": 5280,
      "we'll ": 5281,
      "something\n": 5282,
      "streng": 5283,
      ".  All": 5284,
      "cartri": 5285,
      "before\n": 5286,
      "hate ": 5287,
      "a pub": 5288,
      "them, ": 5289,
      "supp": 5290,
      "picking ": 5291,
      "light, ": 5292,
      ".  It was\n": 5293,
      ". But the ": 5294,
      "well-": 5295,
      "refer": 5296,
      "Burma": 5297,
      "where\n": 5298,
      "THA": 5299,
      "delic": 5300,
      "deliber": 5301,
      "sweep": 5302,
      "world, ": 5303,
      "sun ": 5304,
      "grasped ": 5305,
      "touch": 5306,
      "touch ": 5307,
      "immediately": 5308,
      " thought": 5309,
      "smoke ": 5310,
      ",' he said.\n": 5311,
      "wearing ": 5312,
      "spirit": 5313,
      "putting ": 5314,
      "idea of ": 5315,
      "repeated ": 5316,
      "control ": 5317,
      "mostly ": 5318,
      "summer ": 5319,
      "Brook": 5320,
      "genuin": 5321,
      "monstrous ": 5322,
      ".\"\n": 5323,
      "I thought ": 5324,
      "Mad": 5325,
      "S.U.": 5326,
      "That's ": 5327,
      "Two ": 5328,
      "With": 5329,
      "bar ": 5330,
      "cand": 5331,
      "chim": 5332,
      "cast": 5333,
      "cock": 5334,
      "dut": 5335,
      "loun": 5336,
      "rav": 5337,
      "rade ": 5338,
      "slog": 5339,
      "in' ": 5340,
      ", she ": 5341,
      "alist": 5342,
      "and more ": 5343,
      "ing to\n": 5344,
      "elec": 5345,
      "was so ": 5346,
      "atic ": 5347,
      "choo": 5348,
      "chec": 5349,
      "lit ": 5350,
      "behav": 5351,
      "in its ": 5352,
      "fores": 5353,
      "you?  ": 5354,
      "ood\n": 5355,
      "on my ": 5356,
      "eding ": 5357,
      "roar": 5358,
      ", and that ": 5359,
      ", and they ": 5360,
      "usion": 5361,
      "see\n": 5362,
      "shock": 5363,
      "as she ": 5364,
      "you had ": 5365,
      "you get ": 5366,
      "ents ": 5367,
      "oper": 5368,
      "not the ": 5369,
      "tering ": 5370,
      "older": 5371,
      "tram": 5372,
      "tray": 5373,
      "east": 5374,
      "pois": 5375,
      "perpet": 5376,
      "no more ": 5377,
      "But the ": 5378,
      "blank": 5379,
      "e.  She ": 5380,
      "e. It ": 5381,
      "ish\n": 5382,
      "when we ": 5383,
      "weap": 5384,
      "ester": 5385,
      "month ": 5386,
      "some kind of ": 5387,
      "this is ": 5388,
      ". At the ": 5389,
      ".  Al": 5390,
      "before, ": 5391,
      "ts of the ": 5392,
      "futi": 5393,
      "cold, ": 5394,
      "lower ": 5395,
      "pick ": 5396,
      "contemp": 5397,
      "barely ": 5398,
      "They had ": 5399,
      "behind": 5400,
      "trees ": 5401,
      "wheel": 5402,
      "crimin": 5403,
      "agger": 5404,
      "democ": 5405,
      "regular ": 5406,
      "rule ": 5407,
      "number ": 5408,
      " there\n": 5409,
      "hurried ": 5410,
      "effici": 5411,
      "may be ": 5412,
      "needed ": 5413,
      "produced ": 5414,
      "wondering ": 5415,
      "better than ": 5416,
      "veget": 5417,
      "than the ": 5418,
      "expression ": 5419,
      "telescreen ": 5420,
      "forgotten": 5421,
      "hanging ": 5422,
      "stiff": 5423,
      "because\n": 5424,
      "terrible ": 5425,
      "temper": 5426,
      "tempor": 5427,
      "o'clock": 5428,
      "a minut": 5429,
      "windmill": 5430,
      "built ": 5431,
      "wretched ": 5432,
      "might\n": 5433,
      "a piece of ": 5434,
      "a certain ": 5435,
      "and fro ": 5436,
      "-like ": 5437,
      "Flo": 5438,
      "dare ": 5439,
      "eat ": 5440,
      "game ": 5441,
      "gang": 5442,
      "ither": 5443,
      "jud": 5444,
      "land ": 5445,
      "men\n": 5446,
      "numer": 5447,
      "rin": 5448,
      "rack": 5449,
      "s_": 5450,
      "tly": 5451,
      "wear ": 5452,
      "s it ": 5453,
      "s like ": 5454,
      "ers, and ": 5455,
      "end\n": 5456,
      "ord ": 5457,
      "orig": 5458,
      "ing.  The ": 5459,
      "are": 5460,
      "ali": 5461,
      "ally the ": 5462,
      "a hundred ": 5463,
      "hat, ": 5464,
      "stal": 5465,
      "represent": 5466,
      "to say ": 5467,
      "it,\n": 5468,
      "it?  ": 5469,
      "esp": 5470,
      "ated, ": 5471,
      "level": 5472,
      "as, ": 5473,
      "iron ": 5474,
      "ribut": 5475,
      "tot": 5476,
      "us, ": 5477,
      "abov": 5478,
      "you know": 5479,
      "not only ": 5480,
      "or even ": 5481,
      "Thought ": 5482,
      "one another ": 5483,
      "apart ": 5484,
      "worn ": 5485,
      "all's ": 5486,
      "trac": 5487,
      "improv": 5488,
      "propagand": 5489,
      "!  S": 5490,
      "s. It was ": 5491,
      "what had ": 5492,
      "ish, ": 5493,
      "great\n": 5494,
      "ers of the ": 5495,
      "brush": 5496,
      "against\n": 5497,
      "turning ": 5498,
      "caus": 5499,
      "into her ": 5500,
      "carrying ": 5501,
      "underst": 5502,
      "furi": 5503,
      "creep": 5504,
      "married ": 5505,
      ". I was ": 5506,
      "first time ": 5507,
      "Paris ": 5508,
      "ing-room": 5509,
      "enough, ": 5510,
      "winter ": 5511,
      "bedroom ": 5512,
      "?' she ": 5513,
      "added ": 5514,
      ". There was a ": 5515,
      ".  To ": 5516,
      "charg": 5517,
      "truth ": 5518,
      "damn": 5519,
      "yellow": 5520,
      "believe that ": 5521,
      "bird": 5522,
      "intellect": 5523,
      "suffici": 5524,
      "social ": 5525,
      "for instanc": 5526,
      "Maj": 5527,
      "honour": 5528,
      "thrown ": 5529,
      "question of ": 5530,
      "poverty ": 5531,
      "tobacco": 5532,
      "shelv": 5533,
      "safe ": 5534,
      "average ": 5535,
      "body, ": 5536,
      "BOY": 5537,
      "plenty of ": 5538,
      "Animal F": 5539,
      "'It ": 5540,
      "1 ": 5541,
      "10": 5542,
      "Gener": 5543,
      "Her": 5544,
      "Jones ": 5545,
      "_b": 5546,
      "ban": 5547,
      "ber ": 5548,
      "ball": 5549,
      "ded ": 5550,
      "e, and the ": 5551,
      "jack": 5552,
      "kes ": 5553,
      "mass": 5554,
      "o' ": 5555,
      "rout": 5556,
      "swa": 5557,
      "ting": 5558,
      "ten\n": 5559,
      "invol": 5560,
      "outed ": 5561,
      "ham ": 5562,
      "repor": 5563,
      ".  On": 5564,
      "to look ": 5565,
      "eleven ": 5566,
      "was always ": 5567,
      "es.  The ": 5568,
      "owned ": 5569,
      "in it ": 5570,
      "had taken ": 5571,
      "had gone ": 5572,
      "iron": 5573,
      "nother ": 5574,
      "it seemed ": 5575,
      "rock": 5576,
      "sequ": 5577,
      "should": 5578,
      "--I ": 5579,
      "out a ": 5580,
      "ly-": 5581,
      "frag": 5582,
      "for a\n": 5583,
      "one of\n": 5584,
      "oll": 5585,
      "tramp ": 5586,
      "meals ": 5587,
      "me the ": 5588,
      "they would ": 5589,
      "; he ": 5590,
      "up in the ": 5591,
      "es, but ": 5592,
      "overcoat": 5593,
      "soli": 5594,
      "at the same ": 5595,
      "time of ": 5596,
      "first\n": 5597,
      "tech": 5598,
      "carry ": 5599,
      "press": 5600,
      "crack": 5601,
      "miner ": 5602,
      "Flax": 5603,
      "were, ": 5604,
      "went to ": 5605,
      "neither ": 5606,
      "colon": 5607,
      "Comm": 5608,
      "casual": 5609,
      "superi": 5610,
      ".  I don't ": 5611,
      ". I have ": 5612,
      "lives ": 5613,
      "milk ": 5614,
      "looked at ": 5615,
      "half past ": 5616,
      "evening, ": 5617,
      "let me ": 5618,
      "French": 5619,
      "P.S.U.": 5620,
      "Fascism ": 5621,
      "old-": 5622,
      "chair ": 5623,
      "tea-": 5624,
      "sub-": 5625,
      "probab": 5626,
      "bottle ": 5627,
      "bottle of ": 5628,
      "shab": 5629,
      " that's ": 5630,
      ".  But\n": 5631,
      "frequ": 5632,
      "difficult ": 5633,
      " there, ": 5634,
      "table, ": 5635,
      "ER:  ": 5636,
      "building": 5637,
      "Barcelona": 5638,
      "MR T": 5639,
      "clergy": 5640,
      "seem to ": 5641,
      "practi": 5642,
      "effect ": 5643,
      "Joe ": 5644,
      "possess": 5645,
      "garden": 5646,
      "vaguely ": 5647,
      "coal-": 5648,
      "ALLBOY": 5649,
      "Kopp ": 5650,
      "American ": 5651,
      "photograph": 5652,
      "peculiar ": 5653,
      "examin": 5654,
      "simultane": 5655,
      "Popular ": 5656,
      "MR TALLBOY": 5657,
      "' the ": 5658,
      "'em": 5659,
      "Co": 5660,
      "Daily ": 5661,
      "Midd": 5662,
      "Up": 5663,
      "ai": 5664,
      "bare ": 5665,
      "baza": 5666,
      "cost ": 5667,
      "cub": 5668,
      "eter": 5669,
      "io": 5670,
      "je": 5671,
      "luck ": 5672,
      "nea": 5673,
      "pack": 5674,
      "pure ": 5675,
      "swif": 5676,
      "uch ": 5677,
      "thick ": 5678,
      "s is ": 5679,
      "s were\n": 5680,
      ", though ": 5681,
      "ouse": 5682,
      " thinking ": 5683,
      "ed on the ": 5684,
      "a and ": 5685,
      "and the\n": 5686,
      "hide": 5687,
      "to my ": 5688,
      "to come ": 5689,
      "ess\n": 5690,
      "in our ": 5691,
      "ghost": 5692,
      "wise ": 5693,
      "wick": 5694,
      "emin": 5695,
      "rid ": 5696,
      "with them": 5697,
      "roof ": 5698,
      "about, ": 5699,
      "advert": 5700,
      "his face ": 5701,
      "as '": 5702,
      "as you ": 5703,
      "you don't ": 5704,
      "fru": 5705,
      "for it": 5706,
      "for some ": 5707,
      "allow ": 5708,
      "in the street": 5709,
      "her face ": 5710,
      "conce": 5711,
      "ocol": 5712,
      "metho": 5713,
      "immen": 5714,
      "clam": 5715,
      "utter ": 5716,
      "sell": 5717,
      "loody ": 5718,
      "resul": 5719,
      "dragg": 5720,
      "e.  It was ": 5721,
      "what is ": 5722,
      "taught ": 5723,
      "small\n": 5724,
      "fles": 5725,
      "it was the ": 5726,
      ".  There's ": 5727,
      "back and ": 5728,
      "courag": 5729,
      "know\n": 5730,
      "mark ": 5731,
      "Comrade ": 5732,
      "because the ": 5733,
      "happened to ": 5734,
      "break ": 5735,
      ". So ": 5736,
      "compan": 5737,
      "take the ": 5738,
      "quarre": 5739,
      "friend ": 5740,
      "born ": 5741,
      "Burman": 5742,
      "looks ": 5743,
      "Gordon.\n": 5744,
      "truth": 5745,
      "single ": 5746,
      "thirty-": 5747,
      "Polic": 5748,
      "squal": 5749,
      "confess": 5750,
      "they'd ": 5751,
      "catch ": 5752,
      "hold of ": 5753,
      "victor": 5754,
      "labour ": 5755,
      "thodo": 5756,
      "Binfield ": 5757,
      "Everything ": 5758,
      "teeth": 5759,
      "politic": 5760,
      "fingers ": 5761,
      "enemy ": 5762,
      "cross": 5763,
      "unemployed ": 5764,
      "poverty": 5765,
      "pavement ": 5766,
      "sense of ": 5767,
      "took the ": 5768,
      "autom": 5769,
      "asleep ": 5770,
      "responsi": 5771,
      "rumour": 5772,
      "avoid ": 5773,
      "anxious ": 5774,
      "saucep": 5775,
      "'d\n": 5776,
      ".) ": 5777,
      "Che": 5778,
      "Jes": 5779,
      "Lord": 5780,
      "Or": 5781,
      "Old ": 5782,
      "bol": 5783,
      "brick": 5784,
      "cy": 5785,
      "eu": 5786,
      "f\n": 5787,
      "fel": 5788,
      "k-": 5789,
      "lose ": 5790,
      "lux": 5791,
      "ratt": 5792,
      "ragged ": 5793,
      "wit": 5794,
      "intim": 5795,
      ", they ": 5796,
      "has": 5797,
      "stall": 5798,
      "to be\n": 5799,
      "to keep ": 5800,
      "ity\n": 5801,
      "was at ": 5802,
      "en and ": 5803,
      "been the ": 5804,
      "forb": 5805,
      "wide ": 5806,
      "note": 5807,
      "rim": 5808,
      "rio": 5809,
      "es and\n": 5810,
      "an end": 5811,
      "usi": 5812,
      "see, ": 5813,
      "iling ": 5814,
      "shr": 5815,
      "e, a ": 5816,
      "for his ": 5817,
      "while\n": 5818,
      "exerc": 5819,
      "consist": 5820,
      "they have ": 5821,
      "rest of ": 5822,
      "pose, ": 5823,
      "grat": 5824,
      "what he ": 5825,
      "order to ": 5826,
      "we shall ": 5827,
      "when he was ": 5828,
      "when I was ": 5829,
      "ig\n": 5830,
      "observ": 5831,
      "oblig": 5832,
      "two years ": 5833,
      "cost": 5834,
      "heat ": 5835,
      "must": 5836,
      "must\n": 5837,
      "years\n": 5838,
      "rather\n": 5839,
      "chief ": 5840,
      "fully": 5841,
      "carry": 5842,
      "a few\n": 5843,
      "tically ": 5844,
      "over his ": 5845,
      "Flo ": 5846,
      "Comstock": 5847,
      "paus": 5848,
      "them\n": 5849,
      "'Well": 5850,
      "itive ": 5851,
      ".  I\n": 5852,
      "shif": 5853,
      "must have been ": 5854,
      "accident": 5855,
      "match": 5856,
      "prim": 5857,
      ".  We": 5858,
      "Mrs P": 5859,
      "Mrs Sempri": 5860,
      "easi": 5861,
      "quarrel": 5862,
      "head, ": 5863,
      "servic": 5864,
      "vision ": 5865,
      "knew\n": 5866,
      "revolution ": 5867,
      "committ": 5868,
      "remember the ": 5869,
      "Party memb": 5870,
      "saw that ": 5871,
      "memory": 5872,
      "red-": 5873,
      "badly ": 5874,
      "camp ": 5875,
      "drunk ": 5876,
      "European": 5877,
      "Alb": 5878,
      "newspaper ": 5879,
      "made\n": 5880,
      "escape ": 5881,
      "waste ": 5882,
      "constantly ": 5883,
      "ence.\n": 5884,
      "literary ": 5885,
      "good, ": 5886,
      "miserable ": 5887,
      "killed ": 5888,
      "society ": 5889,
      "asleep": 5890,
      "answer ": 5891,
      "moustach": 5892,
      "Civil Guards ": 5893,
      "measur": 5894,
      ") and ": 5895,
      "As": 5896,
      "Kny": 5897,
      "Lov": 5898,
      "Of course ": 5899,
      "Revol": 5900,
      "bout ": 5901,
      "by, ": 5902,
      "bast": 5903,
      "fond ": 5904,
      "hut": 5905,
      "hell ": 5906,
      "hedg": 5907,
      "iver": 5908,
      "key": 5909,
      "ning": 5910,
      "rent": 5911,
      "ual\n": 5912,
      "e of\n": 5913,
      "thousand ": 5914,
      "inch": 5915,
      "ed into ": 5916,
      "a day ": 5917,
      "stamp": 5918,
      "rever": 5919,
      ".  Mr ": 5920,
      ".  I've ": 5921,
      "hidden ": 5922,
      "to him ": 5923,
      "of a\n": 5924,
      "es.'\n": 5925,
      "atic": 5926,
      "ated\n": 5927,
      "cher": 5928,
      "in all ": 5929,
      "acted ": 5930,
      "activ": 5931,
      "ised ": 5932,
      "you.\n": 5933,
      "asham": 5934,
      "had come ": 5935,
      "it that ": 5936,
      "to them ": 5937,
      "rol": 5938,
      "ami": 5939,
      "share ": 5940,
      "shoot": 5941,
      "you a ": 5942,
      "you see ": 5943,
      "him, and ": 5944,
      "old, ": 5945,
      "worth": 5946,
      "spor": 5947,
      "common": 5948,
      "umn": 5949,
      "here.  ": 5950,
      "up at ": 5951,
      "angu": 5952,
      "sole ": 5953,
      "day's ": 5954,
      "cau": 5955,
      "holi": 5956,
      ",' I ": 5957,
      "ful\n": 5958,
      "before": 5959,
      "workers ": 5960,
      "marked ": 5961,
      "almost as ": 5962,
      "less than ": 5963,
      "moon": 5964,
      "them.\n": 5965,
      "it is a ": 5966,
      "suppor": 5967,
      "suppose": 5968,
      "iff ": 5969,
      ".  How": 5970,
      "accus": 5971,
      "men were ": 5972,
      "ugly ": 5973,
      "slop": 5974,
      "double ": 5975,
      "clothes, ": 5976,
      "place where ": 5977,
      "he said.\n": 5978,
      "going to be ": 5979,
      "butter": 5980,
      "vision": 5981,
      "legs ": 5982,
      "nature ": 5983,
      "voice, ": 5984,
      "necessary": 5985,
      "drove ": 5986,
      "either": 5987,
      "make\n": 5988,
      "sat down ": 5989,
      "chap ": 5990,
      "murmur": 5991,
      "mistres": 5992,
      "they're ": 5993,
      "twenty-five ": 5994,
      "Max": 5995,
      "twist": 5996,
      "impression": 5997,
      "finished ": 5998,
      "comrades": 5999,
      "approach": 6000,
      "carefully ": 6001,
      "violent ": 6002,
      "period ": 6003,
      "restaurant": 6004,
      "wounded ": 6005,
      "definit": 6006,
      "bourgeois": 6007,
      "a lot of ": 6008,
      "false ": 6009,
      "chiefly ": 6010,
      "disappoint": 6011,
      "Oceania ": 6012,
      "frightful ": 6013,
      "influ": 6014,
      "'I": 6015,
      "'s": 6016,
      "), and ": 6017,
      "GING": 6018,
      "Str": 6019,
      "bat": 6020,
      "bvi": 6021,
      "drif": 6022,
      "e! ": 6023,
      "fle": 6024,
      "jer": 6025,
      "oh, ": 6026,
      "pital": 6027,
      "s'\n": 6028,
      "sink": 6029,
      "seven": 6030,
      "slightly ": 6031,
      "th-": 6032,
      "insid": 6033,
      "invisi": 6034,
      ", so ": 6035,
      "ening ": 6036,
      "one": 6037,
      ". On the ": 6038,
      ". Once ": 6039,
      "orthodo": 6040,
      "and un": 6041,
      "of all ": 6042,
      "ited ": 6043,
      "was very ": 6044,
      "chool": 6045,
      "chocol": 6046,
      "for that ": 6047,
      "forty ": 6048,
      "I was\n": 6049,
      "I never ": 6050,
      "I do not ": 6051,
      "it is": 6052,
      "to th": 6053,
      "his eyes ": 6054,
      "you can't ": 6055,
      "s, which ": 6056,
      "him that ": 6057,
      "simil": 6058,
      "exagger": 6059,
      "all that ": 6060,
      "trun": 6061,
      "somew": 6062,
      "contrad": 6063,
      "subur": 6064,
      "poster": 6065,
      "grou": 6066,
      "grand": 6067,
      "Ang": 6068,
      "!  And ": 6069,
      "s.  Th": 6070,
      "scarc": 6071,
      "ed, the ": 6072,
      "I'd\n": 6073,
      "ing, the ": 6074,
      "You\n": 6075,
      "don't\n": 6076,
      "Gordon\n": 6077,
      "seemed\n": 6078,
      "ful, ": 6079,
      "case, ": 6080,
      "ence\n": 6081,
      "actual ": 6082,
      "pip": 6083,
      ". Some ": 6084,
      "steal": 6085,
      "home, ": 6086,
      "slav": 6087,
      "easy to ": 6088,
      "menac": 6089,
      "children, ": 6090,
      "S [": 6091,
      "looked\n": 6092,
      "rifles ": 6093,
      "devil": 6094,
      "please ": 6095,
      "following ": 6096,
      "speci": 6097,
      "'Ah, ": 6098,
      "summer": 6099,
      "pounds ": 6100,
      "pigs ": 6101,
      "Dorothy.\n": 6102,
      "building ": 6103,
      "pale ": 6104,
      "woman, ": 6105,
      "had not been ": 6106,
      "atively ": 6107,
      "smok": 6108,
      "drive ": 6109,
      "nights ": 6110,
      "Anarchist ": 6111,
      "considered ": 6112,
      "advanc": 6113,
      "speech": 6114,
      "future": 6115,
      "........": 6116,
      "mechanical ": 6117,
      "eager": 6118,
      "stupid ": 6119,
      "bund": 6120,
      "extraordinary ": 6121,
      "accepted ": 6122,
      "Catal": 6123,
      "Eastas": 6124,
      "_patron_ ": 6125,
      "sign ": 6126,
      "loyal": 6127,
      "tremendous ": 6128,
      "Goldste": 6129,
      "Millbor": 6130,
      "'em ": 6131,
      "?\" ": 6132,
      "Dr ": 6133,
      "Here ": 6134,
      "Hues": 6135,
      "Man": 6136,
      "Mil": 6137,
      "Si": 6138,
      "Tim": 6139,
      "bent ": 6140,
      "brid": 6141,
      "card": 6142,
      "e? ": 6143,
      "ild ": 6144,
      "kic": 6145,
      "kill ": 6146,
      "len": 6147,
      "lock": 6148,
      "lump": 6149,
      "ney": 6150,
      "ry, ": 6151,
      "rank": 6152,
      "s?'\n": 6153,
      "s? ": 6154,
      "ted": 6155,
      "ts, ": 6156,
      "ts of ": 6157,
      "tub": 6158,
      "ting the ": 6159,
      "theless ": 6160,
      "inally ": 6161,
      "ork": 6162,
      "ing. ": 6163,
      "ing' ": 6164,
      "ed up": 6165,
      "a small ": 6166,
      "state ": 6167,
      "stric": 6168,
      "resist": 6169,
      "ing at the ": 6170,
      "histor": 6171,
      "of being ": 6172,
      "it?'\n": 6173,
      "est of ": 6174,
      "atory ": 6175,
      "be, ": 6176,
      "beet": 6177,
      "in fact ": 6178,
      "forth ": 6179,
      "emo": 6180,
      "I felt ": 6181,
      "to this ": 6182,
      "toler": 6183,
      "sew": 6184,
      "seas": 6185,
      "that is ": 6186,
      "that one ": 6187,
      "   ": 6188,
      "upper": 6189,
      "oth ": 6190,
      "for ever": 6191,
      "sprang": 6192,
      "her and ": 6193,
      "have no ": 6194,
      "all his ": 6195,
      "me and ": 6196,
      "knelt ": 6197,
      "sely ": 6198,
      "they were\n": 6199,
      "bob ": 6200,
      "there was\n": 6201,
      "t, the ": 6202,
      "weed": 6203,
      "estab": 6204,
      "scr": 6205,
      "bran": 6206,
      "disgrac": 6207,
      "instant": 6208,
      "times": 6209,
      "glit": 6210,
      "lot of ": 6211,
      "When the ": 6212,
      "courage ": 6213,
      "ation of the ": 6214,
      "man and ": 6215,
      "motor": 6216,
      "casual ": 6217,
      "ful of ": 6218,
      ". I had ": 6219,
      "breath": 6220,
      "record": 6221,
      "shopkeep": 6222,
      "countri": 6223,
      "giving ": 6224,
      "ing that the ": 6225,
      "cried ": 6226,
      "reality ": 6227,
      "service ": 6228,
      "subject": 6229,
      "half the ": 6230,
      "entire ": 6231,
      "refused ": 6232,
      "rate, ": 6233,
      ". But\n": 6234,
      "sheep": 6235,
      "regular": 6236,
      "pretend ": 6237,
      "tonight": 6238,
      "working class ": 6239,
      "effect": 6240,
      "sweet": 6241,
      "rolling ": 6242,
      "business": 6243,
      "among them": 6244,
      "equal ": 6245,
      "f course, ": 6246,
      "Uncle ": 6247,
      "tramps ": 6248,
      "invari": 6249,
      "class, ": 6250,
      "besides ": 6251,
      "inside the ": 6252,
      "sharp ": 6253,
      "booz": 6254,
      "perfect ": 6255,
      "Christm": 6256,
      "intoler": 6257,
      "valu": 6258,
      "top of the ": 6259,
      ". . . ": 6260,
      "to think of ": 6261,
      "affec": 6262,
      "scene ": 6263,
      "restaurant ": 6264,
      "exception": 6265,
      "bourgeois ": 6266,
      "shoot ": 6267,
      "middle-class ": 6268,
      "glimp": 6269,
      "However, ": 6270,
      "Church ": 6271,
      "theless, ": 6272,
      "From the ": 6273,
      "ecause ": 6274,
      "hospital ": 6275,
      "'Don't ": 6276,
      "-coloured ": 6277,
      "2\n": 6278,
      "By ": 6279,
      "Get ": 6280,
      "Hit": 6281,
      "MCE": 6282,
      "On ": 6283,
      "Trotsky": 6284,
      "cab": 6285,
      "cook ": 6286,
      "d.\n": 6287,
      "daughter": 6288,
      "fanc": 6289,
      "fine ": 6290,
      "jol": 6291,
      "oil ": 6292,
      "san": 6293,
      "swi": 6294,
      "tree ": 6295,
      "� ": 6296,
      "ince ": 6297,
      "inspec": 6298,
      ", had ": 6299,
      ", it was ": 6300,
      "ing this ": 6301,
      "ed her": 6302,
      "ed himself ": 6303,
      "and not ": 6304,
      "stag": 6305,
      ".  Dorothy ": 6306,
      ".  I'd ": 6307,
      "hip": 6308,
      "to find ": 6309,
      "of us ": 6310,
      "at least": 6311,
      "elm": 6312,
      "elbow": 6313,
      "he has ": 6314,
      "iter": 6315,
      "it. The ": 6316,
      "liber": 6317,
      "leop": 6318,
      "assist": 6319,
      "ties ": 6320,
      "river": 6321,
      "union": 6322,
      "abrup": 6323,
      "id, ": 6324,
      "shut": 6325,
      "shouted ": 6326,
      "with a b": 6327,
      "s, with ": 6328,
      "e, or ": 6329,
      "ought": 6330,
      "him.  He ": 6331,
      "exist ": 6332,
      "explo": 6333,
      "have the ": 6334,
      "sugar": 6335,
      "she had been ": 6336,
      "clum": 6337,
      "cloud": 6338,
      "th and ": 6339,
      "tail ": 6340,
      "we can ": 6341,
      "even to ": 6342,
      "grey": 6343,
      "brow": 6344,
      "two hundred ": 6345,
      "defe": 6346,
      "coar": 6347,
      "?  I ": 6348,
      "your own ": 6349,
      "tions ": 6350,
      "ce-": 6351,
      "halted ": 6352,
      "crash": 6353,
      "course ": 6354,
      "presum": 6355,
      "knowing ": 6356,
      "weren't ": 6357,
      "man who ": 6358,
      "re you ": 6359,
      "others, ": 6360,
      "serious": 6361,
      "actual": 6362,
      "Party, ": 6363,
      "trick": 6364,
      "Gordon was ": 6365,
      "in his pocket": 6366,
      "steel ": 6367,
      "guard ": 6368,
      "'Of course ": 6369,
      "tea, ": 6370,
      "hundred and ": 6371,
      "left the ": 6372,
      "night and ": 6373,
      "streets ": 6374,
      "knew the ": 6375,
      "gun ": 6376,
      "spoken ": 6377,
      "sweat": 6378,
      ", which was ": 6379,
      "good' ": 6380,
      "pe H": 6381,
      "woman's ": 6382,
      "beside the ": 6383,
      "sight of ": 6384,
      "takes ": 6385,
      "signific": 6386,
      "lesson": 6387,
      "described ": 6388,
      "LLIGO": 6389,
      "twice ": 6390,
      "suspec": 6391,
      "expression": 6392,
      "Exc": 6393,
      "Elizabeth's ": 6394,
      "ING ": 6395,
      "Hilda": 6396,
      "narrow": 6397,
      "MRS MCE": 6398,
      "extraordin": 6399,
      "END": 6400,
      "aspidistra": 6401,
      "mixed up ": 6402,
      "million": 6403,
      "beautiful ": 6404,
      "mysterious ": 6405,
      "Roman ": 6406,
      "stolen ": 6407,
      "achiev": 6408,
      "Knype H": 6409,
      "contradic": 6410,
      "MRS MCELLIGO": 6411,
      "So": 6412,
      "Sal": 6413,
      "away\n": 6414,
      "e!'\n": 6415,
      "flying ": 6416,
      "gi": 6417,
      "ium": 6418,
      "ption": 6419,
      "pink": 6420,
      "sem": 6421,
      "sque": 6422,
      "y'": 6423,
      "yester": 6424,
      "thme": 6425,
      "in.\n": 6426,
      "ous of ": 6427,
      " than\n": 6428,
      "enth": 6429,
      "envel": 6430,
      "army ": 6431,
      "ed in": 6432,
      "and were ": 6433,
      "rep": 6434,
      "to speak": 6435,
      "itor ": 6436,
      "chin": 6437,
      "ch, ": 6438,
      "leap": 6439,
      "forward": 6440,
      "nose": 6441,
      "ently, ": 6442,
      "ought\n": 6443,
      "die ": 6444,
      "dign": 6445,
      "tray ": 6446,
      "quo": 6447,
      "spar": 6448,
      "gold ": 6449,
      "conqu": 6450,
      "me.'\n": 6451,
      "prosper": 6452,
      "grab": 6453,
      "group": 6454,
      "Any ": 6455,
      "persu": 6456,
      "face\n": 6457,
      "blas": 6458,
      "s.  I ": 6459,
      "manage ": 6460,
      "what they ": 6461,
      "scent ": 6462,
      "side of ": 6463,
      "any other ": 6464,
      "remo": 6465,
      "heap": 6466,
      "belly ": 6467,
      "below ": 6468,
      "little": 6469,
      "years, ": 6470,
      "things that ": 6471,
      ", but he ": 6472,
      "Ing": 6473,
      "begg": 6474,
      "crown": 6475,
      "crush": 6476,
      "said.  '": 6477,
      "Dorothy\n": 6478,
      "people were ": 6479,
      "made it ": 6480,
      "marched ": 6481,
      "a curi": 6482,
      "need to ": 6483,
      "ence.  ": 6484,
      ".  I was ": 6485,
      "ities ": 6486,
      "tried ": 6487,
      "accur": 6488,
      "meaning ": 6489,
      ". With": 6490,
      "sixty ": 6491,
      "cheer": 6492,
      "hours, ": 6493,
      "hours a ": 6494,
      "hop-": 6495,
      "!' she ": 6496,
      "appeared ": 6497,
      "comple": 6498,
      "compet": 6499,
      "line of ": 6500,
      "wonder ": 6501,
      "human": 6502,
      ". He\n": 6503,
      "bitter ": 6504,
      "heard of ": 6505,
      "possible to ": 6506,
      "keeping ": 6507,
      "rifle ": 6508,
      "of them, ": 6509,
      "ock of ": 6510,
      "voices ": 6511,
      " there's ": 6512,
      "sweat ": 6513,
      "word '": 6514,
      "learn ": 6515,
      "utterly ": 6516,
      "conscious ": 6517,
      "leaves ": 6518,
      "class\n": 6519,
      "talk about ": 6520,
      "called\n": 6521,
      "state of ": 6522,
      "another\n": 6523,
      "weather": 6524,
      "showed ": 6525,
      "du ": 6526,
      "seeing ": 6527,
      "cipl": 6528,
      "dangerous ": 6529,
      "because of ": 6530,
      "hung ": 6531,
      "grocer": 6532,
      "between them": 6533,
      "'Yes.'\n": 6534,
      "parapet": 6535,
      "protest": 6536,
      "anti-": 6537,
      "Corpor": 6538,
      "Jones": 6539,
      "beneath ": 6540,
      "artist": 6541,
      "attention ": 6542,
      "destroy": 6543,
      "Benjamin ": 6544,
      "knowledge ": 6545,
      "CHARLIE:  ": 6546,
      "MR TALLBOYS [": 6547,
      "suburb": 6548,
      "envelop": 6549,
      "'im": 6550,
      "-out ": 6551,
      ".\" ": 6552,
      "18": 6553,
      "Ag": 6554,
      "House": 6555,
      "Ir": 6556,
      "Ram": 6557,
      "Sy": 6558,
      "Sir ": 6559,
      "Sudden": 6560,
      "Teleph": 6561,
      "Wig": 6562,
      "bank ": 6563,
      "cent ": 6564,
      "fan": 6565,
      "fear ": 6566,
      "g ": 6567,
      "harm": 6568,
      "ia, ": 6569,
      "nur": 6570,
      "nut ": 6571,
      "nav": 6572,
      "nigg": 6573,
      "pac": 6574,
      "packet": 6575,
      "s's ": 6576,
      "se of ": 6577,
      "yes, ": 6578,
      "s to the ": 6579,
      "ers.\n": 6580,
      ", like ": 6581,
      ", with the ": 6582,
      "ed my ": 6583,
      "a year": 6584,
      "haun": 6585,
      "has\n": 6586,
      "stew": 6587,
      "waist": 6588,
      "ing on ": 6589,
      "to her": 6590,
      "ately\n": 6591,
      "ately, ": 6592,
      "list ": 6593,
      "in one ": 6594,
      "force ": 6595,
      "notion of ": 6596,
      "rib": 6597,
      "ed.  The ": 6598,
      "edom ": 6599,
      "is always ": 6600,
      "rott": 6601,
      "amed ": 6602,
      "that he was ": 6603,
      "ice, ": 6604,
      "as soon ": 6605,
      "you and ": 6606,
      "for an ": 6607,
      "or four ": 6608,
      "et's ": 6609,
      "one can ": 6610,
      "all right": 6611,
      "such\n": 6612,
      "impul": 6613,
      "ump ": 6614,
      "perishing ": 6615,
      "drum": 6616,
      "s.  A ": 6617,
      "istic": 6618,
      "we could ": 6619,
      "we've ": 6620,
      "smi": 6621,
      "smart ": 6622,
      "time the ": 6623,
      "times\n": 6624,
      ".  They\n": 6625,
      "lot ": 6626,
      "off\n": 6627,
      "off, ": 6628,
      "a fri": 6629,
      "under\n": 6630,
      "begun ": 6631,
      "tyr": 6632,
      "type": 6633,
      "over again": 6634,
      "old man ": 6635,
      "life.  ": 6636,
      "it is not ": 6637,
      "against his ": 6638,
      "audi": 6639,
      "author": 6640,
      "make a ": 6641,
      "ave you ": 6642,
      "nearest ": 6643,
      ". With ": 6644,
      "cheese ": 6645,
      "rooms ": 6646,
      "books, ": 6647,
      "This was ": 6648,
      "paper, ": 6649,
      "quarter of ": 6650,
      "neck ": 6651,
      "I'd been ": 6652,
      "double": 6653,
      "ity.\n": 6654,
      "time.\n": 6655,
      "looking at ": 6656,
      "brother": 6657,
      "born": 6658,
      "away.\n": 6659,
      "here and ": 6660,
      "third ": 6661,
      "pounds a ": 6662,
      "allowed to ": 6663,
      "four\n": 6664,
      "fishing ": 6665,
      "piece of ": 6666,
      "Police ": 6667,
      "leaving ": 6668,
      "secret": 6669,
      "rapidly ": 6670,
      "washing ": 6671,
      "road, ": 6672,
      "playing ": 6673,
      "buildings ": 6674,
      "foreign": 6675,
      "whatever": 6676,
      "dusty ": 6677,
      "clerk": 6678,
      "Fascists ": 6679,
      "realized that ": 6680,
      "constant ": 6681,
      "repeat": 6682,
      "conversation": 6683,
      "once, ": 6684,
      "cellar": 6685,
      "All the ": 6686,
      "oreover, ": 6687,
      "windmill ": 6688,
      "as well as ": 6689,
      "human being": 6690,
      "industrial ": 6691,
      "essential ": 6692,
      "enjoy": 6693,
      "lack of ": 6694,
      "conceivable ": 6695,
      "lodging-house ": 6696,
      "increas": 6697,
      "mainly ": 6698,
      "furniture ": 6699,
      "gloom": 6700,
      "whole\n": 6701,
      "Ma Hla May ": 6702,
      "struggle ": 6703,
      "Depart": 6704,
      "scarcely ": 6705,
      "invariably ": 6706,
      " B": 6707,
      "* ": 6708,
      "2 ": 6709,
      "5 ": 6710,
      "B.": 6711,
      "BEND": 6712,
      "Dur": 6713,
      "Ju": 6714,
      "Jew": 6715,
      "Rou": 6716,
      "US": 6717,
      "Val": 6718,
      "Well": 6719,
      "ached ": 6720,
      "bing ": 6721,
      "bly": 6722,
      "buck": 6723,
      "bones ": 6724,
      "cu": 6725,
      "cord": 6726,
      "cup of ": 6727,
      "dom": 6728,
      "fast ": 6729,
      "gin ": 6730,
      "ies and ": 6731,
      "kip": 6732,
      "kick ": 6733,
      "langu": 6734,
      "pist": 6735,
      "ra ": 6736,
      "rom": 6737,
      "tum": 6738,
      "ven": 6739,
      "ves ": 6740,
      "wel": 6741,
      "y--": 6742,
      "than\n": 6743,
      "thick": 6744,
      "throw": 6745,
      "infer": 6746,
      "instruc": 6747,
      "an't ": 6748,
      "ond": 6749,
      "y was ": 6750,
      "alo": 6751,
      "return ": 6752,
      "ing about ": 6753,
      "it; ": 6754,
      "ess and ": 6755,
      "chant": 6756,
      "wire ": 6757,
      "you think": 6758,
      "had to be ": 6759,
      "tigh": 6760,
      "I shall ": 6761,
      "it out ": 6762,
      "amus": 6763,
      "ag ": 6764,
      "with some ": 6765,
      "were in ": 6766,
      "dim ": 6767,
      "appar": 6768,
      "whisp": 6769,
      "in the world ": 6770,
      "trans": 6771,
      "quant": 6772,
      "spik": 6773,
      "have you ": 6774,
      "going": 6775,
      "resol": 6776,
      "poem ": 6777,
      "grown": 6778,
      "granted ": 6779,
      "bob": 6780,
      "box ": 6781,
      "!  H": 6782,
      "!  It ": 6783,
      "face.\n": 6784,
      "no longer ": 6785,
      "my own ": 6786,
      "e. But ": 6787,
      "e. It was ": 6788,
      "over the\n": 6789,
      "there": 6790,
      "therefor": 6791,
      "ave\n": 6792,
      "when one ": 6793,
      "weal": 6794,
      "And the ": 6795,
      "endless ": 6796,
      "side-": 6797,
      "some time ": 6798,
      "penet": 6799,
      "way to ": 6800,
      "a memb": 6801,
      ".  Some ": 6802,
      "Inner ": 6803,
      "had been a ": 6804,
      "presently ": 6805,
      "said:\n": 6806,
      "can you ": 6807,
      "women, ": 6808,
      "mine ": 6809,
      "ke-": 6810,
      "handwrit": 6811,
      "made the ": 6812,
      "made him ": 6813,
      "see that ": 6814,
      "march": 6815,
      "went to the ": 6816,
      "day and ": 6817,
      "colour ": 6818,
      "saying": 6819,
      "did not know ": 6820,
      "desol": 6821,
      "Mr B": 6822,
      "skir": 6823,
      "torment": 6824,
      "arithme": 6825,
      "might have been ": 6826,
      "without a ": 6827,
      "mental ": 6828,
      "countr": 6829,
      "girl, ": 6830,
      "girl's ": 6831,
      "clothes and ": 6832,
      "officer ": 6833,
      "ism, ": 6834,
      "half\n": 6835,
      "floor, ": 6836,
      "borrow": 6837,
      "stern ": 6838,
      "arm and ": 6839,
      "P.O.U.M.\n": 6840,
      "I've got ": 6841,
      "supposed to ": 6842,
      "singing ": 6843,
      "drop": 6844,
      "intro": 6845,
      ".  My ": 6846,
      "francs a ": 6847,
      "rubbed ": 6848,
      "knees ": 6849,
      "purpose": 6850,
      "watching ": 6851,
      "hair, ": 6852,
      "depres": 6853,
      "suffer": 6854,
      "parents ": 6855,
      "animals were ": 6856,
      "decided to ": 6857,
      "crossed ": 6858,
      "failed to ": 6859,
      "effort ": 6860,
      "Marx": 6861,
      "Quite ": 6862,
      "Westfield ": 6863,
      "particular ": 6864,
      "garden ": 6865,
      "library ": 6866,
      "Boxer ": 6867,
      "MRS BEND": 6868,
      "shooting ": 6869,
      "hospital": 6870,
      "ousands of ": 6871,
      "prevent ": 6872,
      "mercial ": 6873,
      "particularly ": 6874,
      "communic": 6875,
      "Big Brother": 6876,
      "succeeded in ": 6877,
      "until the ": 6878,
      "George ": 6879,
      "Saturday ": 6880,
      "origin": 6881,
      "Major ": 6882,
      "'R": 6883,
      "'s, ": 6884,
      "',\n": 6885,
      "'ave ": 6886,
      "'A ": 6887,
      "Chi": 6888,
      "Gir": 6889,
      "OTH": 6890,
      "WI": 6891,
      "Wat": 6892,
      "XX": 6893,
      "Your ": 6894,
      "York": 6895,
      "_Daily ": 6896,
      "band ": 6897,
      "bos": 6898,
      "cli": 6899,
      "chat": 6900,
      "d'": 6901,
      "ee ": 6902,
      "eth ": 6903,
      "ied ": 6904,
      "ient ": 6905,
      "kick": 6906,
      "mel": 6907,
      "pati": 6908,
      "paw": 6909,
      "sno": 6910,
      "w\n": 6911,
      "wet ": 6912,
      "ym": 6913,
      "e for ": 6914,
      "s about ": 6915,
      "inform": 6916,
      "er the ": 6917,
      "er,\n": 6918,
      "oul ": 6919,
      "ones": 6920,
      ". On": 6921,
      "ingly": 6922,
      ".  'I ": 6923,
      "hill ": 6924,
      "of it ": 6925,
      "bed\n": 6926,
      "leaf": 6927,
      "in England ": 6928,
      "in front of ": 6929,
      "on your ": 6930,
      "I do ": 6931,
      "ride ": 6932,
      "edom": 6933,
      "unfortun": 6934,
      "to that ": 6935,
      "roar ": 6936,
      ", and it ": 6937,
      "useless ": 6938,
      "that a ": 6939,
      "identi": 6940,
      "ag-": 6941,
      "--not ": 6942,
      "up.\n": 6943,
      "with its ": 6944,
      "s, a ": 6945,
      "e, which ": 6946,
      "for it ": 6947,
      "for a few ": 6948,
      "for a moment": 6949,
      "There's ": 6950,
      "worse": 6951,
      "ent and ": 6952,
      "track": 6953,
      "spread ": 6954,
      "going\n": 6955,
      "ocked ": 6956,
      "sell ": 6957,
      "prostitut": 6958,
      "ground, ": 6959,
      "!  He ": 6960,
      "s. It ": 6961,
      "s. A ": 6962,
      "eyes, ": 6963,
      "ished ": 6964,
      "parad": 6965,
      "day.\n": 6966,
      "even a ": 6967,
      "thought, ": 6968,
      "small, ": 6969,
      "sci": 6970,
      "it was only ": 6971,
      "brand": 6972,
      "instance, ": 6973,
      "remov": 6974,
      "ould, ": 6975,
      "time I ": 6976,
      "heat": 6977,
      "if we ": 6978,
      ".  He was a ": 6979,
      "reak": 6980,
      "seems to ": 6981,
      "tick": 6982,
      "prefer": 6983,
      "go and ": 6984,
      "made no ": 6985,
      "everybody ": 6986,
      "just as ": 6987,
      "man of ": 6988,
      "faith": 6989,
      "says ": 6990,
      "after all, ": 6991,
      "super": 6992,
      "picture ": 6993,
      "happened, ": 6994,
      "quite a ": 6995,
      "skip": 6996,
      "Gordon had ": 6997,
      "accept ": 6998,
      ". It was\n": 6999,
      "finally": 7000,
      "effort": 7001,
      "cheek ": 7002,
      "put it ": 7003,
      "put his ": 7004,
      "evenings ": 7005,
      "swind": 7006,
      "called the ": 7007,
      "nothing to ": 7008,
      "passage ": 7009,
      "really\n": 7010,
      "bedroom": 7011,
      "waiting for ": 7012,
      "right to ": 7013,
      "mornings ": 7014,
      "new\n": 7015,
      "told me ": 7016,
      "dirty": 7017,
      "demon": 7018,
      "spot": 7019,
      "named ": 7020,
      "names ": 7021,
      "damn ": 7022,
      "engin": 7023,
      "snea": 7024,
      "dog ": 7025,
      "Boz": 7026,
      "letters ": 7027,
      "filth": 7028,
      "catch": 7029,
      "notice": 7030,
      "smoking ": 7031,
      "quiet ": 7032,
      "occasionally ": 7033,
      "music": 7034,
      "'Look ": 7035,
      "'Then ": 7036,
      "driven ": 7037,
      "Mr Warburton": 7038,
      "gyp": 7039,
      "jungle ": 7040,
      "except\n": 7041,
      "evidently ": 7042,
      "body\n": 7043,
      "parapet ": 7044,
      "gentleman": 7045,
      "Catalon": 7046,
      "precis": 7047,
      "IGO:  ": 7048,
      "gas-": 7049,
      "Catholic ": 7050,
      "helpless": 7051,
      "tongu": 7052,
      "in the middle of the ": 7053,
      "New Alb": 7054,
      "tendenc": 7055,
      "Freder": 7056,
      "electric ": 7057,
      "forbidd": 7058,
      "Millborough": 7059,
      "upper-": 7060,
      "establish": 7061,
      "MRS BENDIGO:  ": 7062,
      "'E": 7063,
      "'Come ": 7064,
      "?\"\n": 7065,
      "Ah, ": 7066,
      "Ed": 7067,
      "I though": 7068,
      "Me": 7069,
      "Never": 7070,
      "Willi": 7071,
      "_mon ": 7072,
      "bin ": 7073,
      "bum": 7074,
      "cking ": 7075,
      "e!\n": 7076,
      "found": 7077,
      "fought ": 7078,
      "few\n": 7079,
      "gold": 7080,
      "hall": 7081,
      "iff": 7082,
      "jail ": 7083,
      "kep": 7084,
      "lack": 7085,
      "med ": 7086,
      "nuis": 7087,
      "phi": 7088,
      "ped": 7089,
      "put\n": 7090,
      "red and ": 7091,
      "sour": 7092,
      "soul": 7093,
      "ted\n": 7094,
      "wing ": 7095,
      "yes": 7096,
      "e of the ": 7097,
      "thin ": 7098,
      "thank": 7099,
      "income ": 7100,
      "innumer": 7101,
      "on this ": 7102,
      "one.\n": 7103,
      ". E": 7104,
      "ing. The ": 7105,
      "also": 7106,
      "hatr": 7107,
      "stan": 7108,
      "stud": 7109,
      ".  E": 7110,
      ".  On the ": 7111,
      ".  Not ": 7112,
      "hid": 7113,
      "his": 7114,
      "to you": 7115,
      "er or ": 7116,
      "at once ": 7117,
      "at once": 7118,
      "eleg": 7119,
      "itable ": 7120,
      "was only ": 7121,
      "essi": 7122,
      "bear ": 7123,
      "lem": 7124,
      "wid": 7125,
      "riot": 7126,
      "edly": 7127,
      "is an ": 7128,
      "with that ": 7129,
      ", and she ": 7130,
      "ility ": 7131,
      "ilking": 7132,
      "ag�": 7133,
      "age\n": 7134,
      "--to ": 7135,
      "as soon as ": 7136,
      "with a s": 7137,
      "e, and\n": 7138,
      "version ": 7139,
      "These ": 7140,
      "apor": 7141,
      " that they ": 7142,
      "spraw": 7143,
      "her to ": 7144,
      "ards\n": 7145,
      "y, the ": 7146,
      "like that ": 7147,
      "hero": 7148,
      "no doubt ": 7149,
      "my friend": 7150,
      "dragged ": 7151,
      "affair ": 7152,
      "blame ": 7153,
      "overwh": 7154,
      "who had been ": 7155,
      "who has ": 7156,
      "thern ": 7157,
      "soap": 7158,
      "thoughts ": 7159,
      "scandal": 7160,
      "strat": 7161,
      "You've ": 7162,
      "ucked ": 7163,
      "discipl": 7164,
      "pron": 7165,
      "said to ": 7166,
      "ill-": 7167,
      "illustr": 7168,
      "mud": 7169,
      "ing to be ": 7170,
      "hot": 7171,
      "host": 7172,
      "never be ": 7173,
      "a mo": 7174,
      "ceil": 7175,
      "hear the ": 7176,
      "buried ": 7177,
      "carp": 7178,
      "to be a ": 7179,
      "begun": 7180,
      "cry": 7181,
      "came in ": 7182,
      "anywhere ": 7183,
      "cred": 7184,
      "creature ": 7185,
      "life. ": 7186,
      "a cor": 7187,
      "a cup of ": 7188,
      "who'd ": 7189,
      "because of the ": 7190,
      "after a ": 7191,
      "serve ": 7192,
      "decor": 7193,
      ".  He's ": 7194,
      "ence the ": 7195,
      "horse": 7196,
      ".  With": 7197,
      "such as ": 7198,
      ".  It is ": 7199,
      "front of the ": 7200,
      "surround": 7201,
      "tenn": 7202,
      "I'm not ": 7203,
      "of them were ": 7204,
      "treet": 7205,
      "thetic ": 7206,
      "realized ": 7207,
      ". Here ": 7208,
      "selves": 7209,
      "news ": 7210,
      ". They had ": 7211,
      "silk ": 7212,
      ".  That's ": 7213,
      "visit": 7214,
      "keep the ": 7215,
      "powder": 7216,
      "pleasure ": 7217,
      "up and down ": 7218,
      "seconds ": 7219,
      "explos": 7220,
      "together, ": 7221,
      "kneel": 7222,
      "Arag�": 7223,
      "Winston.\n": 7224,
      "draw ": 7225,
      "leaders ": 7226,
      ".  Perhaps ": 7227,
      "benef": 7228,
      ". On ": 7229,
      "clearly ": 7230,
      "touched ": 7231,
      "bomb ": 7232,
      "called": 7233,
      "noticed ": 7234,
      "clerk ": 7235,
      "extent ": 7236,
      "policem": 7237,
      "kids ": 7238,
      "reached the ": 7239,
      "impression ": 7240,
      "quickly ": 7241,
      "Brother ": 7242,
      "'Good ": 7243,
      "definite ": 7244,
      "crock": 7245,
      "jungle": 7246,
      "darkness ": 7247,
      "worse than ": 7248,
      "dict": 7249,
      "system ": 7250,
      "veranda ": 7251,
      "such thing": 7252,
      "meaningless ": 7253,
      "sooner or ": 7254,
      ".  After all, ": 7255,
      "sacrif": 7256,
      "leather ": 7257,
      "bicycle ": 7258,
      "in those day": 7259,
      "uncomfortable ": 7260,
      "ctual": 7261,
      "spite of ": 7262,
      "sahib": 7263,
      "hakesp": 7264,
      "blanket": 7265,
      "_bist": 7266,
      "fond of ": 7267,
      "similar ": 7268,
      "sprang ": 7269,
      "enthusi": 7270,
      "hakespear": 7271,
      ",00": 7272,
      "-car": 7273,
      "Good ": 7274,
      "Lef": 7275,
      "Mol": 7276,
      "Paddy ": 7277,
      "Shakespear": 7278,
      "T:  ": 7279,
      "bay": 7280,
      "bit of ": 7281,
      "din ": 7282,
      "eir\n": 7283,
      "gain": 7284,
      "hell": 7285,
      "hand\n": 7286,
      "ior": 7287,
      "ies\n": 7288,
      "laz": 7289,
      "leng": 7290,
      "mul": 7291,
      "mut": 7292,
      "mob": 7293,
      "nest": 7294,
      "nagg": 7295,
      "tle ": 7296,
      "ved ": 7297,
      "xim": 7298,
      "throw ": 7299,
      "s would ": 7300,
      "s at the ": 7301,
      "s in\n": 7302,
      "insur": 7303,
      "ers--": 7304,
      "ans, ": 7305,
      " this, ": 7306,
      "on.\n": 7307,
      "ed in\n": 7308,
      "alli": 7309,
      "also\n": 7310,
      "rear": 7311,
      ".  And\n": 7312,
      "the most ": 7313,
      "er had ": 7314,
      "at last": 7315,
      "ates ": 7316,
      "beard": 7317,
      "in spite ": 7318,
      "forty-": 7319,
      "youth ": 7320,
      "had got ": 7321,
      "I am": 7322,
      "es for ": 7323,
      "es in the ": 7324,
      "le of the ": 7325,
      "that they were ": 7326,
      "his head": 7327,
      "as if ": 7328,
      "up the\n": 7329,
      "upon\n": 7330,
      "opport": 7331,
      "e, I ": 7332,
      "not be ": 7333,
      "ourselves ": 7334,
      "for a moment ": 7335,
      "ultim": 7336,
      "her head ": 7337,
      "me?'\n": 7338,
      "plain ": 7339,
      "boy, ": 7340,
      "here\n": 7341,
      "!  B": 7342,
      "face.  ": 7343,
      "no money": 7344,
      "e.  B": 7345,
      "ister ": 7346,
      "there. ": 7347,
      "from her ": 7348,
      "ishop": 7349,
      "we have ": 7350,
      "when he had ": 7351,
      "flutter": 7352,
      "ers in ": 7353,
      "disagree": 7354,
      "did you ": 7355,
      "glor": 7356,
      "?  You ": 7357,
      "rain ": 7358,
      "buy": 7359,
      "offen": 7360,
      "press ": 7361,
      "a bloody ": 7362,
      "undernea": 7363,
      "hands, ": 7364,
      "people are ": 7365,
      "life\n": 7366,
      "a pair of ": 7367,
      "its own ": 7368,
      "vile ": 7369,
      "seriously ": 7370,
      "pair ": 7371,
      "how many ": 7372,
      "suppose, ": 7373,
      " there are ": 7374,
      "merely": 7375,
      "lighted ": 7376,
      " themselves ": 7377,
      "decis": 7378,
      "milk": 7379,
      "mean, ": 7380,
      "face was ": 7381,
      "Dorothy was ": 7382,
      "didn't\n": 7383,
      "horses ": 7384,
      "how the ": 7385,
      "however ": 7386,
      "surviv": 7387,
      "corp": 7388,
      "distribut": 7389,
      "like, ": 7390,
      "likely": 7391,
      "turned out ": 7392,
      "treated ": 7393,
      "joy": 7394,
      "room and ": 7395,
      "empty": 7396,
      "?' he said.\n": 7397,
      "shame": 7398,
      "lectur": 7399,
      ". To": 7400,
      "ness. ": 7401,
      "next moment ": 7402,
      "of them\n": 7403,
      "water, ": 7404,
      "too, ": 7405,
      "engag": 7406,
      "hurt ": 7407,
      "deliver": 7408,
      "Elsi": 7409,
      "past, ": 7410,
      "fourteen ": 7411,
      "pieces ": 7412,
      ".  Of course ": 7413,
      "drawn ": 7414,
      "black\n": 7415,
      "square ": 7416,
      "more than a ": 7417,
      "shoulders ": 7418,
      "played ": 7419,
      "bench": 7420,
      "larger ": 7421,
      "Europeans ": 7422,
      "detec": 7423,
      "weak": 7424,
      "music ": 7425,
      "figure ": 7426,
      "duce ": 7427,
      "hundred\n": 7428,
      "dear, ": 7429,
      "greatly ": 7430,
      "speech ": 7431,
      "spring ": 7432,
      "beyond the ": 7433,
      "ness.\n": 7434,
      "chance of ": 7435,
      "dull": 7436,
      "afra": 7437,
      "Lower Binfield": 7438,
      "coffee ": 7439,
      "proletarian ": 7440,
      "Week": 7441,
      "taxi": 7442,
      "demanded ": 7443,
      "wandered ": 7444,
      "wandering ": 7445,
      "comparatively ": 7446,
      "hundreds of ": 7447,
      "lonely ": 7448,
      "Squealer ": 7449,
      "familiar ": 7450,
      "YOU ": 7451,
      "argument ": 7452,
      "subject ": 7453,
      "Catholic": 7454,
      ". Sometimes ": 7455,
      "intended to ": 7456,
      "religious ": 7457,
      "nineteen": 7458,
      "previous ": 7459,
      "I'm\n": 7460,
      "genuinely ": 7461,
      "chimney": 7462,
      "democrac": 7463,
      "conceal": 7464,
      "orthodox": 7465,
      "somewhat ": 7466,
      "MRS MCELLIGOT:  ": 7467,
      "semi-": 7468,
      "opportun": 7469,
      "'t, ": 7470,
      "'Do you ": 7471,
      "Bel": 7472,
      "H�": 7473,
      "Heav": 7474,
      "I.": 7475,
      "Ke": 7476,
      "Or ": 7477,
      "Rep": 7478,
      "Sam": 7479,
      "Sain": 7480,
      "Tham": 7481,
      "WH": 7482,
      "bound": 7483,
      "bright ": 7484,
      "cell ": 7485,
      "date ": 7486,
      "hoo": 7487,
      "ier": 7488,
      "ior ": 7489,
      "ious\n": 7490,
      "od": 7491,
      "py": 7492,
      "rage ": 7493,
      "sick ": 7494,
      "tit": 7495,
      "ts and ": 7496,
      "thes": 7497,
      "incom": 7498,
      ", even ": 7499,
      ", where ": 7500,
      ", but\n": 7501,
      "ou ": 7502,
      " then ": 7503,
      "or three ": 7504,
      "ed in a ": 7505,
      "altogether ": 7506,
      "a word ": 7507,
      "and that ": 7508,
      "stig": 7509,
      "stock ": 7510,
      "wait ": 7511,
      ".  I'll ": 7512,
      ".  Just ": 7513,
      "to work ": 7514,
      "of an ": 7515,
      "it. ": 7516,
      "es. I ": 7517,
      "es, and the ": 7518,
      "owl": 7519,
      "isbe": 7520,
      "assum": 7521,
      "even, ": 7522,
      "irre": 7523,
      "notion": 7524,
      "I knew ": 7525,
      "I suppose ": 7526,
      "tol": 7527,
      "topi": 7528,
      "an enormous ": 7529,
      ", and yet ": 7530,
      "set": 7531,
      "that had ": 7532,
      "ador": 7533,
      "out for ": 7534,
      "sail": 7535,
      "say\n": 7536,
      "s, I ": 7537,
      "e, with ": 7538,
      "for two ": 7539,
      "dial": 7540,
      "appl": 7541,
      " that he had ": 7542,
      "whist": 7543,
      "older ": 7544,
      "in the end ": 7545,
      "be a ": 7546,
      "trust": 7547,
      "trail": 7548,
      "some of ": 7549,
      "spike ": 7550,
      "coming": 7551,
      "plate ": 7552,
      "sure": 7553,
      "suic": 7554,
      "she had\n": 7555,
      "dodg": 7556,
      "ously, ": 7557,
      "proceed": 7558,
      "grin": 7559,
      "Anti": 7560,
      "boil": 7561,
      "perceiv": 7562,
      "s.  You ": 7563,
      "fee": 7564,
      "post ": 7565,
      "so-": 7566,
      "sod": 7567,
      "thought\n": 7568,
      "scand": 7569,
      "p and ": 7570,
      "?  S": 7571,
      ".  After": 7572,
      "a fair": 7573,
      "a bab": 7574,
      "a big ": 7575,
      "ticket": 7576,
      "rough ": 7577,
      "course": 7578,
      "ation and ": 7579,
      "hand.\n": 7580,
      "everywhere ": 7581,
      "ize ": 7582,
      "hatever ": 7583,
      "margar": 7584,
      "marching ": 7585,
      "who's ": 7586,
      "because he ": 7587,
      "Mr. ": 7588,
      "controll": 7589,
      " them\n": 7590,
      "possibil": 7591,
      "able.\n": 7592,
      "own, ": 7593,
      "accent": 7594,
      "face and ": 7595,
      "sixteen ": 7596,
      "should have ": 7597,
      "swear": 7598,
      "weekly ": 7599,
      "'Oh": 7600,
      "jok": 7601,
      "really": 7602,
      "mile ": 7603,
      "shaking ": 7604,
      "Ravelston, ": 7605,
      "money and ": 7606,
      "when the\n": 7607,
      "silly ": 7608,
      ".  Besides, ": 7609,
      "seemed to\n": 7610,
      "gave him ": 7611,
      "hundred yards ": 7612,
      "two-": 7613,
      "ness and ": 7614,
      "At this moment ": 7615,
      "certain that ": 7616,
      "further": 7617,
      "ideas ": 7618,
      "merely a ": 7619,
      "drop ": 7620,
      "radi": 7621,
      "Under": 7622,
      "purpos": 7623,
      "INK": 7624,
      "funer": 7625,
      "talking about ": 7626,
      "horribly ": 7627,
      "strike ": 7628,
      "naturally ": 7629,
      "till the ": 7630,
      "last\n": 7631,
      "kinds of ": 7632,
      "threep": 7633,
      "weak ": 7634,
      "opposit": 7635,
      "tures": 7636,
      "If you ": 7637,
      "lady ": 7638,
      "personal ": 7639,
      "process ": 7640,
      "advant": 7641,
      "locked ": 7642,
      "you've got ": 7643,
      "raised ": 7644,
      "holding ": 7645,
      "period": 7646,
      "shaped ": 7647,
      "took\n": 7648,
      "splend": 7649,
      "conven": 7650,
      "Franco ": 7651,
      "pushed ": 7652,
      "pickers ": 7653,
      "tomorrow ": 7654,
      "level ": 7655,
      "expensive ": 7656,
      "according to ": 7657,
      "the first time ": 7658,
      "Kyauktada": 7659,
      "lonel": 7660,
      "avoid": 7661,
      "whether the ": 7662,
      "_patron_": 7663,
      "beneath": 7664,
      "Worker": 7665,
      "O'Brien's ": 7666,
      "German": 7667,
      "militiamen ": 7668,
      "greasy ": 7669,
      "rather than ": 7670,
      "market-": 7671,
      "pigeon": 7672,
      "Porte": 7673,
      "woke ": 7674,
      "Chinese ": 7675,
      "good-by": 7676,
      "cartridg": 7677,
      "practice ": 7678,
      "advertis": 7679,
      "Dr Veraswami": 7680,
      "Huesca": 7681,
      "Except ": 7682,
      "Corporation ": 7683,
      "introduc": 7684,
      "'good' ": 7685,
      "(the ": 7686,
      ",'\n": 7687,
      "-up ": 7688,
      "-faced ": 7689,
      "Apri": 7690,
      "Fri": 7691,
      "Har": 7692,
      "Hate ": 7693,
      "ME": 7694,
      "Mother": 7695,
      "Now": 7696,
      "OW": 7697,
      "She": 7698,
      "bother": 7699,
      "cough": 7700,
      "dge ": 7701,
      "fus": 7702,
      "fill ": 7703,
      "hood": 7704,
      "lest ": 7705,
      "lamp ": 7706,
      "map": 7707,
      "mitt": 7708,
      "none ": 7709,
      "nut": 7710,
      "ole ": 7711,
      "ren": 7712,
      "ry-": 7713,
      "ragg": 7714,
      "s', ": 7715,
      "thi": 7716,
      "s his ": 7717,
      "s by ": 7718,
      "s to\n": 7719,
      "er, the ": 7720,
      "endid ": 7721,
      "arr": 7722,
      "oft": 7723,
      "a whole ": 7724,
      "a woman ": 7725,
      "stiff ": 7726,
      "wave ": 7727,
      "reti": 7728,
      "reass": 7729,
      "refu": 7730,
      ".  Ravelston ": 7731,
      ".  Why ": 7732,
      "of some ": 7733,
      "itiv": 7734,
      "it, but ": 7735,
      "it's\n": 7736,
      "chool ": 7737,
      "lice": 7738,
      "becomes ": 7739,
      "ledg": 7740,
      "in London": 7741,
      "in fact, ": 7742,
      "wire": 7743,
      "wife": 7744,
      "l of ": 7745,
      "embl": 7746,
      "oot ": 7747,
      "had had ": 7748,
      "had just ": 7749,
      "no, ": 7750,
      "I must ": 7751,
      "ries ": 7752,
      "to-": 7753,
      ", and so ": 7754,
      ", and we ": 7755,
      ", and it was ": 7756,
      "usel": 7757,
      "seed": 7758,
      "that she had ": 7759,
      "that she was ": 7760,
      "ily\n": 7761,
      "with one ": 7762,
      "with a sort of ": 7763,
      "all their ": 7764,
      "quid": 7765,
      "commercial ": 7766,
      "all over the ": 7767,
      "consequ": 7768,
      "ter and ": 7769,
      "Angl": 7770,
      "no use ": 7771,
      "up in ": 7772,
      "peace ": 7773,
      "dry ": 7774,
      "s. A": 7775,
      "e.  S": 7776,
      "eyes and ": 7777,
      "there was the ": 7778,
      "dismay": 7779,
      "he had not ": 7780,
      "very much ": 7781,
      "deter": 7782,
      "in a few ": 7783,
      ". These ": 7784,
      ". There\n": 7785,
      ".  They": 7786,
      "raid": 7787,
      ", but it ": 7788,
      "down on the ": 7789,
      "loaf": 7790,
      "crit": 7791,
      "came back ": 7792,
      "anything\n": 7793,
      "letting ": 7794,
      "just a ": 7795,
      "a cigaret": 7796,
      "neg": 7797,
      "collap": 7798,
      "Comrad": 7799,
      "appall": 7800,
      "'We": 7801,
      "out of a ": 7802,
      "out of her ": 7803,
      "excell": 7804,
      "despair": 7805,
      "happening": 7806,
      "happening ": 7807,
      "men and ": 7808,
      "belief ": 7809,
      "clever": 7810,
      "off his ": 7811,
      ".  And the ": 7812,
      "horror": 7813,
      "different\n": 7814,
      "fronti": 7815,
      "appeared that ": 7816,
      "home.  ": 7817,
      "correc": 7818,
      "correspon": 7819,
      "disting": 7820,
      "well\n": 7821,
      "human\n": 7822,
      ". How ": 7823,
      "perhaps, ": 7824,
      "azin": 7825,
      "sentim": 7826,
      "door, ": 7827,
      "doorway": 7828,
      "floated ": 7829,
      "painted ": 7830,
      "between his ": 7831,
      "dirt ": 7832,
      "going on ": 7833,
      "patrol": 7834,
      "nature": 7835,
      "shoes ": 7836,
      "dropp": 7837,
      "happy": 7838,
      "remember that ": 7839,
      "human being ": 7840,
      "ness of the ": 7841,
      "penny": 7842,
      "Napoleon, ": 7843,
      "militias ": 7844,
      "OUL": 7845,
      "still, ": 7846,
      "'Not ": 7847,
      "haired ": 7848,
      "'What is ": 7849,
      "interesting ": 7850,
      "ARE ": 7851,
      "posters ": 7852,
      ". My ": 7853,
      "hair and ": 7854,
      ",' he said, '": 7855,
      "occasional ": 7856,
      "farther ": 7857,
      "realize ": 7858,
      "Road ": 7859,
      "at this moment ": 7860,
      "unemployment ": 7861,
      "dangerous": 7862,
      "denounc": 7863,
      "library": 7864,
      "splendid ": 7865,
      "o'clock ": 7866,
      "half a dozen ": 7867,
      "Georg": 7868,
      "non-": 7869,
      "experience ": 7870,
      "properly ": 7871,
      "despis": 7872,
      "beginning to ": 7873,
      "Italian ": 7874,
      "Ravelston's ": 7875,
      "argument": 7876,
      "German ": 7877,
      "High S": 7878,
      "kissed ": 7879,
      "guilty ": 7880,
      "peasant": 7881,
      "white\n": 7882,
      "favourite ": 7883,
      "promptly ": 7884,
      "economic ": 7885,
      "awak": 7886,
      "absurd ": 7887,
      "govern": 7888,
      "smooth ": 7889,
      ".)  ": 7890,
      "P.S.U.C. ": 7891,
      "shabby ": 7892,
      "Chees": 7893,
      "definitely ": 7894,
      "Angel": 7895,
      "Telephone ": 7896,
      "H�tel ": 7897,
      "'This ": 7898,
      ")\n": 7899,
      "1\n": 7900,
      "3 ": 7901,
      "EL": 7902,
      "Ez": 7903,
      "Foot": 7904,
      "Kech": 7905,
      "Now ": 7906,
      "Pr": 7907,
      "Perhaps ": 7908,
      "SN": 7909,
      "Thi": 7910,
      "[singing": 7911,
      "clic": 7912,
      "cover ": 7913,
      "couple of ": 7914,
      "damp": 7915,
      "ft ": 7916,
      "fly": 7917,
      "femin": 7918,
      "gave\n": 7919,
      "hug": 7920,
      "ju": 7921,
      "jacket": 7922,
      "les\n": 7923,
      "lung": 7924,
      "mood ": 7925,
      "oes": 7926,
      "pawn": 7927,
      "soc": 7928,
      "sink ": 7929,
      "sank ": 7930,
      "wrec": 7931,
      "ze ": 7932,
      "thumb": 7933,
      "s of the\n": 7934,
      "ind\n": 7935,
      "inher": 7936,
      "indoor": 7937,
      "inquir": 7938,
      "anon": 7939,
      "another, ": 7940,
      " thick": 7941,
      "eness ": 7942,
      "enched ": 7943,
      ". Yet ": 7944,
      "ing:\n": 7945,
      "ality ": 7946,
      "hate": 7947,
      "watch ": 7948,
      "refin": 7949,
      ".  Elizabeth ": 7950,
      "to let ": 7951,
      "to give ": 7952,
      "of '": 7953,
      "omet": 7954,
      "he knew ": 7955,
      "was '": 7956,
      "chal": 7957,
      "in his\n": 7958,
      "in order to ": 7959,
      "for this ": 7960,
      "assu": 7961,
      "on a\n": 7962,
      "I will ": 7963,
      "it as ": 7964,
      "rid of ": 7965,
      "with this ": 7966,
      "urg": 7967,
      ", and was ": 7968,
      ", and then, ": 7969,
      "ically": 7970,
      "aga": 7971,
      "--'": 7972,
      "--for ": 7973,
      "as a matter of ": 7974,
      "ental": 7975,
      "upper ": 7976,
      "'s sa": 7977,
      "with him": 7978,
      "with a f": 7979,
      "s, were ": 7980,
      "s, the\n": 7981,
      "not much ": 7982,
      "ters ": 7983,
      "for you": 7984,
      "Thom": 7985,
      "ett": 7986,
      "worm": 7987,
      "worrying ": 7988,
      "in the midd": 7989,
      "in the morning ": 7990,
      "ullo": 7991,
      "spac": 7992,
      "compos": 7993,
      "all of them ": 7994,
      "condem": 7995,
      "construc": 7996,
      "et me ": 7997,
      "imprison": 7998,
      "been in ": 7999,
      "prospec": 8000,
      "grant": 8001,
      "could see ": 8002,
      "And, ": 8003,
      "boom": 8004,
      "her, and ": 8005,
      "her that ": 8006,
      "!  L": 8007,
      "!  W": 8008,
      "!  But ": 8009,
      "s. And ": 8010,
      "blow ": 8011,
      "s.  They ": 8012,
      "e.  A ": 8013,
      "so many ": 8014,
      "so long as ": 8015,
      "e. In ": 8016,
      "who is ": 8017,
      "ang ": 8018,
      "solem": 8019,
      "ar and ": 8020,
      "thought that ": 8021,
      "scap": 8022,
      "disgu": 8023,
      "pract": 8024,
      "pension": 8025,
      "instead": 8026,
      "tured ": 8027,
      "deed, ": 8028,
      "?  What ": 8029,
      "longy": 8030,
      "get a ": 8031,
      "year, ": 8032,
      "tion\n": 8033,
      "In\n": 8034,
      "ing the same ": 8035,
      "down at ": 8036,
      "build ": 8037,
      "a shill": 8038,
      "carav": 8039,
      "a bul": 8040,
      "crown ": 8041,
      "working\n": 8042,
      "workers' ": 8043,
      "prejud": 8044,
      "by this ": 8045,
      "down.\n": 8046,
      "lifted ": 8047,
      "place\n": 8048,
      "ought to be ": 8049,
      "feel that ": 8050,
      "attend": 8051,
      "man was ": 8052,
      "starting ": 8053,
      "contact ": 8054,
      "bleeding ": 8055,
      "interv": 8056,
      "interval": 8057,
      "tric": 8058,
      ".  But the ": 8059,
      "remember, ": 8060,
      "enough\n": 8061,
      "horse ": 8062,
      "ment\n": 8063,
      "sixpence ": 8064,
      "shop-": 8065,
      "air, ": 8066,
      "work and ": 8067,
      "treat": 8068,
      "miss": 8069,
      "When I ": 8070,
      "crim": 8071,
      ". How": 8072,
      "I had to ": 8073,
      "halfpenny ": 8074,
      "doorway ": 8075,
      "bottle": 8076,
      "sorry": 8077,
      "P.O.U.M.": 8078,
      "minutes": 8079,
      "ed by a ": 8080,
      "high-": 8081,
      "THINK": 8082,
      "several\n": 8083,
      "numbers ": 8084,
      "water-": 8085,
      "family": 8086,
      "up and down": 8087,
      "the best ": 8088,
      "turned\n": 8089,
      "explan": 8090,
      "allowed ": 8091,
      "pocket and ": 8092,
      "'Trotsky": 8093,
      "Army": 8094,
      "OUT": 8095,
      "produced a ": 8096,
      "stories ": 8097,
      "bullets ": 8098,
      "they've ": 8099,
      "important": 8100,
      " though ": 8101,
      "falling ": 8102,
      "threw ": 8103,
      "brief": 8104,
      "Rector's ": 8105,
      "deeply ": 8106,
      "dark, ": 8107,
      "Burma ": 8108,
      "sounded ": 8109,
      "literally ": 8110,
      "uniform ": 8111,
      "once\n": 8112,
      "Charring": 8113,
      "possession ": 8114,
      "God knows ": 8115,
      "attempt to ": 8116,
      "rushed ": 8117,
      "cigarettes ": 8118,
      "same\n": 8119,
      " three\n": 8120,
      "factory ": 8121,
      "stupid": 8122,
      "Eurasian ": 8123,
      "civilization ": 8124,
      "experienc": 8125,
      "Kyauktada ": 8126,
      "nickn": 8127,
      "Newspeak ": 8128,
      "Victor": 8129,
      "Kopp": 8130,
      "aside ": 8131,
      "appeal": 8132,
      "emerged ": 8133,
      "Embank": 8134,
      "stole ": 8135,
      "article ": 8136,
      "tongue ": 8137,
      "pulled the ": 8138,
      ". All the ": 8139,
      "separate ": 8140,
      "sticking ": 8141,
      "problem": 8142,
      "THAT": 8143,
      "poison": 8144,
      "efficienc": 8145,
      "Command": 8146,
      "superior": 8147,
      "kicked ": 8148,
      "Christmas ": 8149,
      "squeez": 8150,
      "Jones's ": 8151,
      "_bistro": 8152,
      "Telephone Ex": 8153,
      "Ezek": 8154,
      "Kechni": 8155,
      "'; ": 8156,
      "'Why ": 8157,
      "4 ": 8158,
      "5\n": 8159,
      "7 ": 8160,
      ": the ": 8161,
      "AL": 8162,
      "BLE": 8163,
      "Car": 8164,
      "Down ": 8165,
      "II\n": 8166,
      "Kin ": 8167,
      "Lab": 8168,
      "Mandal": 8169,
      "Ox": 8170,
      "Padd": 8171,
      "Sco": 8172,
      "Squar": 8173,
      "Will": 8174,
      "bending ": 8175,
      "dol": 8176,
      "eating ": 8177,
      "floo": 8178,
      "gin": 8179,
      "ghast": 8180,
      "ible ": 8181,
      "lord": 8182,
      "led the ": 8183,
      "loud ": 8184,
      "marm": 8185,
      "n, ": 8186,
      "nak": 8187,
      "obey": 8188,
      "oeu": 8189,
      "ry\n": 8190,
      "sinc": 8191,
      "slight": 8192,
      "tap": 8193,
      "ted, ": 8194,
      "these\n": 8195,
      "s (": 8196,
      "s you ": 8197,
      "iner": 8198,
      "inev": 8199,
      "inscri": 8200,
      "ango": 8201,
      ", were ": 8202,
      "ings and ": 8203,
      "ed about ": 8204,
      "ed with the ": 8205,
      "although ": 8206,
      "haw": 8207,
      ".  R": 8208,
      "ing a\n": 8209,
      "el\n": 8210,
      "he did ": 8211,
      "he will ": 8212,
      "he felt ": 8213,
      "was that the ": 8214,
      "beat ": 8215,
      "betray": 8216,
      "lean ": 8217,
      "les were ": 8218,
      "in every ": 8219,
      "ache ": 8220,
      "note ": 8221,
      "I remember ": 8222,
      "it might ": 8223,
      "rip": 8224,
      "ed, and the ": 8225,
      "is the\n": 8226,
      "unable to ": 8227,
      "with, ": 8228,
      "ure of ": 8229,
      ", and his ": 8230,
      "sea ": 8231,
      "that this ": 8232,
      "that I was ": 8233,
      "shook ": 8234,
      "--it was ": 8235,
      "as possible": 8236,
      "out of the\n": 8237,
      "sault ": 8238,
      "with you": 8239,
      "with my ": 8240,
      "oph": 8241,
      "oughly ": 8242,
      "for her ": 8243,
      "whisper": 8244,
      "exec": 8245,
      "quit": 8246,
      "concl": 8247,
      "concre": 8248,
      "twop": 8249,
      "twopen": 8250,
      "suit ": 8251,
      "clut": 8252,
      "would come ": 8253,
      "would be\n": 8254,
      "would have\n": 8255,
      "ument": 8256,
      "umn ": 8257,
      "propri": 8258,
      "produce ": 8259,
      "like a s": 8260,
      "s of his ": 8261,
      "boiled ": 8262,
      "persist": 8263,
      "!  A": 8264,
      "drank ": 8265,
      "s. B": 8266,
      "blind": 8267,
      "block": 8268,
      "s.  B": 8269,
      "s and a ": 8270,
      "so far as ": 8271,
      "many\n": 8272,
      "on the floor": 8273,
      "there would be ": 8274,
      "what a ": 8275,
      "what he was ": 8276,
      "ted with ": 8277,
      "was a little ": 8278,
      "we got ": 8279,
      "when it was ": 8280,
      "we'd ": 8281,
      "days\n": 8282,
      "est\n": 8283,
      "brain ": 8284,
      "again, and ": 8285,
      "very little ": 8286,
      "time be": 8287,
      "firm ": 8288,
      "out.\n": 8289,
      ",' Flory ": 8290,
      "associ": 8291,
      ".  At the ": 8292,
      "right\n": 8293,
      "prestig": 8294,
      "anywher": 8295,
      "anything, ": 8296,
      "hatred": 8297,
      "let's ": 8298,
      "don't want ": 8299,
      "houses": 8300,
      "serge": 8301,
      "before he ": 8302,
      "side to ": 8303,
      "age and ": 8304,
      "ities of ": 8305,
      "Parson": 8306,
      "interrup": 8307,
      "pian": 8308,
      "long time ": 8309,
      "materi": 8310,
      "burning ": 8311,
      ".  And yet ": 8312,
      "look of ": 8313,
      "front, ": 8314,
      "There are ": 8315,
      "company ": 8316,
      "complic": 8317,
      "took a ": 8318,
      "took her ": 8319,
      ".  It was the ": 8320,
      "mission ": 8321,
      "Elizabeth, ": 8322,
      "humili": 8323,
      "ity that ": 8324,
      "?' he ": 8325,
      "could not be ": 8326,
      "fortnight ": 8327,
      "curtain": 8328,
      "sham": 8329,
      "simple": 8330,
      "war with ": 8331,
      "words, ": 8332,
      "silent ": 8333,
      "refuse ": 8334,
      "refused to ": 8335,
      "but, ": 8336,
      "publish": 8337,
      "higher ": 8338,
      "studi": 8339,
      "lips ": 8340,
      "spot ": 8341,
      ". 'You ": 8342,
      "pleasant ": 8343,
      "friendly ": 8344,
      "England, ": 8345,
      "family, ": 8346,
      "turned to ": 8347,
      "snub": 8348,
      "himself, ": 8349,
      "table.\n": 8350,
      "willing to ": 8351,
      "orders ": 8352,
      "centuri": 8353,
      "equally ": 8354,
      "wonderful ": 8355,
      "P.O.U.M. was ": 8356,
      "during ": 8357,
      "extra ": 8358,
      ". Our ": 8359,
      "largely ": 8360,
      "statu": 8361,
      "curios": 8362,
      "Sunday": 8363,
      "tradition": 8364,
      "made of ": 8365,
      "occasionally": 8366,
      "describe ": 8367,
      "continued ": 8368,
      "yet, ": 8369,
      "law ": 8370,
      "realize that ": 8371,
      "magn": 8372,
      ",' she said ": 8373,
      "straight": 8374,
      "basket": 8375,
      "stayed ": 8376,
      ". . .\n": 8377,
      "expected to ": 8378,
      "fellow ": 8379,
      "intelligent": 8380,
      "intelligent ": 8381,
      "coward": 8382,
      "darkness": 8383,
      "                        ": 8384,
      " they'd ": 8385,
      "stirr": 8386,
      "railway ": 8387,
      "powerful ": 8388,
      "father's ": 8389,
      "Rebelli": 8390,
      "wretch": 8391,
      "edge of the ": 8392,
      "rebellion ": 8393,
      "stroke ": 8394,
      "memories ": 8395,
      "virtu": 8396,
      "example": 8397,
      "official": 8398,
      "razor ": 8399,
      "rabbit": 8400,
      "slogan": 8401,
      "criminal": 8402,
      "bazaar": 8403,
      "obliged to ": 8404,
      "Mrs Semprill ": 8405,
      "GINGER:  ": 8406,
      "Ingsoc": 8407,
      "Valenc": 8408,
      "innumerable ": 8409,
      "overwhelm": 8410,
      "!\"\n": 8411,
      "'re\n": 8412,
      "3\n": 8413,
      "4\n": 8414,
      "6\n": 8415,
      "AS": 8416,
      "Aunt ": 8417,
      "EV": 8418,
      "Four ": 8419,
      "Liber": 8420,
      "Mari": 8421,
      "MAN": 8422,
      "Ne": 8423,
      "Nothing ": 8424,
      "OO": 8425,
      "Per": 8426,
      "Up ": 8427,
      "W.": 8428,
      "_L": 8429,
      "a--": 8430,
      "bough": 8431,
      "bill ": 8432,
      "cob": 8433,
      "dash ": 8434,
      "domin": 8435,
      "e', ": 8436,
      "etern": 8437,
      "ging ": 8438,
      "hin": 8439,
      "hes": 8440,
      "k\n": 8441,
      "ki": 8442,
      "ke\n": 8443,
      "lac": 8444,
      "ler, ": 8445,
      "mas": 8446,
      "nail": 8447,
      "render": 8448,
      "sock": 8449,
      "squar": 8450,
      "s: ": 8451,
      "sabo": 8452,
      "t'": 8453,
      "ting\n": 8454,
      "uce ": 8455,
      "ures": 8456,
      "vac": 8457,
      "wound ": 8458,
      "y.  The ": 8459,
      "yiel": 8460,
      "ers,\n": 8461,
      ", when ": 8462,
      " thing to ": 8463,
      "on them": 8464,
      "ing there ": 8465,
      "ing. I ": 8466,
      "oft ": 8467,
      "ed and\n": 8468,
      "a year ": 8469,
      "had, ": 8470,
      "stood\n": 8471,
      "rebel": 8472,
      "real\n": 8473,
      ".  Rosemary ": 8474,
      "the only ": 8475,
      "to live ": 8476,
      "of which ": 8477,
      "at and ": 8478,
      "at one ": 8479,
      "el and ": 8480,
      "else, ": 8481,
      "was to be ": 8482,
      "in front ": 8483,
      "had turned ": 8484,
      "had already ": 8485,
      "it the ": 8486,
      "it has ": 8487,
      "today": 8488,
      "top of ": 8489,
      "with their\n": 8490,
      "le of\n": 8491,
      "ured ": 8492,
      "us.\n": 8493,
      "ables": 8494,
      "abomin": 8495,
      "that the\n": 8496,
      "ic\n": 8497,
      "il-": 8498,
      "ideas": 8499,
      "ages, ": 8500,
      "age. ": 8501,
      "his mother ": 8502,
      "shri": 8503,
      "--it ": 8504,
      "upset ": 8505,
      "upstair": 8506,
      "and--": 8507,
      "earn ": 8508,
      "with her": 8509,
      "e, for ": 8510,
      "or of ": 8511,
      "or other ": 8512,
      "appre": 8513,
      "whip": 8514,
      "while": 8515,
      "word, ": 8516,
      "sister": 8517,
      "expos": 8518,
      "ounce ": 8519,
      "travel": 8520,
      "all about ": 8521,
      "from their ": 8522,
      "conspir": 8523,
      "plung": 8524,
      "everlast": 8525,
      "clo": 8526,
      "selling ": 8527,
      "do, ": 8528,
      "do the ": 8529,
      "resent": 8530,
      "result ": 8531,
      "like an ": 8532,
      "which he had ": 8533,
      "faces, ": 8534,
      "face of ": 8535,
      "peep": 8536,
      "s. Th": 8537,
      "itting ": 8538,
      "blown ": 8539,
      "blaz": 8540,
      "s.  S": 8541,
      "manoeu": 8542,
      "way.\n": 8543,
      "over.\n": 8544,
      "from one ": 8545,
      "from which ": 8546,
      "when a ": 8547,
      "scal": 8548,
      "scat": 8549,
      "ender ": 8550,
      "ance. ": 8551,
      "I've\n": 8552,
      "side. ": 8553,
      "some of them ": 8554,
      "ll\n": 8555,
      "disast": 8556,
      "at the bottom ": 8557,
      "gled ": 8558,
      "bell ": 8559,
      "belly": 8560,
      "fired ": 8561,
      ". Their ": 8562,
      ".  They're ": 8563,
      "ational": 8564,
      "get the ": 8565,
      "a mil": 8566,
      "chick": 8567,
      ". An ": 8568,
      ". After ": 8569,
      ". After": 8570,
      "arm, ": 8571,
      "Intern": 8572,
      "ceive ": 8573,
      "down on ": 8574,
      "under the\n": 8575,
      "anybody ": 8576,
      "woman\n": 8577,
      "ke.\n": 8578,
      "over to the ": 8579,
      "a pat": 8580,
      "always been ": 8581,
      "a cop": 8582,
      "neat ": 8583,
      "desc": 8584,
      "contained ": 8585,
      "Mr Charring": 8586,
      "sky ": 8587,
      ". If": 8588,
      "pipe": 8589,
      "ance of ": 8590,
      "dared ": 8591,
      "ack of ": 8592,
      "horiz": 8593,
      "differenc": 8594,
      "put the ": 8595,
      "ten or ": 8596,
      "week, ": 8597,
      "corrup": 8598,
      "distres": 8599,
      "book-": 8600,
      "behind\n": 8601,
      "'But, ": 8602,
      "standard": 8603,
      "'Oh ": 8604,
      "phem": 8605,
      "given": 8606,
      "money.\n": 8607,
      "ment of ": 8608,
      "perhaps a ": 8609,
      "used to be ": 8610,
      "duck": 8611,
      "Winston had ": 8612,
      "next\n": 8613,
      "existence ": 8614,
      "used to\n": 8615,
      "gave me ": 8616,
      "doctr": 8617,
      "suddenly": 8618,
      ", with his ": 8619,
      "medic": 8620,
      "keep\n": 8621,
      "hand and ": 8622,
      "looking\n": 8623,
      "read the ": 8624,
      ". By ": 8625,
      ". Bor": 8626,
      "sheep ": 8627,
      "covered ": 8628,
      "patch": 8629,
      "regist": 8630,
      "damp ": 8631,
      "row of ": 8632,
      "O'Brien, ": 8633,
      " there": 8634,
      "everyone was ": 8635,
      "Julia, ": 8636,
      "himself\n": 8637,
      "190": 8638,
      "dogs ": 8639,
      "pocket ": 8640,
      "agod": 8641,
      "breast ": 8642,
      "employe": 8643,
      "washed ": 8644,
      "watching the ": 8645,
      "black-": 8646,
      "promise ": 8647,
      "town, ": 8648,
      "five, ": 8649,
      ". Most ": 8650,
      "anyone who ": 8651,
      "prisoners ": 8652,
      "egro": 8653,
      "extrem": 8654,
      "enemy": 8655,
      "decided ": 8656,
      "doctor's ": 8657,
      "sticky ": 8658,
      "soul ": 8659,
      "hold\n": 8660,
      "shouting ": 8661,
      "pudd": 8662,
      "puzz": 8663,
      "slid ": 8664,
      "smallest ": 8665,
      "object ": 8666,
      "Ko S'l": 8667,
      "recognized ": 8668,
      "frightened ": 8669,
      "foreigner": 8670,
      "machine-gun ": 8671,
      "type of ": 8672,
      "kind of thing ": 8673,
      "lunch ": 8674,
      "shillings a week": 8675,
      "laun": 8676,
      "scarlet ": 8677,
      "faint ": 8678,
      "enjoy ": 8679,
      "soldiers ": 8680,
      "earthqu": 8681,
      "fixed ": 8682,
      "incredi": 8683,
      "master ": 8684,
      "McKechni": 8685,
      "gradually ": 8686,
      "crawled ": 8687,
      "'What?'\n": 8688,
      "desperate ": 8689,
      "white-": 8690,
      "skull": 8691,
      "individual ": 8692,
      "nasty ": 8693,
      "delicate ": 8694,
      "deliberately ": 8695,
      "involv": 8696,
      "quarrell": 8697,
      "squalid ": 8698,
      "responsible ": 8699,
      "invisible ": 8700,
      "menacing ": 8701,
      "Uncle Ezek": 8702,
      "blasphem": 8703,
      "a curious ": 8704,
      "impulse ": 8705,
      "arithmetic": 8706,
      "Yorkshi": 8707,
      "_Daily Worker": 8708,
      "pronounc": 8709,
      "suicid": 8710,
      "Anglo-": 8711,
      "manoeuv": 8712,
      "\"  ": 8713,
      "Bol": 8714,
      "Cam": 8715,
      "Cour": 8716,
      "Carg": 8717,
      "G.T": 8718,
      "IS": 8719,
      "Jew ": 8720,
      "L.": 8721,
      "More ": 8722,
      "Out": 8723,
      "Obvi": 8724,
      "People ": 8725,
      "Rango": 8726,
      "Take ": 8727,
      "bi": 8728,
      "bis": 8729,
      "bed and ": 8730,
      "cou": 8731,
      "de\n": 8732,
      "dun": 8733,
      "daily ": 8734,
      "eti": 8735,
      "fare ": 8736,
      "fasc": 8737,
      "fold": 8738,
      "ger": 8739,
      "gap": 8740,
      "hall ": 8741,
      "ix": 8742,
      "jumped ": 8743,
      "kk": 8744,
      "ming ": 8745,
      "mum": 8746,
      "ners ": 8747,
      "pity": 8748,
      "pagod": 8749,
      "s:\n": 8750,
      "s) ": 8751,
      "ts\n": 8752,
      "t,\n": 8753,
      "ted to ": 8754,
      "treach": 8755,
      "whim": 8756,
      "yrin": 8757,
      "e in ": 8758,
      "s where ": 8759,
      "inner ": 8760,
      "err": 8761,
      "er--": 8762,
      "an.\n": 8763,
      ", his ": 8764,
      "outer ": 8765,
      "ous and ": 8766,
      "one. ": 8767,
      ". (": 8768,
      ". For the ": 8769,
      "ing through ": 8770,
      "and for ": 8771,
      "stones ": 8772,
      "history": 8773,
      "to me ": 8774,
      "to him, ": 8775,
      "to say, ": 8776,
      "of any ": 8777,
      "els ": 8778,
      "el, ": 8779,
      "he saw ": 8780,
      "it.  He ": 8781,
      "atically ": 8782,
      "let\n": 8783,
      "lemon": 8784,
      "acking ": 8785,
      "forear": 8786,
      "wis": 8787,
      "embr": 8788,
      "it seemed to ": 8789,
      "is in ": 8790,
      "is so ": 8791,
      "uncle": 8792,
      "rode ": 8793,
      ", and even ": 8794,
      "use": 8795,
      "that is, ": 8796,
      "illeg": 8797,
      "agree ": 8798,
      "as far ": 8799,
      "you know ": 8800,
      "earn": 8801,
      "earning ": 8802,
      "with his\n": 8803,
      "s, no ": 8804,
      "terrif": 8805,
      "for my ": 8806,
      "or an ": 8807,
      "him,\n": 8808,
      "' (": 8809,
      "complain": 8810,
      "all day ": 8811,
      "eau": 8812,
      "pled ": 8813,
      "plough": 8814,
      "she did not ": 8815,
      "mort": 8816,
      "would probably ": 8817,
      "loose ": 8818,
      "could you ": 8819,
      "which I ": 8820,
      "!  A ": 8821,
      "!  How ": 8822,
      "s. You ": 8823,
      "aff ": 8824,
      "es, and\n": 8825,
      "so much": 8826,
      "th of the ": 8827,
      "istic ": 8828,
      "of their\n": 8829,
      "we must ": 8830,
      "we were\n": 8831,
      "when you are ": 8832,
      "smel": 8833,
      "more and more ": 8834,
      "any of the ": 8835,
      "dism": 8836,
      "again\n": 8837,
      "cause ": 8838,
      "time when ": 8839,
      "glar": 8840,
      "belong ": 8841,
      "?  W": 8842,
      "if you\n": 8843,
      "reach ": 8844,
      "longer, ": 8845,
      "hosti": 8846,
      "raise ": 8847,
      "do it ": 8848,
      "teen, ": 8849,
      "back to\n": 8850,
      "buff": 8851,
      "began\n": 8852,
      "work\n": 8853,
      "workhouse ": 8854,
      "awk": 8855,
      "crept ": 8856,
      "ge-": 8857,
      "will not ": 8858,
      "a pin": 8859,
      "ought to have ": 8860,
      "feeling\n": 8861,
      "feeling, ": 8862,
      "man with ": 8863,
      "collar": 8864,
      "fai": 8865,
      "says, ": 8866,
      "because they ": 8867,
      "motiv": 8868,
      "them to ": 8869,
      "how much ": 8870,
      "supper": 8871,
      "'What's ": 8872,
      " there is ": 8873,
      "pictures": 8874,
      "Winston\n": 8875,
      "decent": 8876,
      "us to ": 8877,
      "live\n": 8878,
      ". It's ": 8879,
      "looked at the ": 8880,
      "barrel": 8881,
      ".  But I ": 8882,
      "breaking ": 8883,
      "horror ": 8884,
      "chees": 8885,
      "between\n": 8886,
      "all the while ": 8887,
      "five hundred ": 8888,
      "five pound": 8889,
      "corner, ": 8890,
      "believed ": 8891,
      "believed that ": 8892,
      "young\n": 8893,
      "nothing but ": 8894,
      "joke ": 8895,
      "U.G.T": 8896,
      "moving ": 8897,
      "dreary ": 8898,
      "mention ": 8899,
      "waiters ": 8900,
      "head and ": 8901,
      "towards\n": 8902,
      "Clover ": 8903,
      "heard the ": 8904,
      "sorry ": 8905,
      "simple ": 8906,
      ".  They had ": 8907,
      "moments ": 8908,
      "gave the ": 8909,
      "...": 8910,
      "past the ": 8911,
      "going to\n": 8912,
      "power to ": 8913,
      "ideolog": 8914,
      "sweet ": 8915,
      "sniff": 8916,
      "needs ": 8917,
      "past\n": 8918,
      "'That's ": 8919,
      "world\n": 8920,
      "Poor ": 8921,
      "those who ": 8922,
      "f course": 8923,
      "bull": 8924,
      "bullet": 8925,
      "ridicul": 8926,
      "presently": 8927,
      ". Of course ": 8928,
      "hyp": 8929,
      "written": 8930,
      "labyrin": 8931,
      "limb": 8932,
      "rising ": 8933,
      "weather ": 8934,
      "I don't know ": 8935,
      "comfortable ": 8936,
      "landscap": 8937,
      "at any rate, ": 8938,
      "person who ": 8939,
      "honest": 8940,
      "discovered that ": 8941,
      " there was no ": 8942,
      "tea and ": 8943,
      "at this moment": 8944,
      "Miss May": 8945,
      "petty ": 8946,
      "arrived ": 8947,
      "stream of ": 8948,
      "disappeared ": 8949,
      "chok": 8950,
      "a matter ": 8951,
      "rubbish": 8952,
      "tears ": 8953,
      "cutting ": 8954,
      "opinion ": 8955,
      "Flory\n": 8956,
      "favour ": 8957,
      "as though\n": 8958,
      "as though the ": 8959,
      "middle-aged ": 8960,
      "protec": 8961,
      "human beings ": 8962,
      "Newspeak": 8963,
      "ed-up ": 8964,
      "peculiar": 8965,
      "kilomet": 8966,
      "printed ": 8967,
      "amount of ": 8968,
      "faded ": 8969,
      "ahead of ": 8970,
      "celebr": 8971,
      "Look at ": 8972,
      "mirror": 8973,
      "sympa": 8974,
      "Oriental ": 8975,
      "concep": 8976,
      "Ba Se": 8977,
      "!_' ": 8978,
      "weapon": 8979,
      "a minute ": 8980,
      "sufficient ": 8981,
      "solid ": 8982,
      "possessed ": 8983,
      "Middle ": 8984,
      "jeal": 8985,
      "fruit": 8986,
      "method": 8987,
      "ami_": 8988,
      "UST ": 8989,
      "William": 8990,
      "SNOUT": 8991,
      "marmal": 8992,
      "hesit": 8993,
      "'S ": 8994,
      "DOR": 8995,
      "Good": 8996,
      "Leag": 8997,
      "Lord ": 8998,
      "M�": 8999,
      "Most ": 9000,
      "Squ": 9001,
      "TE": 9002,
      "Tru": 9003,
      "[* ": 9004,
      "a_": 9005,
      "ah ": 9006,
      "bam": 9007,
      "bow ": 9008,
      "cous": 9009,
      "cage ": 9010,
      "coup": 9011,
      "dump": 9012,
      "e:\n": 9013,
      "fed ": 9014,
      "gif": 9015,
      "hea": 9016,
      "hook": 9017,
      "hedge ": 9018,
      "ible": 9019,
      "jest ": 9020,
      "lli": 9021,
      "m, ": 9022,
      "moo": 9023,
      "mong": 9024,
      "mood": 9025,
      "nip": 9026,
      "oa": 9027,
      "obe": 9028,
      "pil": 9029,
      "pew": 9030,
      "packed ": 9031,
      "ruc": 9032,
      "s?\n": 9033,
      "sent\n": 9034,
      "t--": 9035,
      "tall": 9036,
      "tool": 9037,
      "uary ": 9038,
      "won ": 9039,
      "wri": 9040,
      "t was ": 9041,
      "ere": 9042,
      "ertain": 9043,
      "outw": 9044,
      " then": 9045,
      " thin ": 9046,
      " then, ": 9047,
      " these\n": 9048,
      "onet": 9049,
      ". R": 9050,
      ". From ": 9051,
      "orch": 9052,
      "orang": 9053,
      "ing'": 9054,
      "ing.'\n": 9055,
      "ingly, ": 9056,
      "ing things ": 9057,
      "arri": 9058,
      "and they ": 9059,
      "stout ": 9060,
      "stead ": 9061,
      "returned ": 9062,
      "ing me ": 9063,
      "to you ": 9064,
      "to pay ": 9065,
      "er in the ": 9066,
      "of our ": 9067,
      "eli": 9068,
      "elic": 9069,
      "he thought ": 9070,
      "it.  The ": 9071,
      "was un": 9072,
      "was no ": 9073,
      "was almost ": 9074,
      "es.  He ": 9075,
      "ateur": 9076,
      "libel": 9077,
      "best": 9078,
      "beaut": 9079,
      "in my\n": 9080,
      "in England": 9081,
      "you--": 9082,
      "ooz": 9083,
      "had left ": 9084,
      "on of ": 9085,
      "on one ": 9086,
      "tie ": 9087,
      "tight ": 9088,
      "I found ": 9089,
      "it seem": 9090,
      "it did not ": 9091,
      "unk": 9092,
      "rot ": 9093,
      ", and he had ": 9094,
      "amb": 9095,
      "seat": 9096,
      "seen the ": 9097,
      "ident ": 9098,
      "shell ": 9099,
      "should\n": 9100,
      "--or ": 9101,
      "as one ": 9102,
      "you had to ": 9103,
      "saus": 9104,
      "for one ": 9105,
      "or so ": 9106,
      "one has ": 9107,
      " that is ": 9108,
      "al of ": 9109,
      "in the morning": 9110,
      "truck": 9111,
      "try to ": 9112,
      "try and ": 9113,
      "He did not ": 9114,
      "spare ": 9115,
      "spong": 9116,
      "her own ": 9117,
      "connec": 9118,
      "connex": 9119,
      "congreg": 9120,
      "convic": 9121,
      "imit": 9122,
      "ed to a ": 9123,
      "more, ": 9124,
      "proles ": 9125,
      "; a ": 9126,
      "; he had ": 9127,
      "here's ": 9128,
      "draugh": 9129,
      "s. As ": 9130,
      "e.  You ": 9131,
      "e. S": 9132,
      "e. Th": 9133,
      "e. You ": 9134,
      "aval": 9135,
      "weep": 9136,
      "weight ": 9137,
      "weight": 9138,
      "somebody": 9139,
      "our own ": 9140,
      "estim": 9141,
      "greet": 9142,
      "smil": 9143,
      "fling ": 9144,
      "flung": 9145,
      "ancient ": 9146,
      "only be ": 9147,
      "bring": 9148,
      "two pound": 9149,
      "caused ": 9150,
      "time he ": 9151,
      "time I was ": 9152,
      "?  B": 9153,
      "if she ": 9154,
      ". Then": 9155,
      ". They\n": 9156,
      "mud ": 9157,
      "don't": 9158,
      "out, and ": 9159,
      "ations of ": 9160,
      "holy ": 9161,
      "a mile ": 9162,
      ", but I ": 9163,
      "When\n": 9164,
      "underground ": 9165,
      "crying ": 9166,
      "course, ": 9167,
      "awful ": 9168,
      "came the ": 9169,
      "ation was ": 9170,
      "everything, ": 9171,
      "feel the ": 9172,
      "attres": 9173,
      "don't you ": 9174,
      "faith ": 9175,
      "saying that ": 9176,
      "Comstock ": 9177,
      "round his ": 9178,
      "path ": 9179,
      "appli": 9180,
      "out of door": 9181,
      "side the ": 9182,
      "light\n": 9183,
      "possible\n": 9184,
      "Party\n": 9185,
      "decay": 9186,
      "intermin": 9187,
      "trip": 9188,
      "backward": 9189,
      "pile of ": 9190,
      "ated with ": 9191,
      "job\n": 9192,
      "ity and ": 9193,
      "ity of the ": 9194,
      "No, ": 9195,
      "ment, ": 9196,
      "look at the ": 9197,
      "half an hour ": 9198,
      "s--\n": 9199,
      "left, ": 9200,
      "five minut": 9201,
      "swarm": 9202,
      "distur": 9203,
      "pointing ": 9204,
      "through\n": 9205,
      "let the ": 9206,
      "twenty\n": 9207,
      "e--\n": 9208,
      "lines ": 9209,
[...]
